{
  "version": "1.0",
  "truncation": null,
  "padding": null,
  "added_tokens": [],
  "normalizer": null,
  "pre_tokenizer": {
    "type": "ByteLevel",
    "add_prefix_space": false,
    "trim_offsets": true,
    "use_regex": true
  },
  "post_processor": {
    "type": "ByteLevel",
    "add_prefix_space": true,
    "trim_offsets": false,
    "use_regex": true
  },
  "decoder": {
    "type": "ByteLevel",
    "add_prefix_space": true,
    "trim_offsets": true,
    "use_regex": true
  },
  "model": {
    "type": "BPE",
    "dropout": null,
    "unk_token": null,
    "continuing_subword_prefix": null,
    "end_of_word_suffix": null,
    "fuse_unk": false,
    "byte_fallback": false,
    "vocab": {
      "!": 0,
      "\"": 1,
      "#": 2,
      "$": 3,
      "%": 4,
      "&": 5,
      "'": 6,
      "(": 7,
      ")": 8,
      "*": 9,
      "+": 10,
      ",": 11,
      "-": 12,
      ".": 13,
      "/": 14,
      "0": 15,
      "1": 16,
      "2": 17,
      "3": 18,
      "4": 19,
      "5": 20,
      "6": 21,
      "7": 22,
      "8": 23,
      "9": 24,
      ":": 25,
      ";": 26,
      "<": 27,
      "=": 28,
      ">": 29,
      "?": 30,
      "@": 31,
      "A": 32,
      "B": 33,
      "C": 34,
      "D": 35,
      "E": 36,
      "F": 37,
      "G": 38,
      "H": 39,
      "I": 40,
      "J": 41,
      "K": 42,
      "L": 43,
      "M": 44,
      "N": 45,
      "O": 46,
      "P": 47,
      "Q": 48,
      "R": 49,
      "S": 50,
      "T": 51,
      "U": 52,
      "V": 53,
      "W": 54,
      "X": 55,
      "Y": 56,
      "Z": 57,
      "[": 58,
      "\\": 59,
      "]": 60,
      "^": 61,
      "_": 62,
      "`": 63,
      "a": 64,
      "b": 65,
      "c": 66,
      "d": 67,
      "e": 68,
      "f": 69,
      "g": 70,
      "h": 71,
      "i": 72,
      "j": 73,
      "k": 74,
      "l": 75,
      "m": 76,
      "n": 77,
      "o": 78,
      "p": 79,
      "q": 80,
      "r": 81,
      "s": 82,
      "t": 83,
      "u": 84,
      "v": 85,
      "w": 86,
      "x": 87,
      "y": 88,
      "z": 89,
      "{": 90,
      "|": 91,
      "}": 92,
      "~": 93,
      "¡": 94,
      "¢": 95,
      "£": 96,
      "¤": 97,
      "¥": 98,
      "¦": 99,
      "§": 100,
      "¨": 101,
      "©": 102,
      "ª": 103,
      "«": 104,
      "¬": 105,
      "®": 106,
      "¯": 107,
      "°": 108,
      "±": 109,
      "²": 110,
      "³": 111,
      "´": 112,
      "µ": 113,
      "¶": 114,
      "·": 115,
      "¸": 116,
      "¹": 117,
      "º": 118,
      "»": 119,
      "¼": 120,
      "½": 121,
      "¾": 122,
      "¿": 123,
      "À": 124,
      "Á": 125,
      "Â": 126,
      "Ã": 127,
      "Ä": 128,
      "Å": 129,
      "Æ": 130,
      "Ç": 131,
      "È": 132,
      "É": 133,
      "Ê": 134,
      "Ë": 135,
      "Ì": 136,
      "Í": 137,
      "Î": 138,
      "Ï": 139,
      "Ð": 140,
      "Ñ": 141,
      "Ò": 142,
      "Ó": 143,
      "Ô": 144,
      "Õ": 145,
      "Ö": 146,
      "×": 147,
      "Ø": 148,
      "Ù": 149,
      "Ú": 150,
      "Û": 151,
      "Ü": 152,
      "Ý": 153,
      "Þ": 154,
      "ß": 155,
      "à": 156,
      "á": 157,
      "â": 158,
      "ã": 159,
      "ä": 160,
      "å": 161,
      "æ": 162,
      "ç": 163,
      "è": 164,
      "é": 165,
      "ê": 166,
      "ë": 167,
      "ì": 168,
      "í": 169,
      "î": 170,
      "ï": 171,
      "ð": 172,
      "ñ": 173,
      "ò": 174,
      "ó": 175,
      "ô": 176,
      "õ": 177,
      "ö": 178,
      "÷": 179,
      "ø": 180,
      "ù": 181,
      "ú": 182,
      "û": 183,
      "ü": 184,
      "ý": 185,
      "þ": 186,
      "ÿ": 187,
      "Ā": 188,
      "ā": 189,
      "Ă": 190,
      "ă": 191,
      "Ą": 192,
      "ą": 193,
      "Ć": 194,
      "ć": 195,
      "Ĉ": 196,
      "ĉ": 197,
      "Ċ": 198,
      "ċ": 199,
      "Č": 200,
      "č": 201,
      "Ď": 202,
      "ď": 203,
      "Đ": 204,
      "đ": 205,
      "Ē": 206,
      "ē": 207,
      "Ĕ": 208,
      "ĕ": 209,
      "Ė": 210,
      "ė": 211,
      "Ę": 212,
      "ę": 213,
      "Ě": 214,
      "ě": 215,
      "Ĝ": 216,
      "ĝ": 217,
      "Ğ": 218,
      "ğ": 219,
      "Ġ": 220,
      "ġ": 221,
      "Ģ": 222,
      "ģ": 223,
      "Ĥ": 224,
      "ĥ": 225,
      "Ħ": 226,
      "ħ": 227,
      "Ĩ": 228,
      "ĩ": 229,
      "Ī": 230,
      "ī": 231,
      "Ĭ": 232,
      "ĭ": 233,
      "Į": 234,
      "į": 235,
      "İ": 236,
      "ı": 237,
      "Ĳ": 238,
      "ĳ": 239,
      "Ĵ": 240,
      "ĵ": 241,
      "Ķ": 242,
      "ķ": 243,
      "ĸ": 244,
      "Ĺ": 245,
      "ĺ": 246,
      "Ļ": 247,
      "ļ": 248,
      "Ľ": 249,
      "ľ": 250,
      "Ŀ": 251,
      "ŀ": 252,
      "Ł": 253,
      "ł": 254,
      "Ń": 255,
      "Ġà": 256,
      "Ġà¤": 257,
      "à¥": 258,
      "¤¾": 259,
      "à¤¾": 260,
      "à¤": 261,
      "à¥ĩ": 262,
      "à¤°": 263,
      "Ġà¤ķ": 264,
      "à¥į": 265,
      "à¥Ģ": 266,
      "à¤¿": 267,
      "à¤Ĥ": 268,
      "à¤¨": 269,
      "à¥ĭ": 270,
      "à¤¤": 271,
      "à¤ķ": 272,
      "à¤²": 273,
      "à¤¸": 274,
      "à¤¯": 275,
      "Ġà¤¸": 276,
      "Ġà¤¹": 277,
      "à¤¹": 278,
      "Ġà¤®": 279,
      "à¤®": 280,
      "Ġà¤ª": 281,
      "à¥ģ": 282,
      "à¥Ī": 283,
      "à¤µ": 284,
      "à¤¦": 285,
      "à¥ĩà¤Ĥ": 286,
      "à¤ª": 287,
      "à¤Ĺ": 288,
      "Ġà¤¬": 289,
      "Ġà¤¨": 290,
      "à¥¤": 291,
      "à¤ľ": 292,
      "Ġà¤ľ": 293,
      "à¤Ł": 294,
      "Ġà¤¦": 295,
      "Ġà¤ħ": 296,
      "Ġà¤µ": 297,
      "Ġà¤°": 298,
      "Ġà¤²": 299,
      "à¥ĭà¤Ĥ": 300,
      "à¤¬": 301,
      "à¥Ĥ": 302,
      "à¤¶": 303,
      "à¤ı": 304,
      "à¤¡": 305,
      "à¤ļ": 306,
      "Ġà¤Ĩ": 307,
      "Ġà¤Ĺ": 308,
      "Ġà¤¤": 309,
      "Ġà¤ķà¤°": 310,
      "Ġà¤Ń": 311,
      "à¤§": 312,
      "Ġà¤ī": 313,
      "à¤·": 314,
      "Ġà¤ĩ": 315,
      "Ġà¤ªà¤°": 316,
      "à¤Ī": 317,
      "Ġà¤Ķ": 318,
      "Ġà¤Ķà¤°": 319,
      "à¤¼": 320,
      "à¤¥": 321,
      "à¥Īà¤Ĥ": 322,
      "à¤¾à¤Ĥ": 323,
      "Ġà¤ļ": 324,
      "Ġà¤¶": 325,
      "à¤ĸ": 326,
      "Ġà¤¯": 327,
      "Ġà¤ı": 328,
      "à¥Īà¥¤": 329,
      "à¤£": 330,
      "à¤Ń": 331,
      "Ġà¤¥": 332,
      "Ġà¤°à¤¹": 333,
      "à¤«": 334,
      "Ġà¤ĩà¤¸": 335,
      "Ġà¤ĸ": 336,
      "à¥Ģà¤Ĥ": 337,
      "à¥Į": 338,
      "Ġà¤«": 339,
      "à¤ĩ": 340,
      "à¤ķà¤°": 341,
      "à¤¾à¥¤": 342,
      "à¤ªà¤¨": 343,
      "Ġà¤ıà¤ķ": 344,
      "à¤°à¤¤": 345,
      "Ġà¤¨à¤¹": 346,
      "Ġà¤ķà¤¹": 347,
      "Ġà¤īà¤¨": 348,
      "à¤¿à¤Ĥ": 349,
      "Ġà¤¸à¤®": 350,
      "à¤°à¤ķ": 351,
      "Ġà¤Ł": 352,
      "à¤Ľ": 353,
      "Ġà¤ħà¤ªà¤¨": 354,
      "Ġà¤ķà¤°à¤¨": 355,
      "à¥ī": 356,
      "à¤Ĩ": 357,
      "à¤ł": 358,
      "Ġà¤Ĺà¤¯": 359,
      "Ġà¤¯à¤¹": 360,
      "à¥Īà¤Ĥà¥¤": 361,
      "Ġà¤¡": 362,
      "Ġ1": 363,
      "Ġà¤īà¤¸": 364,
      "Ġà¤ªà¤¹": 365,
      "à¥Ģà¥¤": 366,
      "Ġ2": 367,
      "Ġà¤²à¤Ĺ": 368,
      "Ġà¤ĺ": 369,
      "Ġà¤¬à¤¨": 370,
      "à¤¤à¤°": 371,
      "à¤ĩà¤¸": 372,
      "à¤¯à¤ķ": 373,
      "Ġà¤®à¤¹": 374,
      "à¤µà¤°": 375,
      "à¤ī": 376,
      "Ġà¤¸à¤ķ": 377,
      "à¤ľà¤¨": 378,
      "Ġà¤ħà¤¨": 379,
      "à¤ĵ": 380,
      "à¥ĥ": 381,
      "à¥ĩà¥¤": 382,
      "Ġà¤ħà¤§": 383,
      "à¥ľ": 384,
      "Ġà¤¹à¤®": 385,
      "à¤°à¤¦": 386,
      "Ġà¤Ľ": 387,
      "Ġà¤Ĩà¤ª": 388,
      "Ġà¤µà¤¹": 389,
      "Ġà¤§": 390,
      "à¤¢": 391,
      "à¤¸à¤°": 392,
      "à¤¹à¤°": 393,
      "à¤Łà¤°": 394,
      "à¤ħ": 395,
      "à¤Ĺà¤°": 396,
      "à¤¶à¤¨": 397,
      "Ġà¤¤à¤ķ": 398,
      "Ġà¤īà¤¨à¤ķ": 399,
      "Ġà¤ķà¤°à¤¤": 400,
      "à¤¼à¤¾": 401,
      "Ġà¤ªà¤¹à¤²": 402,
      "Ġà¤¸à¤ķà¤¤": 403,
      "à¤°à¤®": 404,
      "Ġà¤¸à¤°à¤ķ": 405,
      "Ġà¤Ĺà¤Ī": 406,
      "Ġà¤¤à¤°": 407,
      "à¤²à¤¨": 408,
      "à¤¬à¤°": 409,
      "à¤²à¤¤": 410,
      "à¥ģà¤Ĥ": 411,
      "Ġà¤¬à¤¤": 412,
      "Ġà¤ķà¤®": 413,
      "à¤¯à¤°": 414,
      "Ġà¤µà¤°": 415,
      "à¤°à¤£": 416,
      "à¤ªà¤°": 417,
      "à¤¨à¤ķ": 418,
      "à¤Ŀ": 419,
      "Ġà¤Ĳ": 420,
      "à¤¯à¤®": 421,
      "Ġ20": 422,
      "à¤°à¤µ": 423,
      "à¤®à¤²": 424,
      "Ġà¤ľà¤¬": 425,
      "Ġà¤Ĩà¤°": 426,
      "à¤ģ": 427,
      "à¤¼à¥Ģ": 428,
      "à¤°à¤¸": 429,
      "Ġà¤īà¤¸à¤ķ": 430,
      "Ġà¤ªà¤¤": 431,
      "Ġà¤Ĩà¤¯": 432,
      "à¤®à¤¨": 433,
      "à¤ĺ": 434,
      "Ġà¤īà¤ª": 435,
      "à¤¤à¤¨": 436,
      "Ġà¥": 437,
      "à¤¸à¤²": 438,
      "Ġà¤Ĺà¤ı": 439,
      "à¤µà¤¨": 440,
      "Ġà¤¸à¤¬": 441,
      "à¤Łà¤¨": 442,
      "Ġà¤ĩà¤¸à¤ķ": 443,
      "Ġà¤¬à¤¹": 444,
      "Ġà¤Ĳà¤¸": 445,
      "Ġà¤°à¤ĸ": 446,
      "à¤ľà¤°": 447,
      "Ġà¤¸à¤¹": 448,
      "à¤¹à¤¤": 449,
      "Ġà¤ľà¤¨": 450,
      "Ġà¤ħà¤¬": 451,
      "Ġà¤¬à¤ļ": 452,
      "à¤ªà¤¤": 453,
      "Ġà¤ħà¤²": 454,
      "Ġà¤ĵ": 455,
      "Ġà¤¦à¤°": 456,
      "Ġ3": 457,
      "Ġà¤ĩà¤¨": 458,
      "Ġà¤ħà¤Ń": 459,
      "00": 460,
      "à¤¯à¤¤": 461,
      "Ġà¤¹à¤°": 462,
      "Ġà¤Ĩà¤ľ": 463,
      "Ġà¤¤à¤°à¤¹": 464,
      "à¤īà¤¨": 465,
      "à¤¼à¥ĩ": 466,
      "à¤¦à¤°": 467,
      "à¤¸à¤®": 468,
      "Ġà¤ļà¤²": 469,
      "Ġà¤¸à¤®à¤¯": 470,
      "Ġà¤īà¤¤": 471,
      "à¤ıà¤Ĺ": 472,
      "Ġà¤Ĩà¤ªà¤ķ": 473,
      "à¤²à¤¯": 474,
      "à¤Ĺà¤²": 475,
      "Ġà¤¸à¤Ń": 476,
      "à¤·à¤£": 477,
      "à¤µà¤¸": 478,
      "à¤®à¤¤": 479,
      "Ġà¤ķà¤Ī": 480,
      "à¤ķà¤²": 481,
      "à¤ıà¤¸": 482,
      "à¤¸à¤¨": 483,
      "Ġà¤®à¤¨": 484,
      "à¤¸à¤ķ": 485,
      "Ġà¤¬à¤¢": 486,
      "Ġà¤Ĩà¤¤": 487,
      "à¤ļà¤¨": 488,
      "à¤ĩà¤¨": 489,
      "Ġà¤¸à¤°": 490,
      "Ġà¤Ĩà¤¦": 491,
      "à¤¯à¤¨": 492,
      "Ġà¤Ŀ": 493,
      "Ġ201": 494,
      "Ġà¤ĳ": 495,
      "à¥Ĥà¤Ĥ": 496,
      "Ġà¤ħà¤®": 497,
      "à¤Ĺà¤¤": 498,
      "à¤¸à¤¦": 499,
      "à¤ľà¤ª": 500,
      "Ġà¤ĺà¤°": 501,
      "Ġà¤ľà¤°": 502,
      "Ġ5": 503,
      "Ġà¤ł": 504,
      "Ġà¤¬à¤¡": 505,
      "Ġà¤ıà¤µ": 506,
      "Ġà¤¶à¤°": 507,
      "Ġà¤ħà¤¸": 508,
      "à¤ıà¤®": 509,
      "à¤µà¤¤": 510,
      "Ġà¤Ĩà¤Ī": 511,
      "Ġà¤¤à¤¥": 512,
      "à¤Ĩà¤Ī": 513,
      "Ġà¤¬à¤²": 514,
      "à¤¦à¤¨": 515,
      "Ġ4": 516,
      "Ġà¤ªà¤¡": 517,
      "Ġà¤Ńà¤°": 518,
      "à¤¾à¤ģ": 519,
      "à¤ªà¤¯": 520,
      "Ġà¤ħà¤°": 521,
      "à¤¯à¤¹": 522,
      "à¤¹à¤¨": 523,
      "Ġà¤Ĩà¤Ĺ": 524,
      "Ġà¤ħà¤µ": 525,
      "à¤ĩà¤¸à¤ķ": 526,
      "à¤ķà¤¤": 527,
      "Ġà¤Ĩà¤¨": 528,
      "à¤µà¤²": 529,
      "à¤ŀ": 530,
      "à¤°à¤§": 531,
      "Ġà¥¤": 532,
      "Ġà¤ħà¤ļ": 533,
      "Ġà¤¸à¤¬à¤¸": 534,
      "à¤§à¤¨": 535,
      "à¤¸à¤Ń": 536,
      "Ġà¤ľà¤®": 537,
      "à¤ĸà¤¨": 538,
      "à¤¨à¤®": 539,
      "à¤°à¤¶": 540,
      "à¤ªà¤ķ": 541,
      "à¤¹à¤®": 542,
      "Ġà¤īà¤®": 543,
      "à¤¯à¤²": 544,
      "Ġà¤Ĩà¤µ": 545,
      "Ġà¤ķà¤²": 546,
      "Ġà¤ªà¤¦": 547,
      "Ġà¤¬à¤¦": 548,
      "à¤¨à¤¤": 549,
      "à¥Ŀ": 550,
      "à¤®à¤ķ": 551,
      "Ġà¤ĸà¤°": 552,
      "à¤¬à¤²": 553,
      "à¤µà¤¹": 554,
      "Ġà¤ķà¤ª": 555,
      "à¤°à¤Ń": 556,
      "à¤²à¤¬": 557,
      "à¤Ľà¤²": 558,
      "Ġà¤Ī": 559,
      "Ġà¤Ĩà¤§": 560,
      "Ġà¤¬à¤ľ": 561,
      "à¤°à¤¨": 562,
      "Ġà¤ıà¤¸": 563,
      "à¤²à¤ķ": 564,
      "Ġà¤ħà¤ª": 565,
      "Ġà¤ľà¤²": 566,
      "Ġ6": 567,
      "à¤¶à¤ķ": 568,
      "Ġà¤ħà¤ķ": 569,
      "à¤³": 570,
      "Ġà¤īà¤ł": 571,
      "Ġà¤ĵà¤°": 572,
      "à¤¦à¤µ": 573,
      "à¤¤à¤ķ": 574,
      "à¤°à¤¹": 575,
      "à¥ĩà¤Ĥà¥¤": 576,
      "à¤ľà¤¬": 577,
      "à¤Łà¤²": 578,
      "à¤Łà¤ķ": 579,
      "à¤¯à¤¦": 580,
      "Ġà¤īà¤¦": 581,
      "Ġà¤¸à¤¤": 582,
      "à¤¦à¤¸": 583,
      "à¤ľà¤²": 584,
      "à¤ľà¤¹": 585,
      "Ġà¤ªà¤ķ": 586,
      "Ġà¤¹à¤ľ": 587,
      "Ġ19": 588,
      "Ġà¤ĩà¤²": 589,
      "à¤®à¤°": 590,
      "Ġ10": 591,
      "à¤¡à¤²": 592,
      "Ġà¤¸à¤®à¤Ŀ": 593,
      "Ġà¤Ĩà¤¹": 594,
      "Ġà¤¬à¤°": 595,
      "à¤¡à¤°": 596,
      "Ġà¤²à¤¡": 597,
      "Ġ7": 598,
      "Ġà¤°à¤¹à¤¤": 599,
      "Ġà¤ľà¤¹": 600,
      "à¤°à¤¯": 601,
      "Ġà¤ľà¤Ĺ": 602,
      "Ġà¤ħà¤Ĺà¤°": 603,
      "à¤¼à¤¿": 604,
      "Ġà¤ķà¤¹à¤¨": 605,
      "à¤¨à¤¨": 606,
      "à¤ľà¤¯": 607,
      "Ġà¤Ĺà¤°": 608,
      "Ġà¤¤à¤¬": 609,
      "Ġà¤¸à¤ļ": 610,
      "à¤µà¤ķ": 611,
      "à¤¸à¤ª": 612,
      "Ġà¤®à¤¤": 613,
      "Ġà¤¸à¤«": 614,
      "à¤²à¤°": 615,
      "à¤Ĩà¤°": 616,
      "Ġà¤¦à¤²": 617,
      "Ġà¤¸à¤µ": 618,
      "Ġà¤Ĭ": 619,
      "à¤®à¤ļ": 620,
      "à¤°à¤¦à¤°": 621,
      "Ġà¤ħà¤¤": 622,
      "Ġà¤¶à¤¹à¤°": 623,
      "à¤ªà¤ı": 624,
      "à¤Ĭ": 625,
      "à¤łà¤ķ": 626,
      "à¤·à¤ķ": 627,
      "à¤¨à¤µ": 628,
      "à¤ķà¤°à¤£": 629,
      "Ġà¤ĺà¤Łà¤¨": 630,
      "Ġ8": 631,
      "à¤¨à¤°": 632,
      "Ġà¤°à¤¹à¤¨": 633,
      "Ġà¤®à¤¦": 634,
      "à¤¯à¤µà¤¸": 635,
      "à¤ıà¤ķ": 636,
      "à¤¹à¤²": 637,
      "à¤§à¤°": 638,
      "Ġà¤¬à¤¸": 639,
      "à¤ĩà¤²": 640,
      "Ġà¤°à¤¨": 641,
      "à¥Ľ": 642,
      "Ġà¤µà¤ľà¤¹": 643,
      "Ġà¤ľà¤µ": 644,
      "à¤¦à¤®": 645,
      "à¤ķà¤¨": 646,
      "Ġà¤«à¤°": 647,
      "Ġà¤Ĩà¤ı": 648,
      "Ġà¤¨à¤µ": 649,
      "Ġà¤Ĩà¤®": 650,
      "Ġà¤¬à¤¦à¤²": 651,
      "Ġà¤ľà¤¬à¤ķ": 652,
      "à¤¯à¤ª": 653,
      "Ġà¤ħà¤²à¤Ĺ": 654,
      "Ġà¤ħà¤Ĺ": 655,
      "à¤ĩà¤Ł": 656,
      "à¤ªà¤¸": 657,
      "à¤¨à¤²": 658,
      "à¤²à¤µ": 659,
      "Ġà¤¢": 660,
      "Ġ12": 661,
      "à¤¤à¤®": 662,
      "Ġ15": 663,
      "à¤°à¤ª": 664,
      "Ġà¤°à¤µ": 665,
      "Ġà¤Ĩà¤²": 666,
      "à¤®à¤¦": 667,
      "Ġà¤¨à¤ľà¤°": 668,
      "Ġà¤ķà¤Ń": 669,
      "Ġà¤ĩà¤¸à¤¸": 670,
      "Ġà¤¨à¤°": 671,
      "Ġà¤ļà¤²à¤¤": 672,
      "Ġ9": 673,
      "Ġà¤ľà¤Ĺà¤¹": 674,
      "Ġà¤Ĩà¤¶": 675,
      "à¤ķà¤¸": 676,
      "Ġà¤¸à¤®à¤¸": 677,
      "Ġà¤ľà¤¨à¤¤": 678,
      "Ġà¤§à¤°": 679,
      "à¤°à¤¬": 680,
      "Ġà¤¹à¤®à¤²": 681,
      "à¤°à¤«": 682,
      "à¤łà¤¨": 683,
      "Ġà¤µà¤ķ": 684,
      "à¤¬à¤¹": 685,
      "Ġà¤¤à¤¹à¤¤": 686,
      "à¤¬à¤¤": 687,
      "Ġà¤ªà¤¢": 688,
      "à¤¶à¤¤": 689,
      "Ġà¤ĩà¤¸à¤²": 690,
      "Ġà¤²à¤Ĺà¤¤": 691,
      "à¤ļà¤°": 692,
      "Ġà¤ĳà¤«": 693,
      "Ġà¤¸à¤¦à¤¸": 694,
      "Ġà¤ĩà¤¤à¤¨": 695,
      "20": 696,
      "Ġà¤ıà¤¨": 697,
      "à¤¶à¤²": 698,
      "Ġà¤ķà¤¹à¤¤": 699,
      "Ġà¤ļà¤°": 700,
      "à¤ĸà¤¤": 701,
      "à¤¸à¤¸": 702,
      "à¤ķà¤¡": 703,
      "à¤ķà¤Ł": 704,
      "à¤¬à¤Ī": 705,
      "à¤ľà¤¸": 706,
      "Ġà¤¸à¤²": 707,
      "Ġà¤°à¤ĸà¤¨": 708,
      "Ġà¤¤à¤°à¤«": 709,
      "Ġà¤ķà¤°à¤µ": 710,
      "Ġà¤¸à¤®à¤°": 711,
      "Ġà¤®à¤§": 712,
      "Ġà¤¨à¤Ĺà¤°": 713,
      "Ġ11": 714,
      "à¤Ĳ": 715,
      "à¤¨à¤¦": 716,
      "à¥Ģà¤Ĥà¥¤": 717,
      "Ġà¤Ĩà¤¸": 718,
      "Ġà¤¹à¤¤": 719,
      "Ġà¤®à¤¦à¤¦": 720,
      "Ġà¤ķà¤°à¤ķ": 721,
      "à¤ıà¤²": 722,
      "à¤¨à¤¸à¤Ń": 723,
      "à¤Ĩà¤¤": 724,
      "Ġà¤ħà¤¦": 725,
      "Ġà¤īà¤¸à¤¨": 726,
      "à¤§à¤µ": 727,
      "à¤¤à¤µ": 728,
      "Ġà¤¬à¥ľ": 729,
      "Ġà¤ıà¤®": 730,
      "à¤ļà¤²": 731,
      "Ġà¤®à¤¹à¤¤": 732,
      "à¤Ĺà¤µ": 733,
      "Ġà¤ħà¤«": 734,
      "à¤°à¤²": 735,
      "Ġ200": 736,
      "Ġà¤²à¤ķ": 737,
      "à¤¥à¤¨": 738,
      "Ġ|": 739,
      "Ġà¤ĩà¤¨à¤ķ": 740,
      "Ġà¤¬à¤¯": 741,
      "à¤®à¤µ": 742,
      "à¤¨à¤¸": 743,
      "à¤²à¤ķà¤°": 744,
      "Ġà¤®à¤°": 745,
      "Ġà¤īà¤ļ": 746,
      "à¤Łà¤®": 747,
      "Ġà¤¸à¤ª": 748,
      "à¤µà¤ľ": 749,
      "à¤Ĺà¤¢": 750,
      "Ġà¤ĩà¤¸à¤®": 751,
      "à¤Ĺà¤¨": 752,
      "à¤¸à¤¤": 753,
      "à¤ĥ": 754,
      "Ġà¤ĸà¤¬à¤°": 755,
      "à¤Ĺà¤®": 756,
      "Ġà¤°à¤ķ": 757,
      "Ġà¤¬à¥Ŀ": 758,
      "Ġà¤¨à¤¯": 759,
      "à¤µà¤ª": 760,
      "à¤¬à¤¸": 761,
      "à¤¹à¤¤à¤°": 762,
      "à¤Ńà¤Ĺ": 763,
      "à¤ĩà¤ķ": 764,
      "à¤¦à¤Ĺ": 765,
      "Ġà¤¨à¤ı": 766,
      "Ġà¤¨à¤Ī": 767,
      "à¤°à¤ľ": 768,
      "à¤Ĳà¤¸": 769,
      "à¤ħà¤¬": 770,
      "à¤Ńà¤µ": 771,
      "à¥Įà¤Ĥ": 772,
      "Ġà¤ªà¥ľ": 773,
      "à¤°à¤ªà¤¤": 774,
      "à¤ıà¤¨": 775,
      "Ġ25": 776,
      "Ġà¤¯à¤¦": 777,
      "à¤¸à¤µ": 778,
      "à¥Ĥà¤ģ": 779,
      "à¤ľà¤Ĺ": 780,
      "Ġà¤®à¤ľà¤¬": 781,
      "Ġà¤¹à¤µ": 782,
      "Ġà¤²à¤Ĺà¤Ńà¤Ĺ": 783,
      "Ġà¤ħà¤ĸ": 784,
      "Ġà¤ħà¤¶": 785,
      "Ġà¤ķà¤¬": 786,
      "à¤Ĺà¤łà¤¨": 787,
      "Ġ18": 788,
      "Ġà¤īà¤ªà¤²à¤¬": 789,
      "Ġà¤®à¤ľ": 790,
      "à¤·à¤¯": 791,
      "à¤ĺà¤°": 792,
      "Ġ14": 793,
      "Ġà¤§à¤¨": 794,
      "à¤¹à¤¸": 795,
      "à¤¹à¤¦": 796,
      "à¤ıà¤«": 797,
      "Ġà¤¦à¤¬": 798,
      "Ġà¤¤à¤¸": 799,
      "à¤²à¤Ĺ": 800,
      "à¤¥à¤®": 801,
      "Ġà¤īà¤²": 802,
      "à¤Ńà¤°": 803,
      "à¤¼à¥ĭà¤Ĥ": 804,
      "Ġà¤ªà¤¶": 805,
      "à¤ĩà¤¸à¤¸": 806,
      "à¤ĸà¤°": 807,
      "à¤¨à¤Ī": 808,
      "à¤¯à¤ķà¤°": 809,
      "Ġà¤¸à¤¡": 810,
      "Ġ30": 811,
      "Ġà¤ħà¤Ĺà¤²": 812,
      "Ġà¤¤à¤²": 813,
      "Ġà¤ıà¤ľ": 814,
      "à¤ķà¤µ": 815,
      "Ġà¤ħà¤µà¤¸à¤°": 816,
      "Ġà¤¶à¤ķ": 817,
      "Ġ13": 818,
      "à¤īà¤¨à¤ķ": 819,
      "à¤·à¤¦": 820,
      "Ġà¤®à¤¸": 821,
      "à¤ľà¤®": 822,
      "à¤®à¤¹": 823,
      "à¤¥à¤²": 824,
      "à¤ķà¤¸à¤Ń": 825,
      "à¤¦à¤²": 826,
      "Ġà¤¦à¤¸": 827,
      "à¤°à¤ļ": 828,
      "Ġà¤ĸà¤¡": 829,
      "Ġà¤¤à¤¯": 830,
      "Ġà¤¨à¤ķ": 831,
      "à¤īà¤¸": 832,
      "à¤ľà¤ķ": 833,
      "Ġà¤Ĩà¤ķ": 834,
      "Ġà¤ķà¤Ł": 835,
      "Ġà¤ħà¤¹à¤®": 836,
      "à¤²à¤¸": 837,
      "à¤¯à¤µ": 838,
      "à¥ĭà¥¤": 839,
      "Ġà¤ķà¤¶": 840,
      "à¤ªà¤²": 841,
      "Ġà¤µà¤¸": 842,
      "Ġ16": 843,
      "Ġà¤ªà¤Ł": 844,
      "Ġà¤Ĺà¤¤": 845,
      "Ġà¤ªà¤¸": 846,
      "à¤°à¤ĸ": 847,
      "Ġà¤Ĺà¤²à¤¤": 848,
      "à¤¬à¤¨": 849,
      "Ġà¤¶à¤¨": 850,
      "à¥ľà¤ķ": 851,
      "Ġà¤µà¤¨": 852,
      "Ġà¤¹à¤Ł": 853,
      "à¤Ĺà¤²à¤µ": 854,
      "à¤Ĩà¤ľ": 855,
      "000": 856,
      "à¤ªà¤£": 857,
      "Ġà¤ħà¤ªà¤°": 858,
      "à¤¤à¤²": 859,
      "Ġà¤¤à¤¤": 860,
      "Ġà¤ªà¤°à¤®": 861,
      "Ġà¤®à¤¤à¤¦": 862,
      "Ġà¤Ńà¤Ĺà¤µ": 863,
      "à¤·à¤¤": 864,
      "à¤¶à¤¨à¤²": 865,
      "Ġà¤¤à¤®": 866,
      "Ġà¤Ĩà¤ĸ": 867,
      "Ġ50": 868,
      "Ġà¤ķà¤¦à¤®": 869,
      "Ġà¤¸à¤ľ": 870,
      "Ġà¤¬à¤¨à¤¨": 871,
      "Ġà¤ķà¤¨": 872,
      "à¤²à¤®": 873,
      "à¤¯à¤¸": 874,
      "Ġà¤Ĭà¤ªà¤°": 875,
      "Ġà¤īà¤ªà¤¯": 876,
      "à¤µà¤µ": 877,
      "Ġà¤ħà¤ľ": 878,
      "Ġà¤ķà¤µ": 879,
      "Ġà¤Ĩà¤µà¤¶": 880,
      "Ġà¤¸à¤¹à¤¯": 881,
      "Ġà¤ĸà¤¤": 882,
      "Ġ17": 883,
      "à¤¤à¤ļ": 884,
      "Ġà¤ľà¤¨à¤µà¤°": 885,
      "Ġà¤ªà¤¹à¤ļ": 886,
      "à¤¼à¥ĭ": 887,
      "Ġà¤°à¤ĸà¤¤": 888,
      "à¤«à¤°": 889,
      "à¤¹à¤ķ": 890,
      "Ġà¤ĩà¤¤": 891,
      "à¤Ĥà¥¤": 892,
      "à¤ľà¤µ": 893,
      "à¤Ľà¤¤": 894,
      "à¥ħ": 895,
      "à¤ļà¤ķ": 896,
      "Ġà¤¹à¤²": 897,
      "à¤µà¤Ł": 898,
      "Ġà¤¦à¤ķ": 899,
      "à¤ħà¤Ĺà¤°": 900,
      "Ġ21": 901,
      "à¤¦à¤ķ": 902,
      "Ġà¤Ńà¤µ": 903,
      "à¥¦": 904,
      "à¤µà¤¯": 905,
      "à¤¨à¤ª": 906,
      "à¤Ĺà¤¡": 907,
      "Ġà¤ıà¤²": 908,
      "Ġà¤°à¤£": 909,
      "à¤¦à¤¬": 910,
      "Ġà¤ķà¤°à¤£": 911,
      "à¤£à¤¯": 912,
      "Ġà¤¶à¤¬": 913,
      "Ġà¤¸à¤¨": 914,
      "Ġ24": 915,
      "à¤®à¤ª": 916,
      "Ġà¤ıà¤¡": 917,
      "à¤¨à¤Ĺà¤°": 918,
      "Ġà¤®à¤²": 919,
      "Ġà¤īà¤ªà¤¸": 920,
      "à¤¨à¤Ł": 921,
      "Ġà¤Ĩà¤ķà¤°": 922,
      "Ġà¤ľà¤¤": 923,
      "Ġà¤ħà¤¸à¤²": 924,
      "Ġà¤īà¤¸à¤¸": 925,
      "Ġà¤®à¤ķ": 926,
      "à¤ħà¤¸à¤²": 927,
      "à¤ķà¤ª": 928,
      "à¤®à¤¸": 929,
      "Ġà¤Ĺà¤£": 930,
      "à¤ħà¤ªà¤¨": 931,
      "à¤¥à¤µ": 932,
      "Ġà¤ħà¤Ĺà¤¸": 933,
      "à¤²à¤¹": 934,
      "Ġà¤ªà¤²": 935,
      "Ġà¤Ľà¤¹": 936,
      "Ġà¤°à¤¸": 937,
      "à¤®à¤§": 938,
      "Ġà¤¸à¤¬à¤ķ": 939,
      "Ġà¤®à¤¶": 940,
      "à¤¸à¤ļ": 941,
      "Ġà¤ħà¤®à¤°": 942,
      "à¥ŀ": 943,
      "Ġà¤ıà¤¯à¤°": 944,
      "Ġà¤ħà¤°à¤¬": 945,
      "à¤¼à¥į": 946,
      "à¤µà¤°à¤£": 947,
      "Ġà¤Ĩà¤ł": 948,
      "Ġ100": 949,
      "Ġà¤¨à¤¦": 950,
      "Ġà¤Ĩà¤¦à¤®": 951,
      "à¤¼à¥ĩà¤Ĥ": 952,
      "Ġ0": 953,
      "à¤ĩà¤¯": 954,
      "Ġ22": 955,
      "Ġà¤ĩà¤ķ": 956,
      "à¤µà¤§": 957,
      "Ġà¤īà¤¨à¤¸": 958,
      "Ġ2018": 959,
      "Ġà¤®à¤Ī": 960,
      "Ġà¤Ĺà¤ł": 961,
      "à¤ĩà¤¡": 962,
      "Ġà¤ķà¤¡": 963,
      "Ġà¤ĸà¤¤à¤°": 964,
      "à¤¸à¤¬": 965,
      "à¤µà¤ļ": 966,
      "Ġà¤ĭ": 967,
      "à¤ªà¤Ł": 968,
      "Ġà¤ķà¤¥": 969,
      "Ġà¤ªà¤ķà¤¡": 970,
      "à¤¡à¤¨": 971,
      "à¤ĩà¤¸à¤®": 972,
      "à¤°à¤·": 973,
      "Ġà¤īà¤¤à¤°": 974,
      "à¤ĸà¤ķà¤°": 975,
      "Ġà¤¹à¤®à¤¨": 976,
      "Ġà¤¹à¤¸": 977,
      "Ġà¤ĵà¤µà¤°": 978,
      "à¤ľà¤¦": 979,
      "19": 980,
      "Ġà¤ħà¤¸à¤°": 981,
      "à¤ıà¤ļ": 982,
      "Ġ23": 983,
      "Ġà¤ĺà¤Ł": 984,
      "à¤ĸà¤²": 985,
      "à¤ªà¤·": 986,
      "Ġà¥Ľ": 987,
      "à¤Ĺà¤¦": 988,
      "à¤§à¤ķ": 989,
      "à¤ĩà¤®": 990,
      "à¤ħà¤®": 991,
      "à¤īà¤¤": 992,
      "Ġà¤ªà¥Ŀ": 993,
      "à¤®à¤Ĺ": 994,
      "à¤¥à¤ķ": 995,
      "à¤¤à¤ľ": 996,
      "Ġà¤Ĺà¤²": 997,
      "Ġà¤¤à¤¨": 998,
      "Ġ!": 999,
      "à¥Ĥà¤Ĥà¥¤": 1000,
      "Ġ40": 1001,
      "à¤ĩà¤¨à¤²": 1002,
      "à¤Łà¤¬": 1003,
      "à¤ĩà¤µ": 1004,
      "à¤¸à¤°à¤ķ": 1005,
      "Ġ2019": 1006,
      "à¤ķà¤®": 1007,
      "à¤Ķ": 1008,
      "Ġà¤īà¤¸à¤®": 1009,
      "Ġà¤¸à¤«à¤²à¤¤": 1010,
      "à¤ĺà¤Łà¤¨": 1011,
      "à¤¥à¤°": 1012,
      "Ġà¤īà¤¡": 1013,
      "à¤ľà¤¤": 1014,
      "à¤¨à¤ķà¤°": 1015,
      "Ġà¤ľà¤¯": 1016,
      "à¤ªà¤¦": 1017,
      "Ġà¤«à¤°à¤µà¤°": 1018,
      "Ġà¤¬à¤ľà¤Ł": 1019,
      "à¤ļà¤¤": 1020,
      "Ġà¤ķà¤®à¤°": 1021,
      "à¤®à¤¯": 1022,
      "Ġà¤¶à¤µ": 1023,
      "Ġ26": 1024,
      "à¤°à¤Ĺ": 1025,
      "à¤¬à¤¦": 1026,
      "Ġà¤¸à¤«à¤²": 1027,
      "Ġà¤Ńà¤²": 1028,
      "Ġ28": 1029,
      "à¤ĸà¤¨à¤Ĭ": 1030,
      "à¤¶à¤°": 1031,
      "à¤Łà¤°à¤¨": 1032,
      "Ġà¤ĩà¤®": 1033,
      "à¤·à¤®à¤¤": 1034,
      "à¤¸à¤²à¤®": 1035,
      "Ġà¤ķà¤¸": 1036,
      "Ġà¤¦à¤µ": 1037,
      "à¤Łà¤«": 1038,
      "Ġà¤ıà¤«": 1039,
      "à¤ľà¤§": 1040,
      "à¤ªà¤®": 1041,
      "50": 1042,
      "Ġà¤īà¤°": 1043,
      "à¤Ĩà¤ªà¤ķ": 1044,
      "Ġà¤ļà¤°à¤£": 1045,
      "Ġà¤®à¤ļ": 1046,
      "Ġ2017": 1047,
      "à¤ķà¤¶": 1048,
      "à¤®à¤£": 1049,
      "à¤Ĺà¤£": 1050,
      "Ġ27": 1051,
      "Ġà¤¸à¤¦": 1052,
      "à¤¥à¤¸": 1053,
      "à¤µà¤¶": 1054,
      "Ġà¤¶à¤¹": 1055,
      "à¤«à¤²": 1056,
      "Ġà¤Ľà¤¤": 1057,
      "à¤īà¤Ł": 1058,
      "Ġà¤Īà¤°": 1059,
      "à¤¶à¤µ": 1060,
      "à¤ħà¤¨": 1061,
      "à¤²à¤¦": 1062,
      "Ġà¤ļà¤²à¤¨": 1063,
      "à¤Ĺà¤ľ": 1064,
      "Ġà¤ļà¤ķ": 1065,
      "à¤°à¤¹à¤£": 1066,
      "à¤ĩà¤ľ": 1067,
      "Ġà¤®à¤Ĺà¤°": 1068,
      "Ġ31": 1069,
      "Ġà¤¡à¤°": 1070,
      "à¤¸à¤ķà¤°": 1071,
      "à¤¡à¤µ": 1072,
      "à¤§à¤¤": 1073,
      "Ġà¤Ĩà¤°à¤ķ": 1074,
      "à¤ħà¤²à¤Ĺ": 1075,
      "Ġà¤¤à¤ķà¤¨": 1076,
      "Ġà¤ħà¤µà¤§": 1077,
      "à¤¡à¤ķ": 1078,
      "Ġà¤Ńà¤µà¤¨": 1079,
      "à¤ªà¤¹à¤²": 1080,
      "Ġà¤Ĩà¤¸à¤ª": 1081,
      "à¤Ķà¤°": 1082,
      "Ġà¤®à¤¹à¤¸": 1083,
      "à¤ħà¤Ń": 1084,
      "à¤ħà¤°": 1085,
      "à¤¤à¤°à¤°": 1086,
      "à¤¬à¤¡": 1087,
      "Ġà¤¸à¤¸": 1088,
      "à¤īà¤¸à¤ķ": 1089,
      "Ġà¤ªà¤µ": 1090,
      "à¤²à¤ļ": 1091,
      "à¤¯à¤°à¤²": 1092,
      "à¤°à¤¥à¤®": 1093,
      "à¤°à¤®à¤£": 1094,
      "Ġ199": 1095,
      "Ġà¤¨à¤®": 1096,
      "à¤·à¤®": 1097,
      "Ġà¤¹à¤¥": 1098,
      "à¤¨à¤¯": 1099,
      "à¤Īà¤ķ": 1100,
      "à¤ıà¤¸à¤ª": 1101,
      "10": 1102,
      "Ġà¤ĩà¤ľ": 1103,
      "Ġà¤¬à¤¹à¤¨": 1104,
      "à¤¦à¤°à¤ħà¤¸à¤²": 1105,
      "Ġà¤¤à¤Ń": 1106,
      "à¤¡à¤¸": 1107,
      "Ġà¤ıà¤¶": 1108,
      "à¤¯à¤ķà¤¤": 1109,
      "Ġà¤«à¤¸à¤²": 1110,
      "à¤¹à¤°à¤£": 1111,
      "à¤¯à¤£": 1112,
      "Ġà¤²à¤Ĺà¤¨": 1113,
      "Ġà¤ķà¤®à¤ľ": 1114,
      "à¤°à¤¤à¤²à¤¬": 1115,
      "à¤¤à¤¤": 1116,
      "Ġà¤Ĩà¤Īà¤ª": 1117,
      "à¤µà¤ľà¤¨": 1118,
      "Ġà¤¸à¤ªà¤¨": 1119,
      "Ġà¤¸à¤²à¤®": 1120,
      "Ġ2016": 1121,
      "Ġà¤ļà¤¯à¤¨": 1122,
      "à¥ģà¤ģ": 1123,
      "à¤¹à¤¬": 1124,
      "Ġà¤¦à¤®": 1125,
      "Ġà¤ħà¤²à¤Ĺà¤ħà¤²à¤Ĺ": 1126,
      "à¤¦à¤¯": 1127,
      "Ġà¤Ĺà¤¹à¤°": 1128,
      "Ġà¤ıà¤ļ": 1129,
      "à¤ĳ": 1130,
      "Ġà¤ķà¤ł": 1131,
      "Ġà¤ĩà¤ļ": 1132,
      "Ġà¤īà¤ªà¤ļ": 1133,
      "201": 1134,
      "Ġ2014": 1135,
      "Ġ29": 1136,
      "à¥Ī|": 1137,
      "§à¥": 1138,
      "à¤°à¤µà¤ķ": 1139,
      "30": 1140,
      "à¤ķà¤Ī": 1141,
      "Ġ35": 1142,
      "Ġà¤ķà¤ķ": 1143,
      "Ġà¤ļà¤¢": 1144,
      "Ġà¤Ĺà¤łà¤¬": 1145,
      "à¤¡à¤®": 1146,
      "Ġà¤Ĩà¤ªà¤¸": 1147,
      "Ġà¤§à¤®à¤ķ": 1148,
      "à¤ĩà¤¸à¤²": 1149,
      "à¤Ĩà¤ª": 1150,
      "Ġà¥ŀ": 1151,
      "à¤ªà¤¹à¤°": 1152,
      "à¤ıà¤¸à¤Ł": 1153,
      "à¤ħà¤ª": 1154,
      "Ġà¤¹à¤¡": 1155,
      "à¤µà¤¡": 1156,
      "Ġà¤Ĩà¤£": 1157,
      "Ġà¤²à¥ľà¤ķ": 1158,
      "à¤®à¤¶": 1159,
      "Ġà¤ĳà¤¸": 1160,
      "Ġà¤«à¤²": 1161,
      "à¥ĺ": 1162,
      "Ġà¤¬à¤¨à¤¤": 1163,
      "Ġà¤¹à¤ķ": 1164,
      "Ġà¤®à¤ľà¤¦": 1165,
      "Ġà¤Ĩà¤ªà¤¨": 1166,
      "Ġà¤®à¤¤à¤²à¤¬": 1167,
      "à¥ľà¤¨": 1168,
      "à¤ħà¤§": 1169,
      "à¤Łà¤µ": 1170,
      "Ġà¤¨à¤¤": 1171,
      "Ġà¤ľà¤®à¤ķà¤°": 1172,
      "Ġà¤Ĩà¤¬": 1173,
      "Ġà¤Ńà¤ķ": 1174,
      "Ġà¤ªà¤¹à¤¨": 1175,
      "à¤¯à¤¬": 1176,
      "Ġà¤¨à¤ľ": 1177,
      "Ġ60": 1178,
      "Ġà¤°à¤ļà¤¨": 1179,
      "à¤¤à¤°à¤£": 1180,
      "Ġà¤īà¤¨à¤®": 1181,
      "à¤¯à¤µà¤¹": 1182,
      "Ġà¤¹à¤«": 1183,
      "Ġà¤ıà¤ª": 1184,
      "Ġà¤²à¤ĸà¤¨à¤Ĭ": 1185,
      "à¤ªà¤¡": 1186,
      "Ġà¤Ĩà¤ıà¤Ĺ": 1187,
      "à¤ħà¤²": 1188,
      "Ġà¥Ļ": 1189,
      "Ġà¤°à¤ľ": 1190,
      "Ġà¤īà¤ľ": 1191,
      "Ġà¤Īà¤¶": 1192,
      "Ġà¤ħà¤¯": 1193,
      "Ġà¤¦à¤¶à¤ķ": 1194,
      "Ġà¤ħà¤¡": 1195,
      "Ġà¤Ĭà¤°": 1196,
      "à¤ıà¤¶à¤¨": 1197,
      "Ġà¤ĩà¤°": 1198,
      "Ġà¤ĳà¤¨à¤²": 1199,
      "Ġà¤ıà¤ķà¤¤": 1200,
      "à¤°à¤ķà¤°": 1201,
      "à¤¦à¤¶": 1202,
      "à¤Ńà¤ķ": 1203,
      "à¤Łà¤¤": 1204,
      "à¤¿à¤¼": 1205,
      "11": 1206,
      "à¤¸à¤¹": 1207,
      "Ġà¤ķà¤ªà¤¡": 1208,
      "Ġà¤°à¤®": 1209,
      "à¤¯à¤¯à¤¨": 1210,
      "à¤¦à¤¦": 1211,
      "Ġà¤ªà¤¨": 1212,
      "Ġ2015": 1213,
      "à¤ĺà¤¨": 1214,
      "à¤©": 1215,
      "Ġà¤ħà¤¹à¤®à¤¦": 1216,
      "à¤¯à¤°à¤®": 1217,
      "à¤¾à¥ħ": 1218,
      "à¤ĸà¤ķ": 1219,
      "Ġà¤ħà¤ĸà¤¬": 1220,
      "Ġà¤Ĩà¤īà¤Ł": 1221,
      "à¤µà¤£": 1222,
      "à¤¹à¤£": 1223,
      "à¤ªà¤¥": 1224,
      "Ġà¤¦à¤¹": 1225,
      "Ġà¤¸à¤¹à¤®à¤¤": 1226,
      "Ġà¤¸à¤ĸ": 1227,
      "Ġà¤¬à¤°à¤¸": 1228,
      "Ġ37": 1229,
      "Ġà¤Ńà¤¯": 1230,
      "à¤¹à¤¨à¤¤": 1231,
      "Ġà¤ªà¤¦à¤ķ": 1232,
      "15": 1233,
      "à¤ķà¤¦à¤®": 1234,
      "Ġà¤°à¤£à¤¨": 1235,
      "Ġà¤ħà¤ľà¤¯": 1236,
      "Ġ45": 1237,
      "à¤·à¤ľ": 1238,
      "Ġ70": 1239,
      "Ġà¤īà¤ªà¤°": 1240,
      "Ġà¤ĩà¤¶": 1241,
      "Ġà¤¶à¤ĸ": 1242,
      "Ġà¤īà¤ªà¤Ń": 1243,
      "Ġà¤ĵà¤²": 1244,
      "Ġà¤ĸà¥ľ": 1245,
      "à¤¤à¤ª": 1246,
      "Ġ32": 1247,
      "Ġà¤¸à¤®à¤ķ": 1248,
      "Ġà¤ħà¤¥à¤µ": 1249,
      "à¤²à¤¡": 1250,
      "à¤ķà¤²à¤¨": 1251,
      "Ġà¤Ĺà¤¡": 1252,
      "Ġà¤ĩà¤¨à¤®": 1253,
      "à¤ıà¤¡": 1254,
      "Ġà¤Łà¤ķ": 1255,
      "à¤²à¤ª": 1256,
      "à¤Ĭà¤¦": 1257,
      "Ġà¤µà¤¨à¤¡": 1258,
      "Ġà¤ľà¤¡": 1259,
      "Ġà¤ħà¤¸à¤®": 1260,
      "à¤°à¤ķà¤¤": 1261,
      "à¤¼à¤¾à¥¤": 1262,
      "Ġà¤īà¤¤à¤¨": 1263,
      "à¤¨à¤¬": 1264,
      "à¤ľà¤¨à¤ķ": 1265,
      "Ġà¤Ŀà¤Łà¤ķ": 1266,
      "Ġà¤¹à¤¨": 1267,
      "à¤Īà¤²": 1268,
      "à¤ķà¤¹": 1269,
      "Ġà¤Ĳà¤²": 1270,
      "Ġà¤Ĺà¤łà¤¨": 1271,
      "Ġà¤ľà¤¸": 1272,
      "18": 1273,
      "Ġà¤°à¤¦": 1274,
      "Ġà¤ıà¤ķà¤¦": 1275,
      "à¤Łà¤ķà¤°": 1276,
      "à¤¤à¤ķà¤°": 1277,
      "à¤¡à¤¬": 1278,
      "Ġà¤ħà¤Ł": 1279,
      "Ġà¤ħà¤«à¤¸à¤°": 1280,
      "à¤¤à¤¬": 1281,
      "à¤ļà¤µ": 1282,
      "Ġà¤łà¤¹à¤°": 1283,
      "Ġà¤®à¤¨à¤®": 1284,
      "à¤ªà¤ļ": 1285,
      "Ġ500": 1286,
      "Ġà¤Īà¤®": 1287,
      "Ġà¤¬à¤§": 1288,
      "12": 1289,
      "Ġà¤ľà¤¨à¤°à¤²": 1290,
      "Ġ198": 1291,
      "Ġà¤¬à¤¦à¤²à¤¨": 1292,
      "Ġà¤¸à¥ľà¤ķ": 1293,
      "Ġà¤¨à¤¶": 1294,
      "à¤²à¤Ń": 1295,
      "Ġà¤īà¤ķ": 1296,
      "à¤ªà¤Łà¤¨": 1297,
      "Ġà¤Łà¤¨": 1298,
      "Ġà¤¸à¤®à¤Ŀà¤¨": 1299,
      "à¤·à¤°": 1300,
      "Ġà¤Ĩà¤ļ": 1301,
      "Ġà¤ľà¤¨à¤¸": 1302,
      "Ġà¤ķà¤ļ": 1303,
      "à¤¼à¥ģ": 1304,
      "à¤¶à¤¹à¤°": 1305,
      "à¤¾|": 1306,
      "Ġ80": 1307,
      "Ġà¤ļà¤®": 1308,
      "Ġà¤ľà¤ľ": 1309,
      "Ġà¤¦à¤°à¤µ": 1310,
      "Ġà¤ķà¤®à¤²": 1311,
      "à¤Ĺà¥Ŀ": 1312,
      "à¤¯à¤¡": 1313,
      "Ġà¥¨": 1314,
      "Ġà¤Ńà¤Ł": 1315,
      "Ġ36": 1316,
      "à¤ĩà¤«": 1317,
      "à¤µà¤¹à¤¨": 1318,
      "Ġà¥§à¥": 1319,
      "Ġà¤ĳà¤ªà¤°": 1320,
      "à¤¾à¥ĩ": 1321,
      "Ġà¤ħà¤°à¤µ": 1322,
      "Ġà¤ľà¤Ĺà¤¤": 1323,
      "à¤¸à¤Ĺà¤¢": 1324,
      "à¤®à¤¹à¤¤": 1325,
      "à¤ľà¤¬à¤ķ": 1326,
      "Ġà¤ıà¤¸à¤ª": 1327,
      "à¤ĩà¤¨à¤®": 1328,
      "Ġà¤§à¤°à¤¨": 1329,
      "à¤¶à¤®": 1330,
      "Ġà¤ļà¤¨": 1331,
      "à¤īà¤§à¤°": 1332,
      "17": 1333,
      "Ġ34": 1334,
      "Ġà¤®à¤¹à¤ľ": 1335,
      "Ġà¤Ĩà¤Ń": 1336,
      "à¤¨à¤¤à¤®": 1337,
      "Ġ2013": 1338,
      "à¤¦à¤¤": 1339,
      "à¤ļà¤ķà¤°": 1340,
      "à¤ķà¥ľ": 1341,
      "à¥ĥà¤Ĥ": 1342,
      "Ġà¤¶à¤¤à¤ķ": 1343,
      "à¤¯à¤¶": 1344,
      "16": 1345,
      "Ġà¤Ĳà¤¤": 1346,
      "25": 1347,
      "Ġ33": 1348,
      "Ġà¤ĭà¤£": 1349,
      "à¤īà¤²": 1350,
      "Ġà¤ĩà¤®à¤°": 1351,
      "à¤¨à¤¹": 1352,
      "Ġà¤°à¤«": 1353,
      "Ġà¤¶à¤¤": 1354,
      "Ġà¤Ĩà¤¦à¤°": 1355,
      "Ġà¤¬à¤®": 1356,
      "Ġà¤¤à¤¹à¤¸": 1357,
      "à¤ĩà¤ı": 1358,
      "à¤¯à¤ľ": 1359,
      "à¤ıà¤¸à¤ıà¤¸": 1360,
      "Ġà¤ªà¤Łà¤¨": 1361,
      "Ġà¤Īà¤¸": 1362,
      "Ġà¤¸à¤¦à¤¨": 1363,
      "Ġà¤¬à¤Ĺ": 1364,
      "Ġà¤°à¤ķà¤®": 1365,
      "Ġà¤ĵà¤ªà¤¨": 1366,
      "Ġà¤Ńà¤°à¤ª": 1367,
      "Ġà¤ıà¤Ł": 1368,
      "Ġà¤¶à¤ªà¤¥": 1369,
      "Ġà¤¬à¤¦à¤®": 1370,
      "à¤¯à¤¸à¤Ń": 1371,
      "à¤Ĩà¤®": 1372,
      "14": 1373,
      "à¤¯à¤Łà¤¨": 1374,
      "à¤Łà¤µà¤°": 1375,
      "Ġà¤§à¤®": 1376,
      "Ġà¤¬à¤ļà¤¨": 1377,
      "Ġà¤¹à¤¦": 1378,
      "à¤°à¤ķà¤°à¤£": 1379,
      "Ġà¤ħà¤¹": 1380,
      "à¤°à¤Ĺà¤¤": 1381,
      "Ġà¤ªà¥ľà¤¤": 1382,
      "Ġà¤īà¤ªà¤¨": 1383,
      "à¤īà¤¦": 1384,
      "Ġà¤ľà¤¯à¤ª": 1385,
      "Ġà¤¦à¤¤": 1386,
      "Ġà¤®à¤¸à¤²": 1387,
      "à¤¬à¤ļ": 1388,
      "Ġà¤¨à¤¸": 1389,
      "à¤°à¤¦à¤¸": 1390,
      "Ġà¤®à¤¶à¤¹": 1391,
      "à¤ªà¤°à¤µ": 1392,
      "Ġ2012": 1393,
      "Ġà¤¬à¤¹à¤¸": 1394,
      "Ġà¤¦à¤«": 1395,
      "Ġà¤ıà¤¸à¤¡": 1396,
      "à¤ĩà¤ª": 1397,
      "à¤Īà¤¸": 1398,
      "Ġ75": 1399,
      "à¤īà¤¸à¤¨": 1400,
      "à¤ıà¤®à¤¸": 1401,
      "Ġà¤ħà¤µà¤¸": 1402,
      "à¤ķà¤Ń": 1403,
      "Ġ90": 1404,
      "à¤°à¤µà¤°": 1405,
      "à¤°à¤¸à¤¨": 1406,
      "Ġà¤ĳà¤Ł": 1407,
      "Ġà¤Ńà¤°à¤¨": 1408,
      "Ġ197": 1409,
      "à¤ıà¤Ł": 1410,
      "à¤¡à¤ķà¤°": 1411,
      "Ġà¤Ĩà¤«": 1412,
      "Ġà¤ħà¤µà¤¶": 1413,
      "à¤°à¤°": 1414,
      "Ġà¤Ĩà¤Īà¤¸": 1415,
      "Ġà¤¸à¤«à¤°": 1416,
      "Ġà¤®à¤®à¤¤": 1417,
      "à¤£à¤µà¤¤": 1418,
      "Ġà¤¬à¤ķ": 1419,
      "Ġà¤µà¤ľà¤¨": 1420,
      "à¤łà¤Ń": 1421,
      "à¤ļà¤¯": 1422,
      "Ġà¤²à¥ľ": 1423,
      "Ġà¤²à¤®": 1424,
      "Ġà¤ĭà¤·": 1425,
      "à¤²à¤ļà¤¸": 1426,
      "Ġà¤¬à¤¸à¤ª": 1427,
      "à¤Łà¤ª": 1428,
      "à¤ĩà¤¤à¤¨": 1429,
      "à¤Ĩà¤Īà¤Ł": 1430,
      "Ġà¤ķà¤¤": 1431,
      "Ġà¤ªà¤¬": 1432,
      "99": 1433,
      "22": 1434,
      "à¤²à¤ľ": 1435,
      "Ġà¤Ĩà¤Īà¤Ł": 1436,
      "à¤Ľà¤¡": 1437,
      "Ġà¤ľà¤¬à¤°à¤¦à¤¸": 1438,
      "Ġà¤Ķà¤¦": 1439,
      "à¤Łà¤°à¤µ": 1440,
      "Ġà¤¨à¤ľà¤¦": 1441,
      "13": 1442,
      "Ġà¤¸à¤®à¤Ŀà¤¤": 1443,
      "Ġà¤¬à¤¨à¤µ": 1444,
      "à¤ıà¤¸à¤Ī": 1445,
      "à¤ħà¤ķ": 1446,
      "Ġà¤ıà¤Ĺ": 1447,
      "Ġà¤®à¤£": 1448,
      "Ġà¤ļà¤¤": 1449,
      "Ġà¤¸à¤Ł": 1450,
      "Ġà¤¸à¤°à¤ª": 1451,
      "à¤µà¤Ń": 1452,
      "Ġà¤ıà¤°": 1453,
      "Ġà¤¸à¤Ĭà¤¦": 1454,
      "Ġà¤ļà¤ª": 1455,
      "Ġà¤Ĩà¤ªà¤¤": 1456,
      "Ġà¤°à¤¤": 1457,
      "Ġà¤ªà¤°à¤¨": 1458,
      "à¤Ĺà¤ª": 1459,
      "Ġ48": 1460,
      "à¤¯à¤Łà¤ķ": 1461,
      "à¤¨à¤µà¤°": 1462,
      "Ġ38": 1463,
      "à¤ªà¤¶": 1464,
      "Ġà¤¦à¤¯": 1465,
      "Ġà¤Ńà¤¡": 1466,
      "Ġà¤Ĺà¤¨": 1467,
      "à¤Ĺà¤ł": 1468,
      "Ġ55": 1469,
      "Ġà¤¸à¤°à¤¸": 1470,
      "à¤ĩà¤¨à¤ķ": 1471,
      "à¤£à¤¸": 1472,
      "Ġà¤Ľà¤ł": 1473,
      "Ġà¤¬à¤¨à¤ķà¤°": 1474,
      "à¤Ĩà¤°à¤ª": 1475,
      "à¤¹à¤Ł": 1476,
      "Ġà¤¦à¤°à¤ħà¤¸à¤²": 1477,
      "40": 1478,
      "Ġà¤¬à¥Ŀà¤¤": 1479,
      "Ġà¤ħà¤Łà¤²": 1480,
      "à¤¸à¤«": 1481,
      "Ġ2011": 1482,
      "Ġ300": 1483,
      "à¤¨à¤ļ": 1484,
      "Ġ2010": 1485,
      "à¤Ŀà¤¸": 1486,
      "Ġà¤ĸà¤Ł": 1487,
      "Ġà¤īà¤ªà¤ķà¤°à¤£": 1488,
      "Ġà¤¨à¤ķà¤¦": 1489,
      "Ġà¤ħà¤«à¤Ĺ": 1490,
      "Ġà¤Ĩà¤ľà¤®": 1491,
      "Ġà¤Ľà¤µ": 1492,
      "à¤¤à¤¸": 1493,
      "Ġà¤ªà¤ķà¥ľ": 1494,
      "à¤ĸà¤¦": 1495,
      "à¤¼à¥Ī": 1496,
      "à¤Īà¤ĵ": 1497,
      "à¤Ĩà¤¯": 1498,
      "à¤Ĩà¤Īà¤¸": 1499,
      "à¤¨à¤Ĺ": 1500,
      "à¤Ĭà¤¨": 1501,
      "Ġà¤īà¤Ĺ": 1502,
      "à¤ķà¤¤à¤°": 1503,
      "Ġà¤ıà¤¨à¤¡": 1504,
      "Ġà¤Ľà¤ķ": 1505,
      "à¥Ľà¤°": 1506,
      "à¤£à¤µ": 1507,
      "à¤Ńà¤µà¤¤": 1508,
      "Ġ2009": 1509,
      "Ġà¤ĵà¤¬": 1510,
      "à¥Ł": 1511,
      "Ġà¤²à¤¹à¤°": 1512,
      "Ġà¤Ĩà¤ªà¤°": 1513,
      "Ġà¤ıà¤¨à¤¸": 1514,
      "à¤ĩà¤µà¤°": 1515,
      "à¤Łà¤ĩ": 1516,
      "à¤µà¤¦": 1517,
      "Ġà¤§à¤°à¤¤": 1518,
      "Ġà¤¹à¤ª": 1519,
      "Ġà¤Łà¤ķà¤°": 1520,
      "Ġà¤¬à¤Ł": 1521,
      "à¤¦à¤ª": 1522,
      "à¤°à¤¥": 1523,
      "Ġà¤°à¤ĸà¤ķà¤°": 1524,
      "à¤¯à¤Ł": 1525,
      "Ġà¤Ĺà¤µ": 1526,
      "Ġ42": 1527,
      "Ġà¤Ńà¤Ĺ": 1528,
      "Ġà¤ħà¤®à¤²": 1529,
      "Ġà¤Ķà¤¸à¤¤": 1530,
      "Ġà¤ľà¤¨à¤ľ": 1531,
      "Ġ65": 1532,
      "à¤ķà¤¥": 1533,
      "à¤Ĩà¤¨": 1534,
      "Ġà¤ĳà¤°": 1535,
      "Ġ2008": 1536,
      "à¥ľà¤¤": 1537,
      "à¤Īà¤Ł": 1538,
      "à¤µà¤®": 1539,
      "à¤¶à¤Ńà¤°": 1540,
      "Ġà¤¬à¤°à¤¤": 1541,
      "60": 1542,
      "Ġà¤ªà¤µà¤¨": 1543,
      "Ġà¤°à¤ļ": 1544,
      "200": 1545,
      "Ġà¤¶à¤°à¤£": 1546,
      "Ġ150": 1547,
      "à¤Ĩà¤°à¤¸": 1548,
      "Ġà¤¤à¤Ł": 1549,
      "Ġà¤ıà¤ķà¤®": 1550,
      "Ġà¤ħà¤¸à¤¤": 1551,
      "à¤ıà¤¸à¤Ĩà¤Ī": 1552,
      "Ġà¤ĸà¤¤à¤°à¤¨": 1553,
      "à¤Łà¤¨à¤°": 1554,
      "Ġà¤Ķà¤°à¤¤": 1555,
      "Ġà¤ħà¤ªà¤®": 1556,
      "Ġà¤¬à¤ļà¤ªà¤¨": 1557,
      "à¤ķà¤ħà¤ª": 1558,
      "à¤ıà¤¸à¤¸": 1559,
      "Ġà¤ıà¤¯à¤°à¤ª": 1560,
      "Ġà¤Ńà¤¤": 1561,
      "à¤ķà¤ľ": 1562,
      "Ġà¤ªà¤°à¤µ": 1563,
      "à¤Īà¤µ": 1564,
      "Ġà¤īà¤ªà¤®": 1565,
      "Ġà¤ªà¤ļ": 1566,
      "Ġà¤¯à¤®": 1567,
      "Ġà¤¹à¤°à¤ķà¤¤": 1568,
      "à¤¶à¤¬": 1569,
      "Ġ44": 1570,
      "à¤īà¤¥": 1571,
      "Ġà¥Ľà¤°": 1572,
      "à¤®à¤ľ": 1573,
      "Ġà¤ļà¤®à¤ķ": 1574,
      "à¤¯à¤°à¤¤": 1575,
      "Ġ2020": 1576,
      "à¤¨à¤ľà¤°": 1577,
      "Ġà¤ķà¤µà¤°": 1578,
      "Ġà¤¬à¤°à¤ķà¤°": 1579,
      "à¤¦à¤¨à¤¶": 1580,
      "à¤Ĩà¤µà¤ľ": 1581,
      "à¤ĩà¤¶": 1582,
      "Ġà¤§à¤µà¤¨": 1583,
      "Ġà¤Ĳà¤ª": 1584,
      "à¤°à¤ķà¤Ł": 1585,
      "à¤Ĩà¤Īà¤ª": 1586,
      "à¤Ĩà¤Īà¤Ĩà¤°": 1587,
      "Ġà¤Ľà¤ª": 1588,
      "Ġà¤¯à¤ķ": 1589,
      "à¤£à¤¨": 1590,
      "à¤£à¤¤": 1591,
      "Ġà¤Ńà¤°à¤¤": 1592,
      "Ġà¤§à¤ķ": 1593,
      "24": 1594,
      "à¤²à¤Ŀ": 1595,
      "à¤²à¤ĸà¤¨à¤Ĭ": 1596,
      "à¤ĸà¤¬à¤°": 1597,
      "à¤ķà¤¤à¤®": 1598,
      "21": 1599,
      "à¤īà¤®": 1600,
      "à¤¹à¤¡": 1601,
      "Ġ2000": 1602,
      "à¤¯à¤¯": 1603,
      "Ġà¤Ĩà¤¦à¤¤": 1604,
      "Ġ1000": 1605,
      "à¤²à¤ĸ": 1606,
      "à¤¹à¤µ": 1607,
      "Ġà¤®à¤ķà¤¸à¤¦": 1608,
      "à¤ĩà¤¬à¤°": 1609,
      "à¥Ĥà¤ģà¥¤": 1610,
      "Ġà¤ĸà¤¨": 1611,
      "à¤ħà¤¤": 1612,
      "Ġà¤ĳà¤«à¤°": 1613,
      "à¤ħà¤¸": 1614,
      "70": 1615,
      "à¤£à¤ķ": 1616,
      "Ġà¤ķà¥ľ": 1617,
      "à¤¶à¤¯": 1618,
      "Ġà¤¬à¤¨à¤°": 1619,
      "à¤¸à¤¬à¤¸": 1620,
      "Ġà¤īà¤łà¤¤": 1621,
      "Ġà¤ıà¤¡à¤µ": 1622,
      "Ġà¤¨à¤·": 1623,
      "Ġà¤Ĩà¤Īà¤ı": 1624,
      "Ġ43": 1625,
      "à¤Ĺà¤¸": 1626,
      "à¥Īà¤Ĥ|": 1627,
      "Ġà¤¬à¤ļà¤¤": 1628,
      "à¤Łà¤°à¤¸": 1629,
      "Ġà¤īà¤Ń": 1630,
      "à¤¾!": 1631,
      "Ġà¤¸à¤¹à¤ķ": 1632,
      "Ġà¤²à¤µ": 1633,
      "Ġ46": 1634,
      "à¤¹à¤°à¤¹": 1635,
      "Ġ39": 1636,
      "Ġà¥ĺ": 1637,
      "Ġà¤²à¤ĺ": 1638,
      "à¤¶à¤¨à¤ķ": 1639,
      "Ġà¤ĳà¤¡": 1640,
      "à¤Łà¤¸": 1641,
      "Ġ196": 1642,
      "à¤Ľà¤¨": 1643,
      "à¤¬à¤°à¤®": 1644,
      "à¤ķà¤²à¤¤": 1645,
      "Ġà¤¸à¤°à¤¦": 1646,
      "Ġà¤ĵà¤®": 1647,
      "Ġà¤¨à¤®à¤ķ": 1648,
      "à¤ļà¤®": 1649,
      "23": 1650,
      "Ġà¤²à¤Łà¤ķ": 1651,
      "à¤Ĩà¤Ĺ": 1652,
      "Ġà¤ľà¤¬à¤°": 1653,
      "Ġà¤¬à¤ĸ": 1654,
      "Ġà¤¨à¤µà¤®": 1655,
      "à¤¹à¤ª": 1656,
      "à¤Ĺà¤°à¤£": 1657,
      "à¤®à¤®": 1658,
      "à¤īà¤ª": 1659,
      "Ġ194": 1660,
      "à¤¯à¤²à¤Ł": 1661,
      "à¤Īà¤¯": 1662,
      "à¤Ĩà¤§": 1663,
      "à¤¯à¤¨à¤¶": 1664,
      "Ġ64": 1665,
      "Ġà¤ıà¤¡à¤®": 1666,
      "à¤ļà¤¤à¤®": 1667,
      "à¤ľà¤«": 1668,
      "Ġà¤°à¤ĺ": 1669,
      "Ġà¤·": 1670,
      "à¤§à¤ª": 1671,
      "Ġ56": 1672,
      "Ġà¤ľà¤¹à¤°": 1673,
      "Ġà¤¨à¤ķà¤²": 1674,
      "Ġà¤Ĩà¤ľà¤ķà¤²": 1675,
      "Ġà¤ķà¤¦": 1676,
      "Ġà¤²à¤²": 1677,
      "à¤²à¤«": 1678,
      "à¥¦à¥": 1679,
      "à¤¯à¤§": 1680,
      "à¤®à¤Ĺà¤°": 1681,
      "Ġ400": 1682,
      "Ġ49": 1683,
      "à¤Ĺà¤ªà¤¤": 1684,
      "Ġà¤¸à¤®à¤¨": 1685,
      "Ġ47": 1686,
      "Ġà¤Ĺà¤¢": 1687,
      "80": 1688,
      "Ġà¤ħà¤ªà¤¹à¤°à¤£": 1689,
      "à¤°à¤ĸà¤ª": 1690,
      "26": 1691,
      "Ġà¤¯à¤¶": 1692,
      "à¤ıà¤ª": 1693,
      "Ġà¤ıà¤ķà¤ıà¤ķ": 1694,
      "Ġà¤ľà¤¨à¤ªà¤¦": 1695,
      "Ġà¤ıà¤ķà¤¦à¤®": 1696,
      "Ġà¤Łà¤°": 1697,
      "Ġà¤¶à¤®": 1698,
      "Ġà¤¶à¤°à¤¦": 1699,
      "Ġà¤¸à¤¦à¤°": 1700,
      "Ġà¤®à¤°à¤¨": 1701,
      "Ġà¤ĺà¤¨": 1702,
      "à¥ľà¤ķà¤°": 1703,
      "Ġà¤¬à¤¦à¤¨": 1704,
      "Ġà¤¥à¤ķ": 1705,
      "à¤¡à¤ª": 1706,
      "à¤Īà¤¨": 1707,
      "à¤¯à¤ľà¤²": 1708,
      "Ġà¤Ĩà¤°à¤ıà¤¸à¤ıà¤¸": 1709,
      "Ġà¤¬à¤¦à¤²à¤¤": 1710,
      "Ġà¤¶à¤¶": 1711,
      "Ġà¤ıà¤«à¤Ĩà¤Īà¤Ĩà¤°": 1712,
      "à¤ħà¤¦": 1713,
      "à¤¼à¥Ĥ": 1714,
      "Ġà¤ķà¤²à¤°": 1715,
      "à¤ħà¤ĸ": 1716,
      "Ġà¤ĸà¤¨à¤¨": 1717,
      "Ġà¤ıà¤¬": 1718,
      "à¤¸à¤®à¤¯": 1719,
      "Ġà¤ħà¤µà¤Ĺà¤¤": 1720,
      "à¤¬à¥ľ": 1721,
      "à¥ĭà¤Ĥà¥¤": 1722,
      "Ġà¤ıà¤ķà¤ľ": 1723,
      "Ġà¤Ĺà¤°à¤®": 1724,
      "à¥Ī!": 1725,
      "à¤¹à¤ľ": 1726,
      "Ġà¤¨à¥Ľà¤°": 1727,
      "à¤ĩà¤ľà¤°": 1728,
      "à¥ĩà¥ĩ": 1729,
      "à¤¨à¤ı": 1730,
      "à¤¦à¤Ń": 1731,
      "Ġ195": 1732,
      "Ġà¤Ĩà¤ªà¤¦": 1733,
      "à¤ĸà¤µ": 1734,
      "à¤®à¤¬": 1735,
      "Ġà¤Ĺà¤µà¤°": 1736,
      "Ġà¤ľà¤ĸ": 1737,
      "Ġà¤Ĩà¤¸à¤®": 1738,
      "à¤¯à¤°à¤¸": 1739,
      "Ġà¤Ĩà¤Ĺà¤°": 1740,
      "à¤£à¤®": 1741,
      "Ġà¤ķà¤¹à¤ķà¤°": 1742,
      "Ġ63": 1743,
      "à¥Ļ": 1744,
      "Ġà¤ľà¤Ĺà¤¦": 1745,
      "à¤°à¤ł": 1746,
      "Ġà¤¥à¤°": 1747,
      "à¤Ĩà¤ĸ": 1748,
      "à¤Ĺà¥ľ": 1749,
      "Ġ54": 1750,
      "Ġà¤¯à¤¥": 1751,
      "à¤¬à¤ķ": 1752,
      "à¤¯à¤¥": 1753,
      "à¤¶à¤¦": 1754,
      "Ġà¤²à¤¤": 1755,
      "¯à¥": 1756,
      "à¤°à¤®à¤¶": 1757,
      "à¥Ģ|": 1758,
      "28": 1759,
      "Ġà¤¤à¤ķà¤°": 1760,
      "à¤łà¤ķà¤°": 1761,
      "à¤ĩà¤¨à¤°": 1762,
      "Ġà¤ĩà¤§à¤°": 1763,
      "Ġà¤ªà¤°à¤«": 1764,
      "à¤ĸà¤¡": 1765,
      "Ġà¤Ńà¤Ĺà¤¤": 1766,
      "Ġà¤īà¤Ńà¤°": 1767,
      "à¤ħà¤Ĺà¤²": 1768,
      "Ġà¤¹à¤¸à¤¨": 1769,
      "Ġà¤ļà¥Ŀ": 1770,
      "Ġà¤¡à¤¬": 1771,
      "Ġà¤łà¤Ĺ": 1772,
      "à¤¹à¤®à¤¨": 1773,
      "Ġà¤ľà¤¶": 1774,
      "Ġà¤īà¥ľ": 1775,
      "à¤Ĺà¤¬": 1776,
      "75": 1777,
      "à¤¾à¥ĩà¤Ĥ": 1778,
      "Ġà¤Ĩà¤°à¤¬": 1779,
      "Ġà¤¸à¤°à¤²": 1780,
      "35": 1781,
      "Ġà¤¸à¤¤à¤°": 1782,
      "à¤łà¤¤": 1783,
      "à¤ħà¤®à¤°": 1784,
      "Ġà¤īà¤ªà¤ľ": 1785,
      "90": 1786,
      "Ġà¤«à¤¤": 1787,
      "à¤µà¤¡à¤£": 1788,
      "à¤¶à¤ķà¤¶": 1789,
      "à¤¡à¤©": 1790,
      "à¤¼à¥ĩà¥¤": 1791,
      "Ġà¤ľà¤²à¤µ": 1792,
      "à¤Ĥà¥ĩ": 1793,
      "à¤ªà¤¹": 1794,
      "Ġà¤Īà¤µ": 1795,
      "à¤¬à¤¹à¤°à¤¹": 1796,
      "Ġà¤ĩà¤¨à¤¸": 1797,
      "Ġà¤¤à¤ª": 1798,
      "Ġà¤ķà¤ļà¤°": 1799,
      "à¤ªà¤°à¤¸": 1800,
      "à¤¬à¤ľ": 1801,
      "à¤·à¤§": 1802,
      "27": 1803,
      "Ġà¤¨à¤¹à¤°": 1804,
      "à¤±": 1805,
      "Ġà¤¸à¤¶à¤ķ": 1806,
      "à¤¿à¥¤": 1807,
      "Ġà¤ļà¤°à¤®": 1808,
      "Ġ2007": 1809,
      "à¤§à¤ķà¤°": 1810,
      "à¤Īà¤¡": 1811,
      "à¤ıà¤¨à¤¯": 1812,
      "Ġ58": 1813,
      "à¤¸à¤Ĺà¥Ŀ": 1814,
      "à¤¹à¤¤à¤ķ": 1815,
      "à¤ıà¤®à¤ıà¤¸": 1816,
      "Ġà¤ĸà¤²": 1817,
      "à¥ļ": 1818,
      "Ġà¤°à¤¹à¤¸": 1819,
      "Ġà¤Ĩà¤¯à¤ķà¤°": 1820,
      "à¥¨": 1821,
      "Ġ51": 1822,
      "Ġà¤Ŀà¤Ĺà¤¡": 1823,
      "Ġà¤®à¤Ľà¤²": 1824,
      "à¤¨à¤ľ": 1825,
      "Ġà¤īà¤²à¤Ŀ": 1826,
      "Ġà¥©": 1827,
      "à¤ĩà¤¬": 1828,
      "Ġà¤ħà¤µà¤¤": 1829,
      "Ġà¤°à¤£à¤µ": 1830,
      "à¥ĩ|": 1831,
      "Ġà¤ªà¤ł": 1832,
      "Ġà¤¸à¤¹à¤ľ": 1833,
      "à¤ĺà¤µ": 1834,
      "Ġà¤ĩà¤ķà¤Ł": 1835,
      "à¤Ĩà¤Īà¤ı": 1836,
      "à¤°à¤¯à¤¤": 1837,
      "Ġà¤ĵà¤¡": 1838,
      "Ġà¤ªà¤¹à¤¨à¤¨": 1839,
      "Ġ85": 1840,
      "Ġà¤ıà¤ķà¤¡": 1841,
      "Ġà¤¹à¤²à¤ķ": 1842,
      "à¤ķà¤ķà¤°": 1843,
      "Ġ53": 1844,
      "Ġà¤ıà¤¸à¤¸": 1845,
      "à¤¤à¤°à¤ª": 1846,
      "à¤§à¤¶": 1847,
      "à¤Ĺà¤ķà¤°": 1848,
      "à¤¸à¤Ł": 1849,
      "29": 1850,
      "Ġ67": 1851,
      "à¤Ĺà¤¦à¤°": 1852,
      "à¤¤à¤¸à¤°": 1853,
      "à¤¹à¤Ĺ": 1854,
      "Ġ57": 1855,
      "à¤ľà¤¶": 1856,
      "à¤°à¤Ľ": 1857,
      "Ġà¤ĸà¤ľ": 1858,
      "à¤Ńà¤¦": 1859,
      "à¤ĵà¤µ": 1860,
      "à¤Ĩà¤īà¤Ł": 1861,
      "Ġà¤¨à¤¨": 1862,
      "à¤°à¤ļà¤¨": 1863,
      "à¤ĩà¤Ĺà¤°": 1864,
      "à¤īà¤¡à¤°": 1865,
      "Ġà¤ĵà¤ª": 1866,
      "à¤Ĺà¤Łà¤¨": 1867,
      "45": 1868,
      "à¤¶à¤¹": 1869,
      "Ġ250": 1870,
      "Ġà¤īà¤§à¤°": 1871,
      "Ġà¤Ķà¤ªà¤ļ": 1872,
      "Ġà¤µà¤ľ": 1873,
      "Ġà¤ıà¤¹à¤¸": 1874,
      "à¤¼à¥Ģà¥¤": 1875,
      "à¤¸à¤ªà¤°": 1876,
      "Ġà¤ĩà¤µ": 1877,
      "à¤Ĺà¤£à¤¨": 1878,
      "à¤¤à¤¦": 1879,
      "à¤Łà¤¡": 1880,
      "Ġà¤®à¤®": 1881,
      "à¤¨à¤¶": 1882,
      "à¤īà¤¨à¤²": 1883,
      "Ġà¤īà¤¤à¤°à¤¨": 1884,
      "Ġà¤īà¤§": 1885,
      "à¤«à¤¨": 1886,
      "à¤ħà¤ļ": 1887,
      "Ġà¤ķà¤¹à¤²": 1888,
      "Ġà¤ĺà¤¬à¤°": 1889,
      "Ġ68": 1890,
      "à¤ıà¤«à¤¸": 1891,
      "à¤Ĩà¤²": 1892,
      "à¤ĸà¤Ń": 1893,
      "Ġà¤ĳà¤ķ": 1894,
      "Ġà¤Ĩà¤Ł": 1895,
      "Ġà¤ĳà¤²": 1896,
      "Ġ52": 1897,
      "Ġà¤Ĩà¤¡": 1898,
      "à¤²à¤ªà¤¤": 1899,
      "Ġ41": 1900,
      "Ġà¤°à¤¹à¤ķà¤°": 1901,
      "Ġà¤¦à¤°à¤¬": 1902,
      "à¤ķà¤¬": 1903,
      "à¤¸à¤«à¤°": 1904,
      "Ġà¤¦à¤¶": 1905,
      "Ġà¤ľà¤Ł": 1906,
      "à¥«": 1907,
      "Ġà¤Ĳà¤¶": 1908,
      "à¤ħà¤¶": 1909,
      "à¥ĩà¥į": 1910,
      "Ġà¤īà¤Ľ": 1911,
      "Ġà¥§": 1912,
      "Ġà¤īà¤¬": 1913,
      "Ġà¤Ķà¤·à¤§": 1914,
      "Ġà¤¸à¤Ĺ": 1915,
      "Ġà¤ħà¤¸à¤¹": 1916,
      "Ġà¤§à¤¡": 1917,
      "Ġà¤¬à¤µ": 1918,
      "à¤¶à¤¸": 1919,
      "à¤ļà¤¸": 1920,
      "Ġà¤īà¤®à¤°": 1921,
      "Ġà¤Ĺà¤¹à¤¨": 1922,
      "Ġà¤¨à¤µà¤ľ": 1923,
      "à¤ĸà¤£": 1924,
      "Ġà¤ĩà¤¬": 1925,
      "Ġ66": 1926,
      "Ġà¤°à¤ľà¤¤": 1927,
      "Ġà¤ľà¤¨à¤¸à¤Ń": 1928,
      "à¤§à¤¡": 1929,
      "Ġ370": 1930,
      "Ġà¤¥à¤®": 1931,
      "Ġà¤¨à¤µà¤°": 1932,
      "à¤ħà¤«": 1933,
      "Ġà¤ħà¤¹à¤¸": 1934,
      "Ġà¤Ĺà¤®": 1935,
      "à¤Īà¤¦": 1936,
      "Ġà¤°à¤ľà¤¨": 1937,
      "Ġà¤ĭà¤¤": 1938,
      "Ġà¤Ĺà¤ľ": 1939,
      "Ġà¤°à¤£à¤¬": 1940,
      "à¤µà¤¸à¤¨": 1941,
      "Ġà¤ħà¤¨à¤¦": 1942,
      "à¤¤à¤Ĺ": 1943,
      "Ġà¤ªà¤²à¤Ł": 1944,
      "à¤¤à¤Ń": 1945,
      "Ġà¤ķà¤·": 1946,
      "à¤ĩà¤®à¤°": 1947,
      "Ġà¤Ĩà¤ķà¤²à¤¨": 1948,
      "Ġà¤ªà¤Łà¤°": 1949,
      "Ġà¤ķà¤ªà¥ľ": 1950,
      "Ġà¤«à¤¡": 1951,
      "à¤Ńà¤²": 1952,
      "Ġà¤ĺà¤¡": 1953,
      "Ġà¤µà¤°à¤¨": 1954,
      "à¤Īà¤°": 1955,
      "à¤Ĺà¤łà¤¬": 1956,
      "Ġà¤īà¤ªà¤ķ": 1957,
      "Ġà¤®à¤¦à¤¨": 1958,
      "Ġà¤Ľà¤²": 1959,
      "Ġà¤¤à¤²à¤µ": 1960,
      "Ġ62": 1961,
      "Ġà¤¨à¤µà¤¨": 1962,
      "Ġà¤¬à¤ľà¤°": 1963,
      "Ġà¤¯à¤ľ": 1964,
      "Ġà¤ħà¤²à¤°": 1965,
      "à¤ľà¤¯à¤ª": 1966,
      "à¤¥à¤Ĺ": 1967,
      "Ġà¤ħà¤«à¤µ": 1968,
      "à¤ĩà¤°": 1969,
      "Ġà¤Ĳà¤ķ": 1970,
      "Ġà¤µà¤ļà¤¨": 1971,
      "à¤Ĺà¤µà¤¤": 1972,
      "Ġà¤ıà¤¸à¤Ł": 1973,
      "à¤µà¤Ĺ": 1974,
      "à¤¶à¤¨à¤°": 1975,
      "Ġ76": 1976,
      "Ġà¤ªà¤°à¤¸": 1977,
      "Ġà¤ķà¤®à¤²à¤¨": 1978,
      "à¤°à¤ķà¤²": 1979,
      "Ġ72": 1980,
      "Ġà¤ªà¤¹à¤²à¤µ": 1981,
      "à¤§à¤¶à¤¤à¤ķ": 1982,
      "à¤Īà¤ª": 1983,
      "Ġà¤ħà¤ķà¤¬à¤°": 1984,
      "Ġà¤ħà¤Łà¤ķ": 1985,
      "Ġà¤®à¤¤à¤Ń": 1986,
      "Ġà¤ĺà¤Łà¤ķà¤°": 1987,
      "Ġà¤¤à¤¡": 1988,
      "Ġà¤ħà¤¨à¤¶à¤¨": 1989,
      "à¤ıà¤¬": 1990,
      "Ġà¤Ĩà¤¨à¤¨": 1991,
      "à¤¾à¤Ĥà¥ĩ": 1992,
      "à¤ıà¤ı": 1993,
      "à¤®à¤Ł": 1994,
      "Ġ120": 1995,
      "à¤¯à¤ļ": 1996,
      "Ġà¤°à¤¥": 1997,
      "Ġà¤Ĩà¤°à¤¤": 1998,
      "Ġà¤®à¤¹à¤²": 1999,
      "à¤Łà¤°à¤ª": 2000,
      "Ġ73": 2001,
      "Ġà¤¨à¤«": 2002,
      "Ġà¤ıà¤ķà¤²": 2003,
      "Ġà¤Ĭà¤¨": 2004,
      "Ġ78": 2005,
      "à¥ĩà¤¼": 2006,
      "Ġà¤°à¤®à¤¨": 2007,
      "à¤µà¤¯à¤¨": 2008,
      "à¥Ģ!": 2009,
      "Ġà¤Ńà¤Łà¤ķ": 2010,
      "à¤°à¤¨à¤Ĺà¤°": 2011,
      "à¤¤à¤¹": 2012,
      "à¤Ĺà¤ķ": 2013,
      "à¥¦à¥¦": 2014,
      "à¤Ĩà¤ĩ": 2015,
      "à¤ĵà¤¸": 2016,
      "Ġà¤Ĩà¤¡à¤µ": 2017,
      "à¤ıà¤¸à¤ıà¤«": 2018,
      "Ġà¤Ĩà¤Īà¤¡": 2019,
      "à¤«à¤¬": 2020,
      "à¥©": 2021,
      "Ġà¤Ĺà¤¦": 2022,
      "à¤ıà¤¨à¤ıà¤¸": 2023,
      "à¤«à¤¤": 2024,
      "Ġà¤Ĩà¤ªà¤²": 2025,
      "Ġà¤Ĺà¤£à¤¤": 2026,
      "à¤īà¤ļ": 2027,
      "à¥ģà¤ĥ": 2028,
      "Ġà¤ľà¤¬à¤°à¤¨": 2029,
      "Ġà¤¤à¤¹à¤°": 2030,
      "Ġà¤Ĩà¤łà¤µ": 2031,
      "à¤ĳà¤¸": 2032,
      "Ġ2006": 2033,
      "Ġà¤ļà¤Ł": 2034,
      "à¤¶à¤ª": 2035,
      "Ġà¤®à¤¥": 2036,
      "à¤¸à¤¡": 2037,
      "Ġà¤Ĩà¤®à¤¤": 2038,
      "à¤Ĩà¤µ": 2039,
      "Ġà¤¬à¥Ŀà¤¨": 2040,
      "Ġ125": 2041,
      "à¤ĩà¤ķà¤²": 2042,
      "à¤ıà¤¶": 2043,
      "Ġà¤ĸà¤¦": 2044,
      "Ġà¤¸à¤¹à¤¨": 2045,
      "Ġ59": 2046,
      "Ġà¤¨à¤¬": 2047,
      "Ġà¤¨à¤Ĺ": 2048,
      "à¤¯à¤Ń": 2049,
      "à¤ıà¤¨à¤ľ": 2050,
      "Ġà¤ĵà¤®à¤ª": 2051,
      "Ġà¤Ĩà¤°à¤Ł": 2052,
      "à¤Īà¤¬": 2053,
      "Ġà¤ħà¤ªà¤¡": 2054,
      "Ġ95": 2055,
      "Ġà¤Ŀà¤¡": 2056,
      "à¤Ĩà¤¦": 2057,
      "à¤®à¤°à¤£": 2058,
      "à¤¸à¤®à¤¸": 2059,
      "à¤£à¤ª": 2060,
      "à¤īà¤°": 2061,
      "à¤ıà¤ľ": 2062,
      "Ġà¤¤à¤°à¤ķ": 2063,
      "Ġà¤Ĩà¤ĩà¤ı": 2064,
      "à¤¥à¤ª": 2065,
      "Ġà¤«à¤Ł": 2066,
      "à¤Ńà¤Ĺà¤µ": 2067,
      "Ġà¤ıà¤¨à¤ľ": 2068,
      "à¤ıà¤®à¤ĵ": 2069,
      "à¤¯à¤Ĺ": 2070,
      "Ġà¤Ĩà¤Īà¤ıà¤ıà¤¸": 2071,
      "à¤°à¤Ĺà¤°": 2072,
      "Ġà¤ıà¤¯à¤°à¤²": 2073,
      "Ġà¤ħà¤¸à¤«à¤²": 2074,
      "Ġ74": 2075,
      "Ġà¤¤à¤ķà¤²": 2076,
      "à¤Ĺà¤¶": 2077,
      "Ġ69": 2078,
      "Ġà¤Ńà¤¦": 2079,
      "Ġ2005": 2080,
      "Ġà¤¨à¤°à¤¸": 2081,
      "Ġà¤īà¤łà¤¨": 2082,
      "à¤ªà¤µ": 2083,
      "à¤ľà¤°à¤¨": 2084,
      "Ġà¤ħà¤µà¤ķ": 2085,
      "Ġà¤°à¤¤à¤¨": 2086,
      "31": 2087,
      "Ġà¤¬à¤¬": 2088,
      "à¤ĵà¤²": 2089,
      "Ġà¤ĳà¤ª": 2090,
      "Ġà¤ĳà¤¯à¤²": 2091,
      "à¤Ĩà¤¸": 2092,
      "Ġ2004": 2093,
      "Ġà¤īà¤²à¤Ł": 2094,
      "à¤¸à¤Ĺ": 2095,
      "à¤¡à¤Ĺ": 2096,
      "Ġà¤Ĩà¤²à¤®": 2097,
      "à¥ĩ!": 2098,
      "Ġà¤ªà¤¥": 2099,
      "Ġà¤Ńà¤ľà¤¨": 2100,
      "Ġà¤ªà¤¥à¤°": 2101,
      "à¤¼à¥Į": 2102,
      "Ġà¤ľà¤¨à¤¹": 2103,
      "à¤¦à¤ķà¤°": 2104,
      "Ġà¤ıà¤ļà¤¡": 2105,
      "2018": 2106,
      "Ġà¤®à¤°à¤®": 2107,
      "à¤³à¤µ": 2108,
      "à¤ķà¤£": 2109,
      "Ġà¤īà¤ªà¤¦": 2110,
      "à¤Ĩà¤Īà¤ıà¤®": 2111,
      "à¤°à¤¬à¤²": 2112,
      "Ġà¤Ŀà¤²à¤ķ": 2113,
      "à¤¦à¤°à¤¤": 2114,
      "à¤¹à¤«": 2115,
      "Ġà¤®à¥Ľ": 2116,
      "Ġà¤ıà¤¨à¤ª": 2117,
      "Ġà¤łà¤ª": 2118,
      "Ġ600": 2119,
      "à¤ĩà¤¡à¤°": 2120,
      "à¤Ĩà¤¶": 2121,
      "34": 2122,
      "Ġà¤ıà¤¸à¤ıà¤¸à¤ª": 2123,
      "à¤¸à¤®à¤Ŀ": 2124,
      "à¤¨à¤µà¤¤": 2125,
      "Ġà¤¬à¤²à¤µ": 2126,
      "à¤ªà¤¬": 2127,
      "Ġà¤ªà¤ª": 2128,
      "Ġà¤°à¤¶": 2129,
      "Ġà¤Ĺà¤¹à¤²": 2130,
      "Ġà¤ĩà¤¤à¤°": 2131,
      "à¤ıà¤µ": 2132,
      "Ġà¤«à¤°à¤®": 2133,
      "à¤¸à¤ľ": 2134,
      "à¤¸à¤¨à¤²": 2135,
      "à¤¯à¤µà¤°": 2136,
      "à¤²à¤²": 2137,
      "Ġà¤®à¤¯": 2138,
      "Ġà¥ļ": 2139,
      "Ġà¤¡à¤¬à¤²": 2140,
      "Ġà¤²à¤Ĺà¤µ": 2141,
      "36": 2142,
      "Ġà¤¦à¤ĸà¤²": 2143,
      "à¤¶à¤Ńà¤ķ": 2144,
      "à¤¥à¤¤": 2145,
      "Ġà¤®à¤¹à¤°": 2146,
      "Ġà¤īà¤ªà¤µ": 2147,
      "Ġà¤ħà¤®à¤¨": 2148,
      "Ġà¤¨à¤°à¤®": 2149,
      "Ġà¤¦à¤°à¤ķ": 2150,
      "à¤°à¤ľà¤¨": 2151,
      "à¤ıà¤¸à¤ı": 2152,
      "à¤Ńà¤¯": 2153,
      "Ġ77": 2154,
      "à¤ķà¤ļ": 2155,
      "à¤ıà¤¨à¤¸": 2156,
      "Ġà¤¬à¤ķà¤°": 2157,
      "Ġà¤īà¤ªà¤¹": 2158,
      "Ġà¤ĩà¤¸à¤¨": 2159,
      "Ġà¤Īà¤¦": 2160,
      "Ġà¤²à¤¦": 2161,
      "Ġà¤¸à¤¨à¤¸à¤¨": 2162,
      "Ġà¤ĳà¤¨": 2163,
      "à¤¥à¤¶": 2164,
      "à¤ľà¤Ĺà¤¹": 2165,
      "à¤Ļ": 2166,
      "à¤®à¤Ń": 2167,
      "à¥ª": 2168,
      "Ġà¤¶à¤¹à¤¦": 2169,
      "Ġà¤µà¤²": 2170,
      "Ġà¤Īà¤ķ": 2171,
      "Ġ99": 2172,
      "Ġà¤ħà¤Ńà¤¯": 2173,
      "Ġà¤ªà¥Ŀà¤¨": 2174,
      "à¤µà¤ķà¤°": 2175,
      "à¤Īà¤®": 2176,
      "Ġà¤¬à¤°à¤¤à¤¨": 2177,
      "à¤ıà¤¸à¤¡": 2178,
      "Ġ84": 2179,
      "Ġà¤²à¤ķà¤¡": 2180,
      "à¤ĩà¤§à¤°": 2181,
      "à¤ĸà¤¬": 2182,
      "Ġà¤ľà¤²à¤¨": 2183,
      "Ġà¤°à¤¹à¤®": 2184,
      "à¤ªà¤¢": 2185,
      "Ġà¤ªà¤°à¤¤": 2186,
      "à¤ķà¤°à¤¨": 2187,
      "Ġà¤¬à¤ĺ": 2188,
      "Ġà¤ıà¤¨à¤ķ": 2189,
      "Ġà¤¤à¤¹": 2190,
      "Ġà¤ħà¤¥": 2191,
      "à¤¸à¤ıà¤ª": 2192,
      "à¤łà¤¶": 2193,
      "Ġà¥ª": 2194,
      "38": 2195,
      "Ġà¤īà¤¦à¤¯": 2196,
      "Ġà¤Ĩà¤®à¤¦à¤¨": 2197,
      "65": 2198,
      "Ġà¤ıà¤®à¤ª": 2199,
      "Ġà¥«": 2200,
      "Ġà¤µà¤¶": 2201,
      "Ġà¤Ĺà¤¡à¤ķà¤°": 2202,
      "Ġà¤ķà¤²à¤®": 2203,
      "à¤Ľà¥ľ": 2204,
      "37": 2205,
      "Ġ2002": 2206,
      "Ġà¤¹à¤°à¤¦": 2207,
      "Ġà¥§à¥¯à¥": 2208,
      "Ġà¤ıà¤¸à¤¬": 2209,
      "Ġà¤Ĩà¤Īà¤ľ": 2210,
      "Ġà¤ľà¤¨à¤ķ": 2211,
      "Ġà¤°à¤£à¤ľ": 2212,
      "Ġà¤¡à¤ķ": 2213,
      "Ġà¤ıà¤®à¤¸": 2214,
      "Ġà¤¨à¤¡": 2215,
      "Ġ5000": 2216,
      "à¤«à¤²à¤¤": 2217,
      "Ġà¤ıà¤®à¤¬": 2218,
      "à¤°à¤Ńà¤¦": 2219,
      "à¤¦à¤¹": 2220,
      "Ġà¤¹à¤®à¤¸": 2221,
      "à¤Ĩà¤°à¤Ł": 2222,
      "Ġà¤Ĩà¤Ĺà¤®à¤¨": 2223,
      "à¤°à¤¡": 2224,
      "Ġ108": 2225,
      "39": 2226,
      "Ġ61": 2227,
      "Ġà¤ħà¤«à¤°": 2228,
      "Ġà¤°à¤¬": 2229,
      "à¤ĭ": 2230,
      "Ġ800": 2231,
      "à¤Īà¤ľ": 2232,
      "Ġà¤¸à¤¹à¤µ": 2233,
      "Ġà¤Ĩà¤°à¤ª": 2234,
      "Ġà¤ļà¤¹": 2235,
      "Ġà¤ıà¤¨à¤Ĩà¤°à¤¸": 2236,
      "Ġà¤¦à¤¸à¤µ": 2237,
      "Ġà¤ħà¤ľà¤®": 2238,
      "Ġà¤ıà¤®à¤ıà¤¸": 2239,
      "Ġà¤ĩà¤ľà¤°": 2240,
      "Ġà¤§à¤¨à¤°": 2241,
      "Ġà¤¬à¤ľà¤ķà¤°": 2242,
      "Ġ2003": 2243,
      "Ġà¤¨à¤Ĺà¤°à¤ª": 2244,
      "à¤·à¤ķà¤°": 2245,
      "Ġà¤Ĩà¤®à¤¨": 2246,
      "Ġà¤¬à¤¢à¤©": 2247,
      "à¤Łà¤ħà¤ª": 2248,
      "Ġà¤Ĩà¤®à¤¦": 2249,
      "Ġà¤«à¤¡à¤£à¤µ": 2250,
      "Ġà¤Ĩà¤ĩà¤¡": 2251,
      "2019": 2252,
      "à¤¤à¤°à¤¹": 2253,
      "à¤ªà¥ľ": 2254,
      "Ġà¤ħà¤¨à¤ľ": 2255,
      "Ġà¤ĩà¤Łà¤²": 2256,
      "Ġà¤īà¤ªà¤ª": 2257,
      "Ġà¤¦à¤¹à¤¶à¤¤": 2258,
      "à¤ĸà¤Ł": 2259,
      "Ġà¤¸à¤Īà¤¦": 2260,
      "Ġà¤²à¤¹": 2261,
      "Ġà¤ľà¤¨à¤ª": 2262,
      "à¤°à¤£à¤¬": 2263,
      "Ġà¤ħà¤µà¤°": 2264,
      "47": 2265,
      "Ġà¤ļà¤²à¤ķà¤°": 2266,
      "Ġà¤¸à¤¹à¤Ń": 2267,
      "Ġà¤Īà¤¡": 2268,
      "à¤ıà¤¸à¤¬": 2269,
      "à¤ħà¤ľ": 2270,
      "Ġà¤¤à¤¬à¤ķ": 2271,
      "85": 2272,
      "Ġà¤«à¤Łà¤ķ": 2273,
      "Ġà¤·à¤¡": 2274,
      "à¤¸à¤°à¤¸": 2275,
      "à¤Ĩà¤Īà¤¡": 2276,
      "à¥§": 2277,
      "Ġà¤¸à¤®à¤¯à¤¸à¤®à¤¯": 2278,
      "Ġà¤Łà¤®": 2279,
      "à¤ĳà¤«": 2280,
      "32": 2281,
      "Ġà¤¦à¤®à¤¦": 2282,
      "Ġà¤ļà¤®à¤¤": 2283,
      "à¤ľà¤Ń": 2284,
      "à¥Ģà¤ģ": 2285,
      "à¤¦à¤°à¤®": 2286,
      "Ġà¤¨à¤¸à¤²": 2287,
      "Ġà¤ĩà¤¸à¤°": 2288,
      "Ġà¤ıà¤¨à¤ıà¤ļ": 2289,
      "Ġà¤ľà¤²à¤¸": 2290,
      "Ġà¤Īà¤¯à¤°": 2291,
      "à¤°à¤¤à¤®": 2292,
      "à¤ıà¤¨à¤¬": 2293,
      "Ġà¤Ĩà¤¸à¤¨": 2294,
      "à¤¡à¤³": 2295,
      "2014": 2296,
      "à¤ıà¤¨à¤ıà¤²": 2297,
      "Ġà¤ķà¤¯": 2298,
      "à¤Īà¤ļ": 2299,
      "à¤£à¤ªà¤¤": 2300,
      "Ġà¤ħà¤ªà¤²": 2301,
      "à¤°à¤ļà¤²": 2302,
      "Ġà¤Ĺà¤£à¤¨": 2303,
      "à¤ľà¤ķà¤°": 2304,
      "Ġà¤¢à¤ķ": 2305,
      "Ġà¤ĸà¤ªà¤¤": 2306,
      "à¥Ń": 2307,
      "Ġà¤ıà¤¥à¤²": 2308,
      "Ġà¤ħà¤Ĺà¤µ": 2309,
      "à¤¼à¤¿à¤Ĥ": 2310,
      "à¤§à¤²": 2311,
      "Ġà¤ľà¤¬à¤²à¤ª": 2312,
      "à¤µà¤¨à¤¸": 2313,
      "Ġ130": 2314,
      "Ġà¤ľà¤¦à¤¯": 2315,
      "Ġà¤ıà¤¨à¤°": 2316,
      "Ġà¤¬à¤¹à¤°": 2317,
      "à¤°à¤¹à¤®": 2318,
      "à¤Łà¤²à¤°": 2319,
      "à¤°à¤¹à¤µ": 2320,
      "à¤Ľà¤°": 2321,
      "Ġ71": 2322,
      "à¤¨à¤¹à¤°": 2323,
      "Ġà¤¬à¤Ĺà¤²": 2324,
      "à¤ľà¤¨à¤¤": 2325,
      "à¤Ĩà¤°à¤¬": 2326,
      "Ġà¤¯à¤®à¤¨": 2327,
      "Ġà¤¸à¤¤à¤¹": 2328,
      "Ġà¤ıà¤¯à¤°à¤Ł": 2329,
      "à¤µà¤ķà¤ª": 2330,
      "à¤°à¤µà¤£": 2331,
      "Ġ1500": 2332,
      "à¤°à¤¤à¤ª": 2333,
      "à¤¯à¤®à¤¨": 2334,
      "à¤³à¤¤": 2335,
      "Ġà¤ľà¤¸à¤µ": 2336,
      "à¤ħà¤µ": 2337,
      "Ġà¤ªà¤¤à¤²": 2338,
      "Ġà¤®à¤¦à¤¦à¤Ĺ": 2339,
      "à¥ĩà¥ĩà¤Ĥ": 2340,
      "à¤ıà¤ļà¤¡": 2341,
      "à¤¤à¤°à¤«": 2342,
      "Ġ110": 2343,
      "Ġ86": 2344,
      "Ġà¤ľà¤ª": 2345,
      "Ġà¤ļà¤¶": 2346,
      "Ġà¤¨à¤²": 2347,
      "à¤ıà¤ļà¤ĵ": 2348,
      "à¤ıà¤¯à¤°": 2349,
      "33": 2350,
      "à¤Łà¤°à¤Ł": 2351,
      "Ġà¤¹à¥Ľ": 2352,
      "à¤¿à¤ĥ": 2353,
      "à¤ļà¤¡": 2354,
      "Ġà¤Ĩà¤ĩ": 2355,
      "à¤³à¤£": 2356,
      "Ġà¤ªà¤Łà¤µ": 2357,
      "Ġà¤µà¤Ĺ": 2358,
      "Ġà¤īà¤¬à¤°": 2359,
      "à¤īà¤¡": 2360,
      "à¤Ĩà¤Īà¤ľ": 2361,
      "Ġà¤ľà¥ľ": 2362,
      "Ġà¤ĵà¤µ": 2363,
      "à¤°à¤Ł": 2364,
      "à¤Ĩà¤°à¤¡": 2365,
      "Ġà¤²à¥ľà¤¨": 2366,
      "à¤¯à¤«": 2367,
      "Ġà¤¦à¤¶à¤¹à¤°": 2368,
      "à¤®à¤ķà¤¤": 2369,
      "Ġà¤ĩà¤«": 2370,
      "Ġà¤Ĩà¤ī": 2371,
      "à¤°à¤¨à¤ª": 2372,
      "à¤Ńà¤ľà¤¨": 2373,
      "Ġà¤¨à¤«à¤°à¤¤": 2374,
      "Ġà¤ĩà¤¨à¤ķà¤®": 2375,
      "48": 2376,
      "à¤·à¤ª": 2377,
      "Ġà¤ľà¤Ĺà¤¨": 2378,
      "à¤Ńà¤¨": 2379,
      "Ġ88": 2380,
      "à¥¬": 2381,
      "Ġ700": 2382,
      "à¤®à¤ķà¤°": 2383,
      "Ġà¤®à¤¨à¤°": 2384,
      "Ġà¤¸à¤®à¤Ŀà¤¦": 2385,
      "à¤ľà¤°à¤¤": 2386,
      "95": 2387,
      "à¤ĵà¤®": 2388,
      "Ġà¤®à¤ķà¤°": 2389,
      "Ġà¤ªà¤°à¤¦": 2390,
      "Ġà¤ĺà¤°à¤µ": 2391,
      "à¤¢à¤²": 2392,
      "à¥§à¥": 2393,
      "à¤ĩà¤Łà¤°": 2394,
      "à¤¬à¤µ": 2395,
      "Ġà¤ıà¤®à¤¡": 2396,
      "Ġà¤®à¤¹à¤¬": 2397,
      "Ġ05": 2398,
      "2017": 2399,
      "à¤ħà¤¯": 2400,
      "à¤ļà¤ª": 2401,
      "Ġà¤ļà¤¹à¤²": 2402,
      "Ġà¤®à¤²à¤¬": 2403,
      "à¤°à¤£à¤µ": 2404,
      "Ġà¤Ĩà¤¢": 2405,
      "Ġà¤Ĩà¤Īà¤Ĩà¤Īà¤Ł": 2406,
      "100": 2407,
      "à¤īà¤ľ": 2408,
      "à¥¥": 2409,
      "Ġà¤ķà¤¤à¤°": 2410,
      "à¤®à¤ľà¤¦": 2411,
      "à¤¨à¤¡": 2412,
      "Ġà¤Ĩà¤Īà¤ıà¤¸à¤Ĩà¤Ī": 2413,
      "à¤łà¤²": 2414,
      "Ġ87": 2415,
      "Ġà¤ľà¤Ĺà¤¹à¤ľà¤Ĺà¤¹": 2416,
      "Ġà¤Ĩà¤ļà¤°à¤£": 2417,
      "à¤µà¤³": 2418,
      "Ġà¤¬à¤Łà¤¨": 2419,
      "à¥īà¤Ĥ": 2420,
      "Ġà¤ªà¤£": 2421,
      "à¤¨à¤Ńà¤°": 2422,
      "à¤§à¤®": 2423,
      "à¤¯à¤°à¤¨": 2424,
      "Ġà¤ıà¤«à¤¡": 2425,
      "Ġà¤ķà¤¹à¤°": 2426,
      "Ġ105": 2427,
      "à¤¾à¤ĥ": 2428,
      "à¤¡à¤¤": 2429,
      "Ġà¤ķà¤¥à¤¨": 2430,
      "à¤¥à¤¡": 2431,
      "à¤ķà¤¦": 2432,
      "Ġà¤ķà¤ªà¤²": 2433,
      "à¤¸à¤¤à¤¨": 2434,
      "Ġà¤µà¤°à¤¦": 2435,
      "Ġà¤ľà¤¦": 2436,
      "Ġ201718": 2437,
      "Ġà¥¨à¥¦à¥": 2438,
      "Ġà¤¬à¤¦à¤²à¤ķà¤°": 2439,
      "à¤ªà¤°à¤¹": 2440,
      "à¤·à¤¸": 2441,
      "Ġà¤ĺà¤Łà¤ķ": 2442,
      "à¤§à¤°à¤¨": 2443,
      "à¤®à¤¨à¤Ĺà¤°": 2444,
      "Ġà¤ıà¤¨à¤ıà¤¸": 2445,
      "à¤ıà¤Ĩà¤Ī": 2446,
      "Ġà¤ķà¤¦à¤°": 2447,
      "à¤ķà¤Łà¤°": 2448,
      "Ġà¤Ĩà¤°à¤ľ": 2449,
      "à¤¬à¤¸à¤ª": 2450,
      "à¤¡à¤£": 2451,
      "Ġà¤®à¤¦à¤°à¤¸": 2452,
      "à¤®à¤ĺ": 2453,
      "à¤ķà¤µà¤°": 2454,
      "Ġà¤¹à¤Łà¤¨": 2455,
      "à¤ĵà¤Ĺ": 2456,
      "à¤«à¤°à¤ª": 2457,
      "à¤¹à¤°à¤²": 2458,
      "à¤Ĺà¤¤à¤¨": 2459,
      "Ġà¤ĩà¤Ł": 2460,
      "Ġà¤¤à¤²à¤¬": 2461,
      "Ġà¤ħà¤·": 2462,
      "Ġ10000": 2463,
      "Ġà¤¸à¤®à¤Ĺ": 2464,
      "Ġà¤Ļ": 2465,
      "à¤ĸà¤ª": 2466,
      "à¤¦à¤°à¤Ĺ": 2467,
      "à¤¯à¤¬à¤°": 2468,
      "à¤Ĳà¤ª": 2469,
      "à¤īà¤ķ": 2470,
      "Ġà¥Ľà¤®": 2471,
      "à¤Ĺà¤¯": 2472,
      "Ġ96": 2473,
      "Ġà¤¸à¤ķà¤²": 2474,
      "à¤¤à¤¨à¤®": 2475,
      "à¤Ĺà¤¨à¤¬": 2476,
      "Ġà¤Ĩà¤¹à¤¤": 2477,
      "Ġ97": 2478,
      "Ġ98": 2479,
      "à¤ļà¤°à¤£": 2480,
      "à¥®": 2481,
      "à¤¾à¤¾": 2482,
      "Ġà¤®à¤ª": 2483,
      "Ġ94": 2484,
      "à¤Ĩà¤°à¤ıà¤¸": 2485,
      "à¤°à¤Ĺà¤¢": 2486,
      "à¤¢à¤¨": 2487,
      "Ġ2001": 2488,
      "à¤Ĺà¤Ł": 2489,
      "57": 2490,
      "Ġ79": 2491,
      "à¤²à¤Ł": 2492,
      "à¤¸à¤®à¤°": 2493,
      "Ġà¤¯à¤¶à¤µ": 2494,
      "à¤Ŀà¤ķà¤°": 2495,
      "à¤ĸà¤²à¤¨": 2496,
      "à¤ķà¤°à¤¶": 2497,
      "Ġà¤ķà¤¬à¤¡": 2498,
      "Ġà¤Ĩà¤°à¤¸": 2499,
      "Ġà¤ľà¤¯à¤°": 2500,
      "Ġà¤īà¤łà¤ķà¤°": 2501,
      "Ġ89": 2502,
      "à¤łà¤µ": 2503,
      "Ġà¤ļà¤µ": 2504,
      "à¤ĩà¤ļ": 2505,
      "à¤¶à¤¨à¤¶": 2506,
      "Ġ1999": 2507,
      "à¤ĩà¤¤": 2508,
      "Ġà¤Ĺà¤°à¤ľ": 2509,
      "Ġà¤¸à¤¤à¤ª": 2510,
      "à¤¾à¥Ī": 2511,
      "Ġà¤Ĩà¥Ľ": 2512,
      "Ġà¤®à¤¹à¤®": 2513,
      "à¤Ĭà¤¸": 2514,
      "Ġà¤ªà¤Łà¤ķ": 2515,
      "Ġà¤īà¤ĸ": 2516,
      "à¤ķà¤Ĺ": 2517,
      "à¤ķà¤²à¤ķà¤°": 2518,
      "Ġ3000": 2519,
      "Ġà¤īà¤Ńà¤°à¤¤": 2520,
      "Ġà¤ĸà¤£": 2521,
      "Ġà¤Ĩà¤°à¤®": 2522,
      "Ġà¤µà¤§": 2523,
      "à¤Ĩà¤ĩà¤ı": 2524,
      "Ġà¤¬à¤²à¤°": 2525,
      "à¤¼à¤Ĥ": 2526,
      "Ġà¤ħà¤Ľ": 2527,
      "Ġà¤ĵà¤¸": 2528,
      "Ġà¤Ĩà¤ĺ": 2529,
      "Ġà¤īà¤¨à¤ªà¤°": 2530,
      "à¤Ĺà¤®à¤¨": 2531,
      "à¤¢à¤¤": 2532,
      "Ġà¤ħà¤²à¤µ": 2533,
      "à¤ħà¤¹à¤®": 2534,
      "Ġà¤Ĩà¤Īà¤ıà¤¸": 2535,
      "à¥Ģà¤ĥ": 2536,
      "Ġà¤¬à¤¹à¤¤": 2537,
      "Ġà¤īà¤¦à¤¯à¤ª": 2538,
      "500": 2539,
      "à¤ªà¤ª": 2540,
      "Ġà¤Ĺà¤£à¤®": 2541,
      "à¤«à¤¸": 2542,
      "Ġà¤ķà¤¤à¤Ī": 2543,
      "à¤µà¤Ĺà¤¨": 2544,
      "à¤¶à¤ľ": 2545,
      "à¤ªà¤£à¤¨": 2546,
      "46": 2547,
      "Ġà¤¹à¤¬": 2548,
      "Ġà¤¸à¤ļà¤®": 2549,
      "à¤¸à¤µà¤°": 2550,
      "Ġà¤µà¥ĺ": 2551,
      "à¤ĩà¤«à¤²": 2552,
      "Ġà¤ħà¤Łà¤ķà¤²": 2553,
      "Ġà¤¸à¤µà¤°": 2554,
      "à¤ľà¤®à¤¹à¤²": 2555,
      "à¤ķà¤«": 2556,
      "Ġà¤ĺà¤®": 2557,
      "Ġà¤ľà¤¸à¤ª": 2558,
      "Ġ190": 2559,
      "à¤ªà¤°à¤®": 2560,
      "à¤¯à¤¤à¤¨": 2561,
      "Ġà¤ªà¤¹à¤¨à¤ķà¤°": 2562,
      "Ġà¤¨à¤ľà¤°à¤ħ": 2563,
      "à¤ŀà¤ª": 2564,
      "Ġà¤ķà¤£": 2565,
      "Ġà¤¬à¥Ŀà¤ķà¤°": 2566,
      "Ġà¤Ńà¤°à¤ķà¤°": 2567,
      "Ġà¤Īà¤ª": 2568,
      "à¤Ńà¤ª": 2569,
      "à¤«à¤°à¤¨à¤Ĺà¤°": 2570,
      "Ġ144": 2571,
      "Ġà¤ĩà¤°à¤«": 2572,
      "Ġ1998": 2573,
      "Ġà¤ªà¤¡à¤²": 2574,
      "Ġà¤ıà¤®à¤ıà¤²": 2575,
      "à¤²à¤Ĺà¤Ńà¤Ĺ": 2576,
      "à¤¾à¤¼": 2577,
      "Ġà¤®à¤ł": 2578,
      "à¤Ĩà¤ªà¤¨": 2579,
      "Ġà¤ħà¤®à¤°à¤¨": 2580,
      "Ġà¥¬": 2581,
      "Ġà¤¸à¤¶à¤¸": 2582,
      "Ġ180": 2583,
      "77": 2584,
      "Ġà¤Ĺà¤£à¤ªà¤¤": 2585,
      "Ġ1990": 2586,
      "Ġà¤¹à¤°à¤®": 2587,
      "Ġà¤®à¤¤à¤Ĺà¤£à¤¨": 2588,
      "Ġà¤ªà¥ľà¤¨": 2589,
      "à¤«à¤¡": 2590,
      "à¤ķà¤ķ": 2591,
      "55": 2592,
      "49": 2593,
      "Ġà¤ªà¤°à¤¹": 2594,
      "à¤¥à¤¯": 2595,
      "à¤¬à¤Ĺ": 2596,
      "Ġ350": 2597,
      "à¤ıà¤ļà¤¸": 2598,
      "Ġà¤ªà¤¦à¤¸": 2599,
      "Ġà¤¤à¤ªà¤¸": 2600,
      "à¤µà¤¸à¤®": 2601,
      "à¤ķà¤¯": 2602,
      "à¤Ĩà¤°à¤Ĩà¤Ī": 2603,
      "Ġà¤Īà¤Ł": 2604,
      "à¤¬à¤§": 2605,
      "Ġà¤®à¤¶à¤ķ": 2606,
      "Ġà¤µà¤¡": 2607,
      "à¤ľà¤¨à¤¯": 2608,
      "Ġ83": 2609,
      "Ġà¤īà¤ªà¤Ĺ": 2610,
      "Ġ81": 2611,
      "Ġà¤²à¤¶": 2612,
      "Ġà¤°à¤ĸà¤°à¤ĸ": 2613,
      "à¤¬à¤Ł": 2614,
      "Ġà¤ķà¤Łà¤°": 2615,
      "à¤Īà¤«": 2616,
      "à¤µà¤²à¤ªà¤®": 2617,
      "à¤²à¤¶": 2618,
      "Ġà¤¹à¤²à¤ļà¤²": 2619,
      "Ġà¤«à¤¹à¤°": 2620,
      "Ġ82": 2621,
      "à¤¨à¤«": 2622,
      "à¤ĺà¤²": 2623,
      "Ġà¤¸à¤¹à¤¸": 2624,
      "à¤ıà¤¨à¤ı": 2625,
      "Ġà¤ħà¤ķà¤¸à¤°": 2626,
      "à¤¸à¤Ĳà¤ª": 2627,
      "à¤¸à¤²à¤°": 2628,
      "Ġà¤ľà¤¨à¤®": 2629,
      "à¤Ĩà¤ľà¤ķà¤²": 2630,
      "à¤ķà¤Ĩà¤īà¤Ł": 2631,
      "Ġà¤ĳà¥ŀ": 2632,
      "à¤¹à¤ľà¤¹": 2633,
      "Ġà¤ıà¤¸à¤Ĩà¤Īà¤Ł": 2634,
      "à¤Īà¤¶": 2635,
      "à¤¤à¤°à¤®": 2636,
      "199": 2637,
      "Ġà¤ĩà¤£": 2638,
      "à¤¸à¤°à¤¤": 2639,
      "Ġà¤ħà¤¸à¤®à¤°": 2640,
      "2016": 2641,
      "à¤Łà¤°à¤®": 2642,
      "Ġà¤²à¤¹à¤¸": 2643,
      "Ġ140": 2644,
      "44": 2645,
      "à¤¡à¥ļ": 2646,
      "Ġà¤īà¤ķà¤¸": 2647,
      "Ġà¤Ķà¤¸à¤¤à¤¨": 2648,
      "Ġà¤¤à¤°à¤¹à¤¤à¤°à¤¹": 2649,
      "Ġà¤µà¤¯": 2650,
      "à¤¦à¤¶à¤¹à¤°": 2651,
      "à¤ķà¤ł": 2652,
      "Ġà¤īà¤¤à¤°à¤¤": 2653,
      "Ġà¤®à¤¸à¤²à¤¨": 2654,
      "66": 2655,
      "Ġà¤ĩà¤®à¤°à¤ľ": 2656,
      "à¤ıà¤®à¤ķ": 2657,
      "Ġà¤ķà¤¸à¤°": 2658,
      "à¤®à¤°à¤¨": 2659,
      "à¤ĵà¤µà¤°": 2660,
      "Ġà¤ħà¤ľà¤¹à¤°": 2661,
      "Ġà¤¹à¥ľà¤¤": 2662,
      "Ġà¤²à¤ĸ": 2663,
      "Ġà¤¡à¤°à¤¤": 2664,
      "Ġà¤¤à¤ĸ": 2665,
      "à¤¯à¤²à¤²": 2666,
      "à¤Ĺà¤²à¤ª": 2667,
      "Ġ201617": 2668,
      "à¤ĺà¤®": 2669,
      "à¥ĭà¤Ĥà¤Ĥ": 2670,
      "Ġ01": 2671,
      "Ġ201819": 2672,
      "à¥Īà¤Ĥ!": 2673,
      "Ġà¤īà¤®à¤¡": 2674,
      "Ġà¤Ĩà¤ĩà¤Ł": 2675,
      "à¤ıà¤¸à¤ıà¤¨à¤ıà¤²": 2676,
      "Ġà¤«à¤²à¤¸": 2677,
      "à¤°à¤¶à¤¸": 2678,
      "à¤¸à¤¶": 2679,
      "à¤¯à¤¤à¤ķà¤°": 2680,
      "Ġà¤ĩà¤ķà¤¬": 2681,
      "à¤µà¤ľà¤¹": 2682,
      "Ġà¤ıà¤¸à¤ıà¤®à¤ıà¤¸": 2683,
      "Ġà¤Ĩà¤Īà¤¬": 2684,
      "Ġà¤Ńà¤°à¤®": 2685,
      "Ġà¤ħà¤¨à¤¨": 2686,
      "Ġ115": 2687,
      "Ġà¤ħà¤µà¤²": 2688,
      "à¥ĩà¤Ĥà¤Ĥ": 2689,
      "à¤ħà¤¡": 2690,
      "à¤¨à¤¸à¤¨": 2691,
      "Ġà¤¸à¤¤à¤¤": 2692,
      "88": 2693,
      "à¤°à¤¬à¤¨": 2694,
      "Ġ160": 2695,
      "à¤ĳà¤ķ": 2696,
      "à¤ķà¤¹à¤¤": 2697,
      "à¤¯à¤¸à¤µ": 2698,
      "Ġà¤ħà¤²à¤ķ": 2699,
      "Ġà¤¸à¤®à¤ķà¤ķ": 2700,
      "Ġà¤Ĺà¥Ŀ": 2701,
      "à¤Ŀà¤¨": 2702,
      "Ġà¤ıà¤®à¤ı": 2703,
      "Ġà¤¨à¤ª": 2704,
      "Ġ2022": 2705,
      "Ġà¤ĩà¤ķà¤²": 2706,
      "à¤ıà¤¨à¤¡": 2707,
      "Ġà¤¦à¤¬à¤¦à¤¬": 2708,
      "67": 2709,
      "Ġà¤®à¤¨à¤ª": 2710,
      "à¤Ńà¤Ĺà¤¤": 2711,
      "à¤Īà¤Ī": 2712,
      "Ġà¤ħà¤«à¤¸": 2713,
      "à¤²à¤®à¤ª": 2714,
      "à¤µà¤°à¤ķ": 2715,
      "à¥°": 2716,
      "à¤ĵà¤ª": 2717,
      "Ġà¤¥à¤ª": 2718,
      "Ġà¤ħà¤¬à¤¤à¤ķ": 2719,
      "Ġà¤Ĺà¤¶": 2720,
      "Ġà¤¦à¤¹à¤²": 2721,
      "à¤¤à¤°à¤ķ": 2722,
      "à¤Ĩà¤Īà¤ıà¤²": 2723,
      "Ġà¥¨à¥¦à¥§à¥": 2724,
      "Ġ93": 2725,
      "à¤°à¤ķà¤®": 2726,
      "à¤ľà¤°à¤²": 2727,
      "Ġà¤¶à¤®à¤¶": 2728,
      "Ġà¤¹à¤°à¤Ńà¤ľà¤¨": 2729,
      "Ġà¤¬à¤²à¤¬": 2730,
      "à¤łà¤®": 2731,
      "à¤ľà¤¨à¤²": 2732,
      "Ġà¤ļà¤¬": 2733,
      "à¤¹à¤®à¤²": 2734,
      "Ġà¤®à¤µ": 2735,
      "Ġ92": 2736,
      "Ġà¤ĺà¤Łà¤¤": 2737,
      "Ġà¤ıà¤ıà¤¸à¤Ĩà¤Ī": 2738,
      "Ġà¤ıà¤²à¤Īà¤¡": 2739,
      "Ġà¤¸à¤§": 2740,
      "Ġà¤¹à¤°à¤¸": 2741,
      "Ġà¤Ĩà¤ĵ": 2742,
      "à¤ķà¤¤à¤µà¤°": 2743,
      "Ġà¤ħà¤Ńà¤¦": 2744,
      "à¤¬à¤¬": 2745,
      "Ġà¤Ńà¤Ĺà¤µà¤¤": 2746,
      "Ġà¤ĩà¤¸à¤ªà¤°": 2747,
      "Ġà¤¨à¤Ĺà¤¦": 2748,
      "Ġà¤¸à¤®à¤²": 2749,
      "à¤ħà¤ªà¤°": 2750,
      "Ġ1996": 2751,
      "à¤ĵà¤¬": 2752,
      "à¤ıà¤Łà¤°": 2753,
      "Ġà¤Ĩà¤Īà¤ıà¤®": 2754,
      "Ġ06": 2755,
      "Ġ09": 2756,
      "Ġà¤²à¤ª": 2757,
      "Ġà¤ıà¤ļà¤ª": 2758,
      "à¤Ĩà¤ķ": 2759,
      "à¤®à¤®à¤¤": 2760,
      "Ġà¤Ĩà¤Īà¤ıà¤ıà¤¨à¤ıà¤¸": 2761,
      "Ġà¤ķà¤²à¤¶": 2762,
      "à¤ħà¤¸à¤®": 2763,
      "à¤¸à¤°à¤£": 2764,
      "Ġà¤¦à¤®à¤¨": 2765,
      "0000": 2766,
      "Ġà¤¶à¤¸": 2767,
      "à¤¨à¤Ń": 2768,
      "à¤¬à¤¢": 2769,
      "à¤·à¤Ń": 2770,
      "!!": 2771,
      "Ġà¤ıà¤®à¤ıà¤®": 2772,
      "Ġà¤ħà¤ªà¤µ": 2773,
      "Ġà¤¨à¤®à¤¸": 2774,
      "à¤ªà¤ķà¤°": 2775,
      "Ġ1984": 2776,
      "Ġà¤®à¤Ĺ": 2777,
      "Ġà¤²à¤¡à¤ķ": 2778,
      "à¤¡à¤°à¤°": 2779,
      "Ġà¤®à¤¨à¤¸": 2780,
      "Ġà¤ķà¤Ĺ": 2781,
      "à¤ħà¤¹à¤®à¤¦": 2782,
      "à¤ĩà¤Łà¤²": 2783,
      "à¤ħà¤ľà¤¯": 2784,
      "Ġà¤ĺà¤°à¤ĺà¤°": 2785,
      "Ġà¤§à¤°à¤£": 2786,
      "Ġà¤Ĺà¥ľ": 2787,
      "Ġà¤¬à¤¹à¤²": 2788,
      "Ġà¤Ĺà¤Ł": 2789,
      "Ġà¤ħà¤¦à¤°à¤ķ": 2790,
      "Ġà¤¨à¤Ĺà¤°à¤¸": 2791,
      "Ġà¤µà¤¤": 2792,
      "Ġà¤Ĺà¤łà¤ľ": 2793,
      "Ġà¤īà¤ªà¤²à¤ķ": 2794,
      "Ġà¥Ļà¤°": 2795,
      "Ġà¤Ĩà¤Īà¤«": 2796,
      "à¤°à¤ļà¤¢": 2797,
      "Ġà¤ĵà¤Ŀ": 2798,
      "Ġà¤ļà¤Łà¤ķ": 2799,
      "Ġà¤Ĩà¤¯à¤¤": 2800,
      "à¤§à¤¸": 2801,
      "2015": 2802,
      "68": 2803,
      "Ġà¤ħà¤¨à¤¸": 2804,
      "Ġà¥Ń": 2805,
      "à¥ĩà¤ģ": 2806,
      "Ġà¤ħà¤ĺ": 2807,
      "Ġà¤ħà¤£": 2808,
      "à¤¦à¤°à¤²": 2809,
      "Ġà¤ħà¤µà¤®": 2810,
      "Ġà¤®à¤Ł": 2811,
      "Ġà¤¬à¤²à¤¦": 2812,
      "à¤¸à¤¨à¤ķ": 2813,
      "Ġà¥¨à¥¦": 2814,
      "à¤µà¥ľ": 2815,
      "Ġà¤²à¤¯": 2816,
      "à¤·à¤¨": 2817,
      "à¤·à¤°à¤¤": 2818,
      "Ġà¤Ĩà¤ľà¤¤à¤ķ": 2819,
      "à¤¬à¤°à¤¦": 2820,
      "Ġà¤ħà¤¸à¤¦": 2821,
      "Ġà¤Ĩà¤¯à¤°à¤¨": 2822,
      "à¤½": 2823,
      "à¤°à¤¸à¤µ": 2824,
      "à¤ıà¤Ī": 2825,
      "à¤Ľà¤¹": 2826,
      "Ġ07": 2827,
      "Ġ08": 2828,
      "à¤Ńà¤¤": 2829,
      "à¤ıà¤«à¤Ĩà¤Ī": 2830,
      "à¤¸à¤Ĭà¤¦": 2831,
      "à¤ħà¤Ĺ": 2832,
      "Ġ02": 2833,
      "Ġ04": 2834,
      "Ġà¤ĭà¤·à¤Ń": 2835,
      "à¤¨à¤ľà¤¨à¤ķ": 2836,
      "Ġà¤ıà¤Ĩà¤Ī": 2837,
      "Ġà¤īà¤·": 2838,
      "à¤¬à¤ľà¤Ł": 2839,
      "à¤ĸà¤¸": 2840,
      "Ġà¤Ĩà¤®à¤ľà¤¨": 2841,
      "à¤¬à¤¯": 2842,
      "Ġà¤ıà¤¨à¤Ł": 2843,
      "à¥įà¤¼": 2844,
      "Ġà¤¸à¥ŀ": 2845,
      "Ġ1947": 2846,
      "à¤²à¤¬à¤°": 2847,
      "à¤Ńà¤°à¤¤": 2848,
      "Ġà¤ľà¤¨à¤Ĺà¤£à¤¨": 2849,
      "à¤¬à¤³": 2850,
      "Ġà¤īà¤¸à¤ªà¤°": 2851,
      "à¤¬à¤®": 2852,
      "Ġ1200": 2853,
      "Ġà¤¸à¤¤à¤¨": 2854,
      "Ġà¤ıà¤¸à¤ķ": 2855,
      "à¤®à¤¤à¤¦": 2856,
      "Ġà¤ıà¤µà¤ľ": 2857,
      "Ġà¤ªà¤²à¤Łà¤µ": 2858,
      "Ġà¤®à¤¹à¤ķà¤®": 2859,
      "à¤Łà¤°à¤¨à¤²": 2860,
      "Ġà¤¹à¤²à¤«à¤¨": 2861,
      "à¤¡à¤«": 2862,
      "Ġà¤ĵà¤Ł": 2863,
      "à¤ħà¤«à¤Ĺ": 2864,
      "Ġà¤ļà¤°à¤®à¤ª": 2865,
      "à¤³à¤²": 2866,
      "à¥ĭ!": 2867,
      "à¥ģà¥į": 2868,
      "Ġà¤Ķà¤±": 2869,
      "Ġà¤ľà¤¯à¤²à¤²": 2870,
      "à¤ķà¤Ŀ": 2871,
      "Ġà¤ħà¤¸à¤£": 2872,
      "à¤Īà¤¬à¤¹à¤¨": 2873,
      "89": 2874,
      "à¤·à¤¸à¤¹": 2875,
      "Ġà¤ªà¤²à¤µà¤²": 2876,
      "Ġà¤°à¤®à¤ľ": 2877,
      "à¤ıà¤®à¤ª": 2878,
      "à¤Ĩà¤°à¤ıà¤«": 2879,
      "Ġà¤ĸà¤Łà¤ĸà¤Ł": 2880,
      "Ġà¤¤à¤°à¤¸": 2881,
      "à¤¥à¤³": 2882,
      "Ġà¤ĸà¤¸": 2883,
      "Ġà¤¦à¤«à¤¨": 2884,
      "42": 2885,
      "à¤¡à¤°à¤¸à¤¨": 2886,
      "Ġà¤Ĩà¤¬à¤ķ": 2887,
      "Ġà¤ıà¤ķà¤¤à¤°à¤«": 2888,
      "à¤Īà¤ıà¤¸": 2889,
      "Ġà¥Ļà¤¤": 2890,
      "Ġà¤ıà¤ıà¤¨": 2891,
      "Ġ1992": 2892,
      "Ġ4000": 2893,
      "à¤°à¤ĺ": 2894,
      "Ġà¤¦à¤®à¤ķà¤²": 2895,
      "à¤ģà¥¤": 2896,
      "Ġà¤°à¤£à¤¦": 2897,
      "Ġà¤Ĩà¤ĩà¤¯": 2898,
      "à¤īà¤ªà¤°": 2899,
      "Ġ1980": 2900,
      "Ġà¤®à¤Ľ": 2901,
      "Ġà¤ıà¤¨à¤Ĩà¤Īà¤ı": 2902,
      "69": 2903,
      "Ġà¤¬à¤¬à¤²": 2904,
      "Ġà¤¦à¤°à¤Ĺ": 2905,
      "à¤µà¤°à¤ķà¤°": 2906,
      "Ġà¤ħà¤°à¤¸": 2907,
      "Ġ2500": 2908,
      "Ġà¤ķà¤«": 2909,
      "Ġà¤ļà¤ļ": 2910,
      "Ġà¤ªà¤¹à¤¨à¤¤": 2911,
      "Ġà¤¸à¤®à¤Ŀà¤ķà¤°": 2912,
      "à¤¢à¤£": 2913,
      "Ġà¤«à¤ķ": 2914,
      "à¤ļà¤¬": 2915,
      "Ġà¤®à¤¨à¤µ": 2916,
      "à¤¨à¤¦à¤¯": 2917,
      "Ġà¤Ĩà¤ĩà¤Łà¤®": 2918,
      "à¤¤à¤¡": 2919,
      "Ġà¤ªà¤Ľ": 2920,
      "à¤Ĩà¤ł": 2921,
      "à¤ıà¤®à¤Ī": 2922,
      "Ġ91": 2923,
      "à¤Ĥà¤¾": 2924,
      "Ġà¤ķà¤°à¤¦": 2925,
      "43": 2926,
      "Ġà¤ªà¤¤à¤¨": 2927,
      "à¤µà¤¤à¤¨": 2928,
      "à¤¼à¥¤": 2929,
      "Ġ170": 2930,
      "à¥ĩà¤¾": 2931,
      "Ġà¤ªà¤¸à¤°": 2932,
      "Ġà¤¨à¤®à¤¨": 2933,
      "Ġà¤Ńà¤¸": 2934,
      "à¤ıà¤«à¤ĵ": 2935,
      "Ġà¤®à¤Ŀ": 2936,
      "à¤ľà¤ªà¤¤": 2937,
      "Ġà¤¹à¤µà¤¨": 2938,
      "Ġà¥®": 2939,
      "Ġà¤ªà¤¡à¤¤": 2940,
      "Ġà¤®à¤¦à¤¤": 2941,
      "à¤ĵà¤ı": 2942,
      "Ġ03": 2943,
      "à¤³à¤Ĺ": 2944,
      "à¤¤à¤¯": 2945,
      "Ġà¤īà¤Ľà¤²": 2946,
      "Ġà¤Ńà¥ľà¤ķ": 2947,
      "Ġà¤¢à¤¹": 2948,
      "à¤®à¤¨à¤µ": 2949,
      "Ġà¤¸à¤¹à¤°": 2950,
      "Ġà¤ĩà¤§à¤°à¤īà¤§à¤°": 2951,
      "à¤Łà¤°à¤«": 2952,
      "à¤®à¤µà¤°": 2953,
      "Ġà¤ļà¤¡": 2954,
      "à¤ıà¤®à¤¡": 2955,
      "à¥Ľà¤¨": 2956,
      "Ġà¤ľà¤¨à¤µ": 2957,
      "Ġ1991": 2958,
      "Ġà¤ľà¤Ĺà¤ľ": 2959,
      "Ġà¤ķà¤Łà¤¨": 2960,
      "Ġ230": 2961,
      "Ġà¤ĺà¤£": 2962,
      "à¤¡à¤¡": 2963,
      "Ġà¤Ĩà¤¶à¤¯": 2964,
      "à¤°à¤¬à¤¦à¤²": 2965,
      "à¤Ĺà¤«": 2966,
      "à¤¤à¤°à¤¤": 2967,
      "Ġà¤ıà¤¸à¤¯": 2968,
      "à¤Ĩà¤°à¤ķ": 2969,
      "à¤ļà¤¢": 2970,
      "Ġà¤ľà¤²à¤¤": 2971,
      "87": 2972,
      "à¤¯à¤®à¤¯": 2973,
      "Ġà¤ħà¤¸à¤¹à¤®à¤¤": 2974,
      "Ġ107": 2975,
      "Ġà¤ªà¤°à¤ĸ": 2976,
      "Ġà¤ĵà¤ªà¤¨à¤°": 2977,
      "à¤¦à¤°à¤¨à¤Ĺà¤°": 2978,
      "à¤¥à¤°à¤¬": 2979,
      "Ġà¤Ĩà¤µà¤ķ": 2980,
      "Ġà¤ħà¤¨à¤®": 2981,
      "Ġà¤ıà¤«à¤¸": 2982,
      "Ġà¤¬à¤¦à¤¹": 2983,
      "Ġà¤²à¤ļ": 2984,
      "Ġ104": 2985,
      "Ġ1993": 2986,
      "à¤ĸà¤®": 2987,
      "à¤ľà¤Ńà¤µà¤¨": 2988,
      "à¤°à¤¸à¤°": 2989,
      "à¤¿à¥į": 2990,
      "Ġà¤¡à¤Ł": 2991,
      "à¤Ŀà¤ķ": 2992,
      "Ġ102": 2993,
      "à¥¯": 2994,
      "Ġà¤ľà¤¯à¤¸": 2995,
      "à¥Ľà¤²": 2996,
      "à¤¤à¤³": 2997,
      "Ġà¤Łà¤²": 2998,
      "Ġà¤¿": 2999,
      "Ġ201516": 3000,
      "à¤®à¤ķà¤¥": 3001,
      "Ġà¤ķà¤¸à¤¨": 3002,
      "Ġà¤ħà¤²à¤µà¤°": 3003,
      "à¤¯à¤ķà¤µ": 3004,
      "à¤ľà¤µà¤²": 3005,
      "84": 3006,
      "Ġà¤īà¤«": 3007,
      "à¤Ĺà¤³": 3008,
      "Ġà¤ľà¤¨à¤¨": 3009,
      "à¥ģà¥ģ": 3010,
      "à¤ĺà¤Ł": 3011,
      "à¤ıà¤®à¤¯": 3012,
      "à¤Łà¤¯": 3013,
      "Ġà¤ıà¤¯à¤°à¤µ": 3014,
      "à¤¶à¤ķà¤°": 3015,
      "à¤Īà¤ħà¤¡": 3016,
      "à¤«à¤¸à¤«": 3017,
      "Ġ135": 3018,
      "Ġà¤¹à¤ķà¤¦": 3019,
      "Ġà¤Ĩà¤¯à¤°à¤²": 3020,
      "à¤Ĩà¤Ĺà¤°": 3021,
      "à¤īà¤¨à¤¸": 3022,
      "à¤ıà¤¤": 3023,
      "à¤ĵà¤¡": 3024,
      "à¤µà¤¨à¤¶": 3025,
      "Ġà¤®à¤°à¤¤": 3026,
      "86": 3027,
      "Ġà¤¦à¤£": 3028,
      "Ġà¤¸à¤°à¤Ĺà¤¨": 3029,
      "Ġà¤¦à¤¹à¤¨": 3030,
      "Ġà¤ªà¥Ŀà¤¤": 3031,
      "Ġà¤Ĺà¤§": 3032,
      "à¥Ĥà¥¤": 3033,
      "Ġà¤¬à¤¦à¤¤à¤°": 3034,
      "à¤¤à¤¶": 3035,
      "à¤ľà¤ªà¤ļ": 3036,
      "Ġà¤¦à¤°à¤®": 3037,
      "à¤¨à¤¸à¤°": 3038,
      "à¤¤à¤°à¤¦": 3039,
      "Ġà¤ĵà¤ķ": 3040,
      "Ġà¤ıà¤¸à¤ıà¤ļà¤ĵ": 3041,
      "Ġà¤¬à¤¢à¤¤": 3042,
      "Ġ1997": 3043,
      "Ġà¤ıà¤µà¤°": 3044,
      "Ġà¤Ĩà¤Ĺà¤ľà¤¨": 3045,
      "Ġà¤¸à¤®à¤¯à¤¸": 3046,
      "Ġà¤µà¤¨à¤¸": 3047,
      "Ġà¤ħà¤ªà¤ķ": 3048,
      "à¤µà¤¬": 3049,
      "Ġà¤µà¤¨à¤µ": 3050,
      "Ġà¤²à¤ĸà¤¨": 3051,
      "Ġà¤ħà¤¸à¤«à¤²à¤¤": 3052,
      "à¤ķà¤°à¤¤": 3053,
      "Ġà¤ıà¤®à¤ľ": 3054,
      "à¤ĩà¤¨à¤¸": 3055,
      "à¤ªà¤°à¤¨": 3056,
      "2013": 3057,
      "à¤¬à¤¦à¤²": 3058,
      "Ġà¤ªà¤²à¤ķ": 3059,
      "Ġà¤ıà¤ķà¥ľ": 3060,
      "Ġ900": 3061,
      "à¤¤à¤«": 3062,
      "à¤Łà¤¸à¤¨": 3063,
      "Ġà¤¸à¤¹à¤²": 3064,
      "à¤Ĺà¤¨à¤µ": 3065,
      "Ġà¤¸à¤¨à¤°": 3066,
      "Ġà¤ıà¤²à¤ª": 3067,
      "Ġ1971": 3068,
      "à¤Łà¤ľ": 3069,
      "à¤²à¤ķà¤®": 3070,
      "Ġà¤ıà¤ķà¤¸": 3071,
      "Ġà¤ĩà¤¨à¤µ": 3072,
      "Ġ175": 3073,
      "à¤ĳà¤¨à¤²": 3074,
      "Ġà¤ľà¤²à¤ķà¤°": 3075,
      "à¤¨à¤ĸ": 3076,
      "à¤ľà¤¯à¤µà¤°": 3077,
      "Ġà¤ľà¤£": 3078,
      "Ġà¤®à¤¦à¤°": 3079,
      "à¤Łà¤®à¤°": 3080,
      "à¤ķà¤°à¤®": 3081,
      "64": 3082,
      "à¤Ĩà¤ľà¤®": 3083,
      "Ġà¤¹à¤®à¤ķ": 3084,
      "Ġà¤ªà¤°à¤¶": 3085,
      "à¤¨à¤ļà¤°": 3086,
      "Ġà¤Ŀà¤ľ": 3087,
      "à¤¸à¤¬à¤°": 3088,
      "Ġà¤¤à¤°à¤ľ": 3089,
      "à¤ķà¤®à¤²": 3090,
      "à¤¿à¤¾": 3091,
      "à¤Łà¤£": 3092,
      "Ġà¤°à¤ĸà¤µ": 3093,
      "à¤°à¤®à¤¨": 3094,
      "à¤¹à¤¹": 3095,
      "à¤Ĩà¤®à¤¤": 3096,
      "Ġà¤ªà¤¹à¤°": 3097,
      "Ġ117": 3098,
      "à¤°à¤¹à¤°": 3099,
      "à¤ŀà¤¤": 3100,
      "à¤¶à¤®à¤¨": 3101,
      "à¤µà¤µà¤°": 3102,
      "à¤Ĩà¤Īà¤Ĩà¤Ī": 3103,
      "Ġà¤ªà¤®": 3104,
      "Ġà¤ĳà¤²à¤°": 3105,
      "à¤Ńà¤®": 3106,
      "Ġà¤Łà¤ª": 3107,
      "à¤ıà¤®à¤ıà¤²": 3108,
      "Ġà¤Ĺà¤ľà¤¬": 3109,
      "à¤ļà¤£": 3110,
      "62": 3111,
      "Ġà¤ĺà¤¡à¤²": 3112,
      "à¤Łà¤Ł": 3113,
      "à¤¸à¤ĸ": 3114,
      "Ġà¤²à¤ªà¤ķ": 3115,
      "Ġà¤¸à¤®à¤¤": 3116,
      "Ġ00": 3117,
      "à¤¤à¤«à¤°": 3118,
      "à¤¦à¤¡": 3119,
      "Ġà¤ıà¤²à¤°": 3120,
      "à¤µà¤²à¤ªà¤°": 3121,
      "à¤²à¤¨à¤ķ": 3122,
      "Ġà¤¹à¤¨à¤¨": 3123,
      "Ġà¤ĺà¤¸": 3124,
      "97": 3125,
      "à¤°à¤ĸà¤£": 3126,
      "Ġà¤ıà¤²à¤ľ": 3127,
      "Ġà¤ªà¤§": 3128,
      "à¤ľà¤ķà¤¤": 3129,
      "Ġà¤ªà¤¥à¤ķ": 3130,
      "Ġà¤¹à¤Łà¤ķà¤°": 3131,
      "Ġà¤¸à¤¦à¤®": 3132,
      "Ġà¤ıà¤¯": 3133,
      "à¤°à¤¸à¤¤": 3134,
      "Ġ50000": 3135,
      "Ġ1995": 3136,
      "à¤ıà¤¸à¤ıà¤²": 3137,
      "à¤·à¤Ĺ": 3138,
      "Ġà¤¸à¤ľà¤Ĺ": 3139,
      "à¤·à¤µà¤°": 3140,
      "Ġà¤Ĺà¤Ĺà¤¨": 3141,
      "à¤ıà¤ļà¤ª": 3142,
      "à¤¶à¤ĸà¤¬à¤°": 3143,
      "Ġà¤Īà¤¨": 3144,
      "Ġà¤¨à¤°à¤ķ": 3145,
      "à¤ĺà¤ķ": 3146,
      "à¤Łà¤Ĺ": 3147,
      "Ġà¥§à¥«": 3148,
      "à¤Ĩà¤°à¤ĵ": 3149,
      "Ġà¤Ĺà¥ľà¤¬à¥ľ": 3150,
      "Ġà¤¬à¤¦à¤¬": 3151,
      "à¤łà¤Ĺ": 3152,
      "à¤ĵà¤ķ": 3153,
      "à¤Ĥà¤Ĥ": 3154,
      "à¤°à¤µà¤ļà¤¨": 3155,
      "à¤¨à¤¯à¤¨": 3156,
      "Ġ128": 3157,
      "à¥ľà¤Ĺ": 3158,
      "à¤°à¤¦à¤¯": 3159,
      "Ġà¤µà¤¯à¤¸": 3160,
      "à¤µà¤¯à¤ķ": 3161,
      "à¤ľà¤®à¤°": 3162,
      "Ġà¤Ĳà¤¨": 3163,
      "Ġ1994": 3164,
      "à¤ĩà¤Ĺ": 3165,
      "Ġà¤¹à¤°à¤ª": 3166,
      "Ġà¤¸à¤¬à¤°": 3167,
      "à¤°à¤µà¤ł": 3168,
      "Ġà¤ĩà¤¨à¤ª": 3169,
      "Ġ145": 3170,
      "Ġà¤Ĩà¤Īà¤¨": 3171,
      "à¤£à¤Ĺ": 3172,
      "à¤łà¤°": 3173,
      "Ġà¥§à¥¨": 3174,
      "Ġà¤ıà¤®à¤Ł": 3175,
      "Ġà¤īà¤ªà¤®à¤¹": 3176,
      "Ġà¤«à¤¨": 3177,
      "à¤¡à¤Ī": 3178,
      "Ġà¤«à¤°à¤¹": 3179,
      "à¤ĩà¤¡à¤²": 3180,
      "Ġà¤ķà¤¸à¤¤": 3181,
      "Ġ1989": 3182,
      "Ġ114": 3183,
      "à¤ªà¤°à¤ķ": 3184,
      "63": 3185,
      "à¤ħà¤°à¤µ": 3186,
      "Ġà¤ħà¤²à¤®": 3187,
      "Ġà¤¬à¤¦à¤°": 3188,
      "Ġà¤ħà¤¨à¤²": 3189,
      "Ġà¥Ļà¤¬à¤°": 3190,
      "à¤¶à¤²à¤¤": 3191,
      "Ġ112": 3192,
      "Ġà¤¹à¤ľà¤°à¤¤": 3193,
      "à¤ĳà¤°": 3194,
      "à¤ľà¤¨à¤¸": 3195,
      "Ġà¤Ĥ": 3196,
      "à¤ľà¤¯à¤¨": 3197,
      "à¤¯à¤°à¤§": 3198,
      "Ġà¤ıà¤£": 3199,
      "à¤Ĺà¤«à¤²": 3200,
      "Ġ119": 3201,
      "Ġ450": 3202,
      "Ġà¥§à¥¦": 3203,
      "à¤ľà¤¨à¤µà¤°": 3204,
      "Ġà¤µà¤«": 3205,
      "Ġà¤ķà¤²à¤ķà¤¤": 3206,
      "Ġà¤īà¤²à¤Ŀà¤¨": 3207,
      "Ġà¤ıà¤²à¤¬": 3208,
      "à¤ħà¤Ĺà¤¸": 3209,
      "à¤Ĺà¤ļ": 3210,
      "Ġà¤«à¤Łà¤¨": 3211,
      "à¤Łà¤°à¤²": 3212,
      "Ġà¤ļà¤¯à¤¨à¤ķà¤°": 3213,
      "Ġà¤ľà¤¨à¤®à¤¤": 3214,
      "Ġà¤¹à¤²à¤µ": 3215,
      "Ġ!!": 3216,
      "à¤¯à¤¸à¤®": 3217,
      "Ġ109": 3218,
      "à¤¯à¤ľà¤¨à¤ķ": 3219,
      "112": 3220,
      "à¥ĭà¥ĩ": 3221,
      "Ġà¤¯à¤¶à¤ª": 3222,
      "Ġà¤Ŀà¤Ĺà¥ľ": 3223,
      "à¤īà¤¸à¤®": 3224,
      "à¤ľà¤¹à¤¬": 3225,
      "Ġ118": 3226,
      "Ġà¤¸à¤¬à¤¨": 3227,
      "Ġà¤¤à¤µà¤ľ": 3228,
      "Ġà¤ļà¤Łà¤°": 3229,
      "Ġà¤¸à¤¯": 3230,
      "Ġà¤ıà¤¨à¤¬": 3231,
      "à¤ıà¤²à¤ıà¤«": 3232,
      "à¤¤à¥Ľ": 3233,
      "à¤ļà¤¯à¤¨": 3234,
      "Ġà¤ķà¤¸à¤®": 3235,
      "Ġà¤ĺà¥ľ": 3236,
      "Ġà¤ķà¤Ľ": 3237,
      "Ġà¤ħà¤ªà¤ĺ": 3238,
      "à¤¹à¤°à¤¬": 3239,
      "à¤ķà¤²à¤µ": 3240,
      "à¤ĩà¤¸à¤¨": 3241,
      "à¤¬à¤ª": 3242,
      "Ġà¤ıà¤ķà¤°": 3243,
      "Ġ106": 3244,
      "à¥ľà¤ª": 3245,
      "Ġà¤ľà¤¨à¤¸à¤®": 3246,
      "Ġà¤ĸà¤®": 3247,
      "Ġà¤ĳà¤¨à¤°": 3248,
      "à¤Ŀà¤¤": 3249,
      "Ġà¤¶à¤¹à¤ľ": 3250,
      "Ġà¤¸à¤¬à¤¬": 3251,
      "56": 3252,
      "Ġà¤Łà¤ļ": 3253,
      "Ġà¤¢à¤²": 3254,
      "72": 3255,
      "à¤ĵà¤ıà¤¸": 3256,
      "Ġà¤ķà¤²à¤¹": 3257,
      "à¤¹à¤°à¤¤": 3258,
      "2012": 3259,
      "41": 3260,
      "Ġà¤ĵà¤¹": 3261,
      "Ġà¤ĸà¤¯": 3262,
      "Ġà¤ħà¤īà¤°": 3263,
      "Ġà¤Ńà¤°à¤£": 3264,
      "à¤Ŀà¤®": 3265,
      "Ġà¤ıà¤¸à¤ıà¤¸": 3266,
      "Ġà¤ªà¤¢à¤¨": 3267,
      "Ġà¤¥à¤®à¤¨": 3268,
      "à¤ıà¤®à¤Ĩà¤Ī": 3269,
      "à¤µà¤²à¤ª": 3270,
      "à¤Łà¤ļ": 3271,
      "Ġà¤ªà¤²à¤Łà¤¨": 3272,
      "à¤¹à¤£à¤ľ": 3273,
      "Ġ6000": 3274,
      "à¤ıà¤°": 3275,
      "Ġ101": 3276,
      "Ġà¤ıà¤¨à¤ıà¤¸à¤Ī": 3277,
      "Ġà¤īà¤ĺ": 3278,
      "à¤īà¤¨à¤®": 3279,
      "Ġà¤¤à¤µ": 3280,
      "Ġà¤ªà¤Ĺà¤¡": 3281,
      "Ġà¤ľà¤®à¤¶": 3282,
      "à¤®à¤¥": 3283,
      "Ġà¤¶à¤¹à¤¨": 3284,
      "Ġà¤Ĺà¤£à¤°": 3285,
      "83": 3286,
      "Ġ103": 3287,
      "Ġà¤ıà¤¹à¤¤": 3288,
      "Ġà¤®à¤²à¤¯": 3289,
      "Ġà¤Ĩà¤ĩà¤¸": 3290,
      "à¤ľà¤¡": 3291,
      "Ġ20000": 3292,
      "Ġà¤¸à¤¹à¤®": 3293,
      "à¤¯à¤°à¤¡": 3294,
      "Ġà¤ªà¤ĸà¤µ": 3295,
      "à¤°à¤Ĩà¤¨": 3296,
      "Ġà¤ľà¤ķ": 3297,
      "à¤¾à¤Ĥà¥¤": 3298,
      "à¤ļà¤²à¤¨": 3299,
      "Ġà¤ªà¤ķà¥ľà¤¨": 3300,
      "à¤ıà¤®à¤Ł": 3301,
      "à¤·à¤µ": 3302,
      "Ġà¤¶à¤ķà¤¤": 3303,
      "à¤¸à¤²à¤µ": 3304,
      "999": 3305,
      "Ġà¤ĵà¤¢": 3306,
      "à¤Ĺà¤²à¤ķ": 3307,
      "à¤¸à¤£": 3308,
      "76": 3309,
      "à¤¬à¤ķà¤°": 3310,
      "à¥ĺà¤°": 3311,
      "à¤¦à¤ķà¤¤": 3312,
      "à¤ľà¤£": 3313,
      "Ġà¤Ńà¤¯à¤Ń": 3314,
      "Ġà¤µà¤¹à¤¨": 3315,
      "à¤Ĺà¤³à¤µ": 3316,
      "à¤ľà¤¤à¤¨": 3317,
      "à¤·à¤ľà¤¨à¤ķ": 3318,
      "Ġà¤¸à¤¡à¤ķ": 3319,
      "à¤Ĩà¤Īà¤µ": 3320,
      "Ġà¤ľà¤¯à¤¶": 3321,
      "Ġ1950": 3322,
      "à¤²à¤°à¤¶": 3323,
      "à¤®à¤¡": 3324,
      "Ġà¤®à¤ľà¤¹à¤¬": 3325,
      "Ġà¤ıà¤¨à¤ıà¤¸à¤¯": 3326,
      "à¥ĩà¤Ĥ|": 3327,
      "71": 3328,
      "à¤¥à¤²à¤Ĺ": 3329,
      "à¤®à¤¤à¤²à¤¬": 3330,
      "Ġà¤ªà¤¡à¤©": 3331,
      "Ġà¤ķà¤²à¤ķ": 3332,
      "78": 3333,
      "79": 3334,
      "à¤²à¤Ĺà¤¤": 3335,
      "Ġà¤²à¤ķà¥ľ": 3336,
      "à¥ĭà¥ĩà¤Ĥ": 3337,
      "Ġà¤¸à¤¹à¤ķà¤°": 3338,
      "à¤Ĺà¤°à¤ª": 3339,
      "Ġà¤¨à¤°à¤µ": 3340,
      "400": 3341,
      "Ġà¤ĵà¤²à¤®": 3342,
      "Ġà¤ľà¤¯à¤ķ": 3343,
      "à¤¸à¤¬à¤ķ": 3344,
      "à¤¡à¤Ł": 3345,
      "à¤°à¤ļà¤²à¤¨": 3346,
      "à¤®à¤Ĺà¤¢": 3347,
      "Ġà¤ĸà¤«": 3348,
      "à¥ľà¤Ľ": 3349,
      "Ġà¤ĺà¤¨à¤¶": 3350,
      "Ġà¤ķà¤ľ": 3351,
      "Ġà¤ħà¤§à¤°": 3352,
      "à¤¨à¤ªà¤¤": 3353,
      "à¤¼à¥ī": 3354,
      "Ġà¤¤à¤°à¥ŀ": 3355,
      "Ġà¤ıà¤¸à¤ľ": 3356,
      "Ġà¤°à¤ªà¤Ł": 3357,
      "Ġà¤ªà¤Ĺ": 3358,
      "Ġà¤ķà¤°à¤ª": 3359,
      "à¤¡à¤¶": 3360,
      "à¤ĵà¤¯": 3361,
      "à¤°à¤¥à¤²": 3362,
      "Ġà¤°à¤Īà¤¸": 3363,
      "Ġà¤²à¤ľ": 3364,
      "Ġ220": 3365,
      "Ġà¤Ĩà¤ķà¤¸": 3366,
      "à¤ķà¤¹à¤¨": 3367,
      "à¤Łà¤ĸ": 3368,
      "à¤ĳà¤ªà¤°": 3369,
      "Ġà¤§à¤¬": 3370,
      "Ġà¤¹à¤Łà¤µ": 3371,
      "à¤Īà¤ıà¤²": 3372,
      "Ġà¤Ńà¤¨à¤ķ": 3373,
      "à¤¨à¤¸à¤®": 3374,
      "Ġà¤¸à¤ķà¤¨": 3375,
      "Ġà¤Ľà¤Ł": 3376,
      "Ġà¤Ľà¤®": 3377,
      "Ġà¤ħà¤¹à¤²": 3378,
      "Ġà¤¬à¤¹à¤°à¤¹": 3379,
      "Ġà¤ľà¤ĸà¤®": 3380,
      "Ġ201415": 3381,
      "à¤ªà¥Ŀ": 3382,
      "Ġà¤®à¤¹à¤ķ": 3383,
      "Ġà¤¤à¤°à¤²": 3384,
      "à¤ľà¤Ńà¤°": 3385,
      "Ġ189": 3386,
      "Ġà¤²à¤¸": 3387,
      "Ġà¤ħà¤ªà¤Ĺ": 3388,
      "à¤ķà¤ĺà¤°": 3389,
      "à¤®à¤¨à¤®": 3390,
      "82": 3391,
      "Ġ185": 3392,
      "Ġà¤ıà¤¸à¤Ĩà¤Ī": 3393,
      "à¤¡à¤°à¤²": 3394,
      "Ġ126": 3395,
      "à¤¶à¤ıà¤®": 3396,
      "74": 3397,
      "Ġà¤ĩà¤ľà¤¹": 3398,
      "à¤®à¤Ī": 3399,
      "Ġà¤ªà¤°à¤µà¤°": 3400,
      "à¤°à¤¤à¤¨": 3401,
      "Ġà¤ħà¤¯à¤¸": 3402,
      "Ġà¤ľà¤¨à¤°": 3403,
      "à¤«à¤Ł": 3404,
      "Ġà¤īà¤ªà¤¨à¤Ĺà¤°": 3405,
      "09": 3406,
      "Ġà¤§à¤¨à¤¤": 3407,
      "Ġà¤¹à¤®à¤°": 3408,
      "Ġà¤ıà¤ıà¤¸à¤ª": 3409,
      "Ġà¤°à¤£à¤§": 3410,
      "à¤ıà¤¨à¤ıà¤¨": 3411,
      "à¤ıà¤ļà¤¯": 3412,
      "à¤ĳà¤²": 3413,
      "73": 3414,
      "Ġà¤Ķà¤ļ": 3415,
      "Ġà¤¦à¤²à¤¬": 3416,
      "à¤µà¤°à¤¨": 3417,
      "à¤®à¤ļà¤¨": 3418,
      "à¤ĩà¤¬à¤²": 3419,
      "Ġà¤ķà¤Łà¤µ": 3420,
      "à¤®à¤ł": 3421,
      "à¤·à¤¦à¤°": 3422,
      "Ġà¤²à¤Ł": 3423,
      "Ġà¤ªà¤¨à¤ª": 3424,
      "Ġà¤¡à¤°à¤¨": 3425,
      "à¤¨à¤µà¤ľ": 3426,
      "à¤®à¤¸à¤®à¤°": 3427,
      "à¤ĩà¤ªà¤°": 3428,
      "à¤®à¤ļà¤°": 3429,
      "Ġà¤ªà¤Łà¤ķà¤¥": 3430,
      "Ġà¤¹à¤ľà¤ķ": 3431,
      "Ġà¤Ĩà¤°à¤ıà¤¸": 3432,
      "Ġà¤²à¤¡à¤©": 3433,
      "Ġà¤ľà¤¯à¤¦": 3434,
      "Ġà¤ªà¤Łà¤²": 3435,
      "Ġà¤Ĩà¤«à¤¤": 3436,
      "Ġà¤¬à¤²à¤ľ": 3437,
      "Ġ124": 3438,
      "à¤°à¤ªà¤°": 3439,
      "Ġà¤Ĩà¤ªà¤£": 3440,
      "Ġà¤ĩà¤Ĺ": 3441,
      "à¤¨à¤°à¤²": 3442,
      "à¤ľà¤ľ": 3443,
      "2010": 3444,
      "à¤µà¤°à¤ª": 3445,
      "Ġà¤¸à¤¹à¤ľà¤¤": 3446,
      "Ġ116": 3447,
      "à¤«à¤¹à¤®": 3448,
      "Ġà¤ıà¤¯à¤°à¤ķ": 3449,
      "à¤ĭà¤·": 3450,
      "Ġà¤Ĩà¤¨à¤¨à¤«": 3451,
      "Ġ165": 3452,
      "à¤ªà¤ķà¤¡": 3453,
      "à¤ħà¤ĸà¤¬": 3454,
      "Ġà¤ķà¤°à¤®": 3455,
      "Ġ550": 3456,
      "Ġà¤²à¤²à¤ķ": 3457,
      "Ġà¤¸à¤°à¤«à¤°": 3458,
      "à¥ħà¤¾": 3459,
      "à¤īà¤¸à¤¸": 3460,
      "à¤¤à¤¥": 3461,
      "à¤ľà¤¬à¤²": 3462,
      "Ġà¤ıà¤µà¤®": 3463,
      "à¤®à¤ĸ": 3464,
      "Ġà¤ħà¤µà¤¨": 3465,
      "à¤¹à¤°à¤¦": 3466,
      "à¤®à¤ķà¤°à¤£": 3467,
      "à¤²à¤¶à¤¨": 3468,
      "Ġ155": 3469,
      "Ġà¤Ĩà¤²à¤¸": 3470,
      "à¤Ĩà¤°à¤ľ": 3471,
      "Ġà¤ħà¤ł": 3472,
      "Ġ240": 3473,
      "Ġà¤Ĩà¤Īà¤ıà¤¸à¤Ĩà¤Īà¤ıà¤¸": 3474,
      "Ġà¤Ńà¤Ĺà¤¦": 3475,
      "à¤¶à¤¶": 3476,
      "Ġà¤²à¤¹à¤ľ": 3477,
      "Ġà¤ļà¤®à¤ķà¤¦": 3478,
      "Ġà¤°à¤ķà¤¬": 3479,
      "Ġà¤²à¤¬": 3480,
      "Ġà¤ĸà¤°à¤¬": 3481,
      "Ġ1977": 3482,
      "Ġà¤Ĩà¥ľ": 3483,
      "à¤ĸà¤¨à¤¨": 3484,
      "à¤ıà¤¸à¤¯": 3485,
      "Ġ113": 3486,
      "à¤°à¤ķà¤ª": 3487,
      "Ġà¤ıà¤¤": 3488,
      "Ġà¤¦à¤¯à¤¨": 3489,
      "Ġà¤¦à¤°à¤Ń": 3490,
      "à¤®à¤²à¤¤": 3491,
      "à¤ıà¤®à¤ı": 3492,
      "à¤§à¤µà¤¨": 3493,
      "Ġà¤Ŀà¤°à¤¨": 3494,
      "Ġà¤«à¤²à¤¦": 3495,
      "à¤Ĥà¥Īà¥¤": 3496,
      "à¤Ĩà¤¯à¤¨": 3497,
      "Ġà¤¸à¤°à¤¹à¤¦": 3498,
      "Ġ122": 3499,
      "81": 3500,
      "Ġà¤ıà¤¸à¤ĵ": 3501,
      "Ġà¤¤à¤Ĺà¤¡": 3502,
      "Ġà¤ķà¤°à¤¸": 3503,
      "à¤Ĩà¤Īà¤ıà¤¸": 3504,
      "Ġà¤¤à¤ľ": 3505,
      "2011": 3506,
      "à¥įà¤¾": 3507,
      "à¥Īà¥į": 3508,
      "Ġ15000": 3509,
      "Ġà¤ħà¤¨à¤µà¤°": 3510,
      "Ġà¤ıà¤¯à¤°à¤«": 3511,
      "Ġà¤«à¤¸": 3512,
      "Ġ1100": 3513,
      "Ġà¤¤à¤¨à¤ĸ": 3514,
      "à¤¼à¥ĩà¤Ĥà¥¤": 3515,
      "à¤¯à¤°à¤ªà¤°": 3516,
      "à¤®à¤«": 3517,
      "61": 3518,
      "Ġà¤¨à¤¯à¤¨": 3519,
      "Ġà¤īà¤¤à¤°à¤ķà¤°": 3520,
      "à¤°à¤¤à¤µ": 3521,
      "Ġ750": 3522,
      "à¤ªà¤°à¤¤": 3523,
      "Ġà¥§à¥®": 3524,
      "Ġ225": 3525,
      "Ġà¤ħà¤ľà¤¨": 3526,
      "Ġà¤Ńà¤°à¤µ": 3527,
      "à¤¦à¤¨à¤Ĺà¤°": 3528,
      "à¤Ĩà¤ı": 3529,
      "à¤Ĩà¤¯à¤ķà¤°": 3530,
      "Ġà¤¡à¤¸": 3531,
      "Ġà¤¨à¤µà¤²": 3532,
      "à¤¸à¤®à¤¤": 3533,
      "à¤¬à¤°à¤¸": 3534,
      "à¤²à¤£": 3535,
      "Ġà¥Ĳ": 3536,
      "Ġà¤®à¤Łà¤°": 3537,
      "Ġà¤¬à¤ł": 3538,
      "Ġà¤¾": 3539,
      "Ġà¤®à¤¨à¤ļ": 3540,
      "Ġ2025": 3541,
      "à¤°à¤¶à¤°": 3542,
      "Ġà¤ĵà¤ıà¤¨à¤ľ": 3543,
      "à¤ıà¤¸à¤ıà¤¸à¤ª": 3544,
      "à¤°à¤«à¤²": 3545,
      "à¤ħà¤Łà¤²": 3546,
      "à¥ĩà¤Ĥ!": 3547,
      "Ġà¤Ĩà¤Ĭ": 3548,
      "Ġà¤¬à¤¸à¤¨": 3549,
      "à¤¹à¤¯": 3550,
      "Ġà¤¸à¤ĺà¤¨": 3551,
      "Ġà¤īà¤¥à¤²": 3552,
      "à¤¯à¤ķà¤²": 3553,
      "Ġà¤°à¤¤à¤²": 3554,
      "Ġà¤¸à¤¹à¤Ĺà¤²": 3555,
      "à¤Īà¤ķà¤®": 3556,
      "à¤¦à¤²à¤ª": 3557,
      "à¤ıà¤«à¤ª": 3558,
      "Ġà¤®à¤¹à¤«": 3559,
      "Ġà¤ľà¤«à¤°": 3560,
      "Ġ1975": 3561,
      "à¤·à¤§à¤°": 3562,
      "Ġà¤¨à¤ķà¤µ": 3563,
      "Ġà¤¯à¤¤": 3564,
      "à¤µà¤°à¤ļ": 3565,
      "Ġà¤Ŀà¤²": 3566,
      "à¤ľà¤µà¤³": 3567,
      "à¤°à¤ľà¤¨à¤¨": 3568,
      "à¤®à¤Ĺà¥Ŀ": 3569,
      "à¤°à¤¤à¤°": 3570,
      "à¤¨à¤Ńà¤¦": 3571,
      "à¤ªà¤Ĺà¤¢": 3572,
      "à¤ĩà¤¸à¤°": 3573,
      "Ġà¤ħà¤¸à¤¹à¤ľ": 3574,
      "Ġà¤§à¥ľ": 3575,
      "Ġ210": 3576,
      "Ġà¤¬à¤¦à¤¸à¤²": 3577,
      "à¤¸à¤§": 3578,
      "à¤Ĩà¤°à¤ıà¤¸à¤ıà¤¸": 3579,
      "Ġà¤ħà¤®à¤°à¤ľ": 3580,
      "à¤®à¤¸à¤²à¤¨": 3581,
      "à¤Ĺà¤§": 3582,
      "à¤¨à¤ªà¤°": 3583,
      "à¤°à¤®à¤ľ": 3584,
      "à¤ĩà¤«à¤¸": 3585,
      "Ġà¤§à¤ľ": 3586,
      "Ġà¤ļà¤®à¤¡": 3587,
      "Ġà¤¸à¤°à¤¨": 3588,
      "à¤ĸà¤ļ": 3589,
      "Ġà¤²à¤£": 3590,
      "à¤ıà¤¨à¤ª": 3591,
      "Ġà¤¤à¤®à¤¨": 3592,
      "à¤ľà¤Ĺà¤¢": 3593,
      "à¤ıà¤¸à¤ķ": 3594,
      "à¤¤à¤°à¤¨": 3595,
      "à¤¸à¤°à¤ª": 3596,
      "Ġ123": 3597,
      "à¤¢à¤µ": 3598,
      "à¤¸à¤¡à¤°": 3599,
      "à¤Ĺà¤Ī": 3600,
      "Ġà¤ªà¤°à¤®à¤ľ": 3601,
      "Ġà¤ıà¤¹": 3602,
      "Ġà¤ħà¤¨à¤Ĺ": 3603,
      "Ġà¤ħà¥ľ": 3604,
      "Ġà¤ĸà¤²à¤¨": 3605,
      "à¤Ĺà¤¹": 3606,
      "Ġà¤łà¤¹à¤°à¤¨": 3607,
      "à¥Ĩ": 3608,
      "à¤¬à¤¹à¤¸": 3609,
      "à¤Ĩà¤ļ": 3610,
      "à¤¸à¤ªà¤¨": 3611,
      "à¤¸à¤¦à¤¨": 3612,
      "Ġà¤¸à¤¡à¥ĺ": 3613,
      "Ġà¤ªà¤Ľà¤¤": 3614,
      "Ġà¤ħà¤ļà¤²": 3615,
      "à¤«à¤°à¤µà¤°": 3616,
      "Ġà¤ķà¤°à¤µà¤Ł": 3617,
      "à¤²à¥ľà¤ķ": 3618,
      "Ġ201314": 3619,
      "Ġà¤ķà¤¸à¤°à¤¤": 3620,
      "à¤ıà¤¦": 3621,
      "Ġ201112": 3622,
      "à¤°à¤¹à¤²": 3623,
      "Ġà¤Ĩà¤īà¤Łà¤²": 3624,
      "Ġà¤¨à¤ıà¤¨à¤ı": 3625,
      "à¤Ĭà¤°": 3626,
      "Ġà¤®à¤ĸ": 3627,
      "Ġ111": 3628,
      "Ġà¤¨à¤µà¤¦": 3629,
      "à¤®à¤¬à¤¤": 3630,
      "Ġà¥¨à¥¦à¥¦à¥": 3631,
      "Ġà¤Ńà¤£": 3632,
      "Ġà¤ªà¤¢à¤©": 3633,
      "à¤ľà¤¨à¤°à¤²": 3634,
      "Ġà¤¬à¤Łà¤²à¤°": 3635,
      "Ġà¤®à¤¨à¤ľ": 3636,
      "Ġà¤¬à¤¤à¤²": 3637,
      "à¤Łà¤¦": 3638,
      "à¥ĭà¤ģ": 3639,
      "Ġ149": 3640,
      "à¤¹à¤²à¤¤": 3641,
      "Ġà¤Ĳà¤¡": 3642,
      "Ġà¤°à¤¹à¤²": 3643,
      "à¤ĩà¤ķà¤°": 3644,
      "à¤³à¤ª": 3645,
      "Ġ1985": 3646,
      "Ġà¤¹à¥ĺ": 3647,
      "à¤¤à¤ķà¤¨": 3648,
      "à¤ĳà¤Ł": 3649,
      "Ġ1986": 3650,
      "Ġà¤ħà¤°à¤®": 3651,
      "Ġà¤Ŀà¤Ł": 3652,
      "Ġà¤¬à¤¶à¤°": 3653,
      "Ġà¤ıà¤ļà¤Ĩà¤Īà¤µ": 3654,
      "à¤ļà¤¤à¤°": 3655,
      "à¤®à¤¸à¤¨": 3656,
      "Ġà¤ıà¤ļà¤¸": 3657,
      "à¤µà¤°à¤¤": 3658,
      "Ġà¤ıà¤«à¤ıà¤®à¤¸": 3659,
      "Ġà¤®à¤Łà¤ķ": 3660,
      "à¤¬à¤¹à¤°": 3661,
      "Ġà¤µà¤¤à¤¨": 3662,
      "2009": 3663,
      "Ġà¤ªà¤¦à¤Ń": 3664,
      "Ġ25000": 3665,
      "Ġ330": 3666,
      "à¤¶à¤°à¤¦": 3667,
      "Ġ1962": 3668,
      "à¤Ĺà¤°à¤®": 3669,
      "52": 3670,
      "à¤ļà¤²à¤¤": 3671,
      "à¥Ľà¤Ĺ": 3672,
      "Ġ134": 3673,
      "à¤Ĥà¥ģ": 3674,
      "Ġà¤ıà¤ļà¤Ĩà¤°": 3675,
      "Ġà¤ħà¤µà¤¹": 3676,
      "à¤ªà¤²à¤µà¤²": 3677,
      "Ġ201920": 3678,
      "Ġà¤ĸà¤°à¤Ĺ": 3679,
      "Ġà¤ľà¤¯à¤¨": 3680,
      "Ġ1988": 3681,
      "à¥Īà¤ĥ": 3682,
      "Ġà¤Īà¤ľ": 3683,
      "Ġà¤ıà¤ķà¤¬": 3684,
      "Ġ132": 3685,
      "à¤¶à¤°à¤¥": 3686,
      "à¤¦à¤ĸà¤²": 3687,
      "à¤ıà¤®à¤ľ": 3688,
      "Ġà¤Ĩà¤īà¤Łà¤¸": 3689,
      "Ġ1987": 3690,
      "Ġà¤ıà¤²à¤ĵà¤¸": 3691,
      "Ġà¤ľà¤²à¤ª": 3692,
      "à¤ĩà¤ªà¤²": 3693,
      "à¤¯à¤®à¤¸à¤¨": 3694,
      "à¤¡à¤¯": 3695,
      "à¤¼à¥Ģà¤Ĥ": 3696,
      "à¤²à¤Ńà¤Ĺà¤¢": 3697,
      "Ġà¤ªà¤¨à¤¡": 3698,
      "Ġà¤¤à¤¹à¤²à¤ķ": 3699,
      "à¤¬à¤°à¤¤": 3700,
      "à¤¸à¤ķà¤¤": 3701,
      "Ġà¤ªà¤°à¤ļà¤®": 3702,
      "Ġ1970": 3703,
      "à¤®à¤°à¤¸": 3704,
      "Ġ129": 3705,
      "Ġà¤ħà¤ªà¤ķà¤®": 3706,
      "à¤¯à¤µà¤§": 3707,
      "Ġ1800": 3708,
      "à¤°à¤¦à¤¤": 3709,
      "Ġ1948": 3710,
      "Ġà¤Ĩà¤®à¤ļ": 3711,
      "Ġà¤§à¤¨à¤µ": 3712,
      "Ġà¤ªà¤¦à¤¯": 3713,
      "à¤Īà¤ĵà¤µà¤°": 3714,
      "Ġà¤¹à¤¥à¤ķ": 3715,
      "Ġà¤Ĺà¤²à¤¤à¤«à¤¹à¤®": 3716,
      "à¤Ĥà¥Ī": 3717,
      "à¤ķà¤¦à¤²": 3718,
      "Ġà¥¥": 3719,
      "à¤§à¥ľ": 3720,
      "Ġà¤ıà¤®à¤ķ": 3721,
      "Ġà¤«à¤¤à¤µ": 3722,
      "à¤¨à¤¦à¤¹": 3723,
      "Ġà¤İ": 3724,
      "à¤Ĭà¤ªà¤°": 3725,
      "à¤¨à¤®à¤¨": 3726,
      "Ġà¥ĺà¤°": 3727,
      "Ġà¥¦": 3728,
      "Ġà¤ľà¤ĺà¤¨": 3729,
      "Ġà¤ļà¤®à¤ļ": 3730,
      "Ġà¤ħà¤¹à¤µ": 3731,
      "à¤Ĩà¤¬": 3732,
      "Ġà¤ļà¤®à¤ķà¤¤": 3733,
      "Ġà¤ħà¤¶à¤°à¤«": 3734,
      "Ġà¤¬à¤Ĺà¤¦": 3735,
      "à¤®à¤ªà¤¤": 3736,
      "Ġà¤¦à¤¶à¤®": 3737,
      "Ġà¤Īà¤²": 3738,
      "300": 3739,
      "Ġ1983": 3740,
      "Ġà¤®à¤°à¤£": 3741,
      "Ġà¤ľà¤Ĺà¤®": 3742,
      "à¤ħà¤°à¤¬": 3743,
      "59": 3744,
      "Ġà¤īà¤¬à¤°à¤¨": 3745,
      "Ġà¤Ĺà¤ľà¤²": 3746,
      "Ġà¤Ńà¤°à¤ķà¤®": 3747,
      "à¤¹à¤¨à¤²": 3748,
      "2020": 3749,
      "à¤¯à¤«à¤²": 3750,
      "Ġ3500": 3751,
      "Ġ201213": 3752,
      "Ġ1015": 3753,
      "Ġà¤¸à¤°à¤¯": 3754,
      "à¤¶à¤Ń": 3755,
      "à¤ıà¤«à¤ıà¤¸": 3756,
      "à¤ļà¤°à¤°": 3757,
      "Ġà¤¸à¤°à¤²à¤¤": 3758,
      "à¤ıà¤®à¤¬": 3759,
      "à¤ªà¤ľ": 3760,
      "à¤Īà¤ı": 3761,
      "à¤ķà¤°à¤µ": 3762,
      "51": 3763,
      "à¤Ńà¤Ł": 3764,
      "à¤¸à¤¦à¤¸": 3765,
      "Ġà¤ĸà¤Ĺ": 3766,
      "Ġà¤¨à¥Ľ": 3767,
      "Ġ1520": 3768,
      "à¤¹à¥ľ": 3769,
      "à¤µà¤²à¤¦": 3770,
      "Ġà¤¸à¤¤à¤¬": 3771,
      "Ġà¤®à¤ľà¤²": 3772,
      "Ġà¤ļà¤Łà¤¨": 3773,
      "Ġà¤ļà¤®à¤¨": 3774,
      "Ġ139": 3775,
      "Ġà¤Ķà¤ļà¤ķ": 3776,
      "Ġà¤¬à¤¸à¤²": 3777,
      "Ġà¤Ńà¤Łà¤ķà¤¤": 3778,
      "Ġà¤°à¤®à¤£": 3779,
      "Ġà¤°à¤Ĺà¤¡": 3780,
      "Ġà¤¸à¤²à¤µ": 3781,
      "Ġà¤ªà¤¸à¤¨": 3782,
      "Ġà¤ĳà¤¬": 3783,
      "à¤¡à¤¯à¤¨": 3784,
      "Ġà¤łà¤°à¤²": 3785,
      "Ġà¤Ĩà¤ľà¤®à¤Ĺà¤¢": 3786,
      "à¥įà¤¿": 3787,
      "à¤¬à¤²à¤¡à¤¨": 3788,
      "Ġà¤°à¤Ĺ": 3789,
      "54": 3790,
      "Ġà¤¸à¤¬à¤®": 3791,
      "Ġà¤ıà¤®à¤ıà¤¸à¤ª": 3792,
      "à¥Ģà¤¼": 3793,
      "à¤Ĺà¤²à¤¤": 3794,
      "Ġ360": 3795,
      "à¤¦à¤°à¤ª": 3796,
      "à¤Ľà¤ł": 3797,
      "Ġà¤¨à¤ľà¤°à¤¬": 3798,
      "Ġà¤ħà¥ŀ": 3799,
      "Ġà¤®à¤¡": 3800,
      "à¤¬à¤°à¤¦à¤¸": 3801,
      "à¤¶à¤ļ": 3802,
      "à¤¤à¤¨à¤ª": 3803,
      "Ġà¤ıà¤²à¤Ĩà¤Īà¤¸": 3804,
      "à¤¯à¤£à¤Ĺà¤¢": 3805,
      "Ġà¤Ńà¤Łà¤ķà¤¨": 3806,
      "Ġà¤ķà¤¢": 3807,
      "Ġà¤ıà¤¯à¤°à¤¬": 3808,
      "Ġ280": 3809,
      "58": 3810,
      "Ġ127": 3811,
      "à¤¯à¤¨à¤°": 3812,
      "Ġà¤¬à¤¶": 3813,
      "Ġà¤ķà¤ļà¤¹à¤°": 3814,
      "Ġà¤¦à¤¶à¤°à¤¥": 3815,
      "Ġà¤ıà¤®à¤ĵà¤¯": 3816,
      "Ġ2021": 3817,
      "Ġ7000": 3818,
      "à¤¸à¤¦à¤°": 3819,
      "à¥¤à¥¤": 3820,
      "Ġà¤§à¤¨à¤¬": 3821,
      "Ġà¤ľà¤ķà¤¡": 3822,
      "à¤Ĺà¤Ń": 3823,
      "Ġ8000": 3824,
      "Ġà¤¬à¤ķà¤µ": 3825,
      "Ġà¤Ŀà¤ķà¤Ŀ": 3826,
      "Ġà¤¨à¤ļ": 3827,
      "à¤Ĩà¤°à¤ıà¤®": 3828,
      "à¤īà¤ªà¤®": 3829,
      "Ġà¤°à¤¬à¤°": 3830,
      "à¤¬à¤ļà¤ªà¤¨": 3831,
      "à¤²à¤¹à¤¨": 3832,
      "à¤ķà¤§": 3833,
      "53": 3834,
      "à¤ķà¤°à¤ıà¤¤": 3835,
      "Ġà¤¬à¤¹à¤ķ": 3836,
      "à¤®à¤¨à¤°": 3837,
      "à¤¡à¤ļ": 3838,
      "à¤īà¤£": 3839,
      "à¤¤à¤¹à¤¸": 3840,
      "Ġà¤Łà¤Ł": 3841,
      "Ġ2030": 3842,
      "Ġà¤¥à¤²": 3843,
      "Ġà¤¹à¤°à¤®à¤¨à¤ª": 3844,
      "à¤®à¤Ŀ": 3845,
      "à¤³à¤ķà¤°": 3846,
      "à¤°à¤²à¤¯": 3847,
      "à¤µà¤°à¤®": 3848,
      "à¤¯à¤Łà¤°": 3849,
      "à¤ªà¤ªà¤¤": 3850,
      "à¤¤à¤°à¤¬": 3851,
      "Ġ147": 3852,
      "Ġ153": 3853,
      "Ġ121": 3854,
      "à¤ıà¤²à¤Ł": 3855,
      "à¤°à¤ªà¤¦": 3856,
      "à¤ļà¥ľ": 3857,
      "Ġà¤¬à¤°à¤ª": 3858,
      "à¤¹à¤Ń": 3859,
      "à¤²à¤¬à¤¤": 3860,
      "à¥Ŀà¤¤": 3861,
      "Ġà¤īà¤¬à¤²": 3862,
      "à¤£à¤¦": 3863,
      "Ġ1030": 3864,
      "Ġà¤¹à¤°à¤ľ": 3865,
      "à¤²à¤ĺ": 3866,
      "à¤ıà¤²à¤¬": 3867,
      "à¤ªà¤Ĺ": 3868,
      "Ġà¤¸à¤°à¤Ĺ": 3869,
      "Ġ270": 3870,
      "Ġà¤Ķà¤²": 3871,
      "Ġà¤®à¥Ľà¤¬": 3872,
      "Ġà¤ĩà¤¯à¤°": 3873,
      "Ġ30000": 3874,
      "Ġà¤ħà¤ªà¤¶à¤¬": 3875,
      "Ġà¤²à¤ªà¤Ł": 3876,
      "à¤ľà¤¹à¤¦": 3877,
      "Ġà¤Ĳà¤¤à¤°": 3878,
      "Ġ650": 3879,
      "à¤Ĩà¤¹": 3880,
      "à¤īà¤ªà¤Ń": 3881,
      "Ġà¤Ĩà¤°à¤¡": 3882,
      "Ġà¤ļà¤°à¤ĸ": 3883,
      "Ġà¤¦à¤²à¤¦à¤²": 3884,
      "Ġà¤¦à¤²à¤¹à¤¨": 3885,
      "Ġ420": 3886,
      "Ġà¤Ńà¤°à¤¤à¤ª": 3887,
      "à¤¦à¤£": 3888,
      "Ġà¤¶à¤¤à¤°": 3889,
      "Ġà¤¤à¤«": 3890,
      "Ġ1960": 3891,
      "Ġà¤¡à¤²": 3892,
      "Ġà¤¬à¤°à¤¬": 3893,
      "à¤°à¤¤à¤µà¤°": 3894,
      "à¤Łà¤°à¤ķ": 3895,
      "à¤¼à¥ĩà¤Ĥà¤ĥ": 3896,
      "Ġà¤¹à¤°à¤«": 3897,
      "Ġà¥ŀà¤°": 3898,
      "Ġà¤ĩà¤¯": 3899,
      "Ġà¤Ĩà¤®à¤°à¤£": 3900,
      "à¥Ĭ": 3901,
      "à¤¨à¤Ĺà¤°à¤ª": 3902,
      "Ġà¥§à¥ª": 3903,
      "à¤¹à¤³": 3904,
      "à¤°à¤ªà¤Ł": 3905,
      "à¤¯à¤ľà¤¨": 3906,
      "à¤ĸà¤®à¤°": 3907,
      "Ġà¤®à¤²à¤ķ": 3908,
      "à¥ģà¥¤": 3909,
      "à¤Ĩà¤Īà¤¬": 3910,
      "à¥įà¤Ĥ": 3911,
      "Ġ1982": 3912,
      "Ġà¤ħà¤¨à¤¹": 3913,
      "Ġà¤«à¤µ": 3914,
      "Ġ260": 3915,
      "Ġà¤ħà¤«à¤ľà¤²": 3916,
      "Ġà¥¯": 3917,
      "Ġà¤¨à¤µà¤Ĺ": 3918,
      "Ġà¤ħà¤¨à¤§": 3919,
      "à¤²à¤ķà¤¨": 3920,
      "Ġà¤²à¤µà¤ķà¤°": 3921,
      "Ġà¥¨à¥«": 3922,
      "à¤°à¤¤à¤²": 3923,
      "à¤¬à¤¹à¤¨": 3924,
      "à¤ļà¤°à¤²": 3925,
      "Ġà¤ĳà¤«à¤²": 3926,
      "Ġà¤ıà¤¤à¤°": 3927,
      "à¤ıà¤®à¤Ĩà¤°": 3928,
      "à¤°à¤®à¤¸": 3929,
      "Ġ136": 3930,
      "à¤¦à¤°à¤¬": 3931,
      "à¤Īà¤Ĺ": 3932,
      "Ġ137": 3933,
      "Ġà¤ļà¤°à¤¸": 3934,
      "Ġ142": 3935,
      "à¤ĸà¥ľ": 3936,
      "Ġà¤·à¤¡à¤¯": 3937,
      "Ġà¤Ńà¤Ĺà¤¦à¤¡": 3938,
      "à¤¸à¤ĺ": 3939,
      "Ġà¤¹à¤ł": 3940,
      "Ġà¤Ķà¤ľ": 3941,
      "Ġà¤ıà¤ıà¤¨à¤Ĩà¤Ī": 3942,
      "à¤°à¤ľà¤ª": 3943,
      "Ġà¤¬à¤ľà¤¤": 3944,
      "à¤¡à¤°à¤µ": 3945,
      "Ġà¤¹à¥ľà¤ķ": 3946,
      "à¤Ŀà¤¬": 3947,
      "Ġà¤¹à¤°à¤ķ": 3948,
      "à¤¬à¤¦à¤®": 3949,
      "2008": 3950,
      "à¤ªà¤µà¤¨": 3951,
      "à¤¬à¤¤à¤ļ": 3952,
      "Ġà¤§à¤¨à¤ĸà¤¡": 3953,
      "à¤ħà¤Ł": 3954,
      "Ġà¤¹à¤°à¤µ": 3955,
      "Ġà¤ľà¤¨à¤ķà¤²": 3956,
      "Ġà¤Ĭà¤·": 3957,
      "96": 3958,
      "Ġà¤¶à¤²": 3959,
      "à¥ľà¤«": 3960,
      "Ġà¤¸à¤°à¤µ": 3961,
      "à¥ľà¤µ": 3962,
      "à¤ļà¤Ĺ": 3963,
      "Ġà¤¹à¤¯": 3964,
      "Ġà¤ħà¤°à¤¬à¤ªà¤¤": 3965,
      "Ġà¤ħà¤¸à¤°à¤¦": 3966,
      "à¤¤à¤ĸà¤¤": 3967,
      "Ġà¤İà¤¸": 3968,
      "Ġà¤ıà¤¥": 3969,
      "à¥¢": 3970,
      "Ġà¤Ľà¤¤à¤°à¤ª": 3971,
      "Ġà¤Ľà¤ªà¤°": 3972,
      "à¤ķà¤Łà¤µà¤°": 3973,
      "Ġà¤¶à¤¹à¤°à¤µ": 3974,
      "Ġà¤¬à¤¸à¤¤": 3975,
      "à¤¨à¤Ĺà¤¢": 3976,
      "Ġ148": 3977,
      "Ġ164": 3978,
      "à¤ªà¤ł": 3979,
      "à¤ıà¤®à¤ıà¤®": 3980,
      "Ġà¤ĸà¤²à¤¬à¤²": 3981,
      "Ġà¤Ĺà¤ª": 3982,
      "à¥Ģà¤Ĥ!": 3983,
      "Ġ182": 3984,
      "à¤Ŀà¤°": 3985,
      "à¤¯à¤¨à¤ķ": 3986,
      "Ġà¤®à¤¶à¤°": 3987,
      "Ġ1967": 3988,
      "Ġà¤¦à¤¨": 3989,
      "Ġ133": 3990,
      "à¤ĭà¤¤": 3991,
      "à¤Ķà¤¦": 3992,
      "Ġà¤¹à¤µà¤²à¤¦": 3993,
      "Ġà¤ĭà¤ļ": 3994,
      "à¤Łà¤Ĩà¤īà¤Ł": 3995,
      "à¤®à¤ľà¤¨": 3996,
      "à¤µà¤ĺà¤°": 3997,
      "Ġ1600": 3998,
      "Ġà¤Ľà¤¡": 3999,
      "Ġà¤ħà¤ľà¤Ĺà¤°": 4000,
      "Ġà¤ķà¤µà¤ļ": 4001,
      "à¤ķà¤®à¤°": 4002,
      "Ġ1965": 4003,
      "Ġà¥ļà¤²à¤¤": 4004,
      "Ġà¤ĵà¤µà¤²": 4005,
      "Ġà¤¸à¤¹à¤ª": 4006,
      "à¤Ĺà¤Ĺ": 4007,
      "Ġà¤ħà¥Ļ": 4008,
      "à¤³à¤ĸ": 4009,
      "Ġà¤ªà¤¦à¤®": 4010,
      "Ġà¤ħà¤²à¤¸": 4011,
      "Ġà¤Łà¤ªà¤ķ": 4012,
      "Ġà¤īà¤²à¤Łà¤«": 4013,
      "Ġà¤ħà¤ķà¤°à¤®": 4014,
      "à¤®à¤°à¤¤": 4015,
      "Ġà¤¨à¤Ł": 4016,
      "à¤²à¤Ńà¤°": 4017,
      "Ġà¤īà¤ĸà¤¡": 4018,
      "Ġ138": 4019,
      "Ġà¤¨à¤µà¤µà¤°": 4020,
      "à¤ıà¤ıà¤¸": 4021,
      "à¤§à¤°à¤£": 4022,
      "Ġà¤¯à¤¶à¤¸": 4023,
      "Ġà¤¬à¤ľà¤¨": 4024,
      "à¤²à¤¨à¤ª": 4025,
      "Ġà¤Ĩà¤·": 4026,
      "à¤¼à¤¾à¤Ĥ": 4027,
      "à¤ħà¤¹": 4028,
      "à¥ĺà¤¤": 4029,
      "à¤Ĩà¤Īà¤Ĩà¤Īà¤Ł": 4030,
      "Ġ1400": 4031,
      "Ġ1972": 4032,
      "Ġ201011": 4033,
      "Ġà¤ĩà¤¨à¤«": 4034,
      "à¤ķà¤ı": 4035,
      "à¤µà¤°à¤²": 4036,
      "Ġà¤ıà¤¨à¤ıà¤¸à¤ľ": 4037,
      "à¤¤à¤Ńà¤°": 4038,
      "à¤®à¤²à¤²": 4039,
      "à¤¬à¤¹à¤¶": 4040,
      "à¤ıà¤¨à¤Ł": 4041,
      "à¤°à¤®à¤°": 4042,
      "Ġ1010": 4043,
      "Ġà¤ķà¤®à¥Ľ": 4044,
      "Ġà¤®à¤¨à¤¦": 4045,
      "98": 4046,
      "Ġà¤ħà¤ĸà¤°": 4047,
      "Ġà¤Ķà¤ķ": 4048,
      "Ġà¤łà¤°": 4049,
      "Ġà¤²à¤°": 4050,
      "Ġà¤ıà¤¸à¤µ": 4051,
      "à¤Ĩà¤²à¤®": 4052,
      "à¤µà¤¨à¤¦": 4053,
      "Ġà¤ĩà¤¡": 4054,
      "Ġ143": 4055,
      "Ġà¤łà¤£": 4056,
      "Ġà¤īà¤¦à¤ĺ": 4057,
      "à¤²à¤¸à¤°": 4058,
      "Ġà¤¹à¤°à¤«à¤¨à¤®": 4059,
      "Ġà¤¸à¥Ľ": 4060,
      "à¤ıà¤¸à¤ĵ": 4061,
      "Ġ430": 4062,
      "à¤ıà¤¸à¤Ĩà¤°": 4063,
      "Ġà¤ħà¤²à¤Ĺà¤¥à¤²à¤Ĺ": 4064,
      "Ġà¤¸à¤®à¤°à¤¸à¤¤": 4065,
      "800": 4066,
      "Ġà¤¬à¤ª": 4067,
      "Ġà¤ªà¤ķà¤µ": 4068,
      "Ġà¤ļà¤ªà¤°": 4069,
      "à¤°à¤Ĺà¥Ŀ": 4070,
      "Ġà¤¶à¤«": 4071,
      "à¤·à¤¶": 4072,
      "à¤ķà¤³": 4073,
      "à¥Ĥà¥į": 4074,
      "Ġà¤¸à¤°à¤Ĺà¤°": 4075,
      "Ġà¤ħà¤¬à¤ķ": 4076,
      "Ġà¤°à¤¡": 4077,
      "Ġà¤Ľà¤¨": 4078,
      "à¤ķà¤°à¤¬à¤°": 4079,
      "Ġà¤ķà¤Łà¤ĺà¤°": 4080,
      "à¤¯à¤ķà¤°à¤£": 4081,
      "à¤ļà¤¶": 4082,
      "Ġà¤¬à¤¦à¤¸": 4083,
      "Ġà¤ľà¤®à¤¨": 4084,
      "Ġà¤Ĩà¤ĩà¤²": 4085,
      "à¤ħà¤ľà¤®": 4086,
      "à¤¦à¤°à¤ľ": 4087,
      "Ġà¤¯à¤®à¤°": 4088,
      "Ġà¤ħà¤¡à¤ļà¤£": 4089,
      "Ġà¤Ĩà¤ªà¤¬": 4090,
      "Ġ930": 4091,
      "Ġà¤®à¤Ĭ": 4092,
      "92": 4093,
      "Ġà¤ħà¤¨à¤¬à¤¨": 4094,
      "Ġ1949": 4095,
      "Ġà¥§à¥§": 4096,
      "Ġ40000": 4097,
      "à¤°à¤ĸà¤°": 4098,
      "Ġà¤®à¤Ĺà¤°à¤®à¤ļ": 4099,
      "Ġà¤ıà¤®à¤ıà¤¸à¤ıà¤®à¤Ī": 4100,
      "à¤³à¤ķ": 4101,
      "à¤®à¤¹à¤°": 4102,
      "Ġà¤®à¤°à¤µ": 4103,
      "Ġà¤²à¥ľà¤¤": 4104,
      "Ġà¤Ńà¤Łà¤¨": 4105,
      "à¤Łà¤¹": 4106,
      "à¤§à¤£": 4107,
      "à¤ıà¤¨à¤Ĩà¤Ī": 4108,
      "Ġà¥§à¥¬": 4109,
      "91": 4110,
      "Ġà¤ªà¥Ŀà¤ķà¤°": 4111,
      "à¤īà¤¸à¤«": 4112,
      "à¤ķà¤®à¤²à¤¨": 4113,
      "Ġ151": 4114,
      "à¤ıà¤²à¤Ĩà¤°": 4115,
      "Ġà¤Ĩà¤Īà¤Ĩà¤Īà¤ıà¤®": 4116,
      "Ġ5050": 4117,
      "Ġ1857": 4118,
      "à¤²à¤¯à¤¨": 4119,
      "Ġà¤Ĩà¤īà¤Łà¤«": 4120,
      "Ġà¥§à¥©": 4121,
      "Ġà¤Ĩà¤£à¤²": 4122,
      "à¤°à¤¤à¤ļ": 4123,
      "à¤¡à¤°à¤µà¤°": 4124,
      "Ġà¤īà¤¥à¤²à¤ª": 4125,
      "à¤¸à¤Ī": 4126,
      "Ġà¤ľà¤²à¤Ńà¤°": 4127,
      "Ġà¤¤à¤¸à¤²": 4128,
      "à¥¯à¥": 4129,
      "à¤¬à¤Īà¤¤": 4130,
      "à¤ªà¤Łà¤ķ": 4131,
      "à¤£à¤¤à¤¯": 4132,
      "à¤ĵà¤°": 4133,
      "Ġà¤§à¤°à¤®": 4134,
      "Ġà¤¶à¤¤à¤ª": 4135,
      "93": 4136,
      "Ġà¤ħà¤¥à¤ķ": 4137,
      "Ġ830": 4138,
      "Ġà¤®à¤¢": 4139,
      "Ġ377": 4140,
      "94": 4141,
      "Ġà¤°à¤¥à¤¯": 4142,
      "à¤¬à¤°à¤¨": 4143,
      "Ġ156": 4144,
      "Ġà¤¹à¤¶": 4145,
      "à¥Ľà¤¤": 4146,
      "à¤¡à¤¹": 4147,
      "Ġ302": 4148,
      "Ġ376": 4149,
      "à¤®à¤¶à¤¹": 4150,
      "Ġ1978": 4151,
      "Ġà¤ľà¤¸à¤¬": 4152,
      "Ġà¤ıà¤¸à¤ı": 4153,
      "Ġà¤ıà¤¯à¤°à¤¸": 4154,
      "Ġà¤¬à¤°à¤ĸ": 4155,
      "Ġà¤ħà¤°à¤¶à¤¦": 4156,
      "Ġà¤ıà¤¨à¤ĵà¤¸": 4157,
      "à¥¦à¥¦à¥¦": 4158,
      "à¤µà¤§à¤°": 4159,
      "Ġà¤¹à¤µà¤¸": 4160,
      "Ġà¤«à¤ľ": 4161,
      "Ġà¤¤à¤Łà¤¸": 4162,
      "Ġà¤¸à¤°à¤¤": 4163,
      "Ġà¤¸à¤ļà¤¦": 4164,
      "Ġ1012": 4165,
      "à¤®à¤¨à¤ª": 4166,
      "Ġ154": 4167,
      "Ġà¤īà¤ªà¤ķà¤ª": 4168,
      "à¤°à¤®à¤§": 4169,
      "Ġ131": 4170,
      "Ġà¤ªà¤łà¤¨": 4171,
      "à¤Ĺà¤®à¤¤": 4172,
      "à¤¸à¤¯": 4173,
      "Ġ9000": 4174,
      "à¤¹à¤Łà¤²": 4175,
      "Ġà¤ĩà¤¤à¤ķ": 4176,
      "Ġà¤Ľà¤ªà¤¨": 4177,
      "Ġà¤ľà¤Ĺà¤®à¤Ĺ": 4178,
      "à¤¹à¤¥": 4179,
      "à¤µà¤¦à¤²": 4180,
      "Ġà¤¬à¤°à¤¨": 4181,
      "Ġà¤²à¤ĸà¤µ": 4182,
      "Ġà¤ªà¤ķà¥ľà¤ķà¤°": 4183,
      "Ġà¤Ĩà¤¹à¤Ł": 4184,
      "Ġà¥ļà¥Ľà¤²": 4185,
      "Ġà¤Īà¤¡à¤¨": 4186,
      "à¤°à¤£à¤¯": 4187,
      "Ġà¤ıà¤²à¤¬à¤®": 4188,
      "à¤¦à¤ľ": 4189,
      "à¤ıà¤«à¤Ł": 4190,
      "à¤°à¤ľà¤®": 4191,
      "à¤¯à¤¦à¤°": 4192,
      "à¤¡à¤°à¤Ĺ": 4193,
      "à¤ľà¤ĺ": 4194,
      "Ġ320": 4195,
      "Ġà¤ļà¤ķà¤®": 4196,
      "Ġ1979": 4197,
      "Ġà¤¸à¤°à¤ľà¤®": 4198,
      "Ġ530": 4199,
      "Ġà¤ħà¤ľà¤¨à¤¬": 4200,
      "à¤Ńà¤µà¤¨": 4201,
      "à¤Ńà¤°à¤ķà¤®": 4202,
      "Ġ176": 4203,
      "Ġ162": 4204,
      "à¤¬à¤°à¤ļ": 4205,
      "à¤®à¤¸à¤Ń": 4206,
      "Ġà¤Ĺà¤ľà¤°": 4207,
      "Ġà¤ıà¤¸à¤ıà¤«à¤Ĩà¤Ī": 4208,
      "à¤¯à¤ļà¤ķ": 4209,
      "à¤Łà¤¨à¤°à¤¶": 4210,
      "Ġà¤Ĩà¤ĩà¤¸à¤ķ": 4211,
      "à¤Łà¤°à¤¸à¤¨": 4212,
      "à¤°à¤Ī": 4213,
      "Ġà¤ħà¤¨à¤ļ": 4214,
      "Ġà¤ıà¤²à¤Ł": 4215,
      "Ġ1130": 4216,
      "à¤ľà¤¬à¤²à¤ª": 4217,
      "Ġà¤¬à¤®à¤¬": 4218,
      "à¤®à¤«à¤²": 4219,
      "à¤®à¤¨à¤¸": 4220,
      "à¤īà¤¦à¤¯à¤ª": 4221,
      "Ġà¤ħà¤¨à¤°": 4222,
      "à¤¡à¤°à¤¶": 4223,
      "Ġà¤ıà¤ıà¤®à¤¯": 4224,
      "à¤¡à¤ķà¤ª": 4225,
      "Ġà¤ħà¤¦à¤¨": 4226,
      "Ġà¤Ĩà¤¯à¤¶": 4227,
      "Ġà¤Ĩà¤£à¤ĸ": 4228,
      "à¤ĺà¤¡": 4229,
      "Ġà¤¬à¤¢à¤¨": 4230,
      "à¤µà¤¶à¤ķ": 4231,
      "Ġà¤Ĺà¤¬": 4232,
      "Ġà¤ľà¤¨à¤ľà¤¨": 4233,
      "Ġà¤Ĩà¤ªà¤®": 4234,
      "Ġà¤ħà¤¤à¤°": 4235,
      "Ġ152": 4236,
      "à¤ļà¤µà¤°": 4237,
      "Ġ730": 4238,
      "Ġà¤¨à¤²à¤ķ": 4239,
      "Ġà¤Ĩà¤Īà¤ıà¤®à¤ıà¤«": 4240,
      "à¤®à¤¸à¤®": 4241,
      "à¤Ľà¤µ": 4242,
      "Ġà¤ĵà¤µà¤°à¤²": 4243,
      "Ġà¤ĵà¤¶": 4244,
      "Ġà¤¡à¤®": 4245,
      "à¤Ĩà¤¸à¤ª": 4246,
      "Ġà¤°à¤¨à¤µ": 4247,
      "à¤ıà¤¸à¤ľ": 4248,
      "Ġà¤ĩà¤¥": 4249,
      "Ġà¤¸à¤°à¤¬à¤ľ": 4250,
      "à¤Ľà¤ķ": 4251,
      "Ġà¤ļà¤ĸ": 4252,
      "Ġà¤¥à¤ªà¤¥": 4253,
      "Ġà¤ļà¤¸": 4254,
      "à¤ıà¤²à¤¸": 4255,
      "Ġà¤²à¤¢": 4256,
      "à¤·à¤¯à¤ķ": 4257,
      "Ġà¤ªà¤ķà¤¨": 4258,
      "Ġà¤²à¤¥": 4259,
      "à¤«à¤ķ": 4260,
      "Ġà¤¤à¤¬à¤¦": 4261,
      "Ġ810": 4262,
      "à¤¥à¤°à¤¸": 4263,
      "à¤ıà¤¨à¤ıà¤ķ": 4264,
      "Ġà¤«à¤¤à¤¹": 4265,
      "à¤¹à¤¨à¤µ": 4266,
      "à¤ĩà¥Ľ": 4267,
      "Ġà¤¨à¤µà¤¯": 4268,
      "Ġà¤¨à¤¸à¤¬": 4269,
      "Ġ146": 4270,
      "Ġ1952": 4271,
      "à¤ıà¤²à¤ª": 4272,
      "Ġà¤¤à¤°à¤¬": 4273,
      "Ġà¤ªà¤ĸ": 4274,
      "à¥Īà¤ģ": 4275,
      "Ġà¤¡à¤²à¤µ": 4276,
      "à¤¸à¤°à¤¦": 4277,
      "Ġà¤¥à¤ªà¤¥à¤ª": 4278,
      "Ġà¤ĺà¤°à¤ªà¤°": 4279,
      "à¤µà¤°à¤¹": 4280,
      "Ġ999": 4281,
      "Ġà¤ĸà¤ļ": 4282,
      "à¤¾à¥Ģ": 4283,
      "Ġà¤¬à¤¦à¤¤à¤®": 4284,
      "à¤Ŀà¤Ł": 4285,
      "à¤¯à¤°à¤¬": 4286,
      "Ġà¤Ľà¤¦": 4287,
      "Ġà¤¬à¤¦à¤²à¤µ": 4288,
      "Ġà¤ĺà¤ªà¤²": 4289,
      "Ġ166": 4290,
      "Ġà¤ħà¤¸à¤²à¤®": 4291,
      "à¤£à¤°": 4292,
      "à¤¬à¤°à¤²": 4293,
      "à¤¥à¤ķà¤¤": 4294,
      "à¤ĵà¤Ł": 4295,
      "Ġà¤īà¤Ńà¤°à¤¨": 4296,
      "à¤¸à¥ľà¤ķ": 4297,
      "Ġà¤¬à¤°à¤ķ": 4298,
      "Ġ1300": 4299,
      "à¤°à¤Ŀ": 4300,
      "Ġà¤ķà¤§": 4301,
      "à¤ĸà¤ľ": 4302,
      "à¤¯à¤Ĺà¤¢": 4303,
      "Ġ1974": 4304,
      "Ġà¤¶à¤Łà¤°": 4305,
      "à¤²à¤ĺà¤°": 4306,
      "Ġà¤ĩà¤ķà¤ł": 4307,
      "Ġà¤¸à¤¨à¤ķ": 4308,
      "Ġà¤§à¤¤": 4309,
      "Ġà¤Ľà¤²à¤ķ": 4310,
      "Ġ4500": 4311,
      "Ġà¤ıà¤¨à¤Ĩà¤°à¤Ĩà¤Ī": 4312,
      "à¤°à¤ľà¤ķ": 4313,
      "à¤µà¤¨à¤ķ": 4314,
      "Ġ1981": 4315,
      "Ġà¤ıà¤®à¤ıà¤²à¤¸": 4316,
      "à¤µà¤¥": 4317,
      "Ġà¤Ńà¤°à¤²": 4318,
      "à¤°à¤¸à¤°à¤ķ": 4319,
      "Ġ200910": 4320,
      "Ġ174": 4321,
      "Ġà¤«à¤²à¤ķ": 4322,
      "à¤ıà¤²à¤¡": 4323,
      "à¤Ĩà¤Īà¤ıà¤¸à¤ıà¤«": 4324,
      "à¤¸à¤¹à¤µ": 4325,
      "à¤³à¤ļ": 4326,
      "Ġà¤ıà¤¡à¤µà¤°": 4327,
      "Ġà¤ħà¥Ļà¤¬": 4328,
      "Ġà¤²à¤µà¤²": 4329,
      "à¤Ĩà¤ĩà¤Ł": 4330,
      "Ġà¤Ŀà¤ª": 4331,
      "Ġà¤²à¤¥à¤ªà¤¥": 4332,
      "à¤Ĺà¤£à¤¤": 4333,
      "Ġà¤¨à¤¸à¤°": 4334,
      "à¤®à¤¦à¤Ĺ": 4335,
      "2000": 4336,
      "Ġà¤Ĩà¤ĩà¤ª": 4337,
      "à¤¦à¤«à¤°": 4338,
      "Ġà¤īà¤¶": 4339,
      "à¤ĺà¤¤": 4340,
      "à¤§à¤°à¤¤": 4341,
      "Ġà¤ļà¤°à¤®à¤°": 4342,
      "Ġà¤¬à¤°à¤µ": 4343,
      "Ġ630": 4344,
      "Ġà¤ĸà¤ª": 4345,
      "Ġà¤ľà¤¯à¤¤": 4346,
      "Ġà¤Ĩà¤£à¤£": 4347,
      "Ġà¤ªà¤°à¤Ĺà¤¨": 4348,
      "à¤Īà¤ķà¤°": 4349,
      "à¤°à¤®à¤£à¤ķ": 4350,
      "Ġ224": 4351,
      "Ġ12000": 4352,
      "à¤¸à¤²à¤¨": 4353,
      "à¤¬à¤ĸ": 4354,
      "à¤£à¤ªà¤¶": 4355,
      "à¤ıà¤®à¤Ĩà¤°à¤¸": 4356,
      "à¤ªà¤²à¤Ł": 4357,
      "Ġà¤ªà¤°à¤ļ": 4358,
      "à¤ļà¤¸à¤®à¤Ŀ": 4359,
      "Ġà¤Ľà¤ªà¤µ": 4360,
      "Ġà¤ıà¤®à¤ıà¤ıà¤ļ": 4361,
      "Ġà¤Ĩà¤µà¤°à¤£": 4362,
      "Ġ1973": 4363,
      "à¤°à¥ŀ": 4364,
      "à¤°à¤ĸà¤¨": 4365,
      "à¤Ĳà¤¶": 4366,
      "Ġà¤¹à¤®à¤¦à¤°": 4367,
      "Ġà¤¹à¤°à¤Ĺ": 4368,
      "Ġ310": 4369,
      "à¤ħà¤µà¤§": 4370,
      "à¤łà¤ª": 4371,
      "Ġà¤ħà¤ľà¤¬": 4372,
      "Ġà¤¤à¥ľà¤ķ": 4373,
      "à¤¨à¤Īà¤¦": 4374,
      "Ġà¤¬à¤³": 4375,
      "Ġ1956": 4376,
      "Ġà¤ľà¤ľà¤ª": 4377,
      "Ġà¤Ĩà¤ķà¤¡": 4378,
      "Ġà¤Īà¤¬": 4379,
      "Ġà¤ķà¤®à¤¸": 4380,
      "à¤Ĩà¤°à¤¤": 4381,
      "à¤ľà¤²à¤µ": 4382,
      "Ġà¤Ĩà¤Īà¤Ĩà¤°à¤¸": 4383,
      "à¤¯à¤²à¤¯": 4384,
      "à¤¤à¤¨à¤Ĺà¤°": 4385,
      "à¤°à¤¬à¤°": 4386,
      "Ġà¤Ľà¤¤à¤°": 4387,
      "Ġà¥§à¥Ń": 4388,
      "à¤¤à¤®à¤¸": 4389,
      "à¤ļà¤²à¤°": 4390,
      "à¤°à¤µà¤¶": 4391,
      "à¤¸à¤³": 4392,
      "à¤¶à¤Ĺ": 4393,
      "à¤ľà¤¨à¤ľ": 4394,
      "Ġà¤Ĩà¤¨à¤²": 4395,
      "Ġà¤ıà¤«à¤¬": 4396,
      "Ġà¤ıà¤ıà¤«à¤ª": 4397,
      "Ġà¤®à¤¨à¤¨": 4398,
      "à¤Ĺà¤²à¤¸": 4399,
      "Ġ215": 4400,
      "à¤ķà¤Łà¤¤à¤®": 4401,
      "à¤¡à¤¸à¤¨": 4402,
      "Ġà¤ĩà¤®à¤²": 4403,
      "Ġà¤¤à¤¬à¤¸": 4404,
      "Ġ159": 4405,
      "à¤łà¤®à¤²": 4406,
      "à¥ĭ|": 4407,
      "à¤ľà¤ªà¤¥": 4408,
      "Ġà¤ľà¤¨à¤§à¤¨": 4409,
      "Ġà¤ıà¤²à¤¡": 4410,
      "Ġà¤ªà¤ķà¤¡à¤©": 4411,
      "Ġà¥©à¥¦": 4412,
      "Ġà¤ıà¤ķà¤¨": 4413,
      "Ġà¤ħà¤¨à¤Ń": 4414,
      "Ġà¤²à¤ļà¤°": 4415,
      "Ġà¤ħà¤¢": 4416,
      "à¤Łà¤²à¤®": 4417,
      "à¤ıà¤¸à¤¡à¤¬": 4418,
      "Ġà¤®à¤¨à¤®à¤°": 4419,
      "Ġà¤īà¤Ĺà¤²": 4420,
      "à¤¥à¤Ĺà¤¨": 4421,
      "Ġà¤Īà¤ĵ": 4422,
      "Ġ1951": 4423,
      "Ġà¥¤à¥¤": 4424,
      "à¤ĸà¤°à¤¨": 4425,
      "à¤°à¤ķà¤¡": 4426,
      "à¤ĸà¤ªà¤¤": 4427,
      "à¤²à¤¹à¤°": 4428,
      "à¤«à¤¸à¤²": 4429,
      "à¤¯à¤Ńà¤°": 4430,
      "Ġà¤¤à¤®à¤Ĺ": 4431,
      "à¤¤à¤ĸ": 4432,
      "Ġà¤ıà¤®à¤ıà¤¸à¤¸": 4433,
      "à¤¢à¤ķ": 4434,
      "Ġà¤ľà¤¬à¤¤à¤ķ": 4435,
      "Ġ315": 4436,
      "Ġ157": 4437,
      "Ġà¤ĩà¤·": 4438,
      "à¤£à¤ļ": 4439,
      "à¤°à¤µà¤¤": 4440,
      "Ġà¤ıà¤²à¤¸": 4441,
      "Ġà¤Ńà¤Ī": 4442,
      "à¤ľà¤¨à¤ªà¤¦": 4443,
      "Ġ325": 4444,
      "Ġ158": 4445,
      "Ġà¤Ĩà¤µà¤°": 4446,
      "à¤¹à¤Ĺà¤¢": 4447,
      "Ġà¤ħà¤¡à¤µ": 4448,
      "Ġà¤ľà¤¨à¤ķà¤ª": 4449,
      "Ġà¤ľà¤°à¤¦": 4450,
      "Ġà¤ªà¤¨à¤ªà¤¨": 4451,
      "Ġà¤¹à¤°à¤¨": 4452,
      "à¤µà¤¨à¤¡": 4453,
      "à¤ıà¤ıà¤²": 4454,
      "à¤ªà¤°à¤«": 4455,
      "Ġà¤ıà¤¨à¤Ĩà¤Īà¤Ł": 4456,
      "à¤¸à¤¨à¤ª": 4457,
      "Ġà¤Ĩà¥Ļ": 4458,
      "Ġà¤ľà¤Ĺà¤¦à¤²à¤ª": 4459,
      "Ġ1230": 4460,
      "Ġà¤ħà¤ľà¤µ": 4461,
      "150": 4462,
      "Ġà¤®à¤¨à¤ļà¤²": 4463,
      "Ġà¤Ĺà¤°à¤¬": 4464,
      "Ġà¤Ŀà¤°": 4465,
      "à¤¶à¤¨à¤Ĺ": 4466,
      "à¤®à¤¢": 4467,
      "à¤ľà¤¯à¤ķ": 4468,
      "Ġà¤Ĺà¤¬à¤¨": 4469,
      "à¤ľà¤Ĺà¤¦": 4470,
      "Ġà¤²à¤«": 4471,
      "Ġà¤®à¤¨à¤ªà¤¸": 4472,
      "Ġ256": 4473,
      "à¤Ĥà¥Ĥ": 4474,
      "Ġà¤²à¤¨": 4475,
      "à¤¹à¤¤à¤®": 4476,
      "Ġà¤¬à¤¸à¤°": 4477,
      "à¤¯à¤µà¤¶": 4478,
      "Ġ290": 4479,
      "2007": 4480,
      "à¤µà¤ķà¤¯": 4481,
      "à¤¡à¤¹à¤°": 4482,
      "Ġà¤ķà¤®à¤¤à¤°": 4483,
      "à¤¸à¤¹à¤¨": 4484,
      "à¤°à¤®à¤ķ": 4485,
      "Ġà¤Ŀà¤²à¤ķà¤¤": 4486,
      "Ġ1976": 4487,
      "Ġà¤Ĩà¤Īà¤ĵà¤¸": 4488,
      "à¤¹à¤ļ": 4489,
      "à¤īà¤®à¤°": 4490,
      "à¤ªà¤ķà¤²": 4491,
      "Ġ275": 4492,
      "à¤¯à¤¸à¤¨": 4493,
      "à¤Ŀà¤ľ": 4494,
      "Ġà¤Ĺà¤Ĺà¤°": 4495,
      "à¤¤à¤°à¤¸": 4496,
      "Ġà¤¹à¤®à¤®": 4497,
      "à¤ħà¤¸à¤°": 4498,
      "à¤®à¤Ĭ": 4499,
      "à¤ĩà¤¸à¤ľ": 4500,
      "à¤²à¤¸à¤¨": 4501,
      "Ġà¤ıà¤«à¤Ł": 4502,
      "à¤¦à¤«": 4503,
      "Ġà¤ıà¤¨à¤ıà¤¸à¤ıà¤¸": 4504,
      "Ġà¤¤à¤¨à¤µ": 4505,
      "à¤µà¤²à¤¨": 4506,
      "Ġ1969": 4507,
      "Ġ184": 4508,
      "Ġà¤Ĺà¤ĩà¤²": 4509,
      "Ġ168": 4510,
      "à¤¶à¤¨à¤ª": 4511,
      "Ġ1966": 4512,
      "Ġà¤Ŀà¤®": 4513,
      "à¤®à¤°à¤ķ": 4514,
      "Ġà¤īà¤®à¥ľ": 4515,
      "Ġà¤ıà¤®à¤µ": 4516,
      "à¤ıà¤¹": 4517,
      "à¤¹à¤ķà¤°": 4518,
      "Ġ167": 4519,
      "Ġ177": 4520,
      "à¤ľà¤ªà¤ķ": 4521,
      "Ġà¤Ĩà¤ĸà¤°": 4522,
      "à¤°à¤§à¤¨": 4523,
      "à¤Ĩà¤°à¤ı": 4524,
      "à¤¸à¤¨à¤¹": 4525,
      "à¤¤à¤§": 4526,
      "à¤¿à¥ĩ": 4527,
      "Ġ365": 4528,
      "Ġà¤¨à¤¨à¤¦": 4529,
      "à¤µà¤¨à¤¯": 4530,
      "Ġà¤Ĩà¤¯à¤²": 4531,
      "Ġ188": 4532,
      "à¥ľà¤®": 4533,
      "à¤²à¤ªà¤®": 4534,
      "à¤ĵà¤¨": 4535,
      "Ġà¤ķà¤łà¤ª": 4536,
      "à¤Ĩà¤ĩà¤¯": 4537,
      "Ġà¤ıà¤®à¤ıà¤²à¤ı": 4538,
      "Ġà¤Īà¤ıà¤®à¤Ĩà¤Ī": 4539,
      "Ġà¤®à¤¨à¤ķ": 4540,
      "à¥Ĥà¥Ĥ": 4541,
      "à¤¤à¤ľà¤¨": 4542,
      "Ġà¤ļà¤ķà¤°": 4543,
      "à¤īà¤ªà¤¨": 4544,
      "Ġà¤·à¤·": 4545,
      "à¤Ĩà¤Īà¤ıà¤®à¤Ĩà¤Īà¤ıà¤®": 4546,
      "à¥įà¥¤": 4547,
      "Ġà¤ĵà¤¹à¤¦": 4548,
      "Ġà¤łà¤¹": 4549,
      "Ġà¤¹à¤Łà¤¤": 4550,
      "Ġà¥¨à¥ª": 4551,
      "Ġà¤®à¥Ľà¤¦": 4552,
      "à¤¶à¤°à¤£": 4553,
      "à¤§à¤®à¤ķ": 4554,
      "Ġà¤īà¤¤à¤°à¤µ": 4555,
      "à¤¤à¤²à¤¹à¤°": 4556,
      "à¤¥à¤¨à¤Ĺà¤°": 4557,
      "Ġà¤ıà¤¨à¤µ": 4558,
      "Ġ200809": 4559,
      "Ġà¤¸à¤¤à¤²": 4560,
      "Ġà¤Ĩà¤Īà¤²": 4561,
      "à¤¤à¤°à¤ªà¤¶": 4562,
      "Ġà¤Ĩà¤łà¤µà¤¡": 4563,
      "600": 4564,
      "à¤Łà¤°à¤¬": 4565,
      "Ġ2611": 4566,
      "Ġà¥Ŀ": 4567,
      "à¤§à¤¨à¤¤": 4568,
      "Ġà¤§à¤®à¤¨": 4569,
      "Ġà¤ļà¤¤à¤°": 4570,
      "à¤µà¤«": 4571,
      "990": 4572,
      "Ġà¤ıà¤¸à¤ıà¤¸à¤¸": 4573,
      "Ġà¤°à¤¨à¤°": 4574,
      "Ġà¤Ĩà¤¸à¤°": 4575,
      "Ġà¤¬à¤¨à¤²": 4576,
      "à¤§à¤¬": 4577,
      "Ġà¤ĵà¤ķà¤°": 4578,
      "à¤Īà¤µà¤°": 4579,
      "Ġ141": 4580,
      "Ġà¤Ĩà¤°à¤Ĩà¤Īà¤ıà¤²": 4581,
      "Ġà¤ķà¤¨à¤ķ": 4582,
      "à¤¦à¤ĸ": 4583,
      "à¤ıà¤²à¤ı": 4584,
      "Ġà¤Ľà¤²à¤¨": 4585,
      "Ġà¤¨à¤µà¤µ": 4586,
      "à¤Ĭà¤¤": 4587,
      "à¤°à¤ı": 4588,
      "700": 4589,
      "à¤Ĺà¤®à¤Ĺ": 4590,
      "à¤ıà¤®à¤¡à¤¬": 4591,
      "Ġà¤ķà¤łà¤ĺà¤°": 4592,
      "Ġà¤ıà¤ļà¤Ĩà¤°à¤Ł": 4593,
      "à¤ľà¤Ĺà¤¤": 4594,
      "à¤®à¤£à¤µ": 4595,
      "Ġà¤¬à¤ļà¤ķà¤°": 4596,
      "Ġà¤²à¤Łà¤ķà¤¤": 4597,
      "à¤¬à¤°à¤®à¤¤": 4598,
      "Ġà¤ıà¤ķà¤®à¤¤": 4599,
      "à¤ĩà¤®à¤²": 4600,
      "Ġà¤°à¥ŀ": 4601,
      "Ġà¤īà¤®à¤¸": 4602,
      "à¥ľà¤²": 4603,
      "Ġà¤¼": 4604,
      "Ġà¤ļà¤°à¤£à¤¬à¤¦": 4605,
      "Ġà¤Ĭà¤¸": 4606,
      "à¤¤à¤¬à¤°": 4607,
      "Ġà¤ħà¤¨à¤µà¤°à¤¤": 4608,
      "708": 4609,
      "Ġà¤ĩà¤ķà¤¨": 4610,
      "Ġà¤ªà¤Ĺà¤²": 4611,
      "à¤ħà¤²à¤Ĺà¤ħà¤²à¤Ĺ": 4612,
      "Ġà¤¯à¤¸": 4613,
      "à¤¨à¤®à¤¸": 4614,
      "Ġà¤¡à¤¬à¤µ": 4615,
      "Ġà¤ľà¤Ĺà¤°": 4616,
      "à¤ıà¤¨à¤ıà¤ļ": 4617,
      "Ġà¤ªà¤°à¤ĸà¤¨": 4618,
      "à¤Łà¤¶": 4619,
      "à¤µà¤°à¤«": 4620,
      "Ġà¤īà¤¹": 4621,
      "à¤ıà¤«à¤ıà¤²": 4622,
      "à¤¡à¤µà¤°": 4623,
      "Ġ1700": 4624,
      "à¤Ŀà¤¡": 4625,
      "Ġà¤ľà¤¬à¤¸": 4626,
      "Ġ323": 4627,
      "Ġà¤¦à¤®à¤ĸà¤®": 4628,
      "Ġà¤¶à¤Ĺ": 4629,
      "à¤ħà¤«à¤¸à¤°": 4630,
      "à¤¸à¤®à¤§": 4631,
      "Ġà¤ľà¤°à¤¨": 4632,
      "à¤°à¤¸à¤ķ": 4633,
      "Ġ340": 4634,
      "à¤²à¤Ī": 4635,
      "à¤¨à¤¬à¤°": 4636,
      "Ġà¤ľà¤¯à¤µà¤°": 4637,
      "2004": 4638,
      "à¤Ńà¤ļ": 4639,
      "Ġà¤Ŀà¤ªà¤Ł": 4640,
      "Ġ186": 4641,
      "à¤¡à¤¦": 4642,
      "Ġà¤¸à¤®à¤ľ": 4643,
      "à¤¹à¤²à¤¨": 4644,
      "à¤®à¤¬à¤°": 4645,
      "Ġà¤¬à¤¸à¤µ": 4646,
      "à¥ģà¤¼": 4647,
      "Ġ163": 4648,
      "Ġ1957": 4649,
      "à¤¯à¤£à¤ª": 4650,
      "Ġà¤ĵà¤ľ": 4651,
      "Ġ205": 4652,
      "Ġà¥ĩ": 4653,
      "Ġà¤ķà¤Łà¤ķ": 4654,
      "Ġà¤ħà¤ªà¤¶": 4655,
      "à¤Ńà¤§": 4656,
      "à¤°à¤§à¤°": 4657,
      "Ġà¤ħà¤ķà¤²": 4658,
      "Ġà¤¡à¤²à¤¹": 4659,
      "à¤¶à¤²à¤®": 4660,
      "à¤ĸà¤¸à¤®": 4661,
      "Ġà¤°à¤ļà¤¤": 4662,
      "à¤ľà¤Ł": 4663,
      "à¤Ĺà¤µà¤°": 4664,
      "Ġà¤Ĩà¤ĩà¤¨": 4665,
      "à¤ľà¤¦à¤¯": 4666,
      "Ġà¤¨à¤°à¤Ĺ": 4667,
      "à¤ªà¤¹à¤ļ": 4668,
      "Ġà¥¯à¥": 4669,
      "Ġà¤Ĩà¤Īà¤¯": 4670,
      "Ġà¤Ĩà¤¦à¤°à¤£": 4671,
      "Ġà¤Ľà¤łà¤µ": 4672,
      "à¤Ĺà¤²à¤°": 4673,
      "Ġà¤¦à¤°à¤¦à¤°": 4674,
      "Ġà¤ıà¤¡à¤²": 4675,
      "Ġà¤ªà¤²à¤¡": 4676,
      "Ġà¤¶à¤¹à¤¡": 4677,
      "à¤ķà¤°à¤¸": 4678,
      "Ġ235": 4679,
      "Ġ245": 4680,
      "Ġà¤¤à¤°à¤¤": 4681,
      "à¤Ĩà¤Ĩ": 4682,
      "Ġà¤ĥ": 4683,
      "Ġ||": 4684,
      "à¤ħà¤²à¤¬à¤¤": 4685,
      "à¤Ńà¤¡": 4686,
      "Ġà¤¡à¤¯": 4687,
      "à¤°à¤³": 4688,
      "Ġà¤Ńà¥ľ": 4689,
      "Ġà¤ħà¤Łà¤²à¤ľ": 4690,
      "à¤ķà¤Ĩà¤°": 4691,
      "à¤¢à¤°à¤ª": 4692,
      "à¤µà¤¨à¤°": 4693,
      "Ġ506": 4694,
      "Ġ1961": 4695,
      "à¤ıà¤²à¤ĵ": 4696,
      "à¤µà¤¨à¤Ĺà¤°": 4697,
      "Ġà¤¦à¤Ĺà¤¡": 4698,
      "à¤®à¤ľà¤¬": 4699,
      "Ġà¥¨à¥©": 4700,
      "Ġà¤²à¤µà¤°": 4701,
      "à¤ĸà¤¶": 4702,
      "à¤ħà¤ķà¤¬à¤°": 4703,
      "à¤Ĺà¤¡à¤ķà¤°": 4704,
      "à¤¤à¤µà¤°": 4705,
      "Ġ510": 4706,
      "Ġ183": 4707,
      "à¤ĳà¤¨": 4708,
      "Ġà¤«à¤¸à¤µ": 4709,
      "à¤Ŀà¤²": 4710,
      "à¤ķà¤¬à¤¸": 4711,
      "Ġ1955": 4712,
      "Ġà¤°à¤Ł": 4713,
      "à¤ľà¤¨à¤Ĺà¤°": 4714,
      "à¤ķà¤®à¤ľ": 4715,
      "à¤Īà¤Ĩà¤°à¤Ł": 4716,
      "à¤¸à¤²à¤ķà¤°": 4717,
      "à¤ľà¤¸à¤®": 4718,
      "à¤īà¤ªà¤ļ": 4719,
      "à¤Łà¤¨à¤®": 4720,
      "à¤¤à¤¬à¤¹": 4721,
      "à¤°à¤Ńà¤ķ": 4722,
      "Ġà¤¤à¤¸à¤µ": 4723,
      "Ġà¤¨à¤Īà¤¦": 4724,
      "Ġ173": 4725,
      "Ġà¤ķà¤¹à¤¬": 4726,
      "Ġ169": 4727,
      "Ġ193": 4728,
      "Ġà¤ĭà¤Ĺ": 4729,
      "Ġà¥§à¥¦à¥": 4730,
      "Ġà¤ľà¤¹à¤¨": 4731,
      "Ġ171": 4732,
      "Ġ178": 4733,
      "à¤¤à¤ļà¤°": 4734,
      "à¤Īà¤¤": 4735,
      "Ġà¤¦à¤¦": 4736,
      "Ġà¤Ĳà¤°": 4737,
      "Ġà¤ħà¤°à¤¹à¤°": 4738,
      "à¤µà¤Łà¤°": 4739,
      "à¤īà¤¡à¤¸": 4740,
      "Ġ192": 4741,
      "Ġ161": 4742,
      "Ġà¤īà¤Ĺà¤¤": 4743,
      "Ġà¥«à¥¦": 4744,
      "Ġà¤ıà¤¨à¤Ĩà¤°": 4745,
      "Ġà¤Ĺà¤¹à¤¨à¤¤": 4746,
      "Ġà¤ªà¤Ĺà¤¬": 4747,
      "Ġà¤ıà¤ļà¤Ł": 4748,
      "Ġà¤ħà¤ªà¤¹": 4749,
      "à¤ľà¤¯à¤¸": 4750,
      "Ġà¤ķà¤ĩà¤¯": 4751,
      "à¥įà¥į": 4752,
      "Ġà¤ĩà¥Ľ": 4753,
      "à¤¾à¤Ĥà¤Ĥ": 4754,
      "à¤Ĩà¤ĵ": 4755,
      "à¤łà¤¡": 4756,
      "Ġà¤¸à¤®à¤¯à¤¬à¤¦": 4757,
      "Ġà¤ħà¤ľà¤®à¤²": 4758,
      "à¤ıà¤¸à¤ıà¤²à¤µ": 4759,
      "à¤¾à¤¿": 4760,
      "Ġà¤ħà¤ķà¤°": 4761,
      "Ġà¤ħà¥Ľ": 4762,
      "à¤ªà¤°à¤²": 4763,
      "Ġà¤¦à¤Ĺ": 4764,
      "Ġà¤ıà¤«à¤ª": 4765,
      "à¤¦à¤°à¤µ": 4766,
      "à¤ıà¤¨à¤Ĩà¤Īà¤ı": 4767,
      "Ġà¤ľà¤¨à¤¸à¤¤": 4768,
      "à¤ķà¤ļà¤°": 4769,
      "à¤¹à¤¤à¤Ĺ": 4770,
      "à¤¤à¤ķà¤µ": 4771,
      "Ġà¤ıà¤ļà¤ıà¤¸": 4772,
      "à¤®à¤¨à¤µà¤®": 4773,
      "à¤ıà¤ķà¤¦": 4774,
      "Ġ304": 4775,
      "à¥Ģà¤Ĥà¤Ĥ": 4776,
      "Ġ172": 4777,
      "à¥ħà¤Ĥ": 4778,
      "Ġ1920": 4779,
      "à¤µà¤Ńà¤°": 4780,
      "à¤¨à¤¹à¤Ĺ": 4781,
      "Ġà¤§à¤¡à¤ķ": 4782,
      "Ġà¤¸à¤¬à¤²": 4783,
      "à¤¥à¤¦": 4784,
      "Ġà¤¸à¥ŀà¤°": 4785,
      "à¤ķà¤°à¤ª": 4786,
      "à¤¨à¤Ŀ": 4787,
      "Ġà¤ľà¤¬à¤ľà¤¬": 4788,
      "Ġà¤īà¤ĺà¤¡": 4789,
      "à¤¸à¤¨à¤°": 4790,
      "Ġà¤Ĺà¤³": 4791,
      "à¤°à¤®à¤¦": 4792,
      "Ġà¤Ńà¤ľ": 4793,
      "à¤ĺà¤ļ": 4794,
      "Ġà¤ħà¤¸à¤¹à¤¨": 4795,
      "Ġà¤ľà¤¯à¤µ": 4796,
      "Ġ203": 4797,
      "Ġà¤ħà¤¬à¤°": 4798,
      "Ġà¤ĵà¤³à¤ĸ": 4799,
      "à¤¦à¤¨à¤¹": 4800,
      "Ġà¤ķà¤²à¤ª": 4801,
      "à¤¡à¤§": 4802,
      "Ġà¤ľà¤¤à¤¨": 4803,
      "Ġ1968": 4804,
      "Ġà¥¨à¥¨": 4805,
      "à¤ļà¤²à¤ķà¤°": 4806,
      "Ġà¤ĳà¤Ĺà¤¸": 4807,
      "Ġ1964": 4808,
      "Ġà¤Ĩà¤Īà¤ıà¤¨à¤ıà¤¸": 4809,
      "à¤ľà¤¯à¤°": 4810,
      "Ġà¤¦à¤²à¤ľ": 4811,
      "à¤ıà¤¯à¤°à¤ª": 4812,
      "à¤µà¤°à¤¸": 4813,
      "Ġà¤¨à¤Īà¤®": 4814,
      "Ġà¤¨à¤Īà¤¨à¤Ī": 4815,
      "Ġà¤ħà¤²à¤ĸ": 4816,
      "à¤ıà¤¸à¤ıà¤®": 4817,
      "Ġ187": 4818,
      "Ġà¤ľà¤¨à¤Ń": 4819,
      "Ġà¤¸à¤ľà¤¨": 4820,
      "Ġà¤®à¤°à¤ķ": 4821,
      "Ġà¤«à¤ľà¤²": 4822,
      "à¤ķà¤ĩà¤¨": 4823,
      "Ġà¤¤à¤¹à¤ķ": 4824,
      "à¤®à¤¹à¤ľ": 4825,
      "Ġà¤®à¤ķà¤¬à¤°": 4826,
      "Ġà¤¹à¤°à¤¬": 4827,
      "Ġ1930": 4828,
      "à¤¤à¤Ĺà¤¤": 4829,
      "à¤®à¤µà¤¤": 4830,
      "Ġà¤Ľà¤Łà¤ªà¤Ł": 4831,
      "Ġà¤Łà¤¨à¤²": 4832,
      "à¤ªà¤³": 4833,
      "Ġà¤ªà¤ľ": 4834,
      "Ġà¤¬à¤Ľà¤¡": 4835,
      "Ġ11000": 4836,
      "Ġ850": 4837,
      "Ġà¤¤à¤ķà¤¦": 4838,
      "Ġ2100": 4839,
      "à¤ľà¤¯à¤¦": 4840,
      "Ġà¤Ńà¤¨": 4841,
      "Ġà¤Ĩà¤¦à¤®à¤ª": 4842,
      "Ġà¤Ĺà¤¹à¤®": 4843,
      "Ġà¤¸à¤®à¤¤à¤²": 4844,
      "Ġà¤°à¤¹à¤¨à¤¸à¤¹à¤¨": 4845,
      "à¤Ĩà¤ªà¤¸": 4846,
      "à¤²à¤ĸà¤£": 4847,
      "Ġ1942": 4848,
      "Ġ202": 4849,
      "Ġà¤ľà¤¸à¤²": 4850,
      "à¤Łà¤°à¤ļ": 4851,
      "Ġà¤ħà¤²à¤¬à¤¤": 4852,
      "Ġà¤ħà¤¸à¤®à¤¯": 4853,
      "Ġà¤¹à¤Ī": 4854,
      "Ġà¤Ķà¤ªà¤¨": 4855,
      "Ġà¤Ĩà¤¢à¤³": 4856,
      "Ġà¤°à¤¹à¤®à¤¤": 4857,
      "à¤¸à¤¹à¤ķ": 4858,
      "à¤°à¤ľà¤Ń": 4859,
      "Ġà¤Ĳà¤ľ": 4860,
      "Ġà¤ķà¤²à¤¯": 4861,
      "Ġà¤¶à¤°à¤®": 4862,
      "Ġà¤ķà¤²à¤¸": 4863,
      "Ġà¤ĵà¤µà¤°à¤¬": 4864,
      "Ġà¥ļà¤°": 4865,
      "à¤Ľà¤ª": 4866,
      "Ġ181": 4867,
      "à¤¡à¤°à¤®": 4868,
      "Ġà¤¦à¤°à¤ĸ": 4869,
      "Ġà¤Ĩà¤ĩà¤ķ": 4870,
      "Ġà¤ķà¥ľà¤µ": 4871,
      "Ġà¤Ĩà¤Īà¤ķ": 4872,
      "à¤Ŀà¤Ĺà¤¡": 4873,
      "Ġà¤ķà¤³": 4874,
      "190": 4875,
      "à¤Ĺà¤²à¤ªà¤¨": 4876,
      "à¤ªà¤¡à¤²": 4877,
      "à¤¬à¤²à¤°": 4878,
      "Ġà¤Ńà¤°à¤¸à¤ķ": 4879,
      "Ġà¤Ĩà¤²à¤°": 4880,
      "Ġà¤Ľà¤ªà¤¤": 4881,
      "Ġà¥ĺà¤¦à¤®": 4882,
      "à¥Īà¥Ī": 4883,
      "à¤²à¤¤à¤ª": 4884,
      "Ġà¤Ľà¤¬": 4885,
      "à¤ļà¤ªà¤¡": 4886,
      "Ġà¤ħà¤¨à¤ªà¤¢": 4887,
      "Ġà¤¤à¤¦": 4888,
      "à¤¦à¤ļ": 4889,
      "à¤¶à¤ªà¤¥": 4890,
      "à¤°à¤Ĺà¤Ł": 4891,
      "à¥Ģà¤Ĥ|": 4892,
      "Ġ911": 4893,
      "Ġ219": 4894,
      "à¤Ĺà¥Ľ": 4895,
      "Ġà¤ªà¤¦à¤µ": 4896,
      "Ġà¤ĸà¤Łà¤ķ": 4897,
      "à¤¢à¤°": 4898,
      "Ġà¤ıà¤®à¤Ĩà¤Ī": 4899,
      "Ġ288": 4900,
      "à¤ĩà¤Łà¤¨": 4901,
      "à¤Ĩà¤ªà¤°": 4902,
      "Ġà¤ıà¤²à¤ıà¤²à¤¬": 4903,
      "à¤Ĩà¤¨à¤¨": 4904,
      "à¤ıà¤Ĩà¤°": 4905,
      "à¤¶à¤¨à¤¸": 4906,
      "Ġ1954": 4907,
      "Ġà¤ıà¤¸à¤ıà¤¸à¤¬": 4908,
      "Ġà¤ķà¤Īà¤ķà¤Ī": 4909,
      "à¤¸à¤Īà¤ıà¤¨": 4910,
      "Ġà¤¨à¤¸à¤¤": 4911,
      "à¤¯à¤¬à¤²": 4912,
      "Ġà¤²à¤¡à¥ĺ": 4913,
      "à¤ıà¤ķà¤¤": 4914,
      "Ġ307": 4915,
      "à¤¹à¤¨à¤Ĺà¤°": 4916,
      "à¥īà¤¼": 4917,
      "Ġà¤ķà¤°à¤Ĺ": 4918,
      "Ġà¤¨à¤¤à¤®à¤¸": 4919,
      "à¥ĭà¤¼": 4920,
      "Ġ010": 4921,
      "900": 4922,
      "1000": 4923,
      "Ġà¤ıà¤«à¤ıà¤®": 4924,
      "Ġà¤ħà¤¦à¤®": 4925,
      "à¤ıà¤¯à¤°à¤Ł": 4926,
      "Ġà¤Ĩà¤Īà¤µ": 4927,
      "Ġà¤µà¤Ł": 4928,
      "2005": 4929,
      "à¤°à¤°à¤ķ": 4930,
      "à¤Ĩà¤ĩà¤¡": 4931,
      "à¤«à¤Ī": 4932,
      "à¤Ĩà¤¦à¤®": 4933,
      "à¤¶à¤Ł": 4934,
      "à¤¨à¤ķà¤²": 4935,
      "à¤µà¤Ī": 4936,
      "Ġà¤ĵà¤µà¤°à¤Ł": 4937,
      "à¤ªà¤µà¤°": 4938,
      "Ġà¤ħà¤¦à¤Ń": 4939,
      "à¤ľà¤Ī": 4940,
      "Ġà¤¯à¤°": 4941,
      "Ġà¤ľà¤²à¤®": 4942,
      "à¤Ĩà¤°à¤ıà¤²": 4943,
      "Ġ218": 4944,
      "Ġà¤¨à¤µà¤Ń": 4945,
      "Ġ222": 4946,
      "Ġà¤ļà¥Ŀà¤¨": 4947,
      "Ġà¤¬à¤°à¤¸à¤¤": 4948,
      "à¤¦à¤³": 4949,
      "Ġ375": 4950,
      "Ġà¤¶à¤¬à¤¨à¤®": 4951,
      "à¤¬à¤Łà¤¨": 4952,
      "à¤Ĩà¤¡à¤µ": 4953,
      "à¤°à¤£à¤µà¤¶": 4954,
      "Ġà¤Īà¤¯": 4955,
      "à¤¡à¤°à¤ª": 4956,
      "à¤¯à¤®à¤ķ": 4957,
      "à¤īà¤ľà¤°": 4958,
      "Ġ217": 4959,
      "à¥Ģà¥ĩ": 4960,
      "à¤µà¤¡à¤°": 4961,
      "Ġà¤ĵà¤µà¤°à¤¸": 4962,
      "à¤ªà¤¤à¤µ": 4963,
      "Ġà¤Īà¤¦à¤Ĺ": 4964,
      "Ġà¤łà¤ķ": 4965,
      "Ġà¤°à¤¹à¤µ": 4966,
      "Ġà¤Ŀà¤£": 4967,
      "Ġà¤¸à¤¹à¤¨à¤¶": 4968,
      "Ġà¤ħà¤°à¤°": 4969,
      "Ġà¤¹à¤¸à¤°à¤¤": 4970,
      "à¤ĩà¤¸à¤ªà¤°": 4971,
      "Ġà¤īà¤ªà¤¸à¤Ń": 4972,
      "Ġà¤Ĩà¤ľà¤¸": 4973,
      "Ġà¤Ĺà¤«": 4974,
      "à¤Ńà¤²à¤ķà¤°": 4975,
      "à¤µà¤¹à¤°": 4976,
      "Ġà¤¨à¤Łà¤°": 4977,
      "Ġà¤¤à¤Ĩà¤²": 4978,
      "Ġà¤ĵà¤¬à¤°": 4979,
      "Ġà¥Ģ": 4980,
      "à¤³à¤ľ": 4981,
      "Ġà¤īà¤ļà¤²": 4982,
      "Ġà¤¨à¤²à¤µ": 4983,
      "à¤¨à¤ĵà¤µà¤°": 4984,
      "Ġà¤ħà¤¸à¤Ĺà¤°": 4985,
      "Ġà¤ĵà¤¨": 4986,
      "Ġà¤¸à¤°à¤ļ": 4987,
      "Ġ18000": 4988,
      "Ġà¤ĵà¤¤à¤ª": 4989,
      "à¤ķà¤·": 4990,
      "à¤Ĩà¤¦à¤°": 4991,
      "à¤¹à¤µà¤°": 4992,
      "Ġà¤«à¤¸à¤µà¤£": 4993,
      "à¤ķà¤¨à¤Ĺ": 4994,
      "Ġà¥§à¥¦à¥¦": 4995,
      "à¤¯à¤ªà¤°": 4996,
      "Ġà¤īà¤¥à¤ª": 4997,
      "Ġà¤ıà¤²à¤¨": 4998,
      "à¤Ĩà¤«": 4999,
      "à¤Łà¤°à¤¤": 5000,
      "Ġà¤¯à¤¶à¤°": 5001,
      "Ġà¤Ĩà¤«à¤°": 5002,
      "à¥ľà¤ªà¤¤": 5003,
      "Ġ1945": 5004,
      "Ġà¤ıà¤ķà¤ļ": 5005,
      "à¤µà¤°à¤£à¤µ": 5006,
      "Ġà¤ļà¤ªà¤¤": 5007,
      "Ġà¤Łà¤¹à¤²à¤¨": 5008,
      "Ġà¤¸à¤¹à¤°à¤¸": 5009,
      "Ġà¤Ŀà¥ľ": 5010,
      "Ġà¤ħà¤µà¤¸à¤°à¤µ": 5011,
      "Ġà¤¨à¤Ĺà¤²": 5012,
      "Ġà¤ªà¤°à¤ķ": 5013,
      "à¤Łà¤Ń": 5014,
      "à¤¸à¤°à¤²": 5015,
      "Ġ1959": 5016,
      "à¤ľà¤®à¤¸": 5017,
      "Ġà¤¬à¤Łà¤°": 5018,
      "Ġà¤¬à¤Ĺà¤µ": 5019,
      "Ġà¤ĩà¤°à¤¶": 5020,
      "à¤«à¥ľ": 5021,
      "à¤¸à¤¨à¤Ĺà¤°": 5022,
      "à¤¤à¤®à¤¬": 5023,
      "à¤ķà¤¦à¤°": 5024,
      "Ġà¤ªà¤°à¤®à¤¹": 5025,
      "à¤ķà¤²à¤°": 5026,
      "à¤¦à¤¶à¤®": 5027,
      "Ġ272": 5028,
      "Ġà¤Ĭà¤¬": 5029,
      "à¤ļà¤µà¤¡": 5030,
      "Ġ354": 5031,
      "à¤Ĩà¤µà¤¶": 5032,
      "à¤Ĭà¤²": 5033,
      "à¤Ĳà¤¤": 5034,
      "Ġà¤ıà¤¨à¤ıà¤ļà¤ıà¤Ĩà¤Ī": 5035,
      "Ġà¤īà¤Ńà¤°à¤ķà¤°": 5036,
      "à¤ľà¤ļ": 5037,
      "Ġà¤¶à¤ķà¤²": 5038,
      "Ġà¤ľà¤¨à¤¶à¤ķ": 5039,
      "à¤Ĺà¥ľà¤¤": 5040,
      "à¤²à¤µà¤°": 5041,
      "Ġ208": 5042,
      "Ġ204": 5043,
      "Ġà¤ĺà¤¨à¤¤": 5044,
      "Ġà¤ıà¤Ĩà¤Īà¤ıà¤®à¤Ĩà¤Īà¤ıà¤®": 5045,
      "Ġà¤²à¤µà¤ķà¤°à¤ļ": 5046,
      "Ġà¤¸à¤¨à¤¸": 5047,
      "Ġà¤¬à¤°à¤¤à¤¤": 5048,
      "à¤¨à¤®à¤ķ": 5049,
      "à¤¦à¤°à¤¸": 5050,
      "Ġà¤Ĩà¤°à¤ĵ": 5051,
      "à¤ľà¤¤à¤°": 5052,
      "Ġ251": 5053,
      "à¤¾à¤ģà¥¤": 5054,
      "Ġ1946": 5055,
      "Ġà¤¸à¤¶": 5056,
      "à¤ĳà¤¡": 5057,
      "Ġà¤ıà¤ħà¤°": 5058,
      "à¤°à¤ĸà¤§": 5059,
      "Ġà¤łà¤°à¤µ": 5060,
      "Ġà¤ļà¥Ŀà¤ķà¤°": 5061,
      "Ġà¤ħà¤µà¤¤à¤°": 5062,
      "Ġà¤ªà¤°à¤²": 5063,
      "à¤·à¤Ńà¤°": 5064,
      "Ġà¤¸à¤ªà¤°": 5065,
      "Ġà¥§à¥¯": 5066,
      "à¤ıà¤«à¤¡": 5067,
      "Ġà¤ĸà¤°à¤ªà¤¤à¤µ": 5068,
      "Ġà¤ıà¤¸à¤ıà¤¨": 5069,
      "à¤®à¤¦à¤°": 5070,
      "à¤°à¤ħ": 5071,
      "à¤īà¤ļà¤°": 5072,
      "à¤®à¤²à¤¬à¤ľ": 5073,
      "Ġà¤¬à¤°à¤Ĺà¤¦": 5074,
      "à¤¤à¤°à¤ľ": 5075,
      "Ġ380": 5076,
      "Ġ399": 5077,
      "Ġà¤Ĩà¤Īà¤Īà¤¡": 5078,
      "Ġà¤¹à¤ľà¤°": 5079,
      "Ġà¤Ńà¤ĩà¤¯": 5080,
      "à¤Ĺà¥ľà¤¨": 5081,
      "Ġà¤ķà¤°à¤¤à¤¬": 5082,
      "à¤µà¤²à¤®": 5083,
      "Ġ60000": 5084,
      "à¤Ĺà¤²à¤¬": 5085,
      "Ġà¤ħà¤¦à¤²": 5086,
      "Ġà¤īà¤ªà¤¬": 5087,
      "à¤¯à¤µà¤¤": 5088,
      "à¤¬à¤²à¤¸": 5089,
      "Ġà¤®à¤Ĺà¤§": 5090,
      "à¤²à¤®à¤§": 5091,
      "Ġ2200": 5092,
      "Ġà¤ıà¤ªà¤²": 5093,
      "Ġà¤µà¤¨à¤ª": 5094,
      "à¤Ĺà¤²à¤®": 5095,
      "Ġà¤¸à¤ķà¤°": 5096,
      "à¤ĩà¤°à¤«": 5097,
      "à¤ªà¤Ĺà¥Ŀ": 5098,
      "Ġà¤®à¤ķà¤¡": 5099,
      "à¤Ĺà¤°à¤ķ": 5100,
      "à¤Ĩà¤Ľ": 5101,
      "à¤¥à¤ľ": 5102,
      "à¤®à¤¹à¤¬": 5103,
      "à¤ľà¤ĸ": 5104,
      "à¤ıà¤ıà¤«": 5105,
      "Ġà¤¤à¤¬à¤²": 5106,
      "Ġà¤ħà¤¶à¤«": 5107,
      "à¤Ĩà¤¸à¤®": 5108,
      "Ġ243": 5109,
      "à¤¤à¤ķà¤¶": 5110,
      "Ġà¤ıà¤ıà¤¸": 5111,
      "Ġ179": 5112,
      "à¤µà¤ļà¤¨": 5113,
      "à¤ıà¤®à¤µ": 5114,
      "Ġà¤Łà¤¹à¤²": 5115,
      "Ġ216": 5116,
      "Ġà¤ıà¤¡à¤ľà¤¸": 5117,
      "Ġ025": 5118,
      "Ġ212": 5119,
      "Ġà¥§à¥¯à¥ª": 5120,
      "Ġà¤®à¤¦à¤¨à¤²": 5121,
      "Ġà¤ľà¤²à¤®à¤Ĺ": 5122,
      "à¤Ĳà¤ķ": 5123,
      "Ġà¤ħà¤¸à¤²à¤¹": 5124,
      "Ġà¤¬à¤°à¤ķà¤¤": 5125,
      "Ġà¤Ĩà¤¯à¤°": 5126,
      "à¤°à¤ķà¤¬": 5127,
      "Ġà¤ĺà¤Ī": 5128,
      "Ġ2024": 5129,
      "à¤ħà¤²à¤µà¤°": 5130,
      "Ġà¤¤à¤³": 5131,
      "Ġà¤ħà¤®à¤¨à¤¦": 5132,
      "Ġà¤Ĩà¥Ľà¤®": 5133,
      "2006": 5134,
      "à¥ŀà¤°": 5135,
      "Ġà¤łà¤Ĺà¤¨": 5136,
      "Ġà¤¸à¤¤à¤µ": 5137,
      "Ġà¤ªà¤°à¤Ľ": 5138,
      "Ġà¤¹à¤ľà¤®": 5139,
      "Ġà¤¬à¤°à¤®": 5140,
      "Ġ1963": 5141,
      "Ġà¤¦à¤²à¤¬à¤¦à¤²": 5142,
      "Ġ206": 5143,
      "Ġà¤łà¤¨": 5144,
      "à¤²à¤Ĺà¤¢": 5145,
      "Ġà¤«à¤£": 5146,
      "Ġà¤īà¤Ľà¤²à¤ķà¤°": 5147,
      "Ġà¤Ńà¤Ĺà¤µà¤¨": 5148,
      "à¤¡à¤¸à¤®": 5149,
      "Ġà¥¨à¥§": 5150,
      "à¤ªà¤¤à¤²": 5151,
      "à¤¬à¤°à¤µ": 5152,
      "Ġà¤¸à¤¹à¤¤": 5153,
      "à¤ķà¤Łà¤¤": 5154,
      "Ġà¤ļà¤²à¤µ": 5155,
      "à¤¹à¤¨à¤¤à¤ķà¤¶": 5156,
      "Ġ425": 5157,
      "Ġà¤ķà¤°à¤ķà¤°": 5158,
      "Ġà¤ļà¤¹à¤°": 5159,
      "Ġà¤ĸà¤¸à¤°": 5160,
      "Ġà¤ıà¤Ĩà¤Īà¤¸": 5161,
      "Ġà¤§à¤°à¤ªà¤ķà¤¡": 5162,
      "à¤ķà¤¨à¤Ĺà¤°": 5163,
      "à¤²à¤¦à¤¸": 5164,
      "Ġà¤°à¤ľà¤ķ": 5165,
      "à¤¹à¤°à¤¸": 5166,
      "à¤¤à¤¹à¤¤": 5167,
      "à¤¹à¤°à¤µ": 5168,
      "Ġà¤¡à¤ļ": 5169,
      "à¤Łà¤ľà¤°à¤²": 5170,
      "à¤¯à¤¶à¤µ": 5171,
      "Ġà¤ħà¤ľà¤°": 5172,
      "à¤¸à¤«à¤²à¤¤": 5173,
      "à¤ķà¤²à¤®": 5174,
      "Ġà¤ĭà¤£à¤¦": 5175,
      "à¤ľà¤¯à¤¨à¤Ĺà¤°": 5176,
      "Ġà¤īà¥ľà¤¨": 5177,
      "à¥Īà¤Ĥà¤Ĥ": 5178,
      "Ġà¤ķà¤µà¤¯": 5179,
      "Ġà¤¨à¤¥": 5180,
      "250": 5181,
      "Ġà¤ıà¤®à¤ıà¤ļ": 5182,
      "Ġ255": 5183,
      "à¤¯à¤°à¤µ": 5184,
      "Ġà¤®à¤¤à¤ªà¤¤": 5185,
      "Ġ191": 5186,
      "à¤°à¤ļà¥Ŀ": 5187,
      "à¤¹à¤°à¤ª": 5188,
      "Ġà¤ħà¤²à¤¬": 5189,
      "180": 5190,
      "Ġà¤«à¤²à¤«": 5191,
      "à¤°à¤µà¤§": 5192,
      "Ġ1940": 5193,
      "Ġà¤ļà¤£": 5194,
      "Ġà¤¨à¤¹à¤²": 5195,
      "Ġà¤²à¤ĸà¤¨à¤ª": 5196,
      "Ġà¤Ĩà¤īà¤Łà¤¡": 5197,
      "à¤Ĺà¤®à¤°à¤®à¤°": 5198,
      "Ġà¥§à¥¯à¥Ń": 5199,
      "à¤®à¤¦à¤²": 5200,
      "à¤ıà¤ļà¤ıà¤¸": 5201,
      "Ġ211": 5202,
      "Ġà¤¬à¤°à¤Ĺà¤²": 5203,
      "à¥Ģà¥°": 5204,
      "à¤²à¤µà¤²": 5205,
      "Ġà¤ıà¤ıà¤¨à¤ıà¤®": 5206,
      "à¤¸à¤ĸà¤£": 5207,
      "Ġà¤Ĺà¤®à¤²": 5208,
      "Ġà¤ĵà¤ıà¤¸à¤¡": 5209,
      "à¤Īà¤ıà¤¸à¤Ĩà¤°": 5210,
      "Ġ265": 5211,
      "Ġ1900": 5212,
      "à¤ıà¤¨à¤ķ": 5213,
      "Ġà¤Ĺà¥Ŀà¤µ": 5214,
      "Ġà¤¤à¤¦à¤¨": 5215,
      "Ġà¤¤à¤¬à¤°": 5216,
      "à¤ļà¤¹": 5217,
      "370": 5218,
      "à¤°à¤ľà¤°": 5219,
      "à¤²à¤®à¤¤": 5220,
      "à¤ĵà¤ªà¤¨": 5221,
      "à¤¹à¤°à¤Ńà¤ľà¤¨": 5222,
      "Ġà¤ķà¤®à¤¬": 5223,
      "Ġà¤ıà¤¸à¤Ĩà¤°": 5224,
      "Ġ295": 5225,
      "Ġà¤¸à¤¨à¤®": 5226,
      "à¤¬à¤ľà¤°": 5227,
      "Ġà¤¸à¤®à¤µ": 5228,
      "à¤¤à¤ķà¤±": 5229,
      "Ġà¤ıà¤²à¤ıà¤¨à¤ľ": 5230,
      "à¤¸à¤ł": 5231,
      "à¤ľà¤ªà¤¨": 5232,
      "Ġà¤¤à¤¬à¤¤à¤ķ": 5233,
      "Ġà¥§à¥¯à¥¯à¥": 5234,
      "Ġà¤Ĺà¤Ĺ": 5235,
      "Ġà¤Ŀà¤ªà¤ķ": 5236,
      "à¤Ĩà¤°à¤µ": 5237,
      "à¤ļà¤¸à¤®à¤Ŀà¤ķà¤°": 5238,
      "à¤¸à¤ħà¤ª": 5239,
      "à¤¨à¤°à¤µ": 5240,
      "Ġà¤¸à¤īà¤¦": 5241,
      "Ġà¤ıà¤Ĩà¤°": 5242,
      "Ġà¤ĩà¤¨à¤¡": 5243,
      "à¤ıà¤¡à¤µ": 5244,
      "Ġà¤§à¤µà¤²": 5245,
      "à¤ıà¤«à¤ı": 5246,
      "Ġà¤¨à¤µà¤¸": 5247,
      "à¤¤à¤¨à¤¤": 5248,
      "Ġà¤Īà¤¸à¤µ": 5249,
      "Ġ207": 5250,
      "Ġà¤ħà¤ļà¤°à¤ľ": 5251,
      "à¤Łà¤ķà¤Ł": 5252,
      "à¤²à¤®à¤Ł": 5253,
      "Ġà¤ľà¤¨à¤²": 5254,
      "Ġà¤¸à¤«à¤¦à¤°à¤ľ": 5255,
      "Ġà¤Ķà¤«": 5256,
      "à¤ħà¤¨à¤ľ": 5257,
      "à¤¹à¤°à¤¨": 5258,
      "à¤¡à¤ľ": 5259,
      "à¤¼à¤¼": 5260,
      "à¤¨à¤µà¤¨": 5261,
      "à¤®à¤ªà¤°": 5262,
      "à¤¸à¤®à¤Ŀà¤¨": 5263,
      "à¤ĩà¤°à¤¸": 5264,
      "à¤®à¤¸à¤°": 5265,
      "Ġà¤Ĩà¤®à¤²": 5266,
      "Ġà¤¶à¤ªà¤¥à¤ªà¤¤": 5267,
      "Ġà¤ıà¤®à¤°": 5268,
      "à¥ľà¤ĸ": 5269,
      "à¤¯à¤¤à¤®": 5270,
      "à¤Ĺà¤ľà¤¨": 5271,
      "à¤ªà¤®à¤¤": 5272,
      "Ġà¤Ĩà¤®à¤¸à¤Ń": 5273,
      "Ġà¥¨à¥Ń": 5274,
      "à¤¸à¤°à¤¶": 5275,
      "à¤¯à¤°à¤¹": 5276,
      "Ġà¤¶à¤¯à¤¨": 5277,
      "à¤°à¤£à¤ľ": 5278,
      "Ġà¤ĸà¤²à¤²": 5279,
      "Ġà¤¡à¤Łà¤ķà¤°": 5280,
      "à¤Ĩà¤ĩà¤¸": 5281,
      "à¤ĸà¤°à¤¤": 5282,
      "Ġà¤®à¤°à¤¹à¤®": 5283,
      "Ġà¤ıà¤¨à¤ıà¤¸à¤ı": 5284,
      "1990": 5285,
      "Ġà¤Ĳà¤ªà¤²": 5286,
      "Ġà¤²à¤ķà¤µ": 5287,
      "Ġà¤«à¤²à¤¤": 5288,
      "à¤¦à¥ľ": 5289,
      "à¤Ĩà¤Ń": 5290,
      "Ġà¤¤à¤ªà¤¨": 5291,
      "Ġ213": 5292,
      "Ġà¤µà¤ļà¤¨à¤¬à¤¦": 5293,
      "Ġ303": 5294,
      "Ġà¤ĵà¤Ľ": 5295,
      "à¤µà¤°à¤Ĺ": 5296,
      "Ġà¤¤à¤°à¤£": 5297,
      "Ġà¤®à¤ľà¤°": 5298,
      "Ġà¤ħà¤Ĺà¤°à¤¬à¤¤": 5299,
      "Ġà¤ıà¤Ĩà¤Īà¤ıà¤¡": 5300,
      "à¤ľà¤°à¤µ": 5301,
      "Ġà¤ıà¤«à¤Ĩà¤Īà¤Ĩà¤Ī": 5302,
      "125": 5303,
      "Ġ1958": 5304,
      "à¤¯à¤Ĺà¥Ŀ": 5305,
      "à¤·à¤ªà¤¦": 5306,
      "à¤ķà¤ªà¤¡": 5307,
      "Ġà¤Ĺà¤¦à¤Ĺ": 5308,
      "Ġà¤²à¤Ĺà¤ķà¤°": 5309,
      "Ġà¤į": 5310,
      "à¤²à¤ı": 5311,
      "à¤Ĺà¤¹à¤²": 5312,
      "à¤¼à¥Ĥà¤Ĥ": 5313,
      "à¤ķà¤®à¤Ĺà¤¢": 5314,
      "Ġà¤īà¤ľà¤¡": 5315,
      "Ġà¤Ĩà¤ĩà¤¡à¤²": 5316,
      "à¤°à¤¶à¤¨": 5317,
      "à¤¤à¤¨à¤µ": 5318,
      "à¤łà¤¤à¤®": 5319,
      "à¤²à¤ªà¤°": 5320,
      "à¤¸à¤ı": 5321,
      "Ġà¤¹à¥ľ": 5322,
      "à¤ħà¤Ńà¤¯": 5323,
      "Ġà¤Ĺà¤ľà¤¨": 5324,
      "Ġ257": 5325,
      "Ġà¤ĩà¤¶à¤°à¤¤": 5326,
      "Ġà¤ħà¤¸à¤¹à¤¯": 5327,
      "à¤ıà¤¸à¤ıà¤¸à¤¸": 5328,
      "à¤Īà¤ĺà¤°": 5329,
      "Ġà¤ħà¤®à¤°à¤ķ": 5330,
      "Ġà¤ªà¤¡à¤£": 5331,
      "Ġà¤¹à¤°à¤£": 5332,
      "Ġà¤īà¤ªà¤ķà¤°": 5333,
      "à¤¨à¤µà¤®": 5334,
      "Ġà¤¤à¤¹à¤ľ": 5335,
      "Ġà¥¨à¥¬": 5336,
      "à¤¨à¤ķà¤¦": 5337,
      "Ġà¤īà¤ªà¤ĸ": 5338,
      "Ġà¤Ĭà¤¤à¤ķ": 5339,
      "à¥ĩà¤ĥ": 5340,
      "Ġà¤ªà¤¨à¤ªà¤¤": 5341,
      "à¤Ĺà¤¹à¤®": 5342,
      "Ġ200708": 5343,
      "à¤µà¤¤à¤ĸ": 5344,
      "à¤īà¤¨à¤¶": 5345,
      "Ġ415": 5346,
      "Ġà¤Ĺà¤¦à¤°": 5347,
      "Ġà¤ħà¤Łà¤ªà¤Ł": 5348,
      "Ġà¤Ĩà¤ĩà¤ķà¤¨": 5349,
      "Ġà¤¨à¤¨à¤ķ": 5350,
      "Ġà¤ķà¤Łà¤ĳà¤«": 5351,
      "Ġà¥§à¥¯à¥¬": 5352,
      "à¤§à¤¯": 5353,
      "à¤Ĩà¤¡": 5354,
      "Ġ214": 5355,
      "à¤¯à¤®à¤µà¤°": 5356,
      "Ġà¤¸à¤®à¤ľà¤¤": 5357,
      "Ġà¤ħà¤¹à¤®à¤¦à¤¨à¤Ĺà¤°": 5358,
      "Ġà¤¤à¤°à¤²à¤¤": 5359,
      "Ġà¤Ŀà¥ľà¤ª": 5360,
      "à¤¹à¤°à¤¦à¤Ĺ": 5361,
      "à¥įà¥Ģ": 5362,
      "à¤²à¤¥": 5363,
      "2003": 5364,
      "à¤ªà¤°à¤ľ": 5365,
      "Ġ2050": 5366,
      "Ġà¤ıà¤¸à¤ıà¤®à¤Ī": 5367,
      "Ġà¤ľà¤µà¤³à¤ª": 5368,
      "Ġà¤Ĩà¤īà¤Łà¤ª": 5369,
      "à¤ļà¤ķà¤¤": 5370,
      "Ġ625": 5371,
      "à¤¥à¤¹": 5372,
      "Ġà¤Łà¤¹à¤¨": 5373,
      "à¤ıà¤¨à¤Ĩà¤°à¤¸": 5374,
      "Ġà¤¶à¤°à¤¤": 5375,
      "à¤¢à¤¡": 5376,
      "à¤ļà¤¬à¤ļ": 5377,
      "Ġà¤®à¤¶à¤Ĺ": 5378,
      "à¤·à¤¯à¤µà¤¸": 5379,
      "à¤Ĺà¤²à¤¸à¤°": 5380,
      "à¤¤à¤ķà¤¬": 5381,
      "Ġà¤¬à¤°à¤¹": 5382,
      "à¤¨à¤¤à¤³": 5383,
      "Ġà¤īà¤ªà¤²": 5384,
      "à¤ļà¤ļ": 5385,
      "à¤ıà¤¸à¤Ĩà¤Īà¤Ł": 5386,
      "à¤¯à¤¤à¤¯": 5387,
      "à¤Ľà¤ķà¤°": 5388,
      "Ġà¤Ĩà¤Īà¤Ĩà¤Ī": 5389,
      "Ġà¤¹à¤ľà¤°à¤¤à¤Ĺ": 5390,
      "Ġà¤ªà¤°à¤®à¤ª": 5391,
      "Ġà¤Ńà¤Ĺà¤µà¤¦": 5392,
      "à¤°à¤¸à¤®": 5393,
      "à¤ľà¤®à¤¶": 5394,
      "à¤°à¤ķà¤¨": 5395,
      "à¤¤à¤²à¤µ": 5396,
      "à¤Ńà¤¸": 5397,
      "à¤ľà¤ĺà¤°": 5398,
      "Ġà¤łà¤¹à¤°à¤¤": 5399,
      "Ġà¤ħà¤«à¤ľ": 5400,
      "Ġà¤ıà¤ļà¤ıà¤ıà¤²": 5401,
      "Ġà¤ªà¤³": 5402,
      "à¤§à¤Ĺà¤¯": 5403,
      "à¤ĸà¤®à¤¯": 5404,
      "Ġà¤°à¥Ľ": 5405,
      "Ġà¥§à¥¯à¥®": 5406,
      "Ġ226": 5407,
      "à¤ļà¤¬à¤°": 5408,
      "à¤¤à¤®à¤¯": 5409,
      "1999": 5410,
      "Ġà¤¸à¤¶à¤°": 5411,
      "Ġà¤ĩà¤¹": 5412,
      "à¤ľà¤Ĺà¥Ŀ": 5413,
      "Ġ247": 5414,
      "Ġ227": 5415,
      "à¤Ĺà¤¦à¤ªà¤¤": 5416,
      "à¤¥à¤Īà¤¸": 5417,
      "Ġà¤«à¤«": 5418,
      "à¤¯à¤ªà¤¦": 5419,
      "à¤µà¤¤à¤®": 5420,
      "Ġà¤ľà¤Ĺà¤¬": 5421,
      "à¤ıà¤¡à¤®": 5422,
      "à¤¡à¤ħà¤ª": 5423,
      "Ġà¤ĸà¤°à¤ĸ": 5424,
      "à¤¨à¤®à¤§": 5425,
      "Ġà¤¨à¤ĩ": 5426,
      "Ġà¤ĵà¥Ŀ": 5427,
      "Ġà¤ĳà¤ĩà¤²": 5428,
      "à¤¬à¤ł": 5429,
      "à¤²à¤ķà¤¤": 5430,
      "Ġà¤«à¤°à¤ķ": 5431,
      "Ġà¤Ĺà¤¦à¤Ĺà¤¦": 5432,
      "Ġà¤¤à¤ªà¤¤": 5433,
      "Ġà¤²à¤¬à¤°": 5434,
      "Ġà¤§à¤®à¤¤à¤°": 5435,
      "à¤·à¤ļ": 5436,
      "Ġà¤¤à¤Łà¤¬": 5437,
      "à¤®à¤¦à¤¤": 5438,
      "2002": 5439,
      "Ġ228": 5440,
      "Ġ35000": 5441,
      "Ġà¤ľà¤¶à¤ª": 5442,
      "Ġà¤¡à¤Ĺà¤®à¤Ĺ": 5443,
      "Ġà¤ıà¤ķà¤²à¤µ": 5444,
      "à¤Ĩà¤ªà¤²": 5445,
      "à¤¶à¤«": 5446,
      "à¤ķà¤®à¤¤": 5447,
      "à¤£à¤²": 5448,
      "Ġ294": 5449,
      "à¤¤à¤ī": 5450,
      "à¤¸à¤¹à¤¯": 5451,
      "à¤¦à¤¶à¤¨": 5452,
      "Ġà¤ħà¤¯à¤ª": 5453,
      "Ġà¤Ĩà¤°à¤Ĩà¤°à¤¬": 5454,
      "à¤¬à¤¦à¤²à¤¤": 5455,
      "à¤µà¤°à¤µ": 5456,
      "à¤ķà¤ıà¤ĩ": 5457,
      "Ġà¤ħà¤ĸà¤£": 5458,
      "Ġà¤ķà¤ľà¤°": 5459,
      "à¤¦à¤°à¤ķ": 5460,
      "à¤ľà¤¯à¤¶": 5461,
      "Ġà¤ĺà¤¨à¤ĺ": 5462,
      "à¤µà¤Ńà¤ķ": 5463,
      "Ġ7500": 5464,
      "Ġà¤°à¤¸à¤¦": 5465,
      "à¤ķà¤°à¤¦": 5466,
      "à¤ıà¤ıà¤¸à¤ª": 5467,
      "Ġ209": 5468,
      "Ġà¤¢à¤¹à¤¨": 5469,
      "Ġà¤ıà¤¨à¤«": 5470,
      "Ġà¥ªà¥¦": 5471,
      "à¤²à¤ķà¤¶": 5472,
      "Ġà¤¬à¤¤à¤°": 5473,
      "140": 5474,
      "Ġà¤°à¤ļà¤¯": 5475,
      "à¤¬à¥ľà¤¤": 5476,
      "à¤ĸà¤¨à¤²": 5477,
      "à¤·à¤°à¤£": 5478,
      "à¤¯à¤£à¤¨": 5479,
      "Ġà¤¸à¤¬à¤ĩ": 5480,
      "à¤²à¤¨à¤¸": 5481,
      "Ġà¤«à¤Ĺà¤µ": 5482,
      "Ġ1931": 5483,
      "à¤¢à¤¸": 5484,
      "à¤²à¤§": 5485,
      "Ġà¤ªà¤£à¤ľ": 5486,
      "à¤ıà¤ļà¤Īà¤ıà¤²": 5487,
      "à¤§à¤³": 5488,
      "Ġà¤¨à¤ľà¤®": 5489,
      "405": 5490,
      "Ġà¤§à¥ľà¤ķà¤¨": 5491,
      "Ġà¤ĩà¤ķà¤°": 5492,
      "Ġà¥©à¥¨": 5493,
      "Ġà¤Ŀà¥ľà¤¨": 5494,
      "Ġà¤ıà¤¨à¤ıà¤®": 5495,
      "à¤Īà¤ıà¤ķ": 5496,
      "Ġà¤Ĺà¤Ĭ": 5497,
      "à¤¸à¤ķà¤¨": 5498,
      "Ġà¤ļà¤°à¤£à¤ľ": 5499,
      "Ġ5500": 5500,
      "Ġà¤«à¤ĸà¤°": 5501,
      "Ġà¤ħà¤ªà¤¹à¤°à¤£à¤ķà¤°": 5502,
      "Ġà¤ĸà¤³": 5503,
      "Ġà¤ªà¤°à¤ľ": 5504,
      "à¤²à¤¸à¤ļ": 5505,
      "Ġ950": 5506,
      "à¤µà¤¸à¤¹": 5507,
      "à¤®à¤¦à¤¨": 5508,
      "à¥Ľà¤®": 5509,
      "à¤Ĺà¤²à¤¨": 5510,
      "Ġà¤¸à¥ľ": 5511,
      "Ġ403": 5512,
      "à¤¸à¤³à¤²": 5513,
      "Ġà¤ĵà¤°à¤²": 5514,
      "à¤¨à¤°à¤¸": 5515,
      "Ġ1953": 5516,
      "à¤£à¤ľ": 5517,
      "Ġà¤®à¤¶à¤µ": 5518,
      "Ġ244": 5519,
      "à¤ıà¤¸à¤µ": 5520,
      "à¤¹à¤§": 5521,
      "Ġà¤īà¤Ĺà¤¨": 5522,
      "Ġ234": 5523,
      "à¤°à¤¤à¤ħ": 5524,
      "Ġà¤ıà¤®à¤Ĩà¤°": 5525,
      "à¤²à¤ľà¤µ": 5526,
      "à¥§à¥¯à¥": 5527,
      "à¤¤à¤°à¤µ": 5528,
      "à¤¤à¤ªà¤¤": 5529,
      "à¤®à¤¬à¤²": 5530,
      "Ġà¤¤à¤¶": 5531,
      "à¤ľà¤¯à¤µ": 5532,
      "Ġà¤ļà¤ķà¤¨": 5533,
      "Ġà¤®à¥ľ": 5534,
      "Ġ~": 5535,
      "à¤ļà¥Ŀ": 5536,
      "Ġà¤¹à¤®à¤¸à¤«à¤°": 5537,
      "Ġà¤¨à¤Ĺà¤£": 5538,
      "Ġà¤ªà¤¦à¤ļ": 5539,
      "à¥¦à¥§à¥": 5540,
      "Ġ499": 5541,
      "à¤¯à¤²à¤°": 5542,
      "Ġ305": 5543,
      "Ġà¤ĸà¤¶": 5544,
      "Ġà¤ħà¤µà¤¯à¤µ": 5545,
      "à¤¸à¤¨à¤¹à¤¸": 5546,
      "Ġà¤ªà¤¢à¤¤": 5547,
      "Ġà¤¶à¤ªà¤¥à¤Ĺ": 5548,
      "à¤Ĩà¤ªà¤¦": 5549,
      "à¤¹à¤£à¤¤": 5550,
      "à¤²à¤¹à¤¸": 5551,
      "Ġà¤¯à¤¨": 5552,
      "Ġà¤īà¥ľà¤¤": 5553,
      "Ġ324": 5554,
      "Ġ2530": 5555,
      "Ġà¤ķà¤£à¤ķ": 5556,
      "Ġà¤¤à¤¹à¤¸à¤¨à¤¹à¤¸": 5557,
      "Ġà¤¬à¤¡à¤Ĺ": 5558,
      "Ġà¤ªà¤Łà¤ĸà¤¨": 5559,
      "Ġà¤ªà¤°à¤¬": 5560,
      "à¤¬à¤°à¤ª": 5561,
      "à¤¬à¤²à¤¤": 5562,
      "Ġà¥ĭ": 5563,
      "à¤²à¤Ńà¤Ń": 5564,
      "Ġà¤Ĩà¤¸à¤ķ": 5565,
      "à¤Īà¤Ĺà¤°": 5566,
      "à¤ķà¤°à¤ĺ": 5567,
      "à¤¡à¥ĺà¤°": 5568,
      "à¤ĭà¤£": 5569,
      "Ġ306": 5570,
      "à¤µà¤¶à¤¤": 5571,
      "à¤ħà¤®à¤°à¤¨": 5572,
      "Ġà¤¨à¥Ľà¤¦": 5573,
      "Ġà¤ıà¤ĸ": 5574,
      "Ġà¤¬à¤¸à¤¸": 5575,
      "à¤ıà¤²à¤ľ": 5576,
      "Ġ2400": 5577,
      "à¤°à¤¡à¤®": 5578,
      "Ġà¥¨à¥®": 5579,
      "à¥Īà¥Īà¥¤": 5580,
      "Ġà¤ıà¤µà¤¢": 5581,
      "Ġà¤§à¤¨à¤¶": 5582,
      "Ġà¤ħà¤ªà¤ļ": 5583,
      "à¤¹à¤ľà¤¨à¤ķ": 5584,
      "Ġà¤ħà¤®à¤ľà¤¦": 5585,
      "à¤Ĩà¤Īà¤¯": 5586,
      "Ġà¤ĵà¤ıà¤¸": 5587,
      "Ġà¤ĩà¤ª": 5588,
      "Ġà¤°à¤ľà¤µ": 5589,
      "Ġà¤¡à¤Ĺ": 5590,
      "Ġà¤ĵà¤®à¤ķ": 5591,
      "à¤ıà¤¯": 5592,
      "à¤¦à¤ķà¤Ł": 5593,
      "Ġà¤Īà¤·": 5594,
      "Ġà¤īà¤łà¤µ": 5595,
      "à¤µà¤¨à¤Ńà¤°": 5596,
      "à¤µà¤ł": 5597,
      "Ġà¤ªà¤¨à¤µ": 5598,
      "Ġ440": 5599,
      "à¤Ĩà¤ĩà¤Ĩà¤°": 5600,
      "à¤Ĺà¤¡à¤®": 5601,
      "Ġà¥©à¥«": 5602,
      "à¤²à¤ĸà¤°": 5603,
      "à¤ľà¤¨à¤ª": 5604,
      "à¤īà¤ªà¤¯": 5605,
      "Ġ1250": 5606,
      "Ġà¤ļà¤°à¤¨": 5607,
      "1998": 5608,
      "à¤ªà¤¨à¤Ĺà¤°": 5609,
      "Ġ100000": 5610,
      "Ġà¤¹à¤®à¤µà¤¤à¤¨": 5611,
      "Ġà¤¨à¥ĺ": 5612,
      "Ġà¤ľà¤µà¤³": 5613,
      "Ġà¤ļà¤®à¤ķà¤¨": 5614,
      "Ġà¥§à¥¯à¥«": 5615,
      "à¤²à¤ľà¤¯": 5616,
      "160": 5617,
      "Ġà¤¸à¤¹à¤¸à¤ļ": 5618,
      "Ġ282": 5619,
      "Ġà¤ķà¤Łà¤¤": 5620,
      "à¤µà¤ĺ": 5621,
      "Ġà¤ĳà¤²à¤Ĩà¤īà¤Ł": 5622,
      "Ġ246": 5623,
      "Ġà¤¢à¤²à¤¤": 5624,
      "à¤ĩà¤®à¤¨": 5625,
      "à¤¾à¥į": 5626,
      "Ġà¤ıà¤Łà¤®": 5627,
      "à¤ĵà¤¹": 5628,
      "Ġà¤īà¤ĺà¤¡à¤ķ": 5629,
      "Ġà¤ĸà¤¤à¤®": 5630,
      "à¤¼à¥Ģà¤Ĥà¥¤": 5631,
      "à¤Łà¤®à¤§": 5632,
      "à¤Īà¤ıà¤®": 5633,
      "Ġà¤ıà¤®à¤ıà¤®à¤ıà¤¸": 5634,
      "Ġ233": 5635,
      "à¤°à¤¹à¤¸": 5636,
      "à¤°à¤¤à¤ħà¤®": 5637,
      "Ġ335": 5638,
      "Ġà¤Ĩà¤Īà¤ıà¤®à¤ı": 5639,
      "à¤°à¤®à¤¯": 5640,
      "Ġà¤Ĩà¤Īà¤ĵà¤ıà¤¸": 5641,
      "Ġà¤ħà¤¥à¤°": 5642,
      "Ġ277": 5643,
      "Ġà¤ľà¤¸à¤®": 5644,
      "Ġà¤ĸà¤³à¤¬à¤³": 5645,
      "à¤¤à¤¶à¤¤": 5646,
      "Ġà¤¬à¤ļà¤ķ": 5647,
      "Ġà¤ķà¤ĩà¤²": 5648,
      "Ġà¤Ĩà¤ľà¤®à¤Ĺà¥Ŀ": 5649,
      "à¤µà¤¸à¤°": 5650,
      "à¥¨à¥¦": 5651,
      "Ġ223": 5652,
      "Ġ236": 5653,
      "Ġ299": 5654,
      "à¤¯à¤¯à¤¨à¤°à¤¤": 5655,
      "à¤Ĳà¤µà¤ľ": 5656,
      "Ġà¤ļà¤Łà¤ªà¤Ł": 5657,
      "Ġà¤ĸà¤°à¤¡": 5658,
      "2001": 5659,
      "à¤¨à¤ķà¤ª": 5660,
      "à¤ªà¤¶à¤¨": 5661,
      "Ġà¤¥à¤ķà¤¤": 5662,
      "Ġà¤łà¤°à¤£": 5663,
      "à¤ħà¤®à¤¨": 5664,
      "à¤ļà¤²à¤ķ": 5665,
      "Ġ229": 5666,
      "Ġà¤¨à¤Ĺà¤°à¤ªà¤°": 5667,
      "Ġà¤¢à¤²à¤¨": 5668,
      "Ġà¤ıà¤ıà¤®": 5669,
      "à¤°à¤Ĺà¤²": 5670,
      "Ġà¤ħà¤¦à¤¦": 5671,
      "à¤²à¤¬à¤¹": 5672,
      "Ġ410": 5673,
      "1980": 5674,
      "à¤°à¤¹à¤¨": 5675,
      "Ġ1921": 5676,
      "Ġà¤¹à¤¸à¤¨à¤ª": 5677,
      "Ġà¤ħà¤°à¤£": 5678,
      "à¤ıà¤«à¤¬": 5679,
      "à¤ıà¤®à¤ıà¤²à¤ıà¤¨": 5680,
      "à¤ªà¤ķà¥ľ": 5681,
      "à¤ıà¤²à¤ıà¤®": 5682,
      "à¤£à¤§": 5683,
      "Ġà¤¸à¤¤à¤Ĺ": 5684,
      "Ġà¤Ńà¤Ĺà¤¤à¤¸": 5685,
      "à¤¤à¥ľ": 5686,
      "à¤ļà¤Ľà¤¹": 5687,
      "Ġà¤ļà¤®à¥ľ": 5688,
      "Ġà¤¹à¥Ľà¤°à¤¤": 5689,
      "Ġà¤§à¤°à¤²": 5690,
      "à¤°à¤µà¤¨": 5691,
      "Ġà¤°à¤¬à¤¡": 5692,
      "à¤ľà¤ķà¤ª": 5693,
      "Ġ239": 5694,
      "Ġà¤Ńà¤°à¤Ńà¤°": 5695,
      "Ġà¤¸à¤¦à¤Ń": 5696,
      "Ġà¤ĩà¤¨à¤¬": 5697,
      "Ġà¤ıà¤¸à¤ĵà¤ľ": 5698,
      "Ġ3040": 5699,
      "Ġà¤īà¤¦à¤°": 5700,
      "Ġà¤Ĩà¤Īà¤ıà¤¨à¤ıà¤ķ": 5701,
      "à¤¡à¤®à¤§": 5702,
      "à¤§à¤ľ": 5703,
      "à¤¸à¤°à¤Ĺ": 5704,
      "Ġ285": 5705,
      "Ġ345": 5706,
      "Ġà¤ªà¤°à¤ª": 5707,
      "à¤Ĺà¤ĩà¤¨": 5708,
      "à¤ľà¤ªà¤²": 5709,
      "à¤Ńà¤ķà¤°": 5710,
      "Ġà¤ķà¤īà¤¨": 5711,
      "Ġà¤ªà¤²à¤Łà¤¤": 5712,
      "Ġà¤Ĩà¤°à¤Ĩà¤°": 5713,
      "Ġà¤¬à¤²à¤ķ": 5714,
      "Ġà¤ľà¤²à¤¦": 5715,
      "à¤ķà¤¶à¤¨": 5716,
      "Ġà¤Ĩà¤ĩà¤ľ": 5717,
      "Ġà¤ħà¤µà¤ľ": 5718,
      "Ġà¤Ĩà¤ĩà¤¸à¤²": 5719,
      "Ġ525": 5720,
      "Ġà¤¤à¤¨à¤®à¤¨": 5721,
      "à¤ıà¤«à¤ıà¤«": 5722,
      "à¤¤à¤ĺ": 5723,
      "Ġà¤ħà¤ªà¤¸": 5724,
      "Ġà¤ľà¤¹à¤®à¤¤": 5725,
      "Ġ515": 5726,
      "Ġà¤¢à¤°": 5727,
      "à¤¸à¤¸à¤¸": 5728,
      "à¤¹à¤£à¤£": 5729,
      "Ġà¤ļà¤°à¤µ": 5730,
      "à¤µà¤µà¤¤": 5731,
      "Ġ221": 5732,
      "à¥īà¤ģ": 5733,
      "à¤ıà¤¨à¤Ĩà¤°": 5734,
      "à¤·à¤£à¤µ": 5735,
      "Ġà¤ķà¤°à¤²": 5736,
      "Ġà¤Ĺà¤¹": 5737,
      "Ġ248": 5738,
      "à¤ĩà¤¨à¤ķà¤®": 5739,
      "Ġà¤ħà¤¨à¤«": 5740,
      "à¤Ńà¤®à¤¨": 5741,
      "Ġà¥ªà¥«": 5742,
      "607": 5743,
      "à¤¹à¤¨à¤ª": 5744,
      "Ġà¤¢à¤ķà¤¨": 5745,
      "Ġ237": 5746,
      "Ġà¤¹à¤¤à¤ª": 5747,
      "à¤ıà¤ļà¤ıà¤®": 5748,
      "Ġà¤ªà¤²à¤ªà¤²": 5749,
      "Ġ249": 5750,
      "à¤ĵà¤Ĩà¤Ī": 5751,
      "Ġà¤®à¤¦à¤¹": 5752,
      "à¤®à¤ķà¤²": 5753,
      "à¤ıà¤¸à¤ıà¤ļà¤ĵ": 5754,
      "à¤¯à¤²à¤®": 5755,
      "à¤¸à¤ıà¤ķ": 5756,
      "à¤ľà¤¨à¤Ńà¤°": 5757,
      "Ġà¤¦à¤®à¤¨à¤ķ": 5758,
      "Ġ319": 5759,
      "Ġà¤ħà¤ĸà¤²": 5760,
      "à¤µà¤¨à¤ª": 5761,
      "Ġ2023": 5762,
      "Ġ498": 5763,
      "à¤¦à¤¤à¤¨": 5764,
      "Ġà¤Ĳà¤¡à¤®": 5765,
      "à¤ļà¤°à¤ĸ": 5766,
      "Ġ13000": 5767,
      "Ġ264": 5768,
      "Ġà¤ĩà¤¦": 5769,
      "Ġà¤Īà¤ıà¤¸à¤Ĩà¤Ī": 5770,
      "Ġ267": 5771,
      "Ġà¤ļà¥Ŀà¤¤": 5772,
      "à¤¸à¤Łà¤°": 5773,
      "à¤¶à¤§": 5774,
      "à¤ķà¤ķà¤²": 5775,
      "à¤¹à¤ľà¤ķ": 5776,
      "à¤¹à¤¤à¤ª": 5777,
      "Ġà¥©à¥ª": 5778,
      "Ġ512": 5779,
      "1984": 5780,
      "à¤µà¤¨à¤®": 5781,
      "Ġ1919": 5782,
      "Ġà¥Ļà¤¤à¤°": 5783,
      "à¤ªà¤¨à¤¦": 5784,
      "Ġ232": 5785,
      "Ġà¤ķà¤¸à¤ķà¤°": 5786,
      "à¤ĸà¤¦à¤°": 5787,
      "Ġà¤¬à¤²à¤ª": 5788,
      "à¤¹à¤¸à¤¨": 5789,
      "Ġ2300": 5790,
      "Ġà¤²à¤¢à¤¤": 5791,
      "Ġ!!!": 5792,
      "05": 5793,
      "à¤Ĩà¤Ł": 5794,
      "à¤Ķà¤°à¤¤": 5795,
      "Ġà¤ħà¤«à¤¸à¤°à¤¶": 5796,
      "à¤ªà¤ķà¤¤": 5797,
      "Ġ253": 5798,
      "Ġ1936": 5799,
      "à¤Ĺà¤µà¤¡": 5800,
      "à¤ľà¤¯à¤²à¤²": 5801,
      "à¤·à¤²": 5802,
      "Ġ252": 5803,
      "Ġ342": 5804,
      "à¤ļà¤Ł": 5805,
      "Ġà¤¸à¤¹à¤¦": 5806,
      "à¤ıà¤ĩà¤¸": 5807,
      "à¤°à¤¸à¤ª": 5808,
      "Ġà¤ĩà¤¡à¤²": 5809,
      "Ġà¤¸à¤ľà¤Ĺà¤¤": 5810,
      "Ġà¤°à¤¸à¤Ĺ": 5811,
      "Ġ2525": 5812,
      "à¤®à¤¹à¤²": 5813,
      "à¤ķà¤°à¤ķ": 5814,
      "Ġ000": 5815,
      "à¤¹à¤°à¤®": 5816,
      "120": 5817,
      "Ġà¤ľà¤ľà¤®": 5818,
      "à¤°à¤®à¤ª": 5819,
      "1996": 5820,
      "Ġ14000": 5821,
      "à¤¦à¤°à¤ĸ": 5822,
      "Ġ80000": 5823,
      "à¤²à¤µà¤£": 5824,
      "Ġà¤ľà¤¨à¤ªà¤¥": 5825,
      "à¤¤à¤ķà¤²": 5826,
      "à¤ĩà¤µà¤²": 5827,
      "Ġà¤ıà¤ļà¤¯": 5828,
      "à¤ħà¤ķà¤¸à¤°": 5829,
      "à¤ħà¤¦à¤°à¤ķ": 5830,
      "à¤ķà¤¬à¤¡": 5831,
      "à¤Ĩà¤¯à¤¡": 5832,
      "à¤¤à¤¨à¤¶": 5833,
      "Ġà¤Ńà¤°à¤£à¤ª": 5834,
      "à¤¡à¤ªà¤®": 5835,
      "à¤¤à¤¨à¤Ń": 5836,
      "Ġà¤ªà¤¹à¤²à¤Ĺ": 5837,
      "Ġà¤Ĩà¤Īà¤ĵà¤ı": 5838,
      "Ġà¤§à¤¨à¤¸": 5839,
      "Ġà¤¤à¥ľà¤ª": 5840,
      "Ġà¤ıà¤¸à¤Ī": 5841,
      "à¤ªà¤Łà¤°": 5842,
      "Ġ309": 5843,
      "Ġ720": 5844,
      "Ġà¥ŀà¤°à¤®": 5845,
      "Ġà¤¦à¤¡": 5846,
      "Ġà¤¦à¥ŀ": 5847,
      "à¤¦à¤¬à¤ĸ": 5848,
      "à¤«à¤Ĺ": 5849,
      "Ġà¤Ĩà¤°à¤µ": 5850,
      "Ġà¤Łà¤¯": 5851,
      "Ġ540": 5852,
      "Ġà¤¤à¤«à¤°": 5853,
      "12020": 5854,
      "à¤¶à¤¨à¤ļ": 5855,
      "à¥Ĳ": 5856,
      "à¥ĭà¤Ĥ!": 5857,
      "Ġ16000": 5858,
      "à¤ĺà¤²à¤¨": 5859,
      "Ġà¤¸à¤Ĺà¤³": 5860,
      "Ġ2800": 5861,
      "Ġà¤ħà¤®à¤°à¤ª": 5862,
      "à¤ıà¤¯à¤°à¤²": 5863,
      "à¤¡à¤¬à¤²": 5864,
      "Ġà¤ªà¤¸à¤°à¤²": 5865,
      "Ġà¤Łà¤¸": 5866,
      "Ġ70000": 5867,
      "Ġà¤ıà¤¸à¤ıà¤®à¤¸": 5868,
      "à¤ĩà¤¦": 5869,
      "à¤ĩà¤¨à¤ª": 5870,
      "à¤¶à¤µà¤°": 5871,
      "Ġà¤īà¤ªà¤¸à¤®": 5872,
      "Ġ411": 5873,
      "Ġ520": 5874,
      "Ġà¤ıà¤¸à¤ıà¤®": 5875,
      "Ġ279": 5876,
      "à¤¬à¤¶": 5877,
      "03": 5878,
      "Ġà¤ĩà¤¨à¤°": 5879,
      "à¤ľà¤¨à¤¶": 5880,
      "Ġà¤®à¤¸à¤°": 5881,
      "Ġà¤°à¤ªà¤¯": 5882,
      "Ġà¤¡à¤¬à¤°": 5883,
      "Ġà¤®à¤¨à¤¹": 5884,
      "à¤¤à¤°à¤ļ": 5885,
      "à¤¸à¤°à¤ķà¤°": 5886,
      "à¤²à¤®à¤¨": 5887,
      "à¤µà¤¸à¤Ńà¤°": 5888,
      "Ġà¤ħà¤ķà¤¡": 5889,
      "Ġà¤ıà¤«à¤Ĩà¤ĩà¤Ĩà¤°": 5890,
      "Ġà¤īà¤§à¤®": 5891,
      "à¤Ĩà¤ĩà¤ª": 5892,
      "Ġà¤¬à¤£": 5893,
      "Ġà¤®à¤°à¤ľ": 5894,
      "à¤¨à¤ĺ": 5895,
      "à¤ªà¤¤à¤°": 5896,
      "à¤ħà¤µà¤¸à¤°": 5897,
      "Ġà¥¨à¥¦à¥§à¥®": 5898,
      "Ġà¤Ĩà¤īà¤Łà¤°": 5899,
      "à¤Ĺà¤¬à¤²": 5900,
      "Ġà¤¬à¤«à¤°": 5901,
      "à¤Ĩà¤£": 5902,
      "Ġ284": 5903,
      "à¤ħà¤¦à¤¬": 5904,
      "à¤°à¤¤à¤¤": 5905,
      "Ġà¤¦à¤¬à¤ķà¤°": 5906,
      "à¤Ĩà¤łà¤µ": 5907,
      "130": 5908,
      "Ġà¤īà¤ªà¤ĸà¤£": 5909,
      "à¤ľà¤ķà¤®à¤²": 5910,
      "à¤ľà¤¹à¤°": 5911,
      "à¤ĵà¤®à¤ª": 5912,
      "Ġà¤ıà¤®à¤ıà¤«": 5913,
      "Ġ258": 5914,
      "Ġà¤ªà¤¯": 5915,
      "Ġà¤¸à¤°à¤ľ": 5916,
      "Ġà¤ħà¤ķà¤®à¤²": 5917,
      "à¤¡à¤ĸ": 5918,
      "à¤·à¤°à¤¶": 5919,
      "à¤īà¤ł": 5920,
      "à¤³à¤µà¤£": 5921,
      "Ġ3600": 5922,
      "Ġ6500": 5923,
      "à¥Īà¥Īà¤Ĥà¥¤": 5924,
      "Ġà¤ľà¤²à¤Ĺ": 5925,
      "Ġà¤īà¤¦à¤¹": 5926,
      "à¤¤à¤īà¤¦à¤¦": 5927,
      "à¤¹à¤¶": 5928,
      "à¤Ĺà¤Ĺà¤°": 5929,
      "Ġà¤ľà¤ķà¥ľ": 5930,
      "à¤ªà¤¯à¤¶": 5931,
      "Ġ910": 5932,
      "à¤°à¤¹à¤Ł": 5933,
      "110": 5934,
      "à¤§à¤Ĺ": 5935,
      "Ġ5100": 5936,
      "à¤Īà¤µà¤¨": 5937,
      "à¤«à¤°à¤²": 5938,
      "Ġà¤ªà¤°à¤ĸà¤ļ": 5939,
      "à¤²à¤Ĺà¤¨": 5940,
      "Ġà¤°à¤¯": 5941,
      "Ġà¤¯à¤®à¤²": 5942,
      "Ġà¤ľà¤¯à¤®": 5943,
      "Ġà¤°à¤ľà¤¬": 5944,
      "Ġà¤¤à¤°à¤¸à¤¤": 5945,
      "à¤°à¤µà¤²": 5946,
      "à¤·à¤¬": 5947,
      "à¤ķà¤ĩ": 5948,
      "Ġ268": 5949,
      "Ġà¤ıà¤Łà¤²": 5950,
      "à¤²à¤¨à¤°à¤¤": 5951,
      "Ġ337": 5952,
      "à¤Łà¤ķà¤ķ": 5953,
      "à¤¡à¥ŀ": 5954,
      "Ġ242": 5955,
      "Ġà¤ķà¤®à¤²à¤ľ": 5956,
      "Ġ1020": 5957,
      "Ġà¤Ĩà¤°à¤ıà¤²à¤¡": 5958,
      "Ġà¤¨à¤°à¤¬": 5959,
      "Ġà¤®à¤¹à¥Ľ": 5960,
      "à¤°à¤¦à¤¨": 5961,
      "Ġ504": 5962,
      "Ġà¤¹à¤®à¤ľ": 5963,
      "Ġà¤ħà¤µà¤ĺ": 5964,
      "Ġà¤¸à¤°à¤®": 5965,
      "à¤ıà¤®à¤ıà¤²à¤ı": 5966,
      "Ġà¤ļà¤®à¤ļà¤®": 5967,
      "à¥§à¥¨": 5968,
      "Ġà¤ıà¤«à¤Ĩà¤Ī": 5969,
      "Ġ311": 5970,
      "à¤µà¤¦à¤¤": 5971,
      "à¤ļà¤¦": 5972,
      "02": 5973,
      "Ġà¤ħà¥ŀà¤¸": 5974,
      "Ġ254": 5975,
      "Ġà¤ıà¤²à¤Ĳ": 5976,
      "Ġ231": 5977,
      "1991": 5978,
      "Ġà¤¤à¤Ĺà¥ľ": 5979,
      "Ġà¤ıà¤ķà¤¹": 5980,
      "à¥Īà¤Ĥà¤Ĥà¥¤": 5981,
      "à¤°à¤ľà¤µ": 5982,
      "à¤ķà¤ĵà¤µà¤°": 5983,
      "à¤ľà¤¬à¤³": 5984,
      "Ġà¥Ľà¤¹à¤°": 5985,
      "à¥īà¥¤": 5986,
      "à¤½à¤½": 5987,
      "à¤¬à¤°à¤ķ": 5988,
      "Ġ511": 5989,
      "à¤ķà¤°à¤ļ": 5990,
      "Ġà¤ħà¤¦à¤¬": 5991,
      "à¤īà¤Ĺ": 5992,
      "à¤ıà¤¬à¤²": 5993,
      "Ġà¤ªà¤°à¤®à¤µ": 5994,
      "Ġ050": 5995,
      "à¥Ŀà¤¨": 5996,
      "Ġà¤Ĺà¤ļ": 5997,
      "Ġà¤¡à¤Ĺà¤°": 5998,
      "Ġ1515": 5999,
      "Ġ710": 6000,
      "à¤¨à¤ªà¤¹à¤ļ": 6001,
      "Ġà¤ªà¤¨à¤¬": 6002,
      "à¥Īà¥Īà¤Ĥ": 6003,
      "Ġà¤¦à¤¹à¤¶à¤¤à¤Ĺà¤°": 6004,
      "Ġà¤ªà¤²à¤Łà¤ķà¤°": 6005,
      "Ġà¤īà¤²à¤Ŀà¤¤": 6006,
      "à¤µà¤¢": 6007,
      "à¤§à¤¨à¤¬": 6008,
      "Ġ3200": 6009,
      "Ġà¤ķà¤ªà¤Ł": 6010,
      "Ġ4050": 6011,
      "Ġ326": 6012,
      "Ġ2700": 6013,
      "à¤«à¤¦": 6014,
      "à¤Ĩà¤ľà¤¤à¤ķ": 6015,
      "à¤¯à¥Ľ": 6016,
      "à¤¦à¤µà¤Ī": 6017,
      "à¤²à¤¢": 6018,
      "à¤°à¤¤à¤¬": 6019,
      "à¤ªà¤°à¤ĸ": 6020,
      "Ġà¤«à¥ľ": 6021,
      "Ġà¤Īà¤¶à¤¨": 6022,
      "Ġ266": 6023,
      "à¤¤à¤¨à¤¯": 6024,
      "Ġ355": 6025,
      "Ġà¤ĵà¤°à¤Ľ": 6026,
      "Ġà¤¯à¤ľà¤®": 6027,
      "Ġà¤ĵà¤¸à¤µ": 6028,
      "Ġà¥§à¥§à¥": 6029,
      "à¤¹à¤¨à¤¦": 6030,
      "à¤Łà¤°à¤¹": 6031,
      "Ġ2600": 6032,
      "Ġà¤®à¤¨à¤Ĺà¤¢": 6033,
      "Ġà¤īà¤¦à¤¯à¤¨à¤°": 6034,
      "Ġà¤ľà¤²à¤ķ": 6035,
      "Ġ273": 6036,
      "Ġà¤ķà¤¸à¤¬": 6037,
      "Ġà¤¤à¤Łà¤µà¤°": 6038,
      "à¤¸à¤¬à¤²": 6039,
      "à¤ľà¤ªà¤°": 6040,
      "à¤£à¤ªà¤£": 6041,
      "à¤Īà¤Ń": 6042,
      "Ġà¤ıà¤¨à¤Ī": 6043,
      "Ġà¤¬à¤«": 6044,
      "à¤Ĩà¤Īà¤ıà¤ıà¤¸": 6045,
      "Ġà¤²à¤²à¤¨": 6046,
      "Ġà¤ĵà¤ĸà¤²": 6047,
      "à¤²à¤®à¤°": 6048,
      "Ġà¤¨à¤Ĺà¤®": 6049,
      "à¤ķà¤Łà¤®": 6050,
      "à¤¦à¤°à¤Ń": 6051,
      "à¤¤à¤Ī": 6052,
      "Ġ328": 6053,
      "Ġà¤ľà¤¬à¤¡": 6054,
      "Ġ480": 6055,
      "Ġà¤Ĺà¤¸": 6056,
      "Ġà¤łà¤°à¤¤": 6057,
      "Ġ238": 6058,
      "Ġ353": 6059,
      "à¤§à¤ľà¤¨": 6060,
      "Ġ417": 6061,
      "Ġ286": 6062,
      "à¤ľà¤ªà¤®à¤§": 6063,
      "Ġà¤¦à¤°à¤°": 6064,
      "à¤Łà¤§": 6065,
      "Ġà¤ıà¤¥à¤¨": 6066,
      "Ġà¤¸à¤¤à¤¯": 6067,
      "Ġà¤Ľà¤ľ": 6068,
      "Ġ5060": 6069,
      "Ġà¤ļà¤¹à¤²à¤ªà¤¹à¤²": 6070,
      "à¤¦à¤¸à¤µ": 6071,
      "à¥ĳ": 6072,
      "à¤µà¤¦à¤°": 6073,
      "Ġà¤¸à¤°à¤¹": 6074,
      "Ġ1929": 6075,
      "à¤ķà¤°à¤²": 6076,
      "à¤§à¤¨à¤Ĺà¤°": 6077,
      "Ġà¤¨à¤Ĺà¤°à¤µ": 6078,
      "Ġà¤¨à¤ľà¤«": 6079,
      "à¤®à¤¤à¤Ĺà¤£à¤¨": 6080,
      "à¤¤à¤Ł": 6081,
      "Ġ287": 6082,
      "à¤¯à¤¸à¤°": 6083,
      "Ġà¤ıà¤®à¤«": 6084,
      "Ġà¤ħà¤¸à¤¨": 6085,
      "Ġà¤°à¤Ĺà¥ľ": 6086,
      "Ġà¤²à¤¹à¤²": 6087,
      "à¤ħà¤¸à¤¦": 6088,
      "Ġà¤ķà¤²à¤¬": 6089,
      "Ġ259": 6090,
      "à¤®à¤¹à¤®": 6091,
      "Ġà¤¬à¤¹à¤ķà¤°": 6092,
      "Ġà¤Ńà¤Ń": 6093,
      "Ġà¤ľà¤¯à¤Ńà¤Ĺà¤µ": 6094,
      "Ġà¤µà¤¸à¤²": 6095,
      "Ġà¤¶à¤®à¤¨": 6096,
      "Ġ318": 6097,
      "à¤ªà¤£à¤ľ": 6098,
      "à¤°à¤«à¤¤": 6099,
      "à¤ľà¤Ĺà¤¨": 6100,
      "à¤¡à¤ıà¤«à¤ıà¤¸": 6101,
      "Ġà¤ħà¤¸à¤Ń": 6102,
      "Ġ412": 6103,
      "Ġà¤®à¤ļà¤¨": 6104,
      "à¤¯à¤²à¤ķ": 6105,
      "Ġà¤¢à¤ķà¤ķà¤°": 6106,
      "Ġà¤Łà¤¹à¤²à¤¤": 6107,
      "Ġ241": 6108,
      "Ġ312": 6109,
      "Ġà¤¬à¤¸à¤£": 6110,
      "à¤¦à¤®à¤ķà¤²": 6111,
      "Ġà¤¬à¤°à¤¬à¤¸": 6112,
      "Ġà¤ĳà¤«à¤¸": 6113,
      "Ġ1932": 6114,
      "à¤ıà¤¨à¤ıà¤®": 6115,
      "Ġ269": 6116,
      "Ġ278": 6117,
      "Ġà¤¤à¤²à¤¹à¤Ł": 6118,
      "à¤ªà¤¦à¤°": 6119,
      "Ġà¤®à¤¤à¤²": 6120,
      "à¤ķà¤¤à¤¨": 6121,
      "à¤²à¤ĸà¤¤": 6122,
      "Ġà¤ªà¤¦à¤¨": 6123,
      "à¤Łà¤²à¤¤": 6124,
      "Ġà¤Ĩà¤¢à¤³à¤²": 6125,
      "à¤Ĩà¤°à¤Ĩà¤°": 6126,
      "à¤ıà¤ļà¤Ī": 6127,
      "à¤§à¤¨à¤Ĺ": 6128,
      "à¤¨à¤§": 6129,
      "à¤§à¤µà¤°": 6130,
      "à¤°à¤¸à¤²": 6131,
      "à¤Ĺà¤§à¤¬": 6132,
      "Ġà¤ħà¤ªà¤¯à¤¶": 6133,
      "Ġà¤Ľà¤Ĺà¤¨": 6134,
      "Ġà¤µà¥Ľà¤¨": 6135,
      "Ġ338": 6136,
      "Ġà¤ķà¤°à¤¬": 6137,
      "Ġ414": 6138,
      "Ġ308": 6139,
      "à¤¹à¤²à¤ķ": 6140,
      "à¤¸à¤¹à¤°": 6141,
      "Ġà¤§à¤¨à¤Ĺà¤°": 6142,
      "Ġà¤®à¤²à¤®": 6143,
      "Ġà¤ħà¤°à¤¨": 6144,
      "à¤¨à¤µà¤¦": 6145,
      "Ġ274": 6146,
      "à¤°à¤¤à¤ķ": 6147,
      "Ġà¤Ľà¤¥": 6148,
      "à¤¡à¤ķà¤°à¤¨à¤Ĺà¤°": 6149,
      "Ġ283": 6150,
      "à¤ķà¤Łà¤Ĺ": 6151,
      "Ġ363": 6152,
      "Ġà¤¨à¤Ĭ": 6153,
      "Ġà¤ıà¤ħ": 6154,
      "Ġà¤ıà¤¨à¤ıà¤®à¤¡": 6155,
      "Ġà¤Ĺà¤Ĺà¤¨à¤¦": 6156,
      "à¥ĺà¤¸": 6157,
      "à¤¬à¤°à¤¶": 6158,
      "Ġ1925": 6159,
      "Ġ1938": 6160,
      "Ġà¤¯à¤²": 6161,
      "Ġ296": 6162,
      "à¥Īà¤¼": 6163,
      "Ġ366": 6164,
      "Ġà¤¨à¤µà¤Ĺà¤ł": 6165,
      "à¤Ĺà¤¹à¤°": 6166,
      "Ġà¤ĳà¤¡à¤Īà¤µà¤¨": 6167,
      "Ġà¤ĵà¤ľà¤¸": 6168,
      "Ġ313": 6169,
      "à¤īà¤ªà¤¸": 6170,
      "à¤¦à¤¯à¤¤": 6171,
      "Ġà¤¶à¤Łà¤²à¤°": 6172,
      "à¤¾à¥¥": 6173,
      "Ġ289": 6174,
      "Ġ292": 6175,
      "à¤Ĩà¤¨à¤¨à¤«": 6176,
      "Ġà¤®à¤Ĺà¤¨": 6177,
      "Ġà¥Ľà¤¬à¤°à¤¦à¤¸": 6178,
      "à¤ıà¤ıà¤¸à¤Ĩà¤Ī": 6179,
      "Ġ995": 6180,
      "Ġ75000": 6181,
      "01": 6182,
      "Ġà¤ľà¤ļ": 6183,
      "Ġà¤¤à¤Łà¤°à¤ķ": 6184,
      "Ġà¤¹à¥ŀ": 6185,
      "Ġà¤Łà¤¬": 6186,
      "Ġà¤ħà¤¨à¤Ł": 6187,
      "Ġà¤Ĩà¤Īà¤ıà¤¸à¤ıà¤¸": 6188,
      "Ġ640": 6189,
      "Ġ660": 6190,
      "506": 6191,
      "Ġà¤ļà¤ĸà¤¨": 6192,
      "Ġà¤Ĩà¤°à¤ıà¤¨": 6193,
      "à¤Ńà¤£": 6194,
      "Ġà¥¬à¥¦": 6195,
      "Ġ356": 6196,
      "Ġà¤µà¤¨à¤®": 6197,
      "Ġà¥¨à¥¦à¥§à¥ª": 6198,
      "à¤ħà¤ļà¤²": 6199,
      "Ġà¤¹à¤¥à¤ķà¤°à¤ĺ": 6200,
      "Ġ610": 6201,
      "à¤¡à¤°à¤Ł": 6202,
      "Ġà¤ıà¤«à¤Ĩà¤°à¤ª": 6203,
      "à¤Ĩà¤¯à¤°à¤²": 6204,
      "Ġà¤Ķà¤¨": 6205,
      "Ġà¥ĺà¤¬": 6206,
      "à¤¤à¤Ĩà¤ł": 6207,
      "à¤ķà¤²à¤ķ": 6208,
      "Ġ341": 6209,
      "Ġà¤ħà¤ķà¤¸": 6210,
      "Ġ413": 6211,
      "Ġà¤ħà¤¨à¤ª": 6212,
      "à¤¤à¤Ĺà¤£": 6213,
      "Ġ737": 6214,
      "à¤¶à¤ĸ": 6215,
      "Ġà¤Ńà¤Īà¤¯": 6216,
      "à¤ľà¤²à¤ª": 6217,
      "Ġ1415": 6218,
      "Ġà¤ĵà¤µà¤¨": 6219,
      "à¤ĩà¤ľà¤¨": 6220,
      "à¤Ĭà¤Ĭ": 6221,
      "Ġ1939": 6222,
      "Ġà¤ħà¤¶à¤ķ": 6223,
      "Ġà¤«à¤³": 6224,
      "à¤īà¤§": 6225,
      "Ġ460": 6226,
      "Ġà¤ĵà¤Ŀà¤²": 6227,
      "Ġà¤¥à¤²à¤¸": 6228,
      "Ġ1050": 6229,
      "à¥ĺà¤¦à¤®": 6230,
      "Ġ675": 6231,
      "à¤£à¤ķà¤°": 6232,
      "Ġà¤¶à¤°à¤¬à¤¤": 6233,
      "à¤Īà¤Ńà¤¤": 6234,
      "§à¥¦": 6235,
      "Ġ329": 6236,
      "Ġ390": 6237,
      "Ġà¤ľà¤¯à¤¹": 6238,
      "Ġà¤¤à¤ķà¤«": 6239,
      "Ġà¤°à¤¤à¤¨à¤²": 6240,
      "Ġ316": 6241,
      "Ġà¤²à¤µà¤£": 6242,
      "Ġà¤¬à¤¦à¤¹à¤µ": 6243,
      "à¤¹à¤°à¤ķ": 6244,
      "à¤¥à¤¬": 6245,
      "Ġà¤Ľà¤°": 6246,
      "Ġ2117": 6247,
      "Ġà¤ķà¤Īà¤¯": 6248,
      "à¤¬à¤²à¤ª": 6249,
      "à¤Ĺà¤µà¤¶": 6250,
      "à¤¿!": 6251,
      "Ġà¤²à¤¢à¤µ": 6252,
      "à¤°à¤ªà¤£": 6253,
      "Ġà¤Ĩà¤°à¤ıà¤²": 6254,
      "à¤ıà¤²à¤Ĳ": 6255,
      "Ġ262": 6256,
      "Ġà¤ıà¤®à¤ıà¤²à¤¡": 6257,
      "à¤§à¤°à¤®": 6258,
      "à¤łà¤¸": 6259,
      "Ġà¤¶à¤°à¤ľ": 6260,
      "Ġà¤ħà¤µà¤¤à¤°à¤£": 6261,
      "Ġà¤ľà¤µà¤¨": 6262,
      "Ġ1935": 6263,
      "Ġà¤¦à¤¬à¤¨": 6264,
      "Ġà¤¶à¤¹à¤¬": 6265,
      "Ġ575": 6266,
      "à¤¤à¤ªà¤£": 6267,
      "Ġà¤Ĩà¤¹à¤µ": 6268,
      "à¥§à¥«": 6269,
      "à¤ķà¤¨à¤°": 6270,
      "à¤¸à¤²à¤Ł": 6271,
      "à¤µà¤¬à¤°": 6272,
      "à¤µà¤ĩà¤¨": 6273,
      "Ġà¤Ĩà¤°à¤¡à¤¬": 6274,
      "Ġà¤Ĩà¤Īà¤ıà¤¸à¤ıà¤²": 6275,
      "à¤Ŀà¤ªà¤°": 6276,
      "Ġà¤ħà¤¤à¤ıà¤µ": 6277,
      "à¤¸à¤ľà¤¨": 6278,
      "Ġà¤īà¤ªà¤¶": 6279,
      "à¤°à¤£à¤¤": 6280,
      "Ġ332": 6281,
      "à¤ªà¤ħà¤ª": 6282,
      "à¤Ĭà¤ľ": 6283,
      "1993": 6284,
      "Ġà¤ĺà¤Ĺ": 6285,
      "à¤¤à¤®à¤ª": 6286,
      "Ġ364": 6287,
      "Ġà¤ĩà¤¸à¤¬": 6288,
      "Ġ1934": 6289,
      "à¤ĥà¥¤": 6290,
      "à¤°à¤ļà¤£": 6291,
      "à¤ĸà¤°à¤£": 6292,
      "Ġà¤¡à¤°à¤ķà¤°": 6293,
      "Ġà¤ķà¥Ŀ": 6294,
      "à¤Łà¤°à¤¶": 6295,
      "Ġà¤²à¤¹à¤²à¤¹": 6296,
      "Ġ336": 6297,
      "à¤ĩà¤¥": 6298,
      "à¤¬à¤Ĺà¤²": 6299,
      "Ġ1917": 6300,
      "Ġà¤®à¤ľà¤¨": 6301,
      "à¤ħà¤²à¤ķ": 6302,
      "à¤²à¤¨à¤¹": 6303,
      "Ġà¤īà¤ªà¤®à¤£": 6304,
      "Ġà¤ĵà¤µà¤°à¤ĳà¤²": 6305,
      "à¤µà¤ļà¤°à¤£": 6306,
      "Ġà¤Ĺà¤®à¤Ĺ": 6307,
      "Ġà¤Īà¤ıà¤¸à¤ª": 6308,
      "à¤¦à¤®à¤¯": 6309,
      "1947": 6310,
      "à¤«à¤¡à¤£à¤µ": 6311,
      "Ġà¤ķà¤¨à¤ªà¤Ł": 6312,
      "Ġà¤«à¤Ĺ": 6313,
      "à¤²à¤¹à¤µ": 6314,
      "à¤¸à¤Łà¤¨": 6315,
      "à¤®à¤Ľà¤²": 6316,
      "à¤¾à¥¤à¥¤": 6317,
      "Ġà¤ľà¤²à¤ľ": 6318,
      "Ġ298": 6319,
      "Ġà¤Ĺà¤®à¤Ľ": 6320,
      "Ġ1924": 6321,
      "144": 6322,
      "Ġà¤ħà¤ī": 6323,
      "à¤°à¤ļà¤°à¤£": 6324,
      "à¤¡à¤²à¤°": 6325,
      "à¤ľà¤¸à¤ľ": 6326,
      "à¤ıà¤«à¤Ĩà¤Īà¤Ĩà¤°": 6327,
      "à¤®à¤Ľ": 6328,
      "Ġà¤®à¤¹à¤¦": 6329,
      "Ġ725": 6330,
      "Ġ333": 6331,
      "à¤ľà¤Ĺà¤¹à¤ľà¤Ĺà¤¹": 6332,
      "à¤¤à¤µà¤£": 6333,
      "Ġà¤Ĺà¤²à¤¨": 6334,
      "Ġà¤ħà¤¶à¤°": 6335,
      "à¤¦à¤®à¤¤": 6336,
      "Ġ317": 6337,
      "à¤ıà¤®à¤ıà¤ļà¤ĵ": 6338,
      "Ġà¤¸à¤®à¤Ń": 6339,
      "Ġà¤§à¤¨à¤ķ": 6340,
      "Ġà¤Ńà¤ľà¤¨à¤²": 6341,
      "à¥įà¥ģ": 6342,
      "à¤ĸà¤¨à¤Ĺà¤°": 6343,
      "Ġ419": 6344,
      "à¤ľà¤¨à¤µ": 6345,
      "Ġ1215": 6346,
      "Ġà¤§à¤µ": 6347,
      "à¤®à¤²à¤ķ": 6348,
      "Ġà¤ķà¤Łà¤ķà¤°": 6349,
      "à¤«à¤°à¤¹": 6350,
      "à¤²à¤ĸà¤¨": 6351,
      "Ġà¤Ĺà¤®à¤¨": 6352,
      "Ġ314": 6353,
      "à¤²à¤°à¤®": 6354,
      "Ġà¤ıà¤Ī": 6355,
      "Ġ352": 6356,
      "Ġà¤ľà¤¨à¤¸à¤®à¤°": 6357,
      "Ġ1944": 6358,
      "Ġ1937": 6359,
      "Ġà¤®à¤Łà¤¨": 6360,
      "Ġà¤²à¤ĸà¤ªà¤¤": 6361,
      "à¤ıà¤ĸ": 6362,
      "à¤µà¤¨à¤µ": 6363,
      "Ġ2119": 6364,
      "Ġ445": 6365,
      "à¤ľà¤¸à¤ª": 6366,
      "170": 6367,
      "Ġ1928": 6368,
      "à¤¯à¤£à¤¸": 6369,
      "à¥ļà¤²": 6370,
      "Ġà¤Ĳà¤®": 6371,
      "Ġà¤£": 6372,
      "Ġà¤ķà¤µà¤¨": 6373,
      "à¤łà¤µà¤£": 6374,
      "à¤īà¤µ": 6375,
      "Ġà¤ıà¤¨à¤Ĩà¤Īà¤¸": 6376,
      "Ġà¤ıà¤«à¤ıà¤Ł": 6377,
      "Ġà¤²à¤Łà¤ķà¤¨": 6378,
      "Ġà¤ħà¤°à¤¹": 6379,
      "à¤³à¤¶": 6380,
      "à¤³à¤µà¤²": 6381,
      "à¤į": 6382,
      "Ġà¤¬à¤°à¤Ĺ": 6383,
      "à¤§à¤¦": 6384,
      "Ġà¤ıà¤«à¤ıà¤¸à¤ıà¤²": 6385,
      "Ġà¤¬à¤°à¤¸à¤¨": 6386,
      "Ġà¤®à¤«": 6387,
      "Ġ2115": 6388,
      "Ġà¤ħà¥ľà¤ļà¤¨": 6389,
      "Ġà¤¹à¤Ĺ": 6390,
      "à¤¸à¤®à¤µ": 6391,
      "Ġà¤ªà¤²à¤¨": 6392,
      "Ġ416": 6393,
      "Ġà¤¦à¤¸à¤¦à¤¸": 6394,
      "à¤ħà¤«à¤°": 6395,
      "à¤¨à¤§à¤¨": 6396,
      "Ġà¤Īà¤ĵà¤¡à¤¬": 6397,
      "Ġà¤¹à¤°à¤¤": 6398,
      "à¤®à¤ķà¤¶": 6399,
      "Ġà¤Łà¤ĸà¤¨": 6400,
      "Ġà¤¨à¤ĸà¤°": 6401,
      "à¤¬à¥Ŀ": 6402,
      "Ġà¤ĺà¤°à¤¬": 6403,
      "à¤§à¤¨à¤ķ": 6404,
      "Ġà¤ıà¤¸à¤Ĩà¤Īà¤ª": 6405,
      "à¤¹à¤¤à¤²": 6406,
      "Ġà¤ķà¤¡à¤ķ": 6407,
      "Ġà¤®à¤²à¤µ": 6408,
      "Ġà¤Īà¤ıà¤¸": 6409,
      "Ġà¤ıà¤¨à¤ıà¤¸à¤¸": 6410,
      "Ġà¤Ĩà¤Īà¤Ĩà¤Īà¤ª": 6411,
      "à¤¨à¤Ĺà¥Ŀ": 6412,
      "à¤²à¤°à¤¸à¤¨": 6413,
      "à¤¾à¤Ĥ!": 6414,
      "Ġà¤ħà¤®à¤°à¤¤": 6415,
      "à¤Ĥ|": 6416,
      "Ġ263": 6417,
      "à¤ĺà¤µà¤¨": 6418,
      "à¤Ķà¤·à¤§": 6419,
      "à¥§à¥©": 6420,
      "Ġà¤Ĺà¤łà¤¬à¤¨": 6421,
      "Ġ322": 6422,
      "Ġà¤Ĭà¤§": 6423,
      "à¤ıà¤ķà¤²": 6424,
      "à¤Ńà¤µà¤¹": 6425,
      "à¤°à¤Łà¤°": 6426,
      "Ġà¤ĸà¤°à¤¸": 6427,
      "Ġà¤ķà¤¥à¤ķ": 6428,
      "à¤Ĩà¤ľà¤®à¤Ĺà¤¢": 6429,
      "Ġà¤¸à¤¦à¤Ĺ": 6430,
      "1989": 6431,
      "à¤²à¤¨à¤¶": 6432,
      "à¤Ĺà¤£à¤ªà¤¤": 6433,
      "Ġà¤īà¤§à¤®à¤ª": 6434,
      "Ġà¤īà¤ĩà¤ķ": 6435,
      "Ġà¤²à¤ł": 6436,
      "à¤¯à¤°à¤«": 6437,
      "à¤¤à¤¹à¤°": 6438,
      "à¤ħà¤µà¤¤": 6439,
      "Ġ1516": 6440,
      "à¤ıà¤¸à¤Īà¤¬": 6441,
      "à¤¸à¤²à¤¤": 6442,
      "à¤ľà¥ľ": 6443,
      "à¤īà¤¦à¤¯": 6444,
      "à¤¦à¤Ĺà¤¢": 6445,
      "Ġ293": 6446,
      "Ġà¤¸à¤®à¤ľà¤²": 6447,
      "à¤¹à¤®à¤£": 6448,
      "à¤¬à¤ķà¤®": 6449,
      "à¤Ĺà¤īà¤¨": 6450,
      "Ġà¤ħà¤¹à¤°": 6451,
      "Ġà¤ľà¤²à¤§": 6452,
      "à¤¸à¤ĳà¤°": 6453,
      "à¤ĵà¤ĵ": 6454,
      "à¤·à¤¤à¤µ": 6455,
      "Ġà¤ľà¤Ī": 6456,
      "Ġà¤ıà¤¨à¤ıà¤ļà¤ª": 6457,
      "Ġà¤¦à¤ĸ": 6458,
      "Ġ276": 6459,
      "à¤·à¤Ĺà¤¢": 6460,
      "à¤¹à¤¦à¤°": 6461,
      "Ġ615": 6462,
      "à¤¯à¤ĸ": 6463,
      "à¤¯à¤Ĺà¤¡": 6464,
      "à¤®à¥Ŀ": 6465,
      "Ġà¤īà¤ªà¤¤à¤¹à¤¸": 6466,
      "Ġà¤¸à¤Ĺà¤°": 6467,
      "Ġ620": 6468,
      "à¤ªà¤¸à¤¨": 6469,
      "Ġà¤Ĩà¤³": 6470,
      "Ġà¤¨à¤µà¤ª": 6471,
      "à¤Łà¤°à¤Ĺ": 6472,
      "Ġà¤Ĩà¤°à¤ıà¤®": 6473,
      "Ġà¤¤à¤¹à¤ĸ": 6474,
      "Ġ384": 6475,
      "Ġà¤®à¤ľà¤®": 6476,
      "Ġà¤®à¤ļà¤²": 6477,
      "Ġà¤īà¤¨à¤¹": 6478,
      "à¤łà¤£": 6479,
      "à¤®à¤¨à¤¦": 6480,
      "à¤ĩà¤«à¤Ł": 6481,
      "à¤¸à¤²à¤ª": 6482,
      "Ġà¤ļà¤¹à¤²à¤ķ": 6483,
      "à¤ĭà¤·à¤Ń": 6484,
      "à¤ľà¤¨à¤°": 6485,
      "Ġà¤ĵà¤³": 6486,
      "à¤¶à¤¹à¤¦": 6487,
      "Ġ475": 6488,
      "à¤¸à¤ļà¤°": 6489,
      "à¤Īà¤ķà¤²": 6490,
      "Ġ020": 6491,
      "Ġà¤īà¥ľà¤¦": 6492,
      "Ġà¤Ŀà¤ªà¤ķà¤¤": 6493,
      "à¤¨à¤µà¤¸": 6494,
      "à¤²à¤ķà¤Ł": 6495,
      "à¤ľà¤¨à¤¨": 6496,
      "Ġà¤¨à¤Ĺà¤°à¤¨": 6497,
      "à¤µà¤ªà¤²": 6498,
      "Ġà¤ħà¤µà¤Ĺ": 6499,
      "Ġ17000": 6500,
      "Ġà¤Ĩà¤ĩà¤ıà¤¸": 6501,
      "Ġà¥©à¥§": 6502,
      "à¤¯à¤ķà¤¶": 6503,
      "à¤¡à¤¬à¤°": 6504,
      "à¤ľà¤°à¤¬": 6505,
      "Ġà¤Ľà¤Ľà¤°": 6506,
      "à¤Łà¤Ľ": 6507,
      "Ġà¤¦à¤°à¤µà¤°": 6508,
      "Ġà¤ľà¤¸à¤°": 6509,
      "Ġ3035": 6510,
      "à¤²à¤ķà¤²": 6511,
      "à¤®à¤Ńà¤ķ": 6512,
      "à¤ıà¤ļà¤ķ": 6513,
      "Ġà¤¹à¤³": 6514,
      "Ġà¤ªà¤¸à¤²": 6515,
      "Ġà¤¹à¤łà¤§à¤°": 6516,
      "Ġà¤¹à¤¸à¤¬": 6517,
      "Ġà¤¬à¤°à¤¦": 6518,
      "Ġà¤µà¤¹à¤¶": 6519,
      "Ġ281": 6520,
      "Ġ4200": 6521,
      "Ġà¤īà¤ľà¤²": 6522,
      "Ġ297": 6523,
      "à¤Ĩà¤¦à¤°à¤£": 6524,
      "à¤ħà¤·": 6525,
      "Ġà¤Ĩà¤¹à¤²": 6526,
      "Ġà¤Īà¤¦à¤īà¤²": 6527,
      "102": 6528,
      "Ġà¤ĸà¤¡à¤¸": 6529,
      "Ġà¤¸à¤¬à¤¡": 6530,
      "à¤·à¤£à¤®": 6531,
      "à¤ĩà¤¯à¤¤": 6532,
      "Ġà¤Ľà¤Ĺ": 6533,
      "à¤°à¤£à¤¦": 6534,
      "à¥Ħ": 6535,
      "Ġ505": 6536,
      "Ġà¤ļà¤®à¤Ĺ": 6537,
      "à¥ŀà¤¸": 6538,
      "Ġà¤ķà¤¸à¤ķ": 6539,
      "Ġà¤ħà¤ªà¤¦à¤¸": 6540,
      "à¤¨à¤¬à¤¦": 6541,
      "Ġ349": 6542,
      "Ġà¤¤à¤¯à¤¶": 6543,
      "Ġà¤¶à¤Łà¤²": 6544,
      "Ġà¤¶à¤²à¤Ń": 6545,
      "Ġà¤ıà¤ķà¤Ł": 6546,
      "Ġ435": 6547,
      "Ġà¤ħà¤ķà¤¬à¤°à¤ª": 6548,
      "à¤ĵà¤ıà¤®": 6549,
      "Ġà¤«à¤¹": 6550,
      "Ġ470": 6551,
      "Ġà¤ħà¤Ĺà¤¡": 6552,
      "Ġà¤ªà¤ķà¥ľà¤¤": 6553,
      "Ġà¥ĺà¤¤": 6554,
      "Ġà¤ĳà¤¨à¤¸": 6555,
      "à¥§à¥®": 6556,
      "Ġà¤¹à¤¡à¤ķ": 6557,
      "Ġ845": 6558,
      "Ġà¥©à¥©": 6559,
      "à¤¸à¤ĳà¤«": 6560,
      "Ġà¤Ĳà¤µà¤ľ": 6561,
      "à¤ĵà¤ľ": 6562,
      "à¤¯à¤®à¤¸": 6563,
      "Ġà¤Īà¤ļ": 6564,
      "à¤µà¤Łà¤ļ": 6565,
      "Ġà¤¨à¤Łà¤µà¤°": 6566,
      "à¤¬à¤£": 6567,
      "à¤¨à¤°à¤®": 6568,
      "135": 6569,
      "à¤īà¤Łà¤°": 6570,
      "Ġà¤ķà¤²à¤Ī": 6571,
      "Ġ301": 6572,
      "Ġà¤µà¥Ľ": 6573,
      "Ġà¤ħà¤§à¤®à¤°": 6574,
      "Ġà¤®à¤ķà¤¬": 6575,
      "Ġà¤¬à¥Ŀà¤ļà¥Ŀ": 6576,
      "à¤¶à¤ļà¤¨": 6577,
      "à¥ĭà¤ĥ": 6578,
      "à¤¦à¤¶à¤ķ": 6579,
      "Ġà¤Łà¤µ": 6580,
      "Ġà¤ħà¤®à¤°à¤¦": 6581,
      "à¤®à¥ľ": 6582,
      "à¤¬à¤²à¤µ": 6583,
      "à¤§à¤ªà¤¤": 6584,
      "Ġà¤®à¤¹à¤¨": 6585,
      "à¥Ľà¤¬": 6586,
      "à¤Łà¤°à¤°": 6587,
      "à¤ħà¤ªà¤¹à¤°à¤£": 6588,
      "Ġà¤ķà¤ķà¤°": 6589,
      "à¤ıà¤ļà¤Ł": 6590,
      "Ġà¤¶à¤¬à¤°": 6591,
      "à¤ĺà¤°à¤µ": 6592,
      "Ġ334": 6593,
      "Ġà¥©à¥¬": 6594,
      "à¤®à¤®à¤¨": 6595,
      "Ġà¤ıà¤®à¤Ĩà¤°à¤Ĩà¤Ī": 6596,
      "Ġà¤ľà¤¯à¤ĺ": 6597,
      "à¤ľà¤¨à¤¹": 6598,
      "à¤£à¤¬": 6599,
      "Ġ1927": 6600,
      "Ġà¤ıà¤²à¤ı": 6601,
      "à¤ĸà¤µà¤²": 6602,
      "Ġà¤¬à¤¢à¤ķà¤°": 6603,
      "Ġà¤Ĺà¤ľà¤Ł": 6604,
      "Ġà¤¸à¤®à¤§": 6605,
      "Ġà¤īà¤¤à¤°à¤²": 6606,
      "Ġà¤¸à¤°à¤«": 6607,
      "Ġ45000": 6608,
      "à¤¯à¤®à¤¶": 6609,
      "1971": 6610,
      "à¤¶à¤¨à¤Ń": 6611,
      "Ġ040": 6612,
      "à¤ľà¤¸à¤µ": 6613,
      "à¥§à¥¦": 6614,
      "Ġà¤®à¤ĸà¤®à¤²": 6615,
      "Ġ379": 6616,
      "Ġ321": 6617,
      "Ġà¤Ĩà¤ĩà¤ıà¤ıà¤¸": 6618,
      "Ġ2118": 6619,
      "Ġà¤ĳà¤ķà¤²": 6620,
      "Ġ715": 6621,
      "à¤Łà¤ļà¤°": 6622,
      "Ġ418": 6623,
      "Ġà¤ĸà¤¬à¤°à¤¦": 6624,
      "à¤Ĩà¤¬à¤ķ": 6625,
      "Ġ2114": 6626,
      "Ġ545": 6627,
      "Ġà¤¦à¤²à¤µ": 6628,
      "Ġ090": 6629,
      "Ġà¤ĵà¤µà¤°à¤¡": 6630,
      "Ġà¥ŀà¤°à¤µà¤°": 6631,
      "à¤¬à¤¨à¤°": 6632,
      "à¤ĵà¤ıà¤¨à¤ľ": 6633,
      "à¤¶à¤¨à¤§": 6634,
      "à¤°à¤®à¤²": 6635,
      "à¤³à¤¸": 6636,
      "à¤łà¤µà¤²": 6637,
      "Ġ526": 6638,
      "Ġà¤ħà¤µà¤ļ": 6639,
      "Ġà¤¸à¤£": 6640,
      "à¤®à¤Ńà¤°": 6641,
      "à¤¶à¤¨à¤Ĺà¤¢": 6642,
      "Ġ405": 6643,
      "Ġà¤ħà¤¡à¤¥à¤³": 6644,
      "122": 6645,
      "Ġà¤ıà¤ķà¤ªà¤ķ": 6646,
      "Ġà¤®à¤¤à¤µ": 6647,
      "à¤¨à¤ĸà¤°": 6648,
      "à¤ķà¤®à¤§": 6649,
      "Ġ509": 6650,
      "Ġà¤¬à¥ľà¤µ": 6651,
      "à¤¾à¥ħà¤Ĥ": 6652,
      "à¤Īà¤ªà¤°": 6653,
      "à¤īà¤¬": 6654,
      "à¤¬à¤¤à¤ª": 6655,
      "à¤Ĳà¤Ĺ": 6656,
      "à¤ĺà¤£": 6657,
      "à¤®à¤²à¤µ": 6658,
      "Ġ468": 6659,
      "Ġà¤¨à¤¦à¤µ": 6660,
      "Ġà¤ªà¤¡à¤¨": 6661,
      "108": 6662,
      "Ġ385": 6663,
      "Ġà¤°à¤¨à¤°à¤ħà¤ª": 6664,
      "Ġ21000": 6665,
      "à¤Ĥ!": 6666,
      "à¤¸à¤²à¤Ĺ": 6667,
      "à¤¡à¤¸à¤ĩ": 6668,
      "Ġà¤ļà¤¢à¤©": 6669,
      "Ġà¤Ŀà¤¨": 6670,
      "Ġ560": 6671,
      "Ġà¤īà¤ªà¤ħà¤§": 6672,
      "à¤Ńà¤°à¤®": 6673,
      "à¤ıà¤¸à¤ıà¤«à¤Ĩà¤Ī": 6674,
      "à¥§à¥ª": 6675,
      "Ġà¤ļà¤¹à¤²à¤ķà¤¦à¤®": 6676,
      "Ġà¤°à¤¹à¤°à¤¹": 6677,
      "à¤µà¤°à¤¦": 6678,
      "Ġà¤Ľà¥ľ": 6679,
      "à¤Īà¤¹": 6680,
      "Ġ271": 6681,
      "Ġà¤ķà¤ı": 6682,
      "à¤²à¤¨à¤Ĺà¤°": 6683,
      "Ġ2116": 6684,
      "à¤¤à¤µà¤¨": 6685,
      "Ġà¤ħà¤¨à¤ķ": 6686,
      "à¤Ĺà¤²à¤®à¤¯": 6687,
      "Ġ406": 6688,
      "Ġ1213": 6689,
      "à¤¤à¤²à¤¤": 6690,
      "à¤Īà¤Ŀà¤Ĺà¤¡": 6691,
      "Ġà¤ªà¤Ĺà¥ľ": 6692,
      "Ġà¤Ĩà¤łà¤µà¤²": 6693,
      "Ġ030": 6694,
      "à¤¨à¤µà¤µ": 6695,
      "à¤ħà¤ľà¤¹à¤°": 6696,
      "Ġà¤¹à¤ķà¤²": 6697,
      "Ġ1150": 6698,
      "à¤¿à¤Ĥà¤Ĥ": 6699,
      "à¤Ĩà¤Īà¤«": 6700,
      "à¤¿à¥ĭà¤Ĥ": 6701,
      "Ġà¤²à¤µà¤ķ": 6702,
      "Ġà¤¬à¤¦à¤ķ": 6703,
      "Ġ1011": 6704,
      "à¤®à¤§à¤¨": 6705,
      "Ġà¤ıà¤ķà¤¸à¤®": 6706,
      "à¥Ĥà¤ģ|": 6707,
      "1992": 6708,
      "Ġà¤ľà¤®à¤¤": 6709,
      "Ġà¤ħà¤¨à¤µ": 6710,
      "à¤¦à¤°à¤°": 6711,
      "à¤Ľà¤ªà¤°": 6712,
      "1977": 6713,
      "à¤ľà¤¯à¤¦à¤¶à¤®": 6714,
      "Ġ075": 6715,
      "à¤Łà¤ªà¤¤": 6716,
      "à¤ıà¤ıà¤¨à¤Ĩà¤Ī": 6717,
      "Ġà¤ĺà¤°à¤Ĺ": 6718,
      "Ġà¤ıà¤®à¤Ĩà¤°à¤ª": 6719,
      "à¤°à¤ľà¤¤": 6720,
      "à¤²à¤Ĺà¤ª": 6721,
      "à¤ļà¤ħà¤ª": 6722,
      "Ġ395": 6723,
      "à¤ĩà¤¹": 6724,
      "à¤ħà¤®à¤²": 6725,
      "Ġà¤¦à¤²à¤¬à¤²": 6726,
      "à¤®à¤ľà¤¸": 6727,
      "Ġà¤²à¤ĸà¤®": 6728,
      "Ġà¤®à¥Ľà¤¹à¤¬": 6729,
      "Ġà¤ħà¤¨à¤ķà¤¹": 6730,
      "à¤°à¤Ńà¤°": 6731,
      "à¤ļà¤¤à¤¤": 6732,
      "à¤Ĺà¤£à¤ķ": 6733,
      "à¤²à¤¡à¤ª": 6734,
      "Ġà¤¸à¤®à¤¦": 6735,
      "Ġà¤¸à¤²à¤Ĺ": 6736,
      "à¤¡à¤ıà¤®": 6737,
      "à¤¸à¤¬à¤Ĺ": 6738,
      "Ġà¤ĭà¤¦": 6739,
      "à¤ıà¤¨à¤ıà¤¸à¤Ī": 6740,
      "Ġà¤ħà¤¡à¤ķà¤²": 6741,
      "à¤ªà¤²à¤¬": 6742,
      "à¤ħà¤¨à¤¨": 6743,
      "Ġà¤ħà¤²à¤¹": 6744,
      "Ġ261": 6745,
      "Ġ3300": 6746,
      "à¤®à¤¤à¤®": 6747,
      "à¤µà¤¤à¤ļ": 6748,
      "Ġà¥©à¥Ń": 6749,
      "à¥įà¥Ĥ": 6750,
      "Ġà¤ªà¤ļà¤¨": 6751,
      "à¥ŀà¤¤": 6752,
      "Ġà¤īà¤Ĺà¤²à¤¤": 6753,
      "Ġà¤ıà¤¨à¤ıà¤ļà¤ıà¤®": 6754,
      "à¤Ĺà¤ı": 6755,
      "Ġ5200": 6756,
      "Ġ344": 6757,
      "Ġ543": 6758,
      "à¥Ĥà¤ģ!": 6759,
      "à¤¨à¤Ĭ": 6760,
      "à¤¬à¥Ŀà¤¤": 6761,
      "à¤ľà¤Ĺà¤¦à¤²à¤ª": 6762,
      "115": 6763,
      "Ġà¤īà¤¨à¤²": 6764,
      "Ġà¤ĳà¤¥": 6765,
      "Ġà¥¨à¥¦à¥§à¥Ń": 6766,
      "à¤ĸà¤¯": 6767,
      "à¤¹à¤¨à¤ļ": 6768,
      "Ġà¤ħà¤¹à¤¹": 6769,
      "Ġ945": 6770,
      "1500": 6771,
      "Ġà¤Ĩà¤Īà¤Ĩà¤°à¤¡": 6772,
      "à¤ķà¤®à¤¨": 6773,
      "Ġà¤¨à¥ŀ": 6774,
      "à¤Łà¤ķà¤ļ": 6775,
      "à¤ıà¤¨à¤ıà¤¸à¤¯": 6776,
      "Ġà¤ķà¤¤à¤°à¤¨": 6777,
      "Ġ422": 6778,
      "Ġà¤Ĩà¤¸à¤¨à¤¸": 6779,
      "à¤¹à¤¨à¤ľ": 6780,
      "Ġà¤¬à¤Ľ": 6781,
      "Ġà¤§à¤¨à¤²": 6782,
      "à¤¹à¤®à¤¤": 6783,
      "à¤Ĩà¤Īà¤Ń": 6784,
      "Ġ407": 6785,
      "à¤®à¤¬à¤¨": 6786,
      "à¤ªà¤°à¤£": 6787,
      "Ġà¤īà¤Ł": 6788,
      "à¤°à¤ľà¤¹": 6789,
      "à¤¡à¤°à¤¸": 6790,
      "à¤¥à¤Łà¤¬": 6791,
      "Ġà¤¤à¤£": 6792,
      "à¤ľà¤§à¤°": 6793,
      "Ġà¤§à¤¨à¤¬à¤²": 6794,
      "Ġ1943": 6795,
      "à¤łà¤¯à¤ķ": 6796,
      "à¤ªà¤Łà¤¤": 6797,
      "Ġà¤Ńà¤Ĺà¤¦à¥ľ": 6798,
      "à¤Ĺà¤£à¤µ": 6799,
      "à¤Īà¤ıà¤«": 6800,
      "à¤ªà¤µà¤¯": 6801,
      "Ġà¥į": 6802,
      "à¤Īà¤ľà¤°": 6803,
      "Ġà¤¦à¤§": 6804,
      "Ġ514": 6805,
      "Ġ1941": 6806,
      "à¤ľà¤¨à¤®": 6807,
      "Ġà¤¥à¤®à¤¤": 6808,
      "Ġà¤¸à¤°à¤µà¤°": 6809,
      "à¤µà¤²à¤°": 6810,
      "à¥ģà¥ģà¤Ĥ": 6811,
      "à¤Ĳà¤²": 6812,
      "à¤¤à¤£": 6813,
      "à¤·à¤°à¤§": 6814,
      "Ġà¤Ĳà¤²à¤¨": 6815,
      "Ġ570": 6816,
      "à¤ªà¤ĸ": 6817,
      "Ġà¤Ĩà¤¯à¤¨": 6818,
      "Ġ1212": 6819,
      "Ġà¤®à¤¸à¤ľ": 6820,
      "à¤ľà¤¨à¤¸à¤Ń": 6821,
      "à¤ĩà¤ĳà¤ķ": 6822,
      "à¤°à¤ľà¤®à¤²": 6823,
      "Ġà¤Ĩà¤µà¤¤": 6824,
      "Ġ348": 6825,
      "Ġà¥Ńà¥¦": 6826,
      "1995": 6827,
      "Ġà¤ķà¤³à¤µ": 6828,
      "Ġ100100": 6829,
      "Ġà¤Ńà¤ĩà¤²": 6830,
      "Ġ467": 6831,
      "à¤°à¤²à¤¤": 6832,
      "Ġà¤ıà¤®à¤¨": 6833,
      "Ġ1112": 6834,
      "Ġà¤ıà¤¯à¤°à¤¬à¤¸": 6835,
      "Ġà¤Ĩà¤Īà¤ıà¤«": 6836,
      "à¥§à¥¬": 6837,
      "Ġà¤īà¤¦à¤¯à¤¨": 6838,
      "à¤Ĩà¤Īà¤ĵà¤ıà¤¸": 6839,
      "1950": 6840,
      "à¤²à¤Ŀà¤¨": 6841,
      "à¥Īà¤ģà¥¤": 6842,
      "Ġà¥§à¥¯à¥©": 6843,
      "Ġà¤¬à¤¦à¤°à¤ª": 6844,
      "à¤Ĩà¤®à¤¦": 6845,
      "Ġà¤¤à¥ĺà¤°": 6846,
      "Ġà¤²à¤¡à¤¨": 6847,
      "Ġ343": 6848,
      "à¤Ĩà¤Īà¤ıà¤®à¤ıà¤«": 6849,
      "Ġ327": 6850,
      "à¤Ĩà¤Īà¤ıà¤¸à¤Ĩà¤Ī": 6851,
      "Ġà¤ıà¤ļà¤Ĩà¤°à¤¡": 6852,
      "à¤Łà¤°à¤¡": 6853,
      "Ġà¤§à¤¨à¤§": 6854,
      "à¤°à¤¤à¤Ĺà¤¢": 6855,
      "Ġà¤Īà¤¡à¤¬": 6856,
      "à¤ªà¤¥à¤°": 6857,
      "Ġà¤µà¤£": 6858,
      "à¤¶à¤¨à¤¦": 6859,
      "Ġà¤°à¤ĸà¤¡à¤²": 6860,
      "Ġ495": 6861,
      "Ġ497": 6862,
      "Ġà¤¸à¤®à¤°à¤¸": 6863,
      "à¤ªà¤Łà¤µ": 6864,
      "à¤ıà¤²à¤Ĩà¤Īà¤¸": 6865,
      "Ġ080": 6866,
      "à¤¤à¤¨à¤ķ": 6867,
      "Ġ1911": 6868,
      "Ġà¤¨à¤µà¤²à¤ĸ": 6869,
      "à¤¦à¤°à¤ļ": 6870,
      "Ġ535": 6871,
      "à¤Łà¤°à¤ľ": 6872,
      "à¥¨à¥¦à¥§à¥": 6873,
      "à¤ĩà¤ķà¤®": 6874,
      "Ġà¤ªà¤¤à¤°à¤¸": 6875,
      "Ġà¥Ľà¤¬": 6876,
      "à¤£à¤¶": 6877,
      "Ġà¤ĸà¤Łà¤²": 6878,
      "à¤ıà¤ıà¤¨": 6879,
      "à¤ĺà¤¸": 6880,
      "Ġà¤ļà¤Łà¤ĸ": 6881,
      "Ġà¤«à¤²à¤¨": 6882,
      "à¤¯à¤®à¤¤": 6883,
      "à¤¸à¤°à¤¨": 6884,
      "Ġà¤ªà¤ķà¤¡à¤²": 6885,
      "à¤µà¤¯à¤®": 6886,
      "Ġ346": 6887,
      "Ġà¤Łà¤ªà¤ķà¤¤": 6888,
      "à¤¿à¥Ģ": 6889,
      "Ġà¤ıà¤¸à¤Īà¤¸": 6890,
      "118": 6891,
      "à¤ļà¤µà¤Ł": 6892,
      "à¤ĩà¤ªà¤°à¤Ł": 6893,
      "à¤²à¤Ĺà¤°": 6894,
      "à¤¸à¤ıà¤¨à¤¸": 6895,
      "Ġ2113": 6896,
      "à¤¨à¤¹à¤Ł": 6897,
      "à¤Ĩà¤ĩà¤ľ": 6898,
      "à¥©à¥¦": 6899,
      "à¤¡à¤µà¤¤": 6900,
      "à¤ħà¤¥": 6901,
      "Ġà¤¤à¤¬à¤¤à¤¬": 6902,
      "à¤ıà¤ļà¤¬": 6903,
      "Ġà¤°à¤®à¤¨à¤¦": 6904,
      "Ġà¤¸à¤¬à¤®à¤°": 6905,
      "Ġà¤¸à¤°à¤ªà¤°à¤¸": 6906,
      "Ġà¤ľà¤²à¤ľà¤®": 6907,
      "à¤°à¤®à¤µ": 6908,
      "Ġà¤ķà¤°à¤¹": 6909,
      "à¤²à¤¨à¤Ĺ": 6910,
      "Ġà¤īà¤ļà¤ķ": 6911,
      "à¤¦à¤¹à¤µ": 6912,
      "Ġ712": 6913,
      "Ġ1912": 6914,
      "Ġ745": 6915,
      "à¤¸à¤¹à¤®à¤¤": 6916,
      "à¤Ĩà¤ĺ": 6917,
      "Ġà¤¹à¤°à¤¦à¤®": 6918,
      "Ġà¥§à¥¯à¥¨": 6919,
      "Ġà¤ľà¤ķà¤°à¤¬à¤°": 6920,
      "Ġà¤¦à¤®à¤ķ": 6921,
      "Ġ339": 6922,
      "à¤¸à¤¤à¤ª": 6923,
      "Ġà¤¡à¤°à¤ª": 6924,
      "à¤¸à¤«à¤²": 6925,
      "Ġà¤ĸà¤¤à¤¨": 6926,
      "à¥ĥà¥ĥ": 6927,
      "à¤Īà¤Īà¤Īà¤Ī": 6928,
      "Ġà¤ħà¤Ĺà¤°à¤¤à¤²": 6929,
      "Ġà¤Ĺà¤Łà¤°": 6930,
      "à¥ľà¤Ń": 6931,
      "Ġ24000": 6932,
      "à¤ļà¤¹à¤²": 6933,
      "à¤«à¤µ": 6934,
      "Ġ680": 6935,
      "à¤¬à¤Īà¤ķà¤°": 6936,
      "Ġà¤Ĩà¤Īà¤ıà¤«à¤ıà¤¸": 6937,
      "Ġà¤ķà¥ľà¤ķ": 6938,
      "Ġà¤Ĺà¤Łà¤¨": 6939,
      "Ġà¤¦à¤²à¤Ĺà¤¤": 6940,
      "à¤®à¤¯à¤¤": 6941,
      "Ġà¤Ĳà¤ļ": 6942,
      "à¤²à¤®à¤Ī": 6943,
      "Ġà¤īà¤ªà¤¸à¤°à¤ª": 6944,
      "Ġà¤Ĩà¤¦à¤®à¤ĸ": 6945,
      "04": 6946,
      "à¥Īà¥¥": 6947,
      "à¤Ľà¤®": 6948,
      "à¤Ńà¤²à¤¨": 6949,
      "à¤¶à¤¤à¤ķ": 6950,
      "à¤Ŀà¤ªà¤¨": 6951,
      "Ġà¤¸à¤Ī": 6952,
      "à¤īà¤ªà¤²à¤¬": 6953,
      "à¤ľà¤¬à¤°à¤¦à¤¸": 6954,
      "à¤ĸà¤¤à¤°": 6955,
      "à¥Ŀà¤ķ": 6956,
      "Ġà¤Ĭà¤®": 6957,
      "Ġà¤¸à¤°à¤¸à¤°": 6958,
      "Ġà¤°à¤£à¤Ń": 6959,
      "Ġà¤¹à¥ľà¤ª": 6960,
      "à¤ķà¤Łà¤¨": 6961,
      "à¤Ĩà¤Īà¤ĵ": 6962,
      "304": 6963,
      "à¤ªà¤ļà¤¯": 6964,
      "à¤µà¤°à¤ľ": 6965,
      "à¤¸à¤¨à¤¸": 6966,
      "à¤®à¤¦à¤¯": 6967,
      "Ġ826": 6968,
      "à¤¨à¥ľ": 6969,
      "à¤²à¤Łà¤¨": 6970,
      "Ġà¤ĩà¤¦à¤²": 6971,
      "Ġà¤ĺà¤¡à¤µ": 6972,
      "à¤°à¤¦à¤°à¤¹": 6973,
      "Ġà¤Łà¤ķà¤Łà¤ķ": 6974,
      "à¤Ĩà¤ªà¤¤": 6975,
      "Ġ775": 6976,
      "Ġà¤Ĺà¤£à¤µ": 6977,
      "à¤¯à¤ħà¤®": 6978,
      "à¤¤à¤°à¤ĺ": 6979,
      "Ġà¤ıà¤Łà¤ķ": 6980,
      "à¤ķà¤°à¤°": 6981,
      "à¤¶à¤¨à¤Ĺà¤°": 6982,
      "Ġà¥«à¥¦à¥¦": 6983,
      "Ġà¤¬à¤Łà¤µ": 6984,
      "à¤°à¤µà¤¡": 6985,
      "Ġ840": 6986,
      "Ġà¤ľà¤²à¤ĺà¤°": 6987,
      "à¤ªà¤¦à¤£": 6988,
      "à¤°à¤®à¤¤": 6989,
      "à¤ªà¤Ľ": 6990,
      "à¤²à¤ķà¤¡": 6991,
      "à¤ľà¤¬à¤°": 6992,
      "Ġà¤®à¤²à¤ĸ": 6993,
      "Ġà¤ħà¤¨à¤Ľ": 6994,
      "Ġà¤ħà¤ªà¤Ń": 6995,
      "à¤ĩà¤Łà¤®": 6996,
      "Ġ22000": 6997,
      "à¤Ĺà¤°à¤¹": 6998,
      "Ġ200607": 6999,
      "à¤ķà¤®à¤Ĺà¥Ŀ": 7000,
      "Ġà¤µà¤Ĺà¤³à¤¤": 7001,
      "à¥§à¥Ń": 7002,
      "Ġà¤Ĩà¤Īà¤Ĩà¤°": 7003,
      "à¤²à¤ĩ": 7004,
      "à¥įà¤Ĥà¤¿": 7005,
      "Ġ580": 7006,
      "Ġ455": 7007,
      "Ġ820": 7008,
      "à¥įà¥ĩ": 7009,
      "à¤¨à¤ĩ": 7010,
      "Ġà¤¡à¤ķà¤µà¤°": 7011,
      "à¤²à¤µà¤ķ": 7012,
      "à¤¤à¤¨à¤°": 7013,
      "Ġà¤ĩà¤¨à¤ªà¤°": 7014,
      "à¥Ĥà¤¼": 7015,
      "à¤ĩà¤¸à¤¬": 7016,
      "Ġà¤§à¤¸": 7017,
      "à¤°à¤£à¤¨": 7018,
      "à¤®à¤«à¤°": 7019,
      "à¤¬à¤Ĺà¤¦": 7020,
      "Ġ1914": 7021,
      "105": 7022,
      "Ġ452": 7023,
      "Ġà¤Ĩà¤ľà¤¹": 7024,
      "Ġà¤¹à¤ı": 7025,
      "Ġ3100": 7026,
      "à¤¨à¤ķà¤µ": 7027,
      "à¤¨à¤µà¤£": 7028,
      "Ġà¤Ĩà¤Īà¤ıà¤®à¤¡": 7029,
      "à¤ķà¤²à¤¶": 7030,
      "08": 7031,
      "Ġ427": 7032,
      "à¥ľà¤Ĺà¥Ŀ": 7033,
      "à¤¦à¤¨à¤ķà¤°": 7034,
      "à¤ļà¤®à¤ķ": 7035,
      "à¤¤à¤ķà¤°à¤£": 7036,
      "Ġà¤ħà¤¨à¤ªà¥Ŀ": 7037,
      "Ġ825": 7038,
      "Ġ465": 7039,
      "Ġà¤īà¤¬à¤²à¤¨": 7040,
      "à¤īà¤²à¤Ł": 7041,
      "Ġà¤¹à¤°à¤®à¤¨": 7042,
      "Ġà¤ıà¥ľ": 7043,
      "Ġà¤ĵà¤µà¤°à¤«": 7044,
      "Ġ434": 7045,
      "à¤ıà¤ķà¤ıà¤ķ": 7046,
      "Ġ351": 7047,
      "Ġ358": 7048,
      "Ġà¤¥à¤ķà¤¬": 7049,
      "Ġà¤§à¤¨à¤¦": 7050,
      "à¤Łà¤ķà¤¨": 7051,
      "à¤Ĩà¤¯à¤¤": 7052,
      "Ġà¤ķà¤¨à¤µ": 7053,
      "Ġà¤®à¤°à¤¹": 7054,
      "Ġà¤ľà¤¨à¤¸à¤®à¤¸": 7055,
      "à¥¦à¥¨": 7056,
      "1997": 7057,
      "Ġà¤®à¤¨à¤Ń": 7058,
      "Ġà¤Īà¤µà¤¨": 7059,
      "à¤°à¤Ĺà¤£": 7060,
      "Ġ599": 7061,
      "Ġà¤ıà¤®à¤Ĩà¤¯à¤¡": 7062,
      "Ġà¤µà¤·": 7063,
      "Ġ1111": 7064,
      "à¤²à¤µà¤²à¤ķà¤°": 7065,
      "à¤¸à¤ķà¤²": 7066,
      "Ġà¤«à¤¬": 7067,
      "à¤¸à¤¬à¤¹": 7068,
      "à¤¯à¤¦à¤¨": 7069,
      "Ġ2112": 7070,
      "à¤ªà¤°à¤¬": 7071,
      "Ġ444": 7072,
      "à¤²à¤Ĩà¤īà¤Ł": 7073,
      "Ġ1922": 7074,
      "Ġà¤Ĭà¤¹": 7075,
      "à¤ķà¤¹à¤®": 7076,
      "Ġà¤¶à¤®à¤¸": 7077,
      "à¤ªà¤°à¤ª": 7078,
      "Ġ815": 7079,
      "Ġà¥¨à¥¯": 7080,
      "à¤¸à¤Īà¤¦": 7081,
      "Ġ8500": 7082,
      "Ġà¤ĩà¤¤à¤µ": 7083,
      "Ġà¤µà¤°à¤£": 7084,
      "à¤°à¤¹à¤¤": 7085,
      "Ġ517": 7086,
      "Ġà¤ķà¤«à¤¨": 7087,
      "Ġà¤¬à¤¦à¤²à¤²": 7088,
      "Ġ404": 7089,
      "Ġà¤ıà¤ļà¤ıà¤¸à¤¬": 7090,
      "à¤Ĩà¤Īà¤ıà¤«": 7091,
      "Ġà¤®à¤°à¤¦": 7092,
      "à¥Ľà¤°à¤¤": 7093,
      "à¤ıà¤¸à¤ıà¤¸à¤ıà¤Ĩà¤Ī": 7094,
      "Ġà¤ĸà¤Ĺà¤¡": 7095,
      "à¤¬à¤Īà¤ļ": 7096,
      "Ġ513": 7097,
      "Ġ1923": 7098,
      "Ġ1350": 7099,
      "Ġà¤ľà¤Ĺà¤ª": 7100,
      "Ġà¤Ĩà¤¹à¤°à¤£": 7101,
      "Ġà¤¤à¤°à¤¨à¤¤": 7102,
      "à¤ħà¤ªà¤ĺ": 7103,
      "à¤¯à¤Ńà¤Ł": 7104,
      "Ġà¤Ĩà¤Īà¤ıà¤¸à¤¬": 7105,
      "Ġà¤®à¥ĺ": 7106,
      "Ġà¤¤à¤²à¤¤": 7107,
      "à¤¸à¤ķà¤¡": 7108,
      "Ġà¤µà¤¦": 7109,
      "à¤īà¤«": 7110,
      "à¤ľà¤¸à¤¤": 7111,
      "à¤ķà¤¬à¤§": 7112,
      "Ġà¤Ĺà¤Ĺà¤¨à¤ļ": 7113,
      "à¤¨à¤®à¤°": 7114,
      "Ġ58000": 7115,
      "Ġà¤¥à¤²à¤Ĺ": 7116,
      "à¤Ĩà¤Īà¤Ĩà¤°à¤¸": 7117,
      "Ġ6070": 7118,
      "Ġà¥¨à¥¦à¥¦": 7119,
      "à¤Ĺà¤²à¤¯": 7120,
      "Ġ524": 7121,
      "à¤ĳà¤¯à¤²": 7122,
      "à¤Łà¤¨à¤Ĺà¤°": 7123,
      "Ġà¤¸à¤¹à¤ķà¤²": 7124,
      "Ġà¤ıà¤¨à¤ıà¤¨": 7125,
      "Ġà¤ķà¤¦à¤®à¤¤": 7126,
      "Ġà¤īà¤Ľà¤²à¤¤": 7127,
      "06": 7128,
      "à¤°à¤¤à¤Ń": 7129,
      "203": 7130,
      "à¤ıà¤ļà¤Ĩà¤°": 7131,
      "Ġà¤²à¤²à¤ļ": 7132,
      "à¤°à¤¸à¤¹": 7133,
      "Ġà¤ĵà¤¤": 7134,
      "Ġà¤ĩà¤ĸ": 7135,
      "Ġà¤ªà¤¤à¤°": 7136,
      "à¤²à¤¨à¤µ": 7137,
      "Ġà¤¹à¤²à¤¬": 7138,
      "Ġà¤īà¤ĩà¤Ĺà¤°": 7139,
      "Ġà¤¡à¤®à¤°": 7140,
      "Ġà¤ľà¤¨à¤¶": 7141,
      "Ġà¤ªà¤ŀ": 7142,
      "à¤µà¤ªà¤ķ": 7143,
      "à¤ľà¤°à¤ª": 7144,
      "à¤ıà¤«à¤ıà¤®à¤¸": 7145,
      "à¤¯à¤°à¤ķ": 7146,
      "Ġ1617": 7147,
      "à¤²à¤ļà¤¨": 7148,
      "à¤īà¤ªà¤µ": 7149,
      "Ġà¥®à¥¦": 7150,
      "Ġà¤Ŀà¤Łà¤ªà¤Ł": 7151,
      "à¤¤à¤®à¤¹": 7152,
      "Ġà¤ĳà¤«à¤¶": 7153,
      "Ġà¤īà¤Ĺà¤²à¤¨": 7154,
      "Ġ865": 7155,
      "à¤®à¤¦à¤°à¤¸": 7156,
      "Ġà¤ıà¤Ĩà¤°à¤Ł": 7157,
      "à¤«à¤²à¤¸": 7158,
      "Ġà¤¤à¤°à¤¨": 7159,
      "Ġà¤ľà¤¨à¤ļ": 7160,
      "1200": 7161,
      "Ġà¤¥à¤°à¤¥à¤°": 7162,
      "à¥§à¥§": 7163,
      "à¤ĩà¤Łà¤¸": 7164,
      "Ġ368": 7165,
      "Ġ1905": 7166,
      "Ġà¤ľà¤¨à¤Ĩ": 7167,
      "Ġ202021": 7168,
      "Ġ359": 7169,
      "à¥ģà¥ħ": 7170,
      "Ġ1314": 7171,
      "à¤£à¤ķà¤Ł": 7172,
      "Ġà¤ķà¤¹à¤²à¤µ": 7173,
      "Ġà¤Ĳà¤¹à¤¤": 7174,
      "Ġà¤¸à¤«à¤²à¤¤à¤®": 7175,
      "Ġ1918": 7176,
      "Ġà¤Ĭà¤īà¤®": 7177,
      "2022": 7178,
      "à¤®à¤¶à¤°à¤£": 7179,
      "Ġà¤ħà¤²à¤ľ": 7180,
      "Ġà¤ĵà¤¯": 7181,
      "Ġà¤¤à¤²à¤ķ": 7182,
      "à¥Įà¥¤": 7183,
      "à¤®à¤¶à¤¤": 7184,
      "à¤¬à¤ľà¤²": 7185,
      "à¤ıà¤²à¤¯": 7186,
      "Ġà¤Ĭà¤Ł": 7187,
      "07": 7188,
      "Ġà¤ķà¤Łà¤¹à¤²": 7189,
      "Ġ331": 7190,
      "à¤¸à¤®à¤²": 7191,
      "Ġà¤Ĩà¤¦à¤¤à¤¨": 7192,
      "Ġà¤ıà¤Ĩà¤Īà¤¬": 7193,
      "Ġà¤ļà¤¯": 7194,
      "Ġà¤Ĺà¤°à¤¦à¤¨": 7195,
      "à¤¦à¤µà¤ª": 7196,
      "à¥¦à¥ª": 7197,
      "à¥ĩà¤¾à¤Ĥ": 7198,
      "à¤¸à¤¤à¤°": 7199,
      "Ġà¤¯à¥ĺ": 7200,
      "Ġ740": 7201,
      "à¤īà¤·": 7202,
      "à¤²à¤¤à¤®": 7203,
      "Ġ915": 7204,
      "1994": 7205,
      "!!!": 7206,
      "à¤¸à¤°à¤«à¤°": 7207,
      "Ġà¤ĩà¤¨à¤²": 7208,
      "Ġà¤¬à¤¥": 7209,
      "à¤ħà¤£": 7210,
      "Ġà¤®à¤ķà¤¸": 7211,
      "à¤Ĥà¥į": 7212,
      "Ġà¤¤à¤²à¤¨": 7213,
      "Ġà¤ķà¤°à¤£à¤µ": 7214,
      "Ġà¥Ļà¤¯": 7215,
      "à¤ªà¤°à¤¦": 7216,
      "Ġà¤ĩà¤µà¤¨": 7217,
      "Ġ1933": 7218,
      "Ġà¤ıà¤®à¤ıà¤¸à¤ķ": 7219,
      "à¤Ĥà¥Ģ": 7220,
      "à¤µà¤²à¤ľ": 7221,
      "à¤²à¥Ľ": 7222,
      "Ġà¤ħà¤°à¤¦": 7223,
      "Ġà¤®à¤°à¤²": 7224,
      "à¥ľà¤¯": 7225,
      "à¤¾!!": 7226,
      "à¤¯à¤°à¤Ł": 7227,
      "à¤¥à¤²à¤Ĺà¤¡": 7228,
      "à¤°à¤µà¤ª": 7229,
      "Ġà¤Łà¤ļà¤¸": 7230,
      "à¤·à¤£à¤ķ": 7231,
      "Ġ200405": 7232,
      "à¤¸à¤°à¤¬": 7233,
      "Ġ501": 7234,
      "Ġ471": 7235,
      "à¤Ĺà¤Ŀ": 7236,
      "Ġà¤īà¤°à¤²": 7237,
      "Ġà¤ªà¤łà¤¨à¤ª": 7238,
      "à¤²à¤ļà¤°": 7239,
      "à¤Łà¤¤à¤®": 7240,
      "Ġ1080": 7241,
      "à¤°à¤¬à¤ļà¤¨": 7242,
      "Ġà¤Ĺà¤łà¤°": 7243,
      "à¤ıà¤¥": 7244,
      "Ġà¤Ĩà¤ĩà¤¬": 7245,
      "Ġ291": 7246,
      "à¤Īà¤Ĩà¤°à¤¸": 7247,
      "à¤¸à¤¹à¤¸": 7248,
      "à¤Ĺà¤ľà¤¬": 7249,
      "à¥Ĥ!": 7250,
      "à¤³à¤µà¤³": 7251,
      "Ġà¤ıà¤ľà¤¬": 7252,
      "Ġà¤Łà¤«": 7253,
      "Ġà¤ļà¤ķà¤¬": 7254,
      "Ġ367": 7255,
      "Ġà¤ľà¤Ĺà¤¤à¤ª": 7256,
      "Ġ670": 7257,
      "à¤ªà¤ķà¤¨": 7258,
      "Ġà¤®à¤ķà¤²": 7259,
      "à¤ªà¤Ń": 7260,
      "Ġà¤¦à¤ĸà¤²à¤ħ": 7261,
      "à¤¡à¤°à¤¤": 7262,
      "à¤ľà¤ªà¤ķà¤¡": 7263,
      "à¥Īà¥¤à¥¤": 7264,
      "à¤¡à¤²à¤µ": 7265,
      "Ġà¤ĺà¤¡à¤¤": 7266,
      "Ġà¤¹à¥ľà¤¬à¥ľ": 7267,
      "Ġà¤ľà¤«": 7268,
      "Ġà¤¸à¤¬à¤ľ": 7269,
      "Ġà¤ľà¤¯à¤ļ": 7270,
      "Ġà¤Ĺà¤¡à¤¬à¤¡": 7271,
      "Ġà¤«à¤°à¤¸": 7272,
      "Ġà¤¬à¤²à¤Ĺà¤®": 7273,
      "Ġà¤ľà¤ªà¤¤": 7274,
      "Ġ1910": 7275,
      "à¥Ļà¤¬à¤°": 7276,
      "Ġà¤°à¤¤à¤¨à¤ª": 7277,
      "Ġà¤®à¤²à¤ª": 7278,
      "Ġà¤¸à¤ŀ": 7279,
      "Ġà¤Ĩà¤°à¤ıà¤«": 7280,
      "à¤łà¤ľ": 7281,
      "Ġà¥¨à¥¦à¥§à¥¬": 7282,
      "à¤¸à¤³à¤§": 7283,
      "à¤¯à¤¨à¤Ĺà¤°": 7284,
      "à¤²à¤µà¤¨": 7285,
      "Ġà¤ıà¤¨à¤ıà¤¸à¤¡": 7286,
      "à¤ļà¤²à¤®": 7287,
      "à¤ķà¤Łà¤ķ": 7288,
      "à¤Ĭà¤¨à¤¹": 7289,
      "à¥ĭà¤Ĥà¥ĩ": 7290,
      "Ġà¤ĺà¤°à¤¦": 7291,
      "Ġà¤ıà¤¸à¤ıà¤ļ": 7292,
      "Ġ409": 7293,
      "à¤®à¤ħà¤ª": 7294,
      "à¤¾à¤ģ!": 7295,
      "Ġ735": 7296,
      "Ġà¤ķà¤ķà¤¡": 7297,
      "Ġà¤¸à¤«à¤¦à¤°": 7298,
      "Ġ070": 7299,
      "Ġà¤ıà¤«à¤Ĩà¤Īà¤ª": 7300,
      "à¤ĵà¤¶": 7301,
      "à¤²à¤ķà¤°à¤¤": 7302,
      "à¤¡à¤ĩà¤¨": 7303,
      "Ġà¤ķà¤®à¤¬à¤ĸ": 7304,
      "à¤¸à¤²à¤¬": 7305,
      "Ġ1750": 7306,
      "à¤ĩà¤ķà¤¬": 7307,
      "Ġà¤Ĩà¤Īà¤Ĩà¤°à¤ıà¤¸": 7308,
      "201617": 7309,
      "Ġ357": 7310,
      "Ġ1008": 7311,
      "|à¥Ģ": 7312,
      "à¤µà¤ªà¤¤": 7313,
      "à¤°à¤µà¤¸": 7314,
      "Ġà¥¨à¥¦à¥§à¥«": 7315,
      "à¤ıà¤ĵ": 7316,
      "Ġ3400": 7317,
      "Ġà¥ł": 7318,
      "à¤ıà¤¸à¤Ĩà¤Īà¤Ĩà¤°": 7319,
      "Ġ490": 7320,
      "Ġà¤īà¤ªà¤µà¤¨": 7321,
      "à¤ıà¤²à¤ıà¤Ł": 7322,
      "Ġ3800": 7323,
      "Ġ612": 7324,
      "à¤ķà¤ĸ": 7325,
      "à¤Ĩà¤Īà¤ĵà¤¸": 7326,
      "à¤ıà¤²à¤ıà¤¡": 7327,
      "Ġà¤ĵà¤¨à¤°": 7328,
      "Ġà¤¹à¤°à¤¯": 7329,
      "à¤ľà¤¬à¤¬": 7330,
      "à¤ľà¤¬à¤¹": 7331,
      "Ġ1916": 7332,
      "Ġà¤¸à¤¨à¤¦": 7333,
      "Ġà¤Ĩà¤Ĩ": 7334,
      "Ġà¤ıà¤ļà¤¬": 7335,
      "Ġ1926": 7336,
      "Ġà¤īà¤ªà¤§": 7337,
      "Ġà¤ıà¤²à¤ķ": 7338,
      "175": 7339,
      "à¤¶à¤¹à¤¨": 7340,
      "Ġ699": 7341,
      "Ġ90000": 7342,
      "114": 7343,
      "Ġà¤Ĺà¤¨à¤°": 7344,
      "à¤Ĩà¤¦à¤¤": 7345,
      "à¤ķà¤²à¤¹": 7346,
      "à¤¬à¤²à¤ķ": 7347,
      "Ġà¤¬à¤¦à¤²à¤£": 7348,
      "Ġà¤µà¤°à¤®": 7349,
      "à¤¦à¤¨à¤µ": 7350,
      "à¤®à¤¦à¤ª": 7351,
      "à¤Ľà¤¤à¤°à¤ª": 7352,
      "à¤Ĺà¤°à¤Ĺ": 7353,
      "à¤Ĩà¥Ľ": 7354,
      "à¤¡à¤ķà¤°à¤µ": 7355,
      "à¤®à¤Łà¤¤": 7356,
      "Ġà¤ķà¤°à¤¯": 7357,
      "à¤¨à¥Ľà¤°": 7358,
      "Ġà¤Ĩà¤¥": 7359,
      "à¤¾à¥¢": 7360,
      "à¥Ĥà¤Ĥ|": 7361,
      "à¤īà¤ªà¤¦": 7362,
      "350": 7363,
      "à¤¡à¤°à¤¬": 7364,
      "320": 7365,
      "Ġà¤ħà¤¨à¤¬": 7366,
      "Ġà¤¶à¤ķà¤°": 7367,
      "à¤°à¤ķà¤µ": 7368,
      "Ġà¤ĩà¤¨à¤¦": 7369,
      "Ġà¤¹à¤¥à¤ķà¤¡": 7370,
      "Ġ402": 7371,
      "Ġà¤Ĩà¤Īà¤ıà¤®à¤Ł": 7372,
      "à¤®à¤¨à¤¨": 7373,
      "à¤°à¤ªà¤¡": 7374,
      "111": 7375,
      "Ġ1210": 7376,
      "à¥¨à¥«": 7377,
      "Ġà¤¶à¤µà¤¯": 7378,
      "Ġ362": 7379,
      "Ġà¤Łà¤°à¤ķ": 7380,
      "Ġà¤¸à¤¹à¤ħà¤¸": 7381,
      "Ġà¤ĩà¤¨à¤¹": 7382,
      "à¤¬à¤²à¤¦": 7383,
      "à¤Ĩà¤°à¤Ĩà¤°à¤¬": 7384,
      "Ġ347": 7385,
      "Ġà¤ıà¤ıà¤®à¤¸": 7386,
      "à¤¨à¤µà¤°à¤¹": 7387,
      "à¤¦à¤Ī": 7388,
      "à¤Ĳà¤¨": 7389,
      "Ġ835": 7390,
      "201718": 7391,
      "à¤¤à¤²à¤¬": 7392,
      "à¤¬à¤°à¤¹": 7393,
      "Ġ527": 7394,
      "Ġ387": 7395,
      "Ġà¤¸à¤µà¤²à¤¤": 7396,
      "Ġà¤¤à¤¦à¤°": 7397,
      "Ġà¤ıà¤¸à¤ıà¤¨à¤¬": 7398,
      "à¤¹à¤ı": 7399,
      "Ġ060": 7400,
      "à¥įà¤¿à¤¾": 7401,
      "Ġ522": 7402,
      "à¤ªà¤¶à¤ª": 7403,
      "Ġà¤µà¤¨à¤ķ": 7404,
      "Ġà¤Łà¤ķà¤¸": 7405,
      "à¤Ĩà¤Īà¤Ĩà¤Īà¤ıà¤®": 7406,
      "à¤§à¤Ń": 7407,
      "Ġà¤¸à¤ľà¤¦": 7408,
      "Ġà¤Ńà¤Łà¤ķà¤²": 7409,
      "Ġà¤ªà¤²à¤¤": 7410,
      "1970": 7411,
      "à¤ķà¤¸à¤¨": 7412,
      "Ġà¤Ķà¤Ł": 7413,
      "Ġà¤Īà¤ıà¤®à¤ıà¤¸": 7414,
      "Ġà¤¨à¤µà¤°à¤¤": 7415,
      "Ġ371": 7416,
      "Ġ389": 7417,
      "à¤Łà¤¬à¤¨": 7418,
      "à¤¬à¤µà¤²": 7419,
      "à¤Ĩà¤¯à¤Ł": 7420,
      "à¤¤à¤ķà¤£": 7421,
      "à¥įà¤¾à¤¾": 7422,
      "à¤¨à¤ªà¤¸": 7423,
      "Ġà¤²à¤ķà¤®à¤²": 7424,
      "Ġ1915": 7425,
      "à¤ıà¤¨à¤ıà¤¸à¤¸": 7426,
      "à¤Īà¤ħ": 7427,
      "Ġà¤ļà¤ķà¤¤": 7428,
      "Ġ388": 7429,
      "Ġà¤µà¤²à¤¸": 7430,
      "Ġà¤¹à¤°à¤²": 7431,
      "à¤ĳà¤ª": 7432,
      "Ġ372": 7433,
      "à¤łà¤¬": 7434,
      "à¤Ĺà¤°à¤²": 7435,
      "Ġà¤¦à¤®à¤¦à¤®": 7436,
      "Ġà¤īà¤²à¤®": 7437,
      "Ġ7080": 7438,
      "à¤¦à¤®à¤¨": 7439,
      "Ġ523": 7440,
      "Ġ875": 7441,
      "Ġà¤§à¤¨à¤ªà¤¤": 7442,
      "Ġà¤¡à¤¹": 7443,
      "Ġà¤ĩà¤«à¤ķ": 7444,
      "à¤Ńà¤°à¤¤à¤ª": 7445,
      "à¤ªà¤«": 7446,
      "Ġà¤ĵà¤®à¤¨": 7447,
      "Ġà¤®à¥Ŀ": 7448,
      "à¤¹à¤²à¤µ": 7449,
      "Ġà¤ıà¤®à¤ıà¤¨": 7450,
      "à¤ħà¤«à¤¸": 7451,
      "Ġà¤ļà¤²à¤ļ": 7452,
      "à¤ĩà¤Łà¤µ": 7453,
      "Ġà¤ıà¤®à¤ıà¤¨à¤ıà¤¸": 7454,
      "à¤¸à¤¨à¤¦": 7455,
      "Ġà¤ķà¤²à¤µ": 7456,
      "Ġà¤īà¤¦à¤¯à¤Ń": 7457,
      "Ġà¤ķà¤£à¤ķà¤µà¤²": 7458,
      "à¤¬à¤¹à¤²": 7459,
      "Ġà¤Ĺà¤ªà¤¶à¤ª": 7460,
      "à¤ĩà¤®à¤°à¤ľ": 7461,
      "à¤Ńà¤ľ": 7462,
      "Ġà¤¯à¤®à¤¦": 7463,
      "Ġà¤¹à¤®à¤¦": 7464,
      "Ġà¤ľà¤Ĺà¤¨à¤®": 7465,
      "Ġà¤Ńà¤¡à¤ķ": 7466,
      "Ġà¤ļà¤°à¤£à¤¦": 7467,
      "Ġà¤ĸà¤°à¤ķ": 7468,
      "Ġà¤ķà¤ĩ": 7469,
      "Ġ920": 7470,
      "Ġ374": 7471,
      "Ġ378": 7472,
      "à¥ģà¤¿": 7473,
      "Ġ714": 7474,
      "à¤²à¤¤à¤°": 7475,
      "Ġà¤²à¤Ĺà¤¯": 7476,
      "Ġà¤ıà¤¸à¤ıà¤²": 7477,
      "Ġà¤ħà¤ªà¤¤": 7478,
      "Ġà¤Ĩà¤¬à¤°": 7479,
      "à¤¸à¤°à¤µ": 7480,
      "Ġ780": 7481,
      "à¤Ĩà¤°à¤Ĩà¤Īà¤ıà¤²": 7482,
      "à¤¸à¤®à¤¨": 7483,
      "à¤®à¤¤à¤¤": 7484,
      "Ġ4800": 7485,
      "à¤°à¤Ńà¤ľ": 7486,
      "Ġ1145": 7487,
      "Ġà¤ªà¤Łà¤ķà¤¨": 7488,
      "à¥īà¥°": 7489,
      "Ġà¤ıà¤«à¤Ĩà¤Īà¤ıà¤ļ": 7490,
      "Ġà¤¶à¤¹à¤°à¤¯": 7491,
      "Ġà¤ħà¤²à¤ķà¤¨": 7492,
      "Ġà¤ľà¥Ľ": 7493,
      "à¤ħà¤«à¤µ": 7494,
      "Ġà¥¨à¥¦à¥§à¥§": 7495,
      "Ġà¤®à¤²à¤¤": 7496,
      "à¤Ĩà¤°à¤¯": 7497,
      "à¤Ńà¤Ĺà¤µà¤¤": 7498,
      "à¥ĩà¥Ģ": 7499,
      "Ġà¤ĩà¤¦à¤°": 7500,
      "Ġà¤Ńà¤ľà¤¨à¤ķ": 7501,
      "Ġà¤¸à¤°à¤ªà¤Ł": 7502,
      "Ġà¤¢à¤µà¤³": 7503,
      "Ġ3700": 7504,
      "à¤¸à¤®à¤¯à¤¸à¤®à¤¯": 7505,
      "Ġà¤¬à¤²à¤®": 7506,
      "Ġà¤²à¤¢à¤£": 7507,
      "à¤¯à¤²à¤¸": 7508,
      "Ġà¤īà¤¬à¤²à¤¤": 7509,
      "Ġà¤¨à¤µà¤īà¤¦": 7510,
      "Ġ1718": 7511,
      "Ġà¤ħà¤Łà¤µ": 7512,
      "à¥¨à¥©": 7513,
      "Ġ1045": 7514,
      "à¤¬à¤µà¤£": 7515,
      "Ġà¤Łà¤ªà¤°": 7516,
      "Ġà¤®à¤¤à¤®": 7517,
      "Ġà¤ıà¤®à¤Ī": 7518,
      "à¤ķà¤ķà¤¥": 7519,
      "à¤ĸà¤³": 7520,
      "Ġà¤ħà¤®à¤°à¤¸": 7521,
      "Ġ382": 7522,
      "à¤Ĩà¤ķà¤°": 7523,
      "Ġà¤¹à¤®à¤¶à¤ķ": 7524,
      "Ġ940": 7525,
      "Ġà¤ľà¤³": 7526,
      "Ġà¤ħà¤²à¤¹à¤¦": 7527,
      "Ġà¤Īà¤Ĺ": 7528,
      "à¤¾à¥ĭà¤Ĥ": 7529,
      "Ġà¤Ĩà¤ĵà¤Ĺ": 7530,
      "Ġà¤¡à¤°à¤¬à¤¨": 7531,
      "Ġ2110": 7532,
      "Ġà¤¨à¥Ľà¤°à¤ħ": 7533,
      "Ġà¤¬à¤Ľà¥ľ": 7534,
      "à¤Ĩà¤·": 7535,
      "Ġà¤Īà¤Ĺà¤µà¤°": 7536,
      "Ġà¤ıà¤®à¤°à¤ľ": 7537,
      "à¤µà¤¹à¤¤": 7538,
      "à¥¦à¥¬": 7539,
      "à¤ļà¤ľà¤¨": 7540,
      "à¥Ľà¤«": 7541,
      "à¤¯à¤µà¤ķ": 7542,
      "à¤¦à¤¨à¤ķ": 7543,
      "Ġ386": 7544,
      "à¤²à¥ľ": 7545,
      "Ġà¤Ĩà¤¡à¤®": 7546,
      "à¤ľà¤µà¤°": 7547,
      "Ġà¤Ĺà¤¨à¤®": 7548,
      "Ġà¤ļà¤³à¤µà¤³": 7549,
      "à¤¼à¥ĩà¤ĥ": 7550,
      "Ġà¥¨à¥¦à¥§à¥¯": 7551,
      "||": 7552,
      "Ġà¤īà¤ľà¤¨": 7553,
      "Ġà¤¦à¤®à¤ķà¤²à¤ķà¤°": 7554,
      "à¤²à¤µà¤¤": 7555,
      "à¤ıà¤¨à¤µ": 7556,
      "Ġà¤ķà¤¶à¤®à¤ķà¤¶": 7557,
      "Ġà¤ķà¤¨à¤«": 7558,
      "Ġ855": 7559,
      "à¤£à¤ĺ": 7560,
      "à¤Ĺà¤¤à¤ª": 7561,
      "à¤§à¤¨à¤µ": 7562,
      "Ġà¤Ńà¤¯à¤®": 7563,
      "192": 7564,
      "à¤µà¤²à¤¨à¤¶": 7565,
      "à¤Ĺà¤¨à¤Ĩà¤°": 7566,
      "à¤ªà¤²à¤ķ": 7567,
      "à¥¦à¥Ń": 7568,
      "Ġà¤ĺà¤°à¤ķ": 7569,
      "à¤Ĺà¤¡à¤©": 7570,
      "Ġ401": 7571,
      "Ġà¤ıà¤ļà¤ıà¤®à¤Ł": 7572,
      "à¤§à¤ķà¤¤": 7573,
      "Ġà¤Ĩà¤°à¤ı": 7574,
      "à¤ķà¤°à¤ľ": 7575,
      "Ġà¤ıà¤¸à¤Ĩà¤ĩà¤Ł": 7576,
      "à¥ľà¤ļ": 7577,
      "à¤²à¤¦à¤°à¤¸": 7578,
      "à¤®à¤ļà¤°à¤£": 7579,
      "Ġ398": 7580,
      "Ġ645": 7581,
      "Ġà¤ĵà¤µà¤°à¤¹": 7582,
      "Ġ2111": 7583,
      "à¤§à¤®à¤¤à¤°": 7584,
      "à¤²à¤ªà¤ķ": 7585,
      "Ġà¤Ĩà¤Ĺà¤®": 7586,
      "Ġ485": 7587,
      "à¤¯à¤®à¤°": 7588,
      "à¤Ĩà¤®à¤ļ": 7589,
      "Ġ1820": 7590,
      "Ġà¤¸à¤ľà¤²": 7591,
      "101": 7592,
      "Ġ760": 7593,
      "Ġ448": 7594,
      "à¤¯à¤°à¤¨à¤®": 7595,
      "Ġ516": 7596,
      "Ġà¤®à¤¤à¤ª": 7597,
      "à¤ĭà¤ļ": 7598,
      "5000": 7599,
      "~~": 7600,
      "à¤«à¤«": 7601,
      "Ġà¤ĵà¤³à¤ĸà¤²": 7602,
      "Ġà¤«à¤ĸ": 7603,
      "Ġ518": 7604,
      "à¤Ĺà¤®à¤ª": 7605,
      "Ġà¤Ĩà¤¯à¤µ": 7606,
      "à¤¶à¤®à¤¶": 7607,
      "à¤¸à¤ļà¤®": 7608,
      "à¤®à¤°à¤¨à¤ľ": 7609,
      "Ġà¤Ĥà¤¿": 7610,
      "à¤ıà¤®à¤ıà¤ļ": 7611,
      "à¤¹à¤¨à¤¸": 7612,
      "Ġà¤ªà¤°à¤µà¤°à¤¦": 7613,
      "à¤Łà¤ķà¤ļà¤¹à¤°": 7614,
      "à¤īà¤¨à¤¹": 7615,
      "Ġ1090": 7616,
      "Ġ26000": 7617,
      "à¤ķà¤°à¤Ĺ": 7618,
      "à¤ĸà¤°à¤¡": 7619,
      "à¤ħà¤µà¤¸": 7620,
      "à¤²à¤°à¤¹": 7621,
      "à¤ıà¤Ĩà¤ľà¤®": 7622,
      "Ġà¤¸à¤°à¤µà¤¨": 7623,
      "Ġà¤ħà¤¬à¤²": 7624,
      "Ġà¤Ĩà¤ĩà¤Ĩà¤ĩà¤Ł": 7625,
      "Ġ1908": 7626,
      "à¤īà¤²à¤¹à¤ķ": 7627,
      "Ġà¤§à¥ľà¤²": 7628,
      "à¤¹à¤°à¤®à¤¨à¤ª": 7629,
      "Ġà¤Ŀà¤ķ": 7630,
      "à¤µà¤¤à¤°": 7631,
      "Ġ1850": 7632,
      "à¤ĸà¤Ĺ": 7633,
      "Ġà¤²à¥ľà¤ĸà¥ľ": 7634,
      "Ġà¤ľà¤²à¤¯": 7635,
      "à¤ıà¤ıà¤®": 7636,
      "Ġà¤ıà¤²à¤ıà¤¸": 7637,
      "à¥ļà¤®": 7638,
      "à¤Ĭà¤¥": 7639,
      "à¥ģà¤¾": 7640,
      "à¤ľà¤°à¤¬à¤¸à¤°": 7641,
      "à¤¶à¤²à¤ķ": 7642,
      "Ġà¤ļà¤ķà¤²": 7643,
      "Ġà¤¨à¤ĸ": 7644,
      "à¤²à¤§à¤¨": 7645,
      "Ġà¤²à¤ĩà¤ķ": 7646,
      "Ġà¤ķà¤¬à¤°": 7647,
      "Ġ880": 7648,
      "à¤°à¤§à¤°à¤ª": 7649,
      "à¥¦à¥«": 7650,
      "Ġà¤®à¤²à¤¨": 7651,
      "Ġà¤īà¤¬à¤Łà¤¨": 7652,
      "Ġà¥«à¥«": 7653,
      "Ġà¤Ĩà¤Īà¤Ĩà¤°à¤¬": 7654,
      "Ġà¤°à¤£à¤ķ": 7655,
      "à¤ħà¤¬à¤ķ": 7656,
      "à¤°à¤¬à¤ķ": 7657,
      "à¤īà¤¬à¤°": 7658,
      "à¤Ĺà¤¨à¤°": 7659,
      "à¤ıà¤²à¤Īà¤¡": 7660,
      "Ġ1819": 7661,
      "Ġà¤ıà¤¨à¤Ĩà¤°à¤ıà¤ļà¤ıà¤®": 7662,
      "Ġà¤¨à¤Ń": 7663,
      "1975": 7664,
      "Ġà¤ıà¤ı": 7665,
      "à¤¤à¤¤à¤®": 7666,
      "Ġà¤ıà¤ıà¤«": 7667,
      "à¥Ĥà¤Ĥ!": 7668,
      "à¤µà¤Łà¤²": 7669,
      "Ġà¤ľà¤®à¤ĺà¤Ł": 7670,
      "Ġ713": 7671,
      "Ġà¤¹à¤ĩ": 7672,
      "à¤ľà¤ľà¤ª": 7673,
      "Ġà¤Ĩà¤Īà¤¶": 7674,
      "113": 7675,
      "Ġ464": 7676,
      "Ġà¤¬à¤¨à¤ķ": 7677,
      "Ġà¤¬à¤²à¤µà¤¤": 7678,
      "Ġà¤ªà¤µà¤Ī": 7679,
      "Ġà¤Ĺà¥Ľà¤²": 7680,
      "à¤ıà¤Łà¤²": 7681,
      "à¤°à¤¨à¤µ": 7682,
      "à¤¤à¤®à¤¨": 7683,
      "Ġà¤ķà¤¨à¤µà¤°": 7684,
      "Ġà¤ĩà¤®à¤°à¤¤": 7685,
      "à¤¿à¤¼à¤Ĥ": 7686,
      "Ġà¤Ĩà¤Ĺà¤¬à¤¬": 7687,
      "à¤°à¤Ĩà¤¤": 7688,
      "à¤¬à¤¦à¤°": 7689,
      "Ġà¤ªà¤ļà¤¡": 7690,
      "Ġà¤µà¤°à¤µà¤§": 7691,
      "à¤¹à¤¤à¤°à¤®": 7692,
      "Ġà¤ľà¤¯à¤¸à¤µ": 7693,
      "145": 7694,
      "Ġà¤ľà¤°à¤¨à¤²": 7695,
      "Ġà¤¹à¤¡à¤¤": 7696,
      "Ġ728": 7697,
      "Ġà¤¯à¤µà¤¤à¤®": 7698,
      "Ġ690": 7699,
      "Ġà¤Ĭà¤ļ": 7700,
      "Ġ373": 7701,
      "à¤Łà¤°à¤µà¤°": 7702,
      "Ġ443": 7703,
      "à¤īà¥ľ": 7704,
      "Ġà¤Ĭà¤§à¤®": 7705,
      "Ġà¥¨à¥¦à¥§à¥©": 7706,
      "1962": 7707,
      "à¤ķà¤ªà¤Ł": 7708,
      "Ġ392": 7709,
      "Ġà¤ªà¤¢à¤ķà¤°": 7710,
      "Ġà¤ĺà¤°à¤«": 7711,
      "Ġà¤ĩà¤°à¥ŀ": 7712,
      "à¤µà¤ªà¤¨": 7713,
      "Ġà¤ĵà¤Ĺ": 7714,
      "à¥ĩà¤¼à¤Ĥ": 7715,
      "Ġà¥Ńà¥«": 7716,
      "à¤ļà¤°à¤¨": 7717,
      "Ġà¤ļà¤µà¤¨": 7718,
      "Ġà¤Łà¤ªà¤ķà¤¨": 7719,
      "à¤¹à¤Ĺà¥Ŀ": 7720,
      "Ġà¤ľà¤¯à¤ľà¤¯à¤ķ": 7721,
      "à¤¤à¤ıà¤ĩà¤¸": 7722,
      "195": 7723,
      "Ġ555": 7724,
      "Ġà¤ıà¤¸à¤ıà¤®à¤ĵ": 7725,
      "à¤ıà¤¸à¤¨": 7726,
      "Ġà¤Ĩà¤Īà¤ıà¤²à¤Ĳ": 7727,
      "Ġà¤¦à¤¸à¤¬": 7728,
      "Ġ369": 7729,
      "Ġ383": 7730,
      "Ġà¤ľà¤¯à¤¨à¤Ĺà¤°": 7731,
      "à¤¨à¤¤à¤²": 7732,
      "Ġà¤¬à¤¢à¥ĺà¤°": 7733,
      "à¤ıà¤¨à¤ıà¤¸à¤ıà¤¸": 7734,
      "à¤ķà¤§à¤°": 7735,
      "à¤¸à¤¹à¤®": 7736,
      "à¤Īà¤Ĩà¤Ī": 7737,
      "à¤Īà¤Ĩà¤°": 7738,
      "Ġà¤ĵà¤Ĩà¤Īà¤¸": 7739,
      "à¤ķà¤Ľ": 7740,
      "Ġà¤ıà¤ļà¤ıà¤®": 7741,
      "Ġà¤ķà¤¦à¤®à¤ķ": 7742,
      "à¤ķà¤Ĺà¤£": 7743,
      "à¤¸à¤¥": 7744,
      "à¤°à¤¤à¤°à¤¤": 7745,
      "à¤Ĩà¤¢": 7746,
      "Ġà¤¬à¤²à¤¶": 7747,
      "à¤¹à¤®à¤¦": 7748,
      "116": 7749,
      "Ġ423": 7750,
      "Ġà¤¤à¤Ĺ": 7751,
      "Ġà¤ħà¤§à¤ľà¤²": 7752,
      "Ġà¤ľà¤Ĺà¤µ": 7753,
      "Ġ463": 7754,
      "à¤µà¤ĸ": 7755,
      "à¤°à¤¦à¤ķ": 7756,
      "à¤Ĺà¤²à¤ĸ": 7757,
      "Ġà¤ľà¤¦à¤ıà¤¸": 7758,
      "Ġà¤ľà¤¨à¤ªà¤ķ": 7759,
      "à¤Łà¤ħà¤¨": 7760,
      "à¤¶à¤ħà¤ª": 7761,
      "à¤Łà¤°à¤µà¤²": 7762,
      "à¥Ī!!": 7763,
      "à¤ľà¤²à¤¸": 7764,
      "à¤®à¤°à¤ľ": 7765,
      "Ġ438": 7766,
      "Ġ724": 7767,
      "à¤²à¤®à¤¡": 7768,
      "Ġà¥¨à¥¯à¥": 7769,
      "Ġ396": 7770,
      "à¤¸à¤ıà¤ĩà¤¤": 7771,
      "Ġà¤ĵà¥ľ": 7772,
      "à¤ıà¤ļà¤ıà¤«à¤ıà¤²": 7773,
      "à¤ħà¤¨à¤¶à¤¨": 7774,
      "à¤ľà¤¨à¤¸à¤®": 7775,
      "à¤²à¤ļà¤ķ": 7776,
      "Ġà¤ĸà¤¨à¤ķ": 7777,
      "Ġà¤Ĩà¤Īà¤Ĩà¤°à¤ľ": 7778,
      "Ġà¤ľà¤¬à¤¤à¤¬": 7779,
      "à¤²à¤¬à¤ļ": 7780,
      "128": 7781,
      "à¤¹à¤µà¤¨": 7782,
      "à¤®à¤°à¤¤à¤¨": 7783,
      "Ġà¥©à¥®": 7784,
      "Ġà¤¦à¤Ĺà¤¡à¤«": 7785,
      "à¤°à¤ıà¤ķ": 7786,
      "Ġà¤Ĭà¤īà¤¨": 7787,
      "Ġà¤¨à¥ĺà¤²": 7788,
      "à¤¸à¥ľ": 7789,
      "Ġà¤²à¤·": 7790,
      "à¤Łà¤°à¤¨à¤°": 7791,
      "Ġà¤Ĩà¤Īà¤ıà¤¸à¤ıà¤¸à¤ıà¤«": 7792,
      "à¥Įà¥Ī": 7793,
      "Ġ528": 7794,
      "Ġà¤©": 7795,
      "à¤Ńà¤ķà¤°à¤£": 7796,
      "103": 7797,
      "Ġà¥¯à¥¦": 7798,
      "à¤«à¤Ĺà¤µ": 7799,
      "Ġ015": 7800,
      "à¤ªà¤¹à¤¸": 7801,
      "Ġà¤ªà¤°à¤°": 7802,
      "à¤°à¤ķà¤£": 7803,
      "Ġà¤¬à¥ľà¤ķ": 7804,
      "Ġ1860": 7805,
      "Ġà¤ķà¤Łà¤ª": 7806,
      "à¤ĩà¤Łà¤²à¤°": 7807,
      "Ġà¤ªà¤°à¤Ńà¤£": 7808,
      "Ġà¤Ĩà¤¨à¤°": 7809,
      "Ġà¤°à¤ķà¤¬à¤°": 7810,
      "à¤®à¤¥à¤¨": 7811,
      "Ġà¤Ńà¤Ĺà¤¨": 7812,
      "à¤ıà¤ļà¤ı": 7813,
      "104": 7814,
      "à¥Ļà¤²": 7815,
      "Ġà¤¨à¤ĩà¤ĸ": 7816,
      "à¤®à¤²à¤¬": 7817,
      "à¤ıà¤ļà¤ıà¤²": 7818,
      "à¤¿à¤Ĥà¥į": 7819,
      "Ġà¤Ĩà¤Īà¤ıà¤ıà¤«": 7820,
      "Ġ394": 7821,
      "à¤ıà¤¨à¤ıà¤²à¤¡": 7822,
      "à¤ıà¤«à¤ıà¤ķ": 7823,
      "à¤°à¤¶à¤ķ": 7824,
      "à¤¡à¤µà¤£": 7825,
      "à¤¯à¤ķà¤®": 7826,
      "Ġà¤µà¤Łà¤µ": 7827,
      "Ġà¤Ńà¤·": 7828,
      "à¤ķà¤²à¤ķà¤¤": 7829,
      "Ġà¤¡à¤¡": 7830,
      "Ġ726": 7831,
      "à¤ĵà¤ªà¤¨à¤°": 7832,
      "Ġà¤Łà¤°à¤¬": 7833,
      "à¤Ĺà¤§à¤°": 7834,
      "à¤Łà¤ªà¤°": 7835,
      "à¤Ĺà¤®à¤¯": 7836,
      "1949": 7837,
      "à¤µà¤¨à¤²": 7838,
      "235": 7839,
      "Ġà¤¬à¤ľà¤¹": 7840,
      "à¤¶à¤ªà¤¤": 7841,
      "Ġ1913": 7842,
      "Ġ925": 7843,
      "Ġà¤®à¤¦à¤¨à¤ª": 7844,
      "à¤¦à¤¯à¤°": 7845,
      "Ġà¤Ĩà¤ķà¥ľ": 7846,
      "à¤ĩà¤ĵ": 7847,
      "à¤īà¤łà¤¨": 7848,
      "Ġ408": 7849,
      "Ġà¥¨à¥¦à¥§à¥¨": 7850,
      "Ġà¤ıà¤ħà¤°à¤ª": 7851,
      "à¤°à¤®à¤¹": 7852,
      "à¤²à¤¨à¤ķà¤°": 7853,
      "à¤³à¤®": 7854,
      "Ġà¥¬à¥«": 7855,
      "à¤³à¤ķà¤¤": 7856,
      "Ġ1115": 7857,
      "Ġà¤¨à¤Łà¤ĸà¤Ł": 7858,
      "Ġ5400": 7859,
      "Ġà¤ıà¤®à¤ıà¤®à¤Ł": 7860,
      "à¤īà¤¤à¤°": 7861,
      "à¤ıà¤®à¤ıà¤«": 7862,
      "1985": 7863,
      "Ġà¤ıà¤«à¤ıà¤¸à¤ıà¤¸à¤ıà¤Ĩà¤Ī": 7864,
      "à¤§à¤¨à¤¸": 7865,
      "Ġà¤Ĩà¤µà¤·": 7866,
      "Ġà¤ħà¤ĩà¤¸à¤¨": 7867,
      "Ġà¤¬à¤¨à¤¸": 7868,
      "Ġà¤ħà¤Ĺà¤²à¤¬à¤Ĺà¤²": 7869,
      "Ġ770": 7870,
      "à¤ĺà¥ľ": 7871,
      "Ġà¤ħà¤¸à¤°à¤ķ": 7872,
      "Ġ1907": 7873,
      "123": 7874,
      "Ġà¤¸à¤°à¤¬à¤¤": 7875,
      "à¤«à¤³": 7876,
      "117": 7877,
      "à¤Ĺà¤¨à¤²": 7878,
      "Ġà¤Ľà¤¹à¤¸": 7879,
      "Ġ529": 7880,
      "Ġà¤Ĩà¤µà¤¦": 7881,
      "à¤ıà¤ļà¤ıà¤«": 7882,
      "Ġà¤¬à¤¹à¤¨à¤ľ": 7883,
      "Ġà¤¤à¥ľà¤ªà¤¤": 7884,
      "Ġà¤¨à¤ľà¤«à¤Ĺà¤¢": 7885,
      "à¤²à¤¸à¤®": 7886,
      "à¤¸à¤¬à¤¨": 7887,
      "Ġ150000": 7888,
      "Ġà¤¨à¥ŀà¤°à¤¤": 7889,
      "à¤¨à¤µà¤Ń": 7890,
      "à¤ıà¤ķà¤®": 7891,
      "à¤µà¤²à¤ķà¤°": 7892,
      "Ġà¤Ŀà¤ªà¤Łà¤®": 7893,
      "à¤İ": 7894,
      "à¤ĺà¤¬à¤°": 7895,
      "Ġà¤ĵà¤ĸ": 7896,
      "à¤ĸà¤°à¤Ĺ": 7897,
      "Ġ424": 7898,
      "Ġà¤ıà¤ıà¤Ĩà¤Ī": 7899,
      "Ġà¤¸à¤ĺ": 7900,
      "à¥ĩà¥¤à¥¤": 7901,
      "Ġ1450": 7902,
      "à¥¦à¥®": 7903,
      "à¤¯à¤¨à¤®": 7904,
      "à¤Īà¤¨à¤²": 7905,
      "Ġ626": 7906,
      "Ġà¤ķà¤¡à¤µ": 7907,
      "à¤¯à¤ħ": 7908,
      "à¤®à¤®à¤§": 7909,
      "Ġà¤µà¤³à¤£": 7910,
      "Ġà¤ķà¤°à¤ľà¤Ī": 7911,
      "Ġà¤µà¤¹à¤®": 7912,
      "Ġà¤«à¤²à¤¸à¤¬": 7913,
      "à¤ªà¤°à¤Ł": 7914,
      "Ġ622": 7915,
      "Ġà¥¨à¥¦à¥¦à¥®": 7916,
      "à¤Ĩà¤ªà¤£": 7917,
      "à¤Łà¤ĺ": 7918,
      "à¤Ĺà¤²à¤Ĺ": 7919,
      "Ġà¤Ĭà¤ªà¤°à¤¨": 7920,
      "Ġà¤ħà¤¦à¤°": 7921,
      "à¤®à¤¤à¤µ": 7922,
      "Ġ590": 7923,
      "Ġà¤ķà¤£à¤ķà¤£": 7924,
      "Ġà¤«à¥ľà¤¨à¤µ": 7925,
      "Ġà¤¤à¥ľ": 7926,
      "Ġà¤ļà¤°à¤ķ": 7927,
      "à¤łà¤¯": 7928,
      "Ġà¤īà¤«à¤¨à¤¤": 7929,
      "Ġà¤¦à¤¶à¤®à¤²à¤µ": 7930,
      "Ġà¤¹à¤¸à¤®": 7931,
      "Ġà¤īà¤Ľà¤²à¤¨": 7932,
      "3000": 7933,
      "Ġà¤ļà¤¦": 7934,
      "à¤¸à¤ªà¤ļ": 7935,
      "1948": 7936,
      "Ġà¤²à¤Łà¤ķà¤ķà¤°": 7937,
      "à¤®à¤¬à¤¹": 7938,
      "à¥Īà¤¾": 7939,
      "Ġà¤ľà¤ªà¤¨": 7940,
      "à¥ģà¤Ĥà¤Ĥ": 7941,
      "à¤¤à¤¬à¤¦": 7942,
      "à¤ªà¤¸à¤®": 7943,
      "Ġà¤ħà¤¹à¤¹à¤¹": 7944,
      "Ġà¤µà¤¡à¤Ĺ": 7945,
      "Ġ799": 7946,
      "Ġà¤ªà¤Ļ": 7947,
      "Ġ4400": 7948,
      "à¤ĩà¤ıà¤Ĺ": 7949,
      "Ġà¤¤à¤®à¤¸": 7950,
      "1960": 7951,
      "Ġà¤ĳà¤µà¤°": 7952,
      "185": 7953,
      "à¤²à¤®à¤£": 7954,
      "à¤¯à¤ħà¤¤": 7955,
      "à¤ıà¤¥à¤²": 7956,
      "Ġ777": 7957,
      "à¤ļà¤ªà¤¤": 7958,
      "à¤ħà¤²à¤®": 7959,
      "à¤Ĺà¤¤à¤¯": 7960,
      "Ġà¤Ĩà¤¸à¤ªà¤¡": 7961,
      "Ġà¤ħà¤²à¤«": 7962,
      "Ġà¤Ĺà¤Ĺà¤²": 7963,
      "Ġà¤Ĺà¤Łà¤ķ": 7964,
      "à¤®à¤ı": 7965,
      "à¤ĩà¤Łà¤¹": 7966,
      "Ġà¤¤à¤°à¤«à¤¦": 7967,
      "Ġ453": 7968,
      "à¤Īà¤Īà¤Ī": 7969,
      "Ġà¤Ĩà¤ĩà¤¶": 7970,
      "à¤Ĭà¤Ł": 7971,
      "Ġà¤¬à¤¸à¤ļ": 7972,
      "à¥Ģà¤¾": 7973,
      "Ġà¤īà¤¦à¤¯à¤µ": 7974,
      "à¤ħà¤¬à¤¤à¤ķ": 7975,
      "à¤¤à¤µà¤²": 7976,
      "à¤¡à¤ı": 7977,
      "à¤Ĺà¤¤à¤¤": 7978,
      "102018": 7979,
      "Ġ428": 7980,
      "à¤µà¤£à¤ķ": 7981,
      "à¤¯à¤¡à¤°": 7982,
      "à¤¬à¤¦à¤¨": 7983,
      "Ġà¤ľà¤³à¤Ĺ": 7984,
      "à¤°à¤¤à¤Ł": 7985,
      "Ġà¤ľà¤Ĺà¤¦à¤®": 7986,
      "Ġ494": 7987,
      "Ġà¤ħà¤®à¤¨à¤ļ": 7988,
      "à¤Łà¤ĸà¤¸": 7989,
      "à¤Ĺà¤ľà¤Ĺà¤¤": 7990,
      "à¤ªà¤°à¤¶": 7991,
      "à¤ıà¤ıà¤®à¤¯": 7992,
      "à¤ĺà¤ª": 7993,
      "Ġà¤µà¤¨à¤ķà¤°": 7994,
      "Ġà¤¦à¤®à¤£": 7995,
      "à¤ĩà¤²à¤Ł": 7996,
      "Ġà¤Ĩà¤łà¤¦à¤¸": 7997,
      "à¤ľà¤¨à¤¸à¤¤": 7998,
      "Ġà¤¬à¤Ļ": 7999,
      "à¥Ģà¥¤à¥¤": 8000,
      "à¤Ĩà¤Īà¤ıà¤®à¤ıà¤¸": 8001,
      "Ġà¤ķà¤²à¤°à¤«": 8002,
      "Ġà¤ļà¤¹à¤ķ": 8003,
      "à¤¶à¤¹à¤ľ": 8004,
      "Ġ860": 8005,
      "Ġà¤Ĩà¤łà¤µà¤£": 8006,
      "Ġ442": 8007,
      "Ġà¤īà¤¬à¤°à¤¤": 8008,
      "Ġà¤¹à¤°à¤¹à¤°": 8009,
      "Ġ616": 8010,
      "Ġ1906": 8011,
      "Ġà¤Ĺà¤³à¤«": 8012,
      "à¤¶à¤Ĺà¤µ": 8013,
      "à¤§à¤ĺ": 8014,
      "à¤ľà¤¨à¤ķà¤°": 8015,
      "Ġ628": 8016,
      "Ġà¤īà¤ĸà¥ľ": 8017,
      "à¤²à¤ķà¤µ": 8018,
      "à¤°à¤¬à¤¦": 8019,
      "Ġ432": 8020,
      "à¤°à¤¤à¤¸": 8021,
      "à¥ĥà¥į": 8022,
      "1986": 8023,
      "Ġ457": 8024,
      "Ġ624": 8025,
      "à¥¦à¥©": 8026,
      "à¤ĵà¤Ĩà¤°": 8027,
      "Ġà¤®à¤¨à¤®à¤¸": 8028,
      "Ġà¤¸à¤°à¤ķà¤°": 8029,
      "Ġ447": 8030,
      "Ġ9999": 8031,
      "Ġà¤ıà¤¯à¤°à¤¹": 8032,
      "Ġ200000": 8033,
      "à¤µà¤®à¤§": 8034,
      "Ġà¤µà¤§à¤µ": 8035,
      "à¤¡à¤µà¤²": 8036,
      "Ġà¤Ĺà¤£à¤Ĺ": 8037,
      "1983": 8038,
      "Ġ36000": 8039,
      "Ġà¤łà¤¸à¤ķ": 8040,
      "Ġ502": 8041,
      "à¤ľà¤ķà¤²": 8042,
      "Ġà¤ĸà¤²à¤¤": 8043,
      "Ġà¤Ĩà¤µà¤Ńà¤Ĺà¤¤": 8044,
      "Ġà¤ħà¤ªà¤¹à¤°": 8045,
      "Ġà¤īà¤ķà¤²": 8046,
      "Ġà¤Ĩà¤ľà¤ļ": 8047,
      "Ġà¤Īà¤«": 8048,
      "à¤Łà¤Ĺà¤°": 8049,
      "à¤§à¤ļ": 8050,
      "Ġà¤łà¤¸": 8051,
      "Ġà¤ıà¤¸à¤Īà¤ľ": 8052,
      "Ġà¥§à¥¯à¥ªà¥Ń": 8053,
      "à¤¸à¤¨à¤µ": 8054,
      "Ġà¤ıà¤¸à¤ıà¤²à¤Ĩà¤°": 8055,
      "à¤¡à¤Ń": 8056,
      "Ġ474": 8057,
      "à¤¨à¤¦à¤¸": 8058,
      "Ġà¤īà¤ļà¤²à¤²": 8059,
      "à¤¨à¤¥": 8060,
      "Ġà¤Ĩà¤ĩà¤«": 8061,
      "Ġà¤ħà¤¨à¤®à¤¨": 8062,
      "Ġ623": 8063,
      "à¤¸à¤¤à¤¦": 8064,
      "Ġà¤īà¤ªà¤¸à¤ļ": 8065,
      "à¤¤à¤Ĺà¤¢": 8066,
      "à¤¼à¥ħ": 8067,
      "Ġà¤ĵà¤µà¤°à¤Ĩà¤²": 8068,
      "à¤¯à¤·": 8069,
      "Ġà¤ľà¤®à¤²": 8070,
      "Ġà¤ħà¤²à¤¨": 8071,
      "Ġà¤ķà¤Łà¤²": 8072,
      "Ġà¤ĸà¤¬": 8073,
      "à¤®à¤ļà¤²": 8074,
      "182": 8075,
      "Ġà¤īà¤¡à¤©": 8076,
      "à¤Ĩà¤ľà¤®à¤Ĺà¥Ŀ": 8077,
      "Ġà¤°à¤ļà¤ķà¤°": 8078,
      "Ġ790": 8079,
      "Ġà¤Ĵ": 8080,
      "à¤°à¤¤à¤Ĺ": 8081,
      "Ġ1909": 8082,
      "à¤ĩà¤ķà¤¨": 8083,
      "à¤īà¤°à¤ķ": 8084,
      "Ġ4600": 8085,
      "Ġà¤¹à¤Łà¤ķ": 8086,
      "à¤ľà¤¯à¤®": 8087,
      "Ġà¤Ĩà¤Ĩà¤Ĩ": 8088,
      "à¤ľà¤¬à¤¸": 8089,
      "Ġà¤®à¤ĺ": 8090,
      "à¤®à¤°à¤¹": 8091,
      "Ġà¤ıà¤¨à¤ıà¤¬": 8092,
      "Ġ980": 8093,
      "Ġ68500": 8094,
      "à¥ģ!": 8095,
      "à¤¬à¤ĺ": 8096,
      "Ġà¤Ĳà¤¬": 8097,
      "à¤²à¤ķà¤ªà¤°": 8098,
      "à¤®à¤Łà¤¨": 8099,
      "Ġà¤ļà¤ªà¤Ł": 8100,
      "Ġ27000": 8101,
      "Ġà¤¹à¤°à¤¦à¤¯": 8102,
      "Ġà¤µà¤¸à¤Ī": 8103,
      "à¤²à¤®à¤ĸ": 8104,
      "Ġà¤¸à¤°à¤¦à¤°": 8105,
      "à¤¢à¤ļ": 8106,
      "à¤¸à¤ıà¤²": 8107,
      "à¤ĺà¤ķà¤°": 8108,
      "Ġà¤¶à¥Ļ": 8109,
      "à¤ĩà¤¨à¤ħà¤ª": 8110,
      "à¤ĸà¤°à¤ĸ": 8111,
      "Ġà¤ıà¤ıà¤«à¤¸": 8112,
      "Ġ1650": 8113,
      "Ġà¤ıà¤®à¤ĵ": 8114,
      "Ġà¤®à¤ķà¤Ī": 8115,
      "Ġ429": 8116,
      "Ġà¤®à¤¡à¤Ĺ": 8117,
      "Ġ935": 8118,
      "Ġà¤¬à¤¬à¤¨": 8119,
      "à¤ľà¤²à¤ķ": 8120,
      "à¤µà¤Łà¤ĸ": 8121,
      "Ġà¤ıà¤²à¤ıà¤²à¤ıà¤®": 8122,
      "à¤ıà¤ļà¤Ĩà¤°à¤Ł": 8123,
      "Ġ456": 8124,
      "à¤¨à¤£": 8125,
      "à¤«à¤®": 8126,
      "122019": 8127,
      "Ġ614": 8128,
      "Ġ1121": 8129,
      "à¤¦à¤¯à¤µ": 8130,
      "134": 8131,
      "Ġà¤¬à¤ĩ": 8132,
      "Ġ729": 8133,
      "Ġ3030": 8134,
      "Ġà¤®à¤Łà¤®": 8135,
      "Ġà¤ħà¤µà¤¦": 8136,
      "Ġ990": 8137,
      "à¤®à¤¨à¤Ĺ": 8138,
      "Ġà¤§à¤¨à¤ª": 8139,
      "Ġà¤Ĩà¤ļà¤®à¤¨": 8140,
      "Ġ28000": 8141,
      "à¥Ĥà¥ħ": 8142,
      "à¤¯à¤ķà¤¨": 8143,
      "Ġà¤īà¤¦à¤¦": 8144,
      "Ġà¥ªà¥¨": 8145,
      "Ġà¤Ĺà¤³à¤¤": 8146,
      "à¤µà¤ľà¤µ": 8147,
      "à¤¨à¤·": 8148,
      "Ġ451": 8149,
      "Ġ482": 8150,
      "Ġ1901": 8151,
      "Ġà¤Ĺà¥Ŀà¤¨": 8152,
      "Ġà¤īà¤°à¤Ī": 8153,
      "à¤ľà¤¶à¤ª": 8154,
      "à¤¯à¤Ĺà¤£": 8155,
      "à¤µà¤ªà¤°": 8156,
      "à¤ªà¤Łà¤²": 8157,
      "à¤°à¤ĵ": 8158,
      "à¤ıà¤²à¤ıà¤¸": 8159,
      "Ġ200506": 8160,
      "Ġ361": 8161,
      "Ġ55000": 8162,
      "à¤ķà¤«à¤°": 8163,
      "à¤¹à¥ľà¤¤": 8164,
      "à¤ľà¤¯à¤²à¤ķ": 8165,
      "à¤¼à¤¾à¤ģ": 8166,
      "Ġà¤¨à¤°à¤¹à¤°": 8167,
      "124": 8168,
      "à¤Ŀà¤Łà¤ķ": 8169,
      "Ġà¤Ńà¤°à¤¤à¤¨": 8170,
      "à¥ĩà¥ĩà¥¤": 8171,
      "à¤Ńà¤°à¤£": 8172,
      "Ġà¥Ļà¤¤à¤®": 8173,
      "Ġà¥¨à¥¦à¥¦à¥¯": 8174,
      "à¤¯à¤¸à¤²": 8175,
      "Ġà¤¹à¥ľà¤ªà¤¨": 8176,
      "Ġà¤ħà¤¹à¤¦": 8177,
      "à¤Ńà¤¹": 8178,
      "Ġ711": 8179,
      "à¤ķà¤¨à¤ª": 8180,
      "Ġ2900": 8181,
      "Ġà¤®à¤Ĺà¤¹à¤°": 8182,
      "à¤ħà¤²à¤¸": 8183,
      "Ġà¤µà¤¨à¤°à¤ķ": 8184,
      "à¤¾à¥ĭ": 8185,
      "Ġà¤ªà¤°à¤¸à¤°": 8186,
      "à¤³à¤¨": 8187,
      "Ġ393": 8188,
      "à¤µà¤ķà¤²": 8189,
      "à¤Īà¤ĸ": 8190,
      "Ġà¤ĸà¤°à¤µ": 8191,
      "à¤¸à¤®à¤ķ": 8192,
      "Ġà¤®à¤¦à¤®à¤¸": 8193,
      "Ġ542": 8194,
      "Ġà¤Ĩà¤°à¤ıà¤¸à¤ª": 8195,
      "à¤ĸà¤°à¤¬": 8196,
      "à¤ľà¤¨à¤Ĺà¤£à¤¨": 8197,
      "à¥ļà¤°": 8198,
      "Ġà¤Ĩà¤°à¤ıà¤²à¤ıà¤¸à¤ª": 8199,
      "à¤«à¤ľà¤Ī": 8200,
      "Ġà¤ħà¤¬à¤¦": 8201,
      "Ġ458": 8202,
      "Ġà¤ĩà¥ŀ": 8203,
      "à¤Ĺà¤°à¤ľ": 8204,
      "à¤¯à¤ªà¤°à¤ķ": 8205,
      "Ġà¤ħà¤Łà¤²à¤¬": 8206,
      "Ġà¤ıà¤®à¤Ĩà¤Īà¤Ł": 8207,
      "Ġà¤ªà¤ªà¤°": 8208,
      "Ġà¤¨à¤¹à¤¸": 8209,
      "Ġà¤ıà¤¡à¤µà¤°à¤Ł": 8210,
      "à¤²à¤°à¤µ": 8211,
      "à¤Łà¤¸à¤°": 8212,
      "Ġà¤Īà¤Ĺà¤²": 8213,
      "Ġà¤ıà¤²à¤ĵà¤¯": 8214,
      "à¤¦à¤µà¤²": 8215,
      "à¤°à¤®à¤¬à¤¦": 8216,
      "Ġà¤µà¤°à¤µà¤°": 8217,
      "Ġà¥ľ": 8218,
      "à¤¹à¤®à¤¶à¤µ": 8219,
      "à¤·à¤¯à¤µ": 8220,
      "Ġ1893": 8221,
      "à¤ĩà¤¨à¤ļ": 8222,
      "Ġ1897": 8223,
      "Ġà¤¦à¤®à¤ķà¤¤": 8224,
      "Ġà¤Ĩà¤Īà¤ıà¤¸à¤ĵ": 8225,
      "à¤¨à¤Ĺà¤¨": 8226,
      "à¤®à¤¨à¤ľ": 8227,
      "à¤ĺà¤Łà¤ķ": 8228,
      "Ġ3540": 8229,
      "à¤ªà¤²à¤°": 8230,
      "à¤¢à¤ķà¤°": 8231,
      "Ġ4045": 8232,
      "132": 8233,
      "à¥ĩà¥¥": 8234,
      "Ġ1818": 8235,
      "Ġ433": 8236,
      "201819": 8237,
      "à¤ľà¤ľà¤¨": 8238,
      "à¤¦à¤¨à¤ªà¤¤": 8239,
      "à¤¨à¤¨à¤Ĺà¤°": 8240,
      "Ġà¤Ĭà¤ĸ": 8241,
      "Ġà¤Ĩà¤²à¤®à¤Ĺ": 8242,
      "à¥Įà¤Ĥà¥¤": 8243,
      "Ġ32000": 8244,
      "à¤¢à¤¦": 8245,
      "Ġà¤ıà¤¨à¤ı": 8246,
      "à¤Ĺà¤®à¤Ń": 8247,
      "Ġ65000": 8248,
      "Ġà¤¬à¥ļ": 8249,
      "à¤®à¤²à¤¯": 8250,
      "Ġà¤®à¤«à¤²à¤°": 8251,
      "Ġà¤Łà¤²à¤¨": 8252,
      "Ġ899": 8253,
      "à¤ľà¤®à¤§": 8254,
      "Ġ619": 8255,
      "Ġà¤ªà¤ķà¤¤": 8256,
      "Ġ960": 8257,
      "Ġ426": 8258,
      "Ġ476": 8259,
      "Ġ1025": 8260,
      "Ġà¥¨à¥¦à¥§à¥¦": 8261,
      "à¥Īà¤Ĥà¤ĥ": 8262,
      "à¤§à¤°à¤ķà¤°": 8263,
      "Ġ381": 8264,
      "Ġà¤ªà¤¥à¤Ń": 8265,
      "à¤Ĺà¤µà¤²": 8266,
      "Ġà¤¸à¤¬à¤µ": 8267,
      "Ġ717": 8268,
      "à¥Ľà¤µ": 8269,
      "à¤Ĩà¤Īà¤ıà¤®à¤ı": 8270,
      "Ġà¤¦à¤¹à¤¶à¤¤à¤µ": 8271,
      "Ġà¤ķà¤°à¤®à¤ļ": 8272,
      "Ġà¤Ĺà¤Īà¤²": 8273,
      "à¤Ĳà¤¬": 8274,
      "à¤ļà¤ªà¥ľà¤¤": 8275,
      "Ġà¤¶à¤Ĺà¤²": 8276,
      "Ġà¤§à¥ľà¤ķ": 8277,
      "à¤¹à¤®à¤®": 8278,
      "Ġà¤ľà¤µà¤³à¤ļ": 8279,
      "Ġà¤ķà¤¦à¤ķ": 8280,
      "Ġà¤ķà¤°à¤ľ": 8281,
      "Ġà¤¶à¤¯": 8282,
      "Ġ421": 8283,
      "Ġà¤ļà¤²à¤ħà¤ļà¤²": 8284,
      "à¤Ĺà¤°à¤®à¤Ĭ": 8285,
      "à¤Ĺà¤°à¤¨": 8286,
      "Ġà¤¹à¤°à¤ļ": 8287,
      "Ġà¤«à¤²à¤Łà¤£": 8288,
      "Ġà¤¸à¤¨à¤¤": 8289,
      "à¤µà¤Ľà¤¤": 8290,
      "1988": 8291,
      "à¤ıà¤µà¤¢": 8292,
      "à¤ħà¤ł": 8293,
      "Ġà¤ıà¤ļà¤ĵà¤¡": 8294,
[...]
