{
  "version": "1.0",
  "truncation": null,
  "padding": null,
  "added_tokens": [],
  "normalizer": null,
  "pre_tokenizer": {
    "type": "ByteLevel",
    "add_prefix_space": false,
    "trim_offsets": true,
    "use_regex": true
  },
  "post_processor": {
    "type": "ByteLevel",
    "add_prefix_space": true,
    "trim_offsets": false,
    "use_regex": true
  },
  "decoder": {
    "type": "ByteLevel",
    "add_prefix_space": true,
    "trim_offsets": true,
    "use_regex": true
  },
  "model": {
    "type": "BPE",
    "dropout": null,
    "unk_token": null,
    "continuing_subword_prefix": "",
    "end_of_word_suffix": "",
    "fuse_unk": false,
    "byte_fallback": false,
    "vocab": {
      "!": 0,
      "\"": 1,
      "#": 2,
      "$": 3,
      "%": 4,
      "&": 5,
      "'": 6,
      "(": 7,
      ")": 8,
      "*": 9,
      "+": 10,
      ",": 11,
      "-": 12,
      ".": 13,
      "/": 14,
      "0": 15,
      "1": 16,
      "2": 17,
      "3": 18,
      "4": 19,
      "5": 20,
      "6": 21,
      "7": 22,
      "8": 23,
      "9": 24,
      ":": 25,
      ";": 26,
      "<": 27,
      "=": 28,
      ">": 29,
      "?": 30,
      "@": 31,
      "A": 32,
      "B": 33,
      "C": 34,
      "D": 35,
      "E": 36,
      "F": 37,
      "G": 38,
      "H": 39,
      "I": 40,
      "J": 41,
      "K": 42,
      "L": 43,
      "M": 44,
      "N": 45,
      "O": 46,
      "P": 47,
      "Q": 48,
      "R": 49,
      "S": 50,
      "T": 51,
      "U": 52,
      "V": 53,
      "W": 54,
      "X": 55,
      "Y": 56,
      "Z": 57,
      "[": 58,
      "\\": 59,
      "]": 60,
      "^": 61,
      "_": 62,
      "`": 63,
      "a": 64,
      "b": 65,
      "c": 66,
      "d": 67,
      "e": 68,
      "f": 69,
      "g": 70,
      "h": 71,
      "i": 72,
      "j": 73,
      "k": 74,
      "l": 75,
      "m": 76,
      "n": 77,
      "o": 78,
      "p": 79,
      "q": 80,
      "r": 81,
      "s": 82,
      "t": 83,
      "u": 84,
      "v": 85,
      "w": 86,
      "x": 87,
      "y": 88,
      "z": 89,
      "{": 90,
      "|": 91,
      "}": 92,
      "~": 93,
      "¡": 94,
      "¢": 95,
      "£": 96,
      "¤": 97,
      "¥": 98,
      "¦": 99,
      "§": 100,
      "¨": 101,
      "©": 102,
      "ª": 103,
      "«": 104,
      "¬": 105,
      "®": 106,
      "¯": 107,
      "°": 108,
      "±": 109,
      "²": 110,
      "³": 111,
      "´": 112,
      "µ": 113,
      "¶": 114,
      "·": 115,
      "¸": 116,
      "¹": 117,
      "º": 118,
      "»": 119,
      "¼": 120,
      "½": 121,
      "¾": 122,
      "¿": 123,
      "À": 124,
      "Á": 125,
      "Â": 126,
      "Ã": 127,
      "Ä": 128,
      "Å": 129,
      "Æ": 130,
      "Ç": 131,
      "È": 132,
      "É": 133,
      "Ê": 134,
      "Ë": 135,
      "Ì": 136,
      "Í": 137,
      "Î": 138,
      "Ï": 139,
      "Ð": 140,
      "Ñ": 141,
      "Ò": 142,
      "Ó": 143,
      "Ô": 144,
      "Õ": 145,
      "Ö": 146,
      "×": 147,
      "Ø": 148,
      "Ù": 149,
      "Ú": 150,
      "Û": 151,
      "Ü": 152,
      "Ý": 153,
      "Þ": 154,
      "ß": 155,
      "à": 156,
      "á": 157,
      "â": 158,
      "ã": 159,
      "ä": 160,
      "å": 161,
      "æ": 162,
      "ç": 163,
      "è": 164,
      "é": 165,
      "ê": 166,
      "ë": 167,
      "ì": 168,
      "í": 169,
      "î": 170,
      "ï": 171,
      "ð": 172,
      "ñ": 173,
      "ò": 174,
      "ó": 175,
      "ô": 176,
      "õ": 177,
      "ö": 178,
      "÷": 179,
      "ø": 180,
      "ù": 181,
      "ú": 182,
      "û": 183,
      "ü": 184,
      "ý": 185,
      "þ": 186,
      "ÿ": 187,
      "Ā": 188,
      "ā": 189,
      "Ă": 190,
      "ă": 191,
      "Ą": 192,
      "ą": 193,
      "Ć": 194,
      "ć": 195,
      "Ĉ": 196,
      "ĉ": 197,
      "Ċ": 198,
      "ċ": 199,
      "Č": 200,
      "č": 201,
      "Ď": 202,
      "ď": 203,
      "Đ": 204,
      "đ": 205,
      "Ē": 206,
      "ē": 207,
      "Ĕ": 208,
      "ĕ": 209,
      "Ė": 210,
      "ė": 211,
      "Ę": 212,
      "ę": 213,
      "Ě": 214,
      "ě": 215,
      "Ĝ": 216,
      "ĝ": 217,
      "Ğ": 218,
      "ğ": 219,
      "Ġ": 220,
      "ġ": 221,
      "Ģ": 222,
      "ģ": 223,
      "Ĥ": 224,
      "ĥ": 225,
      "Ħ": 226,
      "ħ": 227,
      "Ĩ": 228,
      "ĩ": 229,
      "Ī": 230,
      "ī": 231,
      "Ĭ": 232,
      "ĭ": 233,
      "Į": 234,
      "į": 235,
      "İ": 236,
      "ı": 237,
      "Ĳ": 238,
      "ĳ": 239,
      "Ĵ": 240,
      "ĵ": 241,
      "Ķ": 242,
      "ķ": 243,
      "ĸ": 244,
      "Ĺ": 245,
      "ĺ": 246,
      "Ļ": 247,
      "ļ": 248,
      "Ľ": 249,
      "ľ": 250,
      "Ŀ": 251,
      "ŀ": 252,
      "Ł": 253,
      "ł": 254,
      "Ń": 255,
      "¤¾": 256,
      "à¤¾": 257,
      "¤ķ": 258,
      "à¤ķ": 259,
      "¤°": 260,
      "à¤°": 261,
      "¥ĩ": 262,
      "à¥ĩ": 263,
      "Ġà¤ķ": 264,
      "¥į": 265,
      "à¥į": 266,
      "¤¨": 267,
      "à¤¨": 268,
      "¥Ģ": 269,
      "à¥Ģ": 270,
      "¤¸": 271,
      "à¤¸": 272,
      "¤¿": 273,
      "à¤¿": 274,
      "¤Ĥ": 275,
      "à¤Ĥ": 276,
      "¤¹": 277,
      "à¤¹": 278,
      "¤®": 279,
      "à¤®": 280,
      "¤¤": 281,
      "à¤¤": 282,
      "¤²": 283,
      "à¤²": 284,
      "¥ĭ": 285,
      "à¥ĭ": 286,
      "¤ª": 287,
      "à¤ª": 288,
      "¤¯": 289,
      "à¤¯": 290,
      "Ġà¤¸": 291,
      "¤µ": 292,
      "à¤µ": 293,
      "¤¦": 294,
      "à¤¦": 295,
      "Ġà¤¹": 296,
      "¤ľ": 297,
      "à¤ľ": 298,
      "Ġà¤®": 299,
      "¤¬": 300,
      "à¤¬": 301,
      "¤Ĺ": 302,
      "à¤Ĺ": 303,
      "Ġà¤ª": 304,
      "¥Ī": 305,
      "à¥Ī": 306,
      "¥ģ": 307,
      "à¥ģ": 308,
      "à¥ĩà¤Ĥ": 309,
      "¤Ł": 310,
      "à¤Ł": 311,
      "Ġà¤¬": 312,
      "Ġà¤¨": 313,
      "¤¶": 314,
      "à¤¶": 315,
      "¤ı": 316,
      "à¤ı": 317,
      "¥¤": 318,
      "à¥¤": 319,
      "Ġà¤ľ": 320,
      "¤ļ": 321,
      "à¤ļ": 322,
      "¤ħ": 323,
      "à¤ħ": 324,
      "Ġà¤¦": 325,
      "Ġà¤ħ": 326,
      "¤Ń": 327,
      "à¤Ń": 328,
      "Ġà¤µ": 329,
      "Ġà¤°": 330,
      "Ġà¤²": 331,
      "¤¡": 332,
      "à¤¡": 333,
      "à¥ĭà¤Ĥ": 334,
      "¥Ĥ": 335,
      "à¥Ĥ": 336,
      "¤Ĩ": 337,
      "à¤Ĩ": 338,
      "¤ĩ": 339,
      "à¤ĩ": 340,
      "¤¥": 341,
      "à¤¥": 342,
      "Ġà¤Ĩ": 343,
      "¤ĸ": 344,
      "à¤ĸ": 345,
      "¤ī": 346,
      "à¤ī": 347,
      "Ġà¤¤": 348,
      "¤§": 349,
      "à¤§": 350,
      "Ġà¤ķà¤°": 351,
      "Ġà¤Ĺ": 352,
      "Ġà¤Ń": 353,
      "¤«": 354,
      "à¤«": 355,
      "Ġà¤ī": 356,
      "Ġà¤ĩ": 357,
      "¤·": 358,
      "à¤·": 359,
      "¤Ķ": 360,
      "à¤Ķ": 361,
      "Ġà¤Ķ": 362,
      "¤Ī": 363,
      "à¤Ī": 364,
      "Ġà¤Ķà¤°": 365,
      "Ġà¤ªà¤°": 366,
      "à¥Īà¤Ĥ": 367,
      "Ġà¤¯": 368,
      "¤¼": 369,
      "à¤¼": 370,
      "Ġà¤ļ": 371,
      "Ġà¤¶": 372,
      "Ġà¤ı": 373,
      "à¤¾à¤Ĥ": 374,
      "à¥Īà¥¤": 375,
      "¤£": 376,
      "à¤£": 377,
      "Ġà¤ĩà¤¸": 378,
      "Ġà¤¥": 379,
      "Ġà¤°à¤¹": 380,
      "Ġà¤ĸ": 381,
      "Ġà¤«": 382,
      "à¥Ģà¤Ĥ": 383,
      "¤Ľ": 384,
      "à¤Ľ": 385,
      "¥Į": 386,
      "à¥Į": 387,
      "à¤ķà¤°": 388,
      "à¤ªà¤¨": 389,
      "Ġà¤ıà¤ķ": 390,
      "à¤¾à¥¤": 391,
      "à¤°à¤¤": 392,
      "Ġà¤¨à¤¹": 393,
      "Ġà¤īà¤¨": 394,
      "Ġà¤¸à¤®": 395,
      "Ġà¤ķà¤¹": 396,
      "à¤¿à¤Ĥ": 397,
      "¥ī": 398,
      "à¥ī": 399,
      "Ġà¤Ł": 400,
      "¤ł": 401,
      "à¤ł": 402,
      "à¤°à¤ķ": 403,
      "Ġà¤ħà¤ªà¤¨": 404,
      "¤ĺ": 405,
      "à¤ĺ": 406,
      "Ġà¤ķà¤°à¤¨": 407,
      "Ġà¤¯à¤¹": 408,
      "Ġà¤¡": 409,
      "¤ĵ": 410,
      "à¤ĵ": 411,
      "Ġ1": 412,
      "Ġà¤īà¤¸": 413,
      "Ġà¤Ĺà¤¯": 414,
      "à¥Īà¤Ĥà¥¤": 415,
      "Ġ2": 416,
      "Ġà¤ªà¤¹": 417,
      "à¤¾,": 418,
      "Ġà¤Ĩà¤ª": 419,
      "à¤ķà¤¤": 420,
      "Ġà¤²à¤Ĺ": 421,
      "Ġà¤¬à¤¨": 422,
      "Ġà¤ĺ": 423,
      "à¥Ģà¥¤": 424,
      "à¥Ī.": 425,
      "à¤¤à¤°": 426,
      "Ġà¤ħà¤¨": 427,
      "à¤µà¤°": 428,
      "Ġà¤®à¤¹": 429,
      "à¤ľà¤¨": 430,
      "¥ĥ": 431,
      "à¥ĥ": 432,
      "Ġà¤¹à¤®": 433,
      "¤¢": 434,
      "à¤¢": 435,
      "à¤¯à¤ķ": 436,
      "¤Ŀ": 437,
      "à¤Ŀ": 438,
      "¥ľ": 439,
      "à¥ľ": 440,
      "à¥ĩà¥¤": 441,
      "à¤Łà¤°": 442,
      "Ġà¤µà¤¹": 443,
      "Ġà¤ħà¤§": 444,
      "Ġà¤Ľ": 445,
      "Ġ(": 446,
      "Ġà¤§": 447,
      "Ġà¤ķà¤°à¤¤": 448,
      "à¤¸à¤°": 449,
      "Ġà¤¸à¤ķà¤¤": 450,
      "à¤¹à¤°": 451,
      "à¤¶à¤¨": 452,
      "à¤Ĺà¤°": 453,
      "à¤°à¤¦": 454,
      "Ġà¤īà¤¨à¤ķ": 455,
      "à¥Ī,": 456,
      "à¤ĩà¤¸": 457,
      "Ġà¤¤à¤ķ": 458,
      "..": 459,
      "Ġà¤ªà¤¹à¤²": 460,
      "¤Ĳ": 461,
      "à¤Ĳ": 462,
      "à¤¼à¤¾": 463,
      "Ġà¤¤à¤°": 464,
      "à¤°à¤®": 465,
      "à¥Ģ,": 466,
      "à¤¾.": 467,
      "à¤¬à¤°": 468,
      "¤ģ": 469,
      "à¤ģ": 470,
      "Ġ20": 471,
      "à¤²à¤¨": 472,
      "Ġà¤ķà¤®": 473,
      "à¤²à¤¤": 474,
      "Ġà¤Ĳ": 475,
      "à¤¯à¤°": 476,
      "Ġà¤¸à¤°à¤ķ": 477,
      "Ġà¤Ĺà¤Ī": 478,
      "à¥ģà¤Ĥ": 479,
      "à¤ªà¤°": 480,
      "Ġà¤¬à¤¤": 481,
      "à¤°à¤£": 482,
      "Ġà¤µà¤°": 483,
      "à¤¨à¤ķ": 484,
      "à¤¯à¤®": 485,
      "Ġà¤ĩà¤¸à¤ķ": 486,
      "Ġà¤ľà¤¬": 487,
      "Ġà¤īà¤ª": 488,
      "Ġà¤¸à¤¬": 489,
      "Ġà¤īà¤¸à¤ķ": 490,
      "Ġà¤¬à¤¹": 491,
      "Ġà¤Ĩà¤ªà¤ķ": 492,
      "à¤¤à¤¨": 493,
      "Ġà¤ªà¤¤": 494,
      "Ġà¤Ĳà¤¸": 495,
      "à¤°à¤µ": 496,
      "à¤¼à¥Ģ": 497,
      "Ġà¤Ĩà¤¯": 498,
      "à¤°à¤¸": 499,
      "à¤®à¤²": 500,
      "à¤µà¤¨": 501,
      "à¤®à¤¨": 502,
      "Ġà¤Ĩà¤°": 503,
      "Ġà¤ħà¤¬": 504,
      "à¤Łà¤¨": 505,
      "Ġà¤Ĺà¤ı": 506,
      "Ġà¤°à¤ĸ": 507,
      "Ġà¤¸à¤¹": 508,
      "Ġà¤ĩà¤¨": 509,
      "00": 510,
      "Ġà¤¬à¤ļ": 511,
      "Ġà¤ħà¤²": 512,
      "à¤ľà¤°": 513,
      "à¤¸à¤²": 514,
      "à¥Ģ.": 515,
      "à¤¹à¤¤": 516,
      "Ġ3": 517,
      "Ġà¤ľà¤¨": 518,
      "à¥Īà¤Ĥ.": 519,
      "Ġà¤¹à¤°": 520,
      "Ġà¤ħà¤Ń": 521,
      "in": 522,
      "Ġà¤ĵ": 523,
      "Ġà¤¤à¤°à¤¹": 524,
      "Ġ201": 525,
      "Ġà¤¦à¤°": 526,
      "Ġà¤Ĩà¤ľ": 527,
      "à¥ĩ.": 528,
      "à¥ĩ,": 529,
      "Ġà¤¸à¤®à¤¯": 530,
      "à¤ªà¤¤": 531,
      "Ġà¤īà¤¤": 532,
      "¤ĳ": 533,
      "à¤ĳ": 534,
      "à¤¯à¤¤": 535,
      "Ġà¤¸à¤Ń": 536,
      "à¤¦à¤°": 537,
      "à¤¸à¤®": 538,
      "Ġà¤ļà¤²": 539,
      "à¤¼à¥ĩ": 540,
      "à¤ķà¤²": 541,
      "à¥Īà¤Ĥ,": 542,
      "à¤Ĺà¤²": 543,
      "à¤®à¤¤": 544,
      "à¤·à¤£": 545,
      "Ġà¤ķà¤Ī": 546,
      "Ġà¤®à¤¨": 547,
      "à¤ıà¤Ĺ": 548,
      "à¤ıà¤¸": 549,
      "Ġà¤ĳ": 550,
      "à¤²à¤¯": 551,
      "à¤µà¤¸": 552,
      "à¤¾à¤ģ": 553,
      "Ġà¤Ĩà¤¤": 554,
      "à¤ļà¤¨": 555,
      "à¤¸à¤ķ": 556,
      "à¤ĩà¤¨": 557,
      "Ġà¤¸à¤°": 558,
      "à¤¯à¤¨": 559,
      "Ġà¤¬à¤¢": 560,
      "à¤¸à¤¨": 561,
      "Ġà¤Ĩà¤¦": 562,
      "Ġ5": 563,
      "Ġà¤ľà¤°": 564,
      "Ġà¥¤": 565,
      "¤Ĭ": 566,
      "à¤Ĭ": 567,
      "à¥Ĥà¤Ĥ": 568,
      "Ġ.": 569,
      "Ġ'": 570,
      "Ġà¤ĺà¤°": 571,
      "à¤īà¤¨": 572,
      "Ġà¤¬à¤¡": 573,
      "à¤Ĺà¤¤": 574,
      "Ġà¤ħà¤®": 575,
      "à¤¦à¤¨": 576,
      "Ġ4": 577,
      "Ġà¤Ŀ": 578,
      "an": 579,
      "Ġà¤ıà¤µ": 580,
      "Ġà¤¶à¤°": 581,
      "à¤µà¤¤": 582,
      "Ġà¤Ńà¤°": 583,
      "Ġà¤ħà¤ļ": 584,
      "Ġà¤¤à¤¥": 585,
      "Ġà¤¸à¤¬à¤¸": 586,
      "Ġà¤ł": 587,
      "à¤¨à¤¤": 588,
      "à¤Ĩà¤Ī": 589,
      "à¤ıà¤®": 590,
      "Ġà¤ħà¤°": 591,
      "ar": 592,
      "Ġà¤¬à¤²": 593,
      "er": 594,
      "¤ŀ": 595,
      "à¤ŀ": 596,
      "à¤¸à¤¦": 597,
      "Ġà¤Ĩà¤Ī": 598,
      "Ġà¤¸à¤ķ": 599,
      "à¤ľà¤ª": 600,
      "Ġà¤Ĩà¤µ": 601,
      "Ġà¤ħà¤¸": 602,
      "Ġà¤ªà¤¡": 603,
      "à¤µà¤²": 604,
      "à¤ĸà¤¨": 605,
      "à¤ªà¤¯": 606,
      "Ġ-": 607,
      "Ġà¤Ĩà¤Ĺ": 608,
      "Ġà¤Ĩà¤¨": 609,
      "¥Ŀ": 610,
      "à¥Ŀ": 611,
      "Ġà¤ħà¤µ": 612,
      "...": 613,
      "¥Ľ": 614,
      "à¥Ľ": 615,
      "à¤§à¤¨": 616,
      "Ġ|": 617,
      "Ġà¤ķà¤²": 618,
      "on": 619,
      "Ġà¤īà¤®": 620,
      "à¤¨à¤®": 621,
      "Ġà¤¬à¤¦": 622,
      "à¤®à¤ķ": 623,
      "à¤¯à¤²": 624,
      "à¤¬à¤²": 625,
      "Ġà¤ľà¤®": 626,
      "Ġà¤ªà¤¦": 627,
      "à¤ªà¤ķ": 628,
      "à¤¹à¤®": 629,
      "à¤°à¤¶": 630,
      "à¤²à¤¬": 631,
      "à¤°à¤§": 632,
      "à¥ĩà¤Ĥà¥¤": 633,
      "at": 634,
      "Ġà¤ĸà¤°": 635,
      "Ġà¤Ĩà¤§": 636,
      "Ġà¤ķà¤ª": 637,
      "Ġ6": 638,
      "Ġà¤ħà¤ª": 639,
      "à¤¹à¤¨": 640,
      "Ġà¤Ī": 641,
      "à¤°à¤Ń": 642,
      "à¤¯à¤¹": 643,
      "Ġà¤ħà¤ķ": 644,
      "Ġ:": 645,
      "à¤¸à¤Ń": 646,
      "es": 647,
      "Ġà¤ľà¤²": 648,
      "or": 649,
      "à¤ľà¤²": 650,
      "Ġ,": 651,
      "à¤Ľà¤²": 652,
      "Ġà¤ħà¤Ĺà¤°": 653,
      "à¤°à¤¨": 654,
      "à¤¡à¤°": 655,
      "à¤¶à¤ķ": 656,
      "à¤°à¤¹": 657,
      "à¤²à¤ķ": 658,
      "Ġà¤¬à¤ľ": 659,
      "à¤Łà¤²": 660,
      "à¤¤à¤ķ": 661,
      "Ġà¤īà¤ł": 662,
      "Ġà¤ĵà¤°": 663,
      "Ġ10": 664,
      "à¤¯à¤¦": 665,
      "à¤®à¤°": 666,
      "à¤¾-": 667,
      "Ġà¤īà¤¦": 668,
      "Ġà¤ıà¤¸": 669,
      "à¤¦à¤µ": 670,
      "à¤Łà¤ķ": 671,
      "Ġà¤¸à¤®à¤Ŀ": 672,
      "Ġà¤°à¤¹à¤¤": 673,
      "à¤¡à¤²": 674,
      "à¤°à¤¯": 675,
      "ĠS": 676,
      "Ġ7": 677,
      "en": 678,
      "Ġ19": 679,
      "Ġà¤ĩà¤²": 680,
      "à¤ĩà¤¸à¤ķ": 681,
      "Ġà¤¸à¤¤": 682,
      "Ġà¤ľà¤¹": 683,
      "à¤ľà¤¬": 684,
      "Ġà¤²à¤¡": 685,
      "Ġà¤ªà¤ķ": 686,
      "à¤ĩà¤Ł": 687,
      "à¤µà¤¹": 688,
      "Ġà¤ľà¤Ĺ": 689,
      "à¤¨à¤¨": 690,
      "Ġà¤Ĭ": 691,
      "à¤ľà¤¹": 692,
      "al": 693,
      "à¤¼à¤¿": 694,
      "Ġà¤¤à¤¬": 695,
      "à¤ĩà¤²": 696,
      "Ġà¤Ĺà¤°": 697,
      "à¥Ģ-": 698,
      "Ġà¤¬à¤°": 699,
      "à¤¦à¤¸": 700,
      "ĠA": 701,
      "ĠP": 702,
      "Ġà¤¸à¤«": 703,
      "Ġà¤Ĩà¤¸": 704,
      "di": 705,
      "à¤ķà¤°à¤£": 706,
      "Ġà¤¹à¤ľ": 707,
      "à¤²à¤°": 708,
      "à¤¨à¤²": 709,
      "Ġ8": 710,
      "Ġà¤¬à¤¸": 711,
      "Ġà¤¸à¤ļ": 712,
      "Ġà¤ħà¤¤": 713,
      "Ġà¤ķà¤¹à¤¨": 714,
      "20": 715,
      "Ġà¤¸à¤µ": 716,
      "à¤ľà¤¯": 717,
      "Ġà¤®à¤¤": 718,
      "à¤Ĩà¤°": 719,
      "Ġà¤®à¤¦": 720,
      "à¤°à¤¦à¤°": 721,
      "Ġà¤ħà¤²à¤Ĺ": 722,
      "Ġà¤ĩà¤¸à¤¸": 723,
      "Ġà¤ķà¤Ń": 724,
      "à¤µà¤ķ": 725,
      "Ġà¤¦à¤²": 726,
      "à¤·à¤ķ": 727,
      "à¤¨à¤µ": 728,
      "à¤ķà¤¨": 729,
      "Ġà¤¨à¤µ": 730,
      "Ġà¤°à¤¹à¤¨": 731,
      "Ġà¤¶à¤¹à¤°": 732,
      "Ġs": 733,
      "Ġà¤ĩà¤¸à¤²": 734,
      "à¤¨à¤°": 735,
      "Ġà¤¬à¤¦à¤²": 736,
      "à¤¤à¤®": 737,
      "Ġà¤Ĩà¤®": 738,
      "à¤ªà¤ı": 739,
      "Ġà¤ĺà¤Łà¤¨": 740,
      "à¤¯à¤µà¤¸": 741,
      "ĠC": 742,
      "ĠM": 743,
      "à¤ļà¤°": 744,
      "à¤ıà¤ķ": 745,
      "Ġà¤µà¤ľà¤¹": 746,
      "Ġt": 747,
      "Ġà¤ľà¤µ": 748,
      "à¥ĩ-": 749,
      "à¤¯à¤ª": 750,
      "à¤¦à¤®": 751,
      "Ġà¤²à¤Ĺà¤¤": 752,
      "Ġ9": 753,
      "Ġà¤ħà¤Ĺ": 754,
      "ĠH": 755,
      "Ġà¤°à¤¨": 756,
      "Ġà¤ľà¤¬à¤ķ": 757,
      "Ġà¤ªà¤¢": 758,
      "Ġà¤Ĩà¤ı": 759,
      "à¤łà¤ķ": 760,
      "Ġà¤ĳà¤«": 761,
      "à¤ªà¤¸": 762,
      "Ġà¤ľà¤Ĺà¤¹": 763,
      "à¤®à¤ļ": 764,
      "à¤¹à¤²": 765,
      "Ġà¤¢": 766,
      "à¤§à¤°": 767,
      "Ġà¤ĩà¤¤à¤¨": 768,
      "Ġ\"": 769,
      "à¥ĩà¤Ĥ,": 770,
      "Ġà¤«à¤°": 771,
      "à¤²à¤µ": 772,
      "Ġà¤¸à¤®à¤¸": 773,
      "it": 774,
      "Ġ12": 775,
      "om": 776,
      "Ġà¤¨à¤ľà¤°": 777,
      "Ġà¤ķà¤¹à¤¤": 778,
      "Ġ15": 779,
      "Ġà¤Ĩà¤¶": 780,
      "à¤ķà¤¸": 781,
      "à¤®à¤¦": 782,
      "¤³": 783,
      "à¤³": 784,
      "Ġà¤§à¤°": 785,
      "Ġà¤¨à¤°": 786,
      "ĠN": 787,
      "Ġà¤ļà¤²à¤¤": 788,
      "à¤ĸà¤¤": 789,
      "Ġà¤ĩà¤¸à¤®": 790,
      "Ġà¤°à¤µ": 791,
      "Ġà¤ķà¤°à¤ķ": 792,
      "Ġà¤µà¤ķ": 793,
      "Ġà¤®à¤§": 794,
      "Ġà¤Ĩà¤¹": 795,
      "à¤¬à¤¸": 796,
      "à¤¬à¤¹": 797,
      "re": 798,
      "Ġà¤¸à¤²": 799,
      "st": 800,
      "à¤¶à¤²": 801,
      "à¥Ĥà¤ģ": 802,
      "ic": 803,
      "à¤łà¤¨": 804,
      "à¤¸à¤¸": 805,
      "ĠR": 806,
      "¥ŀ": 807,
      "à¥ŀ": 808,
      "ĠB": 809,
      "Ġà¤¬à¥ľ": 810,
      "Ġà¤°à¤ĸà¤¨": 811,
      "Ġà¤ľà¤¨à¤¤": 812,
      "à¤¬à¤Ī": 813,
      "Ġà¤®à¤¦à¤¦": 814,
      "Ġà¤¤à¤¹à¤¤": 815,
      "Ġà¤ļà¤°": 816,
      "à¤¨à¤¸": 817,
      "à¤¶à¤¤": 818,
      "à¤°à¤«": 819,
      "à¤ķà¤Ł": 820,
      "Ġà¤¹à¤®à¤²": 821,
      "Ġà¤ĸà¤¬à¤°": 822,
      "Ġà¤Ĩà¤²": 823,
      "à¥ĭ,": 824,
      "Ġà¤®à¤¹à¤¤": 825,
      "à¤°à¤ª": 826,
      "ad": 827,
      "Ġà¤¸à¤¦à¤¸": 828,
      "à¤ľà¤¸": 829,
      "ĠI": 830,
      "Ġà¤īà¤ļ": 831,
      "Ġà¤īà¤¸à¤¨": 832,
      "Ġà¤¤à¤°à¤«": 833,
      "Ġà¤²à¤ķ": 834,
      "le": 835,
      "Ġà¤¯à¤¦": 836,
      "¤ĥ": 837,
      "à¤ĥ": 838,
      "à¤¤à¤µ": 839,
      "Ġà¤ħà¤¦": 840,
      "Ġà¤¸à¤®à¤°": 841,
      "Ġà¤ĩà¤¨à¤ķ": 842,
      "à¥Ģà¤Ĥà¥¤": 843,
      "Ġ2018": 844,
      "à¤ıà¤²": 845,
      "à¤Ĩà¤¤": 846,
      "ing": 847,
      "Ġà¤ıà¤®": 848,
      "Ġ11": 849,
      "Ġà¤īà¤ªà¤¯": 850,
      "Ġp": 851,
      "à¤¨à¤¦": 852,
      "ĠT": 853,
      "à¤°à¤²": 854,
      "Ġ200": 855,
      "à¤¬à¤¤": 856,
      "à¥Ģà¤Ĥ,": 857,
      "à¤Ńà¤Ĺ": 858,
      "à¤Łà¤®": 859,
      "à¤¿,": 860,
      "Ġà¤ıà¤¨": 861,
      "à¤ĩà¤ķ": 862,
      "Ġà¤¨à¤¯": 863,
      "à¤¥à¤¨": 864,
      "à¤²à¤ķà¤°": 865,
      "à¤°à¤¬": 866,
      "Ġc": 867,
      "Ġà¤ħà¤«": 868,
      "Ġà¤ķà¤°à¤µ": 869,
      "Ġà¤¹à¤¤": 870,
      "à¤µà¤ª": 871,
      "à¤Ńà¤µ": 872,
      "Ġà¤¨à¤Ī": 873,
      "Ġà¤¸à¤ª": 874,
      "Ġà¤®à¤°": 875,
      "à¤Ĺà¤¨": 876,
      "Ġà¤¬à¥Ŀ": 877,
      "Ġà¤¨à¤ı": 878,
      "Ġà¤¨à¤Ĺà¤°": 879,
      "à¤¹à¤¤à¤°": 880,
      "Ġà¤ªà¥ľ": 881,
      "ou": 882,
      "à¤ļà¤²": 883,
      "ĠD": 884,
      "à¤§à¤µ": 885,
      "à¤¸à¤¤": 886,
      "à¤ķà¤¡": 887,
      "à¤¦à¤Ĺ": 888,
      "à¤¸à¤ª": 889,
      "à¤ıà¤¨": 890,
      "à¤Ĺà¤µ": 891,
      "à¤¨à¤¸à¤Ń": 892,
      "am": 893,
      "Ġà¤°à¤ķ": 894,
      "Ġà¤¬à¤¯": 895,
      "Ġà¤īà¤ªà¤²à¤¬": 896,
      "ion": 897,
      "000": 898,
      "à¤®à¤µ": 899,
      "à¥ĭà¤Ĥ,": 900,
      "à¥Ģ)": 901,
      "à¤µà¤ľ": 902,
      "à¤ªà¤£": 903,
      "à¤·à¤¯": 904,
      "Ġà¤¤à¤¸": 905,
      "à¤¨à¤Ī": 906,
      "is": 907,
      "Ġà¤§à¤¨": 908,
      "Ġà¤²à¤Ĺà¤Ńà¤Ĺ": 909,
      "Ġb": 910,
      "Ġà¤ªà¤¸": 911,
      "Ġ18": 912,
      "Ġà¤ķà¤¬": 913,
      "Ġm": 914,
      "à¥Įà¤Ĥ": 915,
      "à¤Ĺà¤®": 916,
      "Ġà¤®à¤ľ": 917,
      "à¤°à¤ľ": 918,
      "Ġ0": 919,
      "à¤Ĺà¤¢": 920,
      "à¤¹à¤¦": 921,
      "Ġà¤¹à¤µ": 922,
      "Ġà¤®à¤ľà¤¬": 923,
      "Ġà¤ħà¤ĸ": 924,
      "as": 925,
      "ed": 926,
      "¥¦": 927,
      "à¥¦": 928,
      "à¤²à¤Ĺ": 929,
      "à¤°à¤ªà¤¤": 930,
      "Ġà¤®à¤¸": 931,
      "Ġà¤īà¤²": 932,
      "ew": 933,
      "à¤ľà¤Ĺ": 934,
      "Ġà¤¶à¤ķ": 935,
      "Ġ25": 936,
      "Ġà¤ħà¤¶": 937,
      "Ġà¤ħà¤Ĺà¤²": 938,
      "à¥ľà¤ķ": 939,
      "Ġà¤Ĩà¤ķ": 940,
      "Ġà¤¦à¤¸": 941,
      "Ġà¤¦à¤¬": 942,
      "Ġà¤ªà¤¶": 943,
      "Ġà¤¶à¤¬": 944,
      "à¥ĭà¥¤": 945,
      "à¤Ĺà¤łà¤¨": 946,
      "à¤ĺà¤°": 947,
      "à¤ıà¤«": 948,
      "à¤¹à¤¸": 949,
      "à¤Ńà¤°": 950,
      "Ġ30": 951,
      "Ġ14": 952,
      "he": 953,
      "Ġà¤Ĩà¤µà¤¶": 954,
      "à¤¥à¤®": 955,
      "à¤¬à¤¨": 956,
      "à¤ħà¤¬": 957,
      "à¤ĸà¤°": 958,
      "Ġf": 959,
      "Ġà¤¤à¤²": 960,
      "Ġà¤Ĭà¤ªà¤°": 961,
      "indi": 962,
      "à¤¼à¥ĭà¤Ĥ": 963,
      "Ġà¤¹à¤²": 964,
      "Ġà¤ķà¤¨": 965,
      "à¤ķà¤µ": 966,
      "Ġà¤ªà¤°à¤®": 967,
      "Ġà¤µà¤¸": 968,
      "Ġà¤Ĺà¤²à¤¤": 969,
      "à¤¸à¤µ": 970,
      "Ġà¤Ĺà¤¤": 971,
      "à¤ªà¤²": 972,
      "à¤°à¤ĸ": 973,
      "Ġ13": 974,
      "à¤¯à¤µ": 975,
      "Ġà¤ķà¤Ł": 976,
      "¥§": 977,
      "à¥§": 978,
      "ĠF": 979,
      "Ġ16": 980,
      "Ġà¤ħà¤µà¤¸à¤°": 981,
      "Ġà¤ķà¤µ": 982,
      "à¤²à¤¸": 983,
      "Ġà¤¨à¤ķ": 984,
      "Ġ/": 985,
      "Ġh": 986,
      "Ġà¤Ńà¤Ĺà¤µ": 987,
      "Ġà¤Ĩà¤ĸ": 988,
      "à¤ľà¤®": 989,
      "Ġà¤ħà¤ªà¤°": 990,
      "Ġà¤ĸà¤¡": 991,
      "Ġà¤ıà¤ľ": 992,
      "Ġà¤¤à¤¯": 993,
      "Ġà¤¤à¤¤": 994,
      "à¤¥à¤²": 995,
      "ĠL": 996,
      "Ġà¤ħà¤¹à¤®": 997,
      "Ġ50": 998,
      "Ġà¤¤à¤®": 999,
      "Ġà¤¹à¤Ł": 1000,
      "Ġà¤ªà¤Ł": 1001,
      "à¤¯à¤ķà¤°": 1002,
      "Ġa": 1003,
      "Ġin": 1004,
      "à¤¦à¤ķ": 1005,
      "ay": 1006,
      "ro": 1007,
      "à¥Ī?": 1008,
      "Ġà¤ĩà¤¤": 1009,
      "ĠK": 1010,
      "lo": 1011,
      "Ġà¤¸à¤¡": 1012,
      "),": 1013,
      "et": 1014,
      "à¤¶à¤¨à¤²": 1015,
      "Ġà¤ķà¤¶": 1016,
      "Ġ!": 1017,
      "à¤ľà¤ķ": 1018,
      "à¤¦à¤²": 1019,
      "à¤Ĳà¤¸": 1020,
      "Ġà¤µà¤¨": 1021,
      "à¤·à¤¤": 1022,
      "ĠG": 1023,
      "Ġà¤°à¤ĸà¤¤": 1024,
      "Ġà¤¬à¤¨à¤¨": 1025,
      "Ġà¤ªà¤¹à¤ļ": 1026,
      "ent": 1027,
      "à¥ĩà¤Ĥ.": 1028,
      "Ġà¤ıà¤²": 1029,
      "il": 1030,
      "Ġà¤¶à¤¨": 1031,
      "à¤·à¤¦": 1032,
      "à¤®à¤¹": 1033,
      "à¤¨à¤Ł": 1034,
      "Ġà¤¸à¤ľ": 1035,
      "à¤ĩà¤¡": 1036,
      "à¤¯à¤¸": 1037,
      "à¤īà¤¸": 1038,
      "à¤ķà¤¸à¤Ń": 1039,
      "Ġà¤ķà¤¦à¤®": 1040,
      "à¤Ĺà¤²à¤µ": 1041,
      "à¤¹à¤ķ": 1042,
      "Ġà¤ıà¤¡": 1043,
      "id": 1044,
      "à¤µà¤µ": 1045,
      "....": 1046,
      "à¤µà¤¯": 1047,
      "Ġà¤ĸà¤¤": 1048,
      "Ġà¤¸à¤¨": 1049,
      "Ġà¤¸à¤¹à¤¯": 1050,
      "à¤°à¤ļ": 1051,
      "Ġà¤ħà¤ľ": 1052,
      "à¤¼à¥ĭ": 1053,
      "Ġà¤¦à¤ķ": 1054,
      "ch": 1055,
      "à¤²à¤®": 1056,
      "à¤Ĩà¤ľ": 1057,
      "à¤«à¤°": 1058,
      "Ġw": 1059,
      "Ġ2017": 1060,
      "201": 1061,
      "à¤ļà¤ķ": 1062,
      "à¤Ĥà¥¤": 1063,
      "Ġ17": 1064,
      "à¤ķà¤ª": 1065,
      "ews": 1066,
      "à¤®à¤¸": 1067,
      "Ġà¤Ńà¤µ": 1068,
      "Ġà¤Ĩà¤ķà¤°": 1069,
      "Ġà¥Ľ": 1070,
      "Ġà¤®à¤¶": 1071,
      "ri": 1072,
      "à¤µà¤°à¤£": 1073,
      "¥ħ": 1074,
      "à¥ħ": 1075,
      "Ġà¤īà¤¸à¤¸": 1076,
      "à¤ľà¤µ": 1077,
      "ot": 1078,
      "Ġà¤°à¤£": 1079,
      "à¤¤à¤²": 1080,
      "Ġ24": 1081,
      "Ġà¤ªà¥Ŀ": 1082,
      "Ġà¤Ĺà¤£": 1083,
      "à¤ĩà¤¸à¤¸": 1084,
      "ct": 1085,
      "Ġà¤®à¤²": 1086,
      "¤ĭ": 1087,
      "à¤ĭ": 1088,
      "Ġà¤°à¤¸": 1089,
      "Ġà¤ħà¤Ĺà¤¸": 1090,
      "à¤Ľà¤¤": 1091,
      "Ġ21": 1092,
      "à¤¤à¤ļ": 1093,
      "Ġà¤ľà¤¨à¤µà¤°": 1094,
      "Ġà¤¸à¤¬à¤ķ": 1095,
      "à¤Łà¤«": 1096,
      "Ġà¤®à¤¤à¤¦": 1097,
      "à¤µà¤ļ": 1098,
      "Ġà¤Ĩà¤¦à¤®": 1099,
      "à¤ħà¤Ĺà¤°": 1100,
      "à¤¸à¤¬": 1101,
      "and": 1102,
      "à¤¥à¤µ": 1103,
      "à¤¦à¤¬": 1104,
      "à¤ĩà¤®": 1105,
      "à¤µà¤Ł": 1106,
      "à¥ī.": 1107,
      "Ġ...": 1108,
      "à¤¾)": 1109,
      "Ġà¤ªà¤²": 1110,
      "ve": 1111,
      "à¤ĩà¤¯": 1112,
      "à¤¼à¥į": 1113,
      "à¤īà¤¨à¤ķ": 1114,
      "Ġk": 1115,
      "à¤£à¤¯": 1116,
      "ĠW": 1117,
      "Ġà¤¹à¤®à¤¨": 1118,
      "à¤ħà¤¸à¤²": 1119,
      "Ġ100": 1120,
      "à¤ĩà¤µ": 1121,
      "à¤ĸà¤ķà¤°": 1122,
      "Ġà¤®à¤ķ": 1123,
      "Ġ#": 1124,
      "ra": 1125,
      "Ġ?": 1126,
      "à¤ħà¤ªà¤¨": 1127,
      "Ġd": 1128,
      "à¤¼à¥ĩà¤Ĥ": 1129,
      "Ġà¤īà¤¨à¤¸": 1130,
      "ĠE": 1131,
      "Ġà¤ıà¤¯à¤°": 1132,
      "à¤¡à¤¨": 1133,
      "Ġà¤Ľà¤¹": 1134,
      "¥¨": 1135,
      "à¥¨": 1136,
      "à¤Ĺà¤¡": 1137,
      "Ġà¤ĭ": 1138,
      "Ġà¤¨à¤¦": 1139,
      "Ġà¤ķà¤¥": 1140,
      "à¤²à¤¹": 1141,
      "ĠU": 1142,
      "ol": 1143,
      "Ġà¤ĸà¤¤à¤°": 1144,
      "19": 1145,
      "Ġà¤ľà¤¤": 1146,
      "¥Ļ": 1147,
      "à¥Ļ": 1148,
      "Ġà¤®à¤Ī": 1149,
      "à¤ªà¤Ł": 1150,
      "ĠO": 1151,
      "à¤¨à¤Ĺà¤°": 1152,
      "à¤Łà¤°à¤¨": 1153,
      "Ġà¤īà¤ªà¤¸": 1154,
      "à¤¨à¤ª": 1155,
      "ĠHindi": 1156,
      "10": 1157,
      "à¤®à¤Ĺ": 1158,
      "Ġ2019": 1159,
      "à¤ıà¤ļ": 1160,
      "Ġà¤Ĩà¤ł": 1161,
      "Ġà¤¹à¤¸": 1162,
      "el": 1163,
      "ur": 1164,
      "à¤®à¤ª": 1165,
      "un": 1166,
      "Ġn": 1167,
      "à¤µà¤§": 1168,
      "¥ĺ": 1169,
      "à¥ĺ": 1170,
      "Ġà¤ħà¤°à¤¬": 1171,
      "Ġà¤īà¤¸à¤®": 1172,
      "à¥Ĥà¤Ĥà¥¤": 1173,
      "Ġà¤ĩà¤ķ": 1174,
      "50": 1175,
      "Ġà¤ªà¤ķà¤¡": 1176,
      "Ġà¤ħà¤¸à¤°": 1177,
      "ag": 1178,
      "Ġà¤¤à¤¨": 1179,
      "Ġà¤ĵà¤µà¤°": 1180,
      "Ġ22": 1181,
      "à¤ļà¤¤": 1182,
      "à¤ªà¤·": 1183,
      "à¤ĩà¤¨à¤²": 1184,
      "us": 1185,
      "à¥ĭ.": 1186,
      "Ġà¤¸à¤«à¤²à¤¤": 1187,
      "ĠJ": 1188,
      "Ġà¤ħà¤¸à¤²": 1189,
      "--": 1190,
      "Ġà¥ŀ": 1191,
      "Ġà¤ħà¤®à¤°": 1192,
      "à¤Łà¤¬": 1193,
      "Ġà¤īà¤¤à¤°": 1194,
      "Ġà¤ķà¤¡": 1195,
      "ow": 1196,
      "à¤°à¤·": 1197,
      "ĠV": 1198,
      "à¤ľà¤¦": 1199,
      "à¤¸à¤ļ": 1200,
      "Ġà¤ĺà¤Ł": 1201,
      "à¤§à¤ķ": 1202,
      "Ġà¤Ĺà¤ł": 1203,
      "à¤¨à¤ķà¤°": 1204,
      "Ġo": 1205,
      "à¤¤à¤ľ": 1206,
      "à¤Ĺà¤¦": 1207,
      "à¤¥à¤°": 1208,
      "à¤ķà¤®": 1209,
      "Ġà¤ıà¤ª": 1210,
      "Ġà¤¸à¤«à¤²": 1211,
      "à¤ĸà¤²": 1212,
      "à¤·à¤®à¤¤": 1213,
      "Ġà¤ķà¤®à¤°": 1214,
      "Ġà¤Ĺà¤²": 1215,
      "à¥ģà¤ģ": 1216,
      "ĠNews": 1217,
      "à¤µà¤¶": 1218,
      "Ġà¤ĩà¤®": 1219,
      "à¥Ī|": 1220,
      "Ġ2016": 1221,
      "à¤®à¤¯": 1222,
      "Ġà¤Ńà¤²": 1223,
      "à¤¯à¤ķà¤¤": 1224,
      "Ġà¤®à¤Ĺà¤°": 1225,
      "à¤īà¤¤": 1226,
      "ĠIn": 1227,
      "Ġà¤¸à¤¸": 1228,
      "à¤¥à¤ķ": 1229,
      "Ġà¤¦à¤µ": 1230,
      "Ġ23": 1231,
      "à¤ªà¤¦": 1232,
      "à¤¾?": 1233,
      "à¤ĸà¤¨à¤Ĭ": 1234,
      "à¤¶à¤°": 1235,
      "ak": 1236,
      "Ġà¤ĳà¤¨à¤²": 1237,
      "à¤ĩà¤ľ": 1238,
      "à¤ľà¤¤": 1239,
      "Ġà¤ķà¤¸": 1240,
      "Ġ40": 1241,
      "Ġà¤¸à¤¦": 1242,
      "Ġà¤Ľà¤¤": 1243,
      "à¤īà¤Ł": 1244,
      "à¤¡à¤ķ": 1245,
      "Ġà¤ħà¤µà¤§": 1246,
      "Ġà¤¤à¤ķà¤¨": 1247,
      "Ġà¤ļà¤²à¤¨": 1248,
      "Ġà¤ķà¤°à¤£": 1249,
      "à¤®à¤§": 1250,
      "Ġà¤īà¤¡": 1251,
      "Ġà¤ľà¤¯": 1252,
      "Ġ28": 1253,
      "à¤«à¤²": 1254,
      "à¤ħà¤®": 1255,
      "Ġà¤ļà¤°à¤£": 1256,
      "à¤¬à¤¦": 1257,
      "30": 1258,
      "oo": 1259,
      "ĠRe": 1260,
      "ab": 1261,
      "Ġ26": 1262,
      "Ġà¤®à¤¹à¤¸": 1263,
      "ap": 1264,
      "à¥Ģà¤Ĥ.": 1265,
      "à¤ªà¤®": 1266,
      "à¤ħà¤²à¤Ĺ": 1267,
      "à¤°à¤Ĺ": 1268,
      "Ġà¤¸à¤²à¤®": 1269,
      "à¤Ķà¤°": 1270,
      "Ġà¤¬à¤ľà¤Ł": 1271,
      "Ġà¤ļà¤ķ": 1272,
      "à¤·à¤®": 1273,
      "à¤¸à¤²à¤®": 1274,
      "Ġà¤®à¤ļ": 1275,
      "à¤§à¤¤": 1276,
      "Ġà¤²à¥ľà¤ķ": 1277,
      "Ġà¤ļà¤¯à¤¨": 1278,
      "Ġà¤Ĩà¤ªà¤¨": 1279,
      "Ġà¤īà¤°": 1280,
      "hi": 1281,
      "à¤®à¤£": 1282,
      "Ġà¤ıà¤¶": 1283,
      "à¤ľà¤§": 1284,
      "Ġà¤¡à¤°": 1285,
      "ut": 1286,
      "à¤ħà¤¨": 1287,
      "à¥Ĥ-": 1288,
      "Ġà¤¤à¤Ń": 1289,
      "Ġà¤«à¤°à¤µà¤°": 1290,
      "à¤Ĺà¤ľ": 1291,
      "à¤Ĩà¤ªà¤ķ": 1292,
      "Ġà¤¸à¤ªà¤¨": 1293,
      "à¤ħà¤ª": 1294,
      "à¤¹à¤°à¤£": 1295,
      "Ġà¥§": 1296,
      "Ġà¥Ļ": 1297,
      "à¤Łà¤µ": 1298,
      "Ġ27": 1299,
      "Ġà¤¬à¤¹à¤¨": 1300,
      "à¤Ĩà¤ª": 1301,
      "ul": 1302,
      "Ġà¤¶à¤µ": 1303,
      "Ġà¤ĩà¤ļ": 1304,
      "à¤¹à¤¬": 1305,
      "11": 1306,
      "à¤¸à¤ķà¤°": 1307,
      "à¤¡à¤¸": 1308,
      "à¤ħà¤°": 1309,
      "Ġà¤¨à¤®": 1310,
      "Ġto": 1311,
      "à¤¡à¤µ": 1312,
      "Ġl": 1313,
      "à¤¯à¤°à¤²": 1314,
      "Ġà¤®à¤¤à¤²à¤¬": 1315,
      "Ġà¤ıà¤«": 1316,
      "Ġà¤«à¤²": 1317,
      "ir": 1318,
      "à¤°à¤®à¤£": 1319,
      "Ġ[": 1320,
      "à¤¬à¤¡": 1321,
      "à¤ĩà¤¸à¤®": 1322,
      "ation": 1323,
      "à¥Ģ:": 1324,
      "Ġà¤ķà¤ł": 1325,
      "à¤ĺà¤Łà¤¨": 1326,
      "ce": 1327,
      "à¤°à¤¹à¤£": 1328,
      "Ġà¤ķà¤ķ": 1329,
      "est": 1330,
      "im": 1331,
      "à¤Ĥ,": 1332,
      "à¤¤à¤°à¤°": 1333,
      "à¤ķà¤¶": 1334,
      "à¤°à¤¥à¤®": 1335,
      "à¤¦à¤¯": 1336,
      "à¤²à¤ļ": 1337,
      "Ġà¤Ĩà¤°à¤ķ": 1338,
      "Ġ199": 1339,
      "Ġà¤¶à¤¹": 1340,
      "à¤¶à¤µ": 1341,
      "12": 1342,
      "18": 1343,
      "à¤¨à¤¯": 1344,
      "Ġà¤Ĺà¤¹à¤°": 1345,
      "à¤¸à¤°à¤ķ": 1346,
      "Ġà¤ķà¤®à¤ľ": 1347,
      "Ġà¤Ĩà¤ªà¤¸": 1348,
      "Ġthe": 1349,
      "Ġà¤²à¤Ĺà¤¨": 1350,
      "à¤¤à¤¤": 1351,
      "à¤¯à¤£": 1352,
      "à¤¡à¤®": 1353,
      "ex": 1354,
      "Ġà¤Ĭà¤°": 1355,
      "à¥ĭ-": 1356,
      "Ġà¤¹à¤¥": 1357,
      "à¤ħà¤²": 1358,
      "com": 1359,
      "Ġà¤ıà¤ļ": 1360,
      "Ġof": 1361,
      "Ġ2014": 1362,
      "à¤µà¤ľà¤¨": 1363,
      "Ġà¤ĳà¤¸": 1364,
      "Ġà¤°à¤ļà¤¨": 1365,
      "Ġà¤ĩà¤ľ": 1366,
      "Ġg": 1367,
      "Ġà¤Ńà¤µà¤¨": 1368,
      "Ġ31": 1369,
      "Ġà¤ªà¤µ": 1370,
      "Ġà¤¬à¤¨à¤¤": 1371,
      "à¤ħà¤Ń": 1372,
      "à¤Ĺà¤£": 1373,
      "à¥ľà¤¨": 1374,
      "à¤īà¤¨à¤²": 1375,
      "Ġà¤¦à¤®": 1376,
      "Ġv": 1377,
      "ment": 1378,
      "à¤°à¤¤à¤²à¤¬": 1379,
      "Ġ29": 1380,
      "à¤Īà¤ķ": 1381,
      "à¥Ĥ,": 1382,
      "à¤ıà¤¸à¤Ł": 1383,
      "Ġà¤īà¤ªà¤ļ": 1384,
      "har": 1385,
      "Ġà¤Īà¤°": 1386,
      "15": 1387,
      "à¤¯à¤¯à¤¨": 1388,
      "à¤¤à¤°à¤£": 1389,
      "ig": 1390,
      "pp": 1391,
      "Ġà¤ªà¤¹à¤¨": 1392,
      "à¤ªà¤¹à¤²": 1393,
      "Ġà¤Ĩà¤Īà¤ª": 1394,
      "Ġà¤Ńà¤ķ": 1395,
      "Ġà¤ļà¤¢": 1396,
      "à¤²à¤¦": 1397,
      "Ġ2015": 1398,
      "Ġà¤«à¤¸à¤²": 1399,
      "ter": 1400,
      "Ġà¤ķà¤ªà¤¡": 1401,
      "Ġà¤īà¤¨à¤®": 1402,
      "Ġà¤Ĩà¤ıà¤Ĺ": 1403,
      "à¤ıà¤¸à¤ª": 1404,
      "à¤¯à¤µà¤¹": 1405,
      "Ġà¤ĩà¤¨à¤®": 1406,
      "à¤Ńà¤ķ": 1407,
      "Ġ>": 1408,
      "Ġà¤¨à¤¤": 1409,
      "à¤°à¤µà¤ķ": 1410,
      "à¤¾:": 1411,
      "Ġand": 1412,
      "ess": 1413,
      "à¤ªà¤¡": 1414,
      "ore": 1415,
      "Ġà¤īà¤ªà¤Ń": 1416,
      "Ġà¤¹à¤¡": 1417,
      "Ġon": 1418,
      "Ġà¤¹à¤«": 1419,
      "Ġà¤¨à¤ľ": 1420,
      "Ġà¤¹à¤ķ": 1421,
      "Ġ)": 1422,
      "à¤¾à¤Ĥ,": 1423,
      "Ġà¤°à¤ľ": 1424,
      "Ġà¤§à¤®à¤ķ": 1425,
      "Ġà¤²à¤ĸà¤¨à¤Ĭ": 1426,
      "à¤ªà¤¹à¤°": 1427,
      "ai": 1428,
      "Ġà¤Īà¤¶": 1429,
      "¥©": 1430,
      "à¥©": 1431,
      "Ġà¤Ĩà¤¸à¤ª": 1432,
      "à¤ĸà¤ķ": 1433,
      "à¤¯à¤¡": 1434,
      "Ġà¤Ĺà¤łà¤¬": 1435,
      "à¤¾'": 1436,
      "han": 1437,
      "à¤ķà¤Ī": 1438,
      "à¤Łà¤¤": 1439,
      "Ġ60": 1440,
      "ome": 1441,
      "Ġà¤īà¤ľ": 1442,
      "à¤¦à¤¶": 1443,
      "à¤¦à¤°à¤ħà¤¸à¤²": 1444,
      "25": 1445,
      "à¤¯à¤¬": 1446,
      "Ġà¤ªà¤¨": 1447,
      "Ġà¥¨": 1448,
      "à¤¹à¤¨à¤¤": 1449,
      "à¤²à¤ª": 1450,
      "Ġà¤Ĩà¤¬": 1451,
      "à¤Ĥ.": 1452,
      "Ġà¤ħà¤¥à¤µ": 1453,
      "Ġà¤®à¤ľà¤¦": 1454,
      "Ġà¤Ĩà¤īà¤Ł": 1455,
      "th": 1456,
      "Ġà¤ĵà¤²": 1457,
      "17": 1458,
      "Ġà¤ľà¤®à¤ķà¤°": 1459,
      "Ġ35": 1460,
      "Ġà¤¦à¤¶à¤ķ": 1461,
      "ers": 1462,
      "Ġà¤īà¤¤à¤¨": 1463,
      "¥«": 1464,
      "à¥«": 1465,
      "Ġre": 1466,
      "à¤īà¤¸à¤ķ": 1467,
      "ate": 1468,
      "16": 1469,
      "à¥Īà¤Ĥ?": 1470,
      "Ġà¤ªà¤¦à¤ķ": 1471,
      "em": 1472,
      "art": 1473,
      "Ġà¤Ńà¤¯": 1474,
      "Ġà¤ĩà¤°": 1475,
      "ĠPM": 1476,
      "Ġà¤ħà¤¯": 1477,
      "ck": 1478,
      "Ġà¤ĸà¥ľ": 1479,
      "à¤ħà¤§": 1480,
      "Ġà¤ıà¤ķà¤¤": 1481,
      "99": 1482,
      "ha": 1483,
      "à¤¦à¤¦": 1484,
      "à¤¿-": 1485,
      "Ġà¤ħà¤¹à¤®à¤¦": 1486,
      "à¤®à¤¶": 1487,
      "um": 1488,
      "os": 1489,
      "à¤¾à¥ħ": 1490,
      "Ġà¤īà¤ªà¤°": 1491,
      ")à¥¤": 1492,
      "à¤°à¤ķà¤°": 1493,
      "Ġà¤ħà¤¸à¤®": 1494,
      "à¤ķà¤²à¤¨": 1495,
      "14": 1496,
      "à¥Ģ'": 1497,
      "à¤¨à¤¤à¤®": 1498,
      "Ġà¤ħà¤ĸà¤¬": 1499,
      "Ġà¤¸à¤¹à¤®à¤¤": 1500,
      "à¤ĺà¤¨": 1501,
      "Ġà¤¸à¤®à¤Ŀà¤¨": 1502,
      "à¤·à¤ľ": 1503,
      "à¤ıà¤¶à¤¨": 1504,
      "Ġà¤ļà¤®": 1505,
      "Ġà¤ľà¤¡": 1506,
      "Ġà¤°à¤£à¤¨": 1507,
      "Ġà¤ĩà¤¶": 1508,
      "à¤ĩà¤«": 1509,
      "à¤¾|": 1510,
      "à¤ıà¤¡": 1511,
      "Ġà¤ľà¤¨à¤°à¤²": 1512,
      "Ġà¤ħà¤¡": 1513,
      "Ġà¤Ĳà¤ª": 1514,
      "Ġà¤¦à¤¹": 1515,
      "à¤ĩà¤ı": 1516,
      "op": 1517,
      "Ġà¤¶à¤ĸ": 1518,
      "Ġà¤°à¤®": 1519,
      "à¤ªà¤¥": 1520,
      "Ġà¤¬à¤°à¤¸": 1521,
      "Ġà¤¸à¤ĸ": 1522,
      "Ġà¤Ŀà¤Łà¤ķ": 1523,
      "à¤ľà¤¨à¤ķ": 1524,
      "à¤ķà¤¦à¤®": 1525,
      "Ġà¤¬à¤¦à¤²à¤¨": 1526,
      "à¤·à¤°": 1527,
      "à¤¼,": 1528,
      "Ġà¤Īà¤®": 1529,
      "à¤¡à¤¬": 1530,
      "Ġ70": 1531,
      "Ġy": 1532,
      "Ġà¤Ĺà¤¡": 1533,
      "à¤ĩà¤¸à¤²": 1534,
      "Ġà¤¹à¤¨": 1535,
      "Ġà¤ĵà¤ªà¤¨": 1536,
      "Ġà¤ĳà¤ªà¤°": 1537,
      "¥ª": 1538,
      "à¥ª": 1539,
      "à¤¸à¤Ĺà¤¢": 1540,
      "ain": 1541,
      "Ġà¤¸à¤®à¤ķ": 1542,
      "à¤Łà¤µà¤°": 1543,
      "Ġà¤ħà¤ľà¤¯": 1544,
      "ide": 1545,
      "à¤µà¤¡": 1546,
      "Ġà¤ľà¤Ĺà¤¤": 1547,
      "ord": 1548,
      "¥¯": 1549,
      "à¥¯": 1550,
      "à¤ĩà¤ª": 1551,
      "Ġà¤īà¤ªà¤ķà¤°à¤£": 1552,
      "à¥ĥà¤Ĥ": 1553,
      "Ġà¤ıà¤¨à¤¡": 1554,
      "Ġà¤¶à¤¤": 1555,
      "ost": 1556,
      "Ġà¤ħà¤Ł": 1557,
      "à¤¯à¤°à¤®": 1558,
      "à¤¸à¤¹": 1559,
      "Ġà¤ªà¥ľà¤¤": 1560,
      "ub": 1561,
      "à¤ªà¤ļ": 1562,
      "¤©": 1563,
      "à¤©": 1564,
      "Ġà¤ļà¤¨": 1565,
      "Ġà¤¬à¤§": 1566,
      "à¤Łà¤ķà¤°": 1567,
      "Ġà¤ħà¤°à¤µ": 1568,
      "Ġà¤ľà¤¸": 1569,
      "à¤¼à¤¾à¥¤": 1570,
      "Ġà¤Ĩà¤ļ": 1571,
      "Ġà¤¦à¤°à¤µ": 1572,
      "à¤µà¤£": 1573,
      "Ġ80": 1574,
      "à¤£à¤µà¤¤": 1575,
      "Ġà¤Ĳà¤²": 1576,
      "Ġà¤ªà¤Łà¤¨": 1577,
      "Ġà¤¸à¥ľà¤ķ": 1578,
      "Ġà¤µà¤¨à¤¡": 1579,
      "à¤ªà¤Łà¤¨": 1580,
      "Ġà¤ħà¤«à¤¸à¤°": 1581,
      "à¤¿.": 1582,
      "ht": 1583,
      "à¤°à¤ķà¤¤": 1584,
      "Ġà¤łà¤¹à¤°": 1585,
      "Ġ32": 1586,
      "Ġ198": 1587,
      "Ġ2013": 1588,
      "ive": 1589,
      "à¥ĩ?": 1590,
      "13": 1591,
      "à¤¿à¤¼": 1592,
      "à¤¾...": 1593,
      "Ġà¤¨à¤¶": 1594,
      "od": 1595,
      "à¤ļà¤µ": 1596,
      "à¤¼à¥ģ": 1597,
      "à¤ķà¤¹": 1598,
      "Ġà¤Ĺà¤łà¤¨": 1599,
      "Ġ37": 1600,
      "Ġà¤Łà¤ķ": 1601,
      "à¤Ĺà¥Ŀ": 1602,
      "Ġà¤Ńà¤Ł": 1603,
      "Ġfor": 1604,
      "our": 1605,
      "Ġà¤®à¤¨à¤®": 1606,
      "Ġà¤ľà¤ľ": 1607,
      "Ġà¤°à¤¦": 1608,
      "Ġà¤ķà¤ļ": 1609,
      "ST": 1610,
      "à¤ķà¥ľ": 1611,
      "à¤¦à¤¤": 1612,
      "Ġà¤Ĩà¤Ń": 1613,
      "à¤ķà¤Ń": 1614,
      "ind": 1615,
      "Ġà¤ľà¤¯à¤ª": 1616,
      "Ġà¤Ĩà¤¦à¤°": 1617,
      "40": 1618,
      "Ġ500": 1619,
      "Ġà¤µà¤ľà¤¨": 1620,
      "Ġà¤¦à¤°à¤ħà¤¸à¤²": 1621,
      "22": 1622,
      "vi": 1623,
      "Ġà¤ľà¤¨à¤¸": 1624,
      "ine": 1625,
      "à¤²à¤Ń": 1626,
      "à¤¨à¤¬": 1627,
      "hat": 1628,
      "à¤°à¤µà¤°": 1629,
      "ob": 1630,
      "ik": 1631,
      "Ġà¤Ĳà¤¤": 1632,
      "Ġà¤Īà¤¸": 1633,
      "**": 1634,
      "à¤¶à¤®": 1635,
      "Ġà¤¬à¤ļà¤¨": 1636,
      "Ġà¤ķà¤®à¤²": 1637,
      "à¤īà¤¦": 1638,
      "Ġà¤®à¤¶à¤¹": 1639,
      "Ġà¤Ńà¤°à¤ª": 1640,
      "à¤ıà¤¸à¤ıà¤¸": 1641,
      "à¤Ĭà¤¦": 1642,
      "Ġà¤ħà¤µà¤¶": 1643,
      "Ġà¤²à¤®": 1644,
      "eb": 1645,
      "Ġ45": 1646,
      "à¤µà¤¹à¤¨": 1647,
      "ĠSt": 1648,
      "Ġà¤ħà¤Łà¤²": 1649,
      "Ġà¤¶à¤¤à¤ķ": 1650,
      "ff": 1651,
      "à¤¯à¤¶": 1652,
      "à¤²à¤¡": 1653,
      "Ġà¤ĳà¤Ł": 1654,
      "Ġà¤¹à¤¦": 1655,
      "à¤ļà¤ķà¤°": 1656,
      "à¤ļà¤¯": 1657,
      "ĠY": 1658,
      "Ġà¤¬à¤Ĺ": 1659,
      "Ġ36": 1660,
      "Ġà¤ĩà¤®à¤°": 1661,
      "up": 1662,
      "Ġà¤ħà¤µà¤¸": 1663,
      "à¤®à¤¹à¤¤": 1664,
      "Ġ..": 1665,
      "Ġà¤®à¤¹à¤ľ": 1666,
      "ep": 1667,
      "Ġà¤Ĩà¤£": 1668,
      "Ġà¤¬à¤®": 1669,
      "Ġà¤īà¤ķ": 1670,
      "Ġà¤ĭà¤£": 1671,
      "Ġà¤īà¤ªà¤¨": 1672,
      "à¤Īà¤²": 1673,
      "ist": 1674,
      "Ġst": 1675,
      "one": 1676,
      "all": 1677,
      "Ġà¤ħà¤¹": 1678,
      "à¤łà¤Ń": 1679,
      "Ġà¤Ńà¤°à¤¨": 1680,
      "à¤¤à¤ķà¤°": 1681,
      "Ġà¤§à¤®": 1682,
      "à¥ĩ...": 1683,
      "à¤°à¤¸à¤¨": 1684,
      "Ġà¤¦à¤¤": 1685,
      "Ġ2012": 1686,
      "à¤ıà¤Ł": 1687,
      "à¤¹à¤ª": 1688,
      "à¤°à¤Ĺà¤¤": 1689,
      "Home": 1690,
      "à¤Ĩà¤®": 1691,
      "à¤¤à¤ª": 1692,
      "Ġà¤ªà¤°à¤¨": 1693,
      "Ġà¤ıà¤Ĺ": 1694,
      "à¥Ĥà¤Ĥ,": 1695,
      "nd": 1696,
      "dia": 1697,
      "à¤¨à¤¹": 1698,
      "à¤°à¤¦à¤¸": 1699,
      "à¤Īà¤¸": 1700,
      "24": 1701,
      "à¤¶à¤¹à¤°": 1702,
      "Ġà¤°à¤«": 1703,
      "¥¬": 1704,
      "à¥¬": 1705,
      "¥®": 1706,
      "à¥®": 1707,
      "Ġà¤ıà¤Ł": 1708,
      "Ġà¤¬à¤¹à¤¸": 1709,
      "à¥Ľà¤°": 1710,
      "à¤īà¤²": 1711,
      "end": 1712,
      "à¤¯à¤ľ": 1713,
      "Ġà¤ıà¤¸à¤ª": 1714,
      "ip": 1715,
      "Ġà¤ĳà¤¡": 1716,
      "Ġà¤Ľà¤µ": 1717,
      "à¤¤à¤¬": 1718,
      "''": 1719,
      "Ġà¤¸à¤®à¤Ŀà¤¤": 1720,
      "ast": 1721,
      "ya": 1722,
      "Ġà¤§à¤°à¤¨": 1723,
      "Ġ2011": 1724,
      "Ġà¤¶à¤ªà¤¥": 1725,
      "Ġà¤¤à¤¹à¤¸": 1726,
      "à¤²à¤ļà¤¸": 1727,
      "¥Ń": 1728,
      "à¥Ń": 1729,
      "à¤Ŀà¤¸": 1730,
      "ant": 1731,
      "Ġà¤¦à¤«": 1732,
      "à¤¯à¤Łà¤¨": 1733,
      "à¤¯à¤¸à¤Ń": 1734,
      "à¤¨à¤µà¤°": 1735,
      "200": 1736,
      "à¥Ĥà¤Ĥ.": 1737,
      "Ġà¤¸à¤¦à¤¨": 1738,
      "are": 1739,
      "Ġà¤Łà¤¨": 1740,
      "Ġ90": 1741,
      "à¥Ģ?": 1742,
      "à¤¹à¤£": 1743,
      "Ġà¤ĭà¤·": 1744,
      "21": 1745,
      "à¥Ī-": 1746,
      "Ġà¤¬à¤¦à¤®": 1747,
      "Ġà¤®à¤®à¤¤": 1748,
      "Ġà¤²à¥ľ": 1749,
      "ww": 1750,
      "Ġà¤¨à¤¸": 1751,
      "à¤Īà¤Ł": 1752,
      "Ġà¤¸à¤Ł": 1753,
      "Ġà¥Ľà¤°": 1754,
      "ust": 1755,
      "tt": 1756,
      "Ġà¤¬à¤ķ": 1757,
      "----": 1758,
      "Ġ''": 1759,
      "Ġà¤®à¤¸à¤²": 1760,
      "à¤ªà¤°à¤µ": 1761,
      "60": 1762,
      "Ġà¤¸à¤«à¤°": 1763,
      "Ġ33": 1764,
      "à¤¾à¥ĩ": 1765,
      "Ġà¤°à¤ķà¤®": 1766,
      "à¤Łà¤°à¤µ": 1767,
      "Ġe": 1768,
      "Ġ197": 1769,
      "à¤ķà¤ħà¤ª": 1770,
      "log": 1771,
      "Ġà¤ļà¤¤": 1772,
      "ver": 1773,
      "Ġà¤ªà¤¬": 1774,
      "80": 1775,
      "à¤¡à¤ķà¤°": 1776,
      "à¤°à¤°": 1777,
      "à¤¬à¤ļ": 1778,
      "Ġà¤Ķà¤¸à¤¤": 1779,
      "Ġà¤¬à¥Ŀà¤¤": 1780,
      "ort": 1781,
      "à¥ĩ)": 1782,
      "Ġà¤Ľà¤ł": 1783,
      "Ġà¤ķà¤¤": 1784,
      "à¤ıà¤¸à¤Ī": 1785,
      "à¥Ĥà¤ģà¥¤": 1786,
      "à¤īà¤§à¤°": 1787,
      "if": 1788,
      "age": 1789,
      "Ġà¤®à¤£": 1790,
      "Ġà¤ľà¤¬à¤°à¤¦à¤¸": 1791,
      "Ġà¤¬à¤¨à¤µ": 1792,
      "Ġà¤ıà¤°": 1793,
      "23": 1794,
      "à¤µà¤Ń": 1795,
      "Ġis": 1796,
      "¥ļ": 1797,
      "à¥ļ": 1798,
      "à¤¶à¤¬": 1799,
      "Ġ300": 1800,
      "Ġà¤°à¤¤": 1801,
      "Ġ2009": 1802,
      "Ġà¤ªà¤ķà¥ľ": 1803,
      "Ġ34": 1804,
      "ading": 1805,
      "à¤£à¤¨": 1806,
      "à¤ªà¤¶": 1807,
      "à¥ģ,": 1808,
      "à¤¹à¤Ł": 1809,
      "ail": 1810,
      "Ġ2010": 1811,
      "à¤°à¤ķà¤°à¤£": 1812,
      "à¤Ĩà¤Īà¤Ł": 1813,
      "Ġr": 1814,
      "à¤ħà¤ķ": 1815,
      "ly": 1816,
      "2018": 1817,
      "à¥Ģ...": 1818,
      "Ġà¤¦à¤¯": 1819,
      "à¤Ľà¤¡": 1820,
      "Ġà¤¬à¤¨à¤ķà¤°": 1821,
      "Ġà¤Ķà¤°à¤¤": 1822,
      "Ġà¤¨à¤ľà¤¦": 1823,
      "à¤Ńà¤µà¤¤": 1824,
      "ec": 1825,
      "45": 1826,
      "Ġà¤ĳà¤«à¤°": 1827,
      "26": 1828,
      "Ġà¤Ĩà¤«": 1829,
      "Ġà¤ħà¤ªà¤¡": 1830,
      "à¤ķà¤¥": 1831,
      "à¤¸à¤«": 1832,
      "ice": 1833,
      "à¥Īà¤Ĥ|": 1834,
      "ity": 1835,
      "35": 1836,
      "Ġà¤²à¤¹à¤°": 1837,
      "Ġà¤§à¤°à¤¤": 1838,
      "Ġà¤¸à¤°à¤¸": 1839,
      "Ġà¤¬à¤ļà¤ªà¤¨": 1840,
      "Ġà¤Ķà¤¦": 1841,
      "à¤ķà¤¤à¤°": 1842,
      "==": 1843,
      "à¤ıà¤®à¤¸": 1844,
      "à¤µà¤¦": 1845,
      "à¤¿:": 1846,
      "28": 1847,
      "à¤£à¤¸": 1848,
      "à¤²à¤ľ": 1849,
      "Ġà¤ıà¤¸à¤¡": 1850,
      "qu": 1851,
      "Ġà¤Ľà¤ķ": 1852,
      "Ġà¤¯à¤ķ": 1853,
      "Ġà¤Ĩà¤ªà¤¤": 1854,
      "se": 1855,
      "Ġà¤Ĺà¤¨": 1856,
      "à¤¼à¤¾,": 1857,
      "ia": 1858,
      "à¤ľà¤¬à¤ķ": 1859,
      "à¥ľà¤¤": 1860,
      "pt": 1861,
      "Ġà¤ļà¤ª": 1862,
      "à¤Ĩà¤Īà¤¸": 1863,
      "à¤¨à¤Ĺ": 1864,
      "Ġà¤Ĩà¤Īà¤¸": 1865,
      "à¤¾!": 1866,
      "à¤ĩà¤¨à¤®": 1867,
      "Ġà¤¬à¤Ł": 1868,
      "27": 1869,
      "Ġà¤¤à¤Ł": 1870,
      "Ġà¤ļà¤®à¤ķ": 1871,
      "Ġà¤¬à¤¸à¤ª": 1872,
      "Ġà¤īà¤Ĺ": 1873,
      "à¤ıà¤¸à¤¸": 1874,
      "à¤Ĺà¤ł": 1875,
      "Ġà¤¨à¤µà¤®": 1876,
      "ard": 1877,
      "à¥Ī!": 1878,
      "Ġà¤°à¤ĸà¤ķà¤°": 1879,
      "Ġà¤Ĩà¤Īà¤Ł": 1880,
      "Ġà¤Ĩà¤ľà¤®": 1881,
      "ext": 1882,
      "Ġà¤Ńà¤Ĺ": 1883,
      "à¤°à¤¥": 1884,
      "à¤Ĩà¤Īà¤ª": 1885,
      "à¤Ĺà¤ķà¤°": 1886,
      "Ġj": 1887,
      "Ġà¤Ĩà¤¦à¤¤": 1888,
      "Ġà¤ĳà¤°": 1889,
      "Ġà¤ĵà¤¬": 1890,
      "à¤ĩà¤µà¤°": 1891,
      "à¤Īà¤ĵ": 1892,
      "Ġà¤ħà¤«à¤Ĺ": 1893,
      "ction": 1894,
      "oc": 1895,
      "Ġ75": 1896,
      "ah": 1897,
      "Ġ@": 1898,
      "à¤¯à¤Łà¤ķ": 1899,
      "Ġ48": 1900,
      "ary": 1901,
      "Ġà¤ķà¤µà¤°": 1902,
      "Ġà¤ĸà¤Ł": 1903,
      "Ġà¤Ńà¤¡": 1904,
      "à¤Ĺà¤ª": 1905,
      "47": 1906,
      "ug": 1907,
      "ĠCom": 1908,
      "GB": 1909,
      "ne": 1910,
      "Ġà¤Ĺà¤µ": 1911,
      "Ġà¤ĸà¤¤à¤°à¤¨": 1912,
      "à¤Ĩà¤¨": 1913,
      "Ġà¤°à¤ļ": 1914,
      "iv": 1915,
      "//": 1916,
      "Ġ2008": 1917,
      "ĠNo": 1918,
      "ish": 1919,
      "à¤Ĩà¤°à¤ª": 1920,
      "à¤ĸà¤¦": 1921,
      "à¤µà¤®": 1922,
      "Ġà¤¸à¤°à¤²": 1923,
      "à¤°à¤ķà¤Ł": 1924,
      "à¤ĩà¤¬à¤°": 1925,
      "Ġà¤Łà¤ķà¤°": 1926,
      "Ġà¤¨à¤®à¤ķ": 1927,
      "Ġà¤Ĩà¤ľà¤ķà¤²": 1928,
      "à¤Łà¤ĩ": 1929,
      "à¤Łà¤¨à¤°": 1930,
      "ite": 1931,
      "Ġà¤ıà¤ķà¤®": 1932,
      "Ġà¤ªà¤ļ": 1933,
      "à¤Īà¤¡": 1934,
      "Ġà¤ıà¤¡à¤®": 1935,
      "à¤¯à¤Ł": 1936,
      "ont": 1937,
      "ber": 1938,
      "aj": 1939,
      "Ġby": 1940,
      "Ġ[]": 1941,
      "Ġà¤¨à¤ķà¤¦": 1942,
      "ks": 1943,
      "ĠRead": 1944,
      "29": 1945,
      "à¤²à¤ĸà¤¨à¤Ĭ": 1946,
      "reen": 1947,
      "ud": 1948,
      "Ġà¥ĺ": 1949,
      "à¤ķà¤¤à¤®": 1950,
      "à¤¼à¥Ī": 1951,
      "out": 1952,
      "Ġà¤§à¤ķ": 1953,
      "://": 1954,
      "à¤Ľà¤¨": 1955,
      "Ġà¤¸à¤Ĭà¤¦": 1956,
      "à¥¦à¥¦": 1957,
      "à¤īà¤¥": 1958,
      "à¤ĩà¤¤à¤¨": 1959,
      "à¤Łà¤¸": 1960,
      "Ġà¤¬à¤°à¤¤": 1961,
      "Ġà¤ħà¤ªà¤®": 1962,
      "Ġà¤¨à¤·": 1963,
      "à¤¯à¤§": 1964,
      "à¤īà¤¸à¤¨": 1965,
      "à¤ķà¤²à¤¤": 1966,
      "ith": 1967,
      "à¤Ĩà¤§": 1968,
      "à¤ľà¤«": 1969,
      "Ġ38": 1970,
      "Ġà¤Ĩà¤ªà¤°": 1971,
      "à¤Ĩà¤¯": 1972,
      "ure": 1973,
      "Ġà¤¶à¤°à¤£": 1974,
      "Ġà¤ķà¥ľ": 1975,
      "Ġà¤¸à¤°à¤ª": 1976,
      "Ġ55": 1977,
      "à¤¶à¤Ńà¤°": 1978,
      "Ġà¤ľà¤¨à¤ľ": 1979,
      "à¤¦à¤¨à¤¶": 1980,
      "Ġ....": 1981,
      "à¤ıà¤ª": 1982,
      "Ġà¤²à¤ĺ": 1983,
      "Ġà¤§à¤µà¤¨": 1984,
      "Ġ150": 1985,
      "à¤®à¤ľ": 1986,
      "Ġà¤ıà¤ķà¤¦à¤®": 1987,
      "Ġà¤¬à¤ļà¤¤": 1988,
      "Ġà¤īà¤łà¤¤": 1989,
      "Ġà¤ĸà¤¨": 1990,
      "à¤Īà¤¯": 1991,
      "à¥Ī...": 1992,
      "à¤ĸà¤¬à¤°": 1993,
      "ĠLo": 1994,
      "av": 1995,
      "¥Ł": 1996,
      "à¥Ł": 1997,
      "Ġà¤¬à¤¨à¤°": 1998,
      "Ġà¤ıà¤¯à¤°à¤ª": 1999,
      "à¤£à¤µ": 2000,
      "Ġà¤Ĺà¤°à¤®": 2001,
      "Ġ&": 2002,
      "à¤¦à¤ª": 2003,
      "Ġà¤Ńà¤°à¤¤": 2004,
      "Ġà¤ħà¤®à¤²": 2005,
      "Ġà¤¥à¤ķ": 2006,
      "Ġà¤¹à¤°à¤ķà¤¤": 2007,
      "ideo": 2008,
      "à¤ĩà¤¨à¤°": 2009,
      "Ġà¤Ľà¤ª": 2010,
      "Ġà¤ķà¤²à¤°": 2011,
      "à¥ĭà¤Ĥ-": 2012,
      "à¤ħà¤¸": 2013,
      "Ġà¤¨à¥Ľà¤°": 2014,
      "70": 2015,
      "Ġcom": 2016,
      "ee": 2017,
      "Ġà¤¬à¤¦à¤²à¤¤": 2018,
      "Ġà¤¬à¤°à¤ķà¤°": 2019,
      "75": 2020,
      "à¤¶à¤¯": 2021,
      "hot": 2022,
      "Ġà¤ªà¤°à¤µ": 2023,
      "Ġà¤Łà¤°": 2024,
      "à¤ļà¤¤à¤®": 2025,
      "Ġà¤ªà¤µà¤¨": 2026,
      "Ġà¤Ńà¤¤": 2027,
      "Ġà¤²à¤µ": 2028,
      "à¤£à¤¤": 2029,
      "ĠMe": 2030,
      "à¤ĩà¤¶": 2031,
      "Ġà¤¨à¤ķà¤²": 2032,
      "05": 2033,
      "own": 2034,
      "à¤²à¤Ŀ": 2035,
      "ies": 2036,
      "à¤Ĩà¤°à¤¸": 2037,
      "à¤Ĩà¤Īà¤Ĩà¤°": 2038,
      "à¤¯à¤°à¤¤": 2039,
      "gle": 2040,
      "à¤Łà¤ª": 2041,
      "à¤¯à¤¯": 2042,
      "Ġ2020": 2043,
      "Ġà¤®à¤ķà¤¸à¤¦": 2044,
      "Ġ196": 2045,
      "ace": 2046,
      "Ġà¤¸à¤°à¤¦": 2047,
      "à¤¸à¤¬à¤¸": 2048,
      "à¤¯à¤¨à¤¶": 2049,
      "Ġdi": 2050,
      "90": 2051,
      "à¤ļà¤®": 2052,
      "Ġ65": 2053,
      "à¤¹à¤µ": 2054,
      "ook": 2055,
      "à¤ķà¤ľ": 2056,
      "Ġà¤Ĩà¤®à¤¤": 2057,
      "Ġà¤¯à¤®": 2058,
      "à¤ĩà¤¬": 2059,
      "à¤¿à¥¤": 2060,
      "à¥ĭà¤Ĥà¥¤": 2061,
      "Ġpro": 2062,
      "ous": 2063,
      "à¤īà¤ª": 2064,
      "à¤£à¤ķ": 2065,
      "Ġlo": 2066,
      "à¤¨à¤ľà¤°": 2067,
      "Ġà¥©": 2068,
      "Ġà¤ıà¤¡à¤µ": 2069,
      "Ġth": 2070,
      "Ġà¤ªà¤°à¤«": 2071,
      "à¥Ģ|": 2072,
      "Ġà¤ıà¤¨à¤¸": 2073,
      "à¤ĩà¤¨à¤ķ": 2074,
      "Ġà¤ĵà¤®": 2075,
      "à¥ľà¤ķà¤°": 2076,
      "à¥ĩ|": 2077,
      "à¤¨à¤¶": 2078,
      "ac": 2079,
      "à¤ıà¤ľ": 2080,
      "Ġà¤¬à¤ĸ": 2081,
      "à¤īà¤®": 2082,
      "à¤²à¤«": 2083,
      "Ġà¤·": 2084,
      "ps": 2085,
      "ĠRec": 2086,
      "à¤ķà¤Łà¤°": 2087,
      "Ġà¤ĩà¤§à¤°": 2088,
      "à¤Ĺà¤°à¤£": 2089,
      "ill": 2090,
      "Ġà¤ľà¤¨à¤ªà¤¦": 2091,
      "ang": 2092,
      "Ġà¤¯à¤¥": 2093,
      "à¤Łà¤°à¤¸": 2094,
      "à¤ħà¤¤": 2095,
      "55": 2096,
      "à¤¯à¤°à¤¸": 2097,
      "Ġà¤®à¤°à¤¨": 2098,
      "Ġhtt": 2099,
      "ick": 2100,
      "Ġà¤ķà¤¦": 2101,
      "à¤°à¤ĸà¤ª": 2102,
      "Ġà¤¬à¤¦à¤¨": 2103,
      "à¤²à¤ĸ": 2104,
      "à¤¬à¤ķ": 2105,
      "48": 2106,
      "Ġat": 2107,
      "ory": 2108,
      "Ġà¤²à¤²": 2109,
      "esh": 2110,
      "oogle": 2111,
      "kar": 2112,
      "à¤®à¤®": 2113,
      "à¤Ĩà¤µà¤ľ": 2114,
      "à¥Ģ/": 2115,
      "à¤¬à¥ľ": 2116,
      "à¤¾..": 2117,
      "me": 2118,
      "Ġà¤ľà¤¬à¤°": 2119,
      "ear": 2120,
      "à¤Īà¤µ": 2121,
      "ĠPr": 2122,
      "ach": 2123,
      "33": 2124,
      "ass": 2125,
      "à¤ıà¤¸à¤Ĩà¤Ī": 2126,
      "ile": 2127,
      "Ġà¤²à¤Łà¤ķ": 2128,
      "à¤°à¤ļà¤¨": 2129,
      "Ġà¤°à¤¹à¤¸": 2130,
      "Ġà¤ľà¤¹à¤°": 2131,
      "ial": 2132,
      "à¤¯à¤²à¤Ł": 2133,
      "Ġà¤¸à¤®à¤¨": 2134,
      "à¤¸à¤®à¤¯": 2135,
      "à¤¼à¥ĩà¥¤": 2136,
      "cc": 2137,
      "Ġà¤°à¤ĺ": 2138,
      "à¤¨à¤ļ": 2139,
      "Ġà¤¥à¤°": 2140,
      "Ġ39": 2141,
      "Ġ2000": 2142,
      "à¤¤à¤¸": 2143,
      "à¤¬à¤°à¤®": 2144,
      "Ġà¤īà¤Ń": 2145,
      "Ġ46": 2146,
      "ated": 2147,
      "à¤Ĺà¥ľ": 2148,
      "à¤¯à¤¥": 2149,
      "à¤ªà¤°à¤¸": 2150,
      "Ġà¤īà¤§à¤°": 2151,
      "Ġà¤®à¤®": 2152,
      "à¤īà¤¡à¤°": 2153,
      "ĠX": 2154,
      "ĠIST": 2155,
      "09": 2156,
      "Ġà¤¬à¤Łà¤¨": 2157,
      "500": 2158,
      "à¤·à¤§": 2159,
      "31": 2160,
      "à¤Īà¤¨": 2161,
      "Ġà¤Ĩà¤°à¤ıà¤¸à¤ıà¤¸": 2162,
      "Ġà¤Ĺà¤µà¤°": 2163,
      "ĠCh": 2164,
      "Ġà¤Ĺà¤¢": 2165,
      "Ġà¤ļà¥Ŀ": 2166,
      "Ġà¤²à¤¤": 2167,
      "à¤¹à¤°à¤¹": 2168,
      "ĠMore": 2169,
      "ans": 2170,
      "Ġà¤īà¥ľ": 2171,
      "à¤Ĺà¤¸": 2172,
      "Ġà¤¶à¤®": 2173,
      "Ġà¤ıà¤¬": 2174,
      ":-": 2175,
      "¤Ļ": 2176,
      "à¤Ļ": 2177,
      "Ġ49": 2178,
      "à¥Ĥà¤ģ,": 2179,
      "ĠIndia": 2180,
      "Ġà¤¸à¤¹à¤ľ": 2181,
      "49": 2182,
      "Ġà¤ĩà¤¨à¤¸": 2183,
      "Ġà¤¶à¤¶": 2184,
      "nt": 2185,
      "Ġà¤¯à¤¶": 2186,
      "à¤łà¤¤": 2187,
      "Ġà¤ķà¤¹à¤ķà¤°": 2188,
      "Ġà¤ķà¤¹à¤²": 2189,
      "Ġà¤ĳà¤ª": 2190,
      "load": 2191,
      "ack": 2192,
      "36": 2193,
      "à¤°à¤®à¤¶": 2194,
      "à¤¼à¥Ĥ": 2195,
      "Ġà¤Ĩà¤¸à¤®": 2196,
      "37": 2197,
      "à¤§à¤ª": 2198,
      "à¥Īà¤Ĥ-": 2199,
      "Ġà¤ħà¤¸à¤¹": 2200,
      "Ġà¤ĩà¤µ": 2201,
      "Ġ400": 2202,
      "ĠPro": 2203,
      "Ġà¤®à¤Ľà¤²": 2204,
      "à¤¹à¤®à¤¨": 2205,
      "Ġ42": 2206,
      "Ġme": 2207,
      "Ġà¤Ĩà¤Ĺà¤°": 2208,
      "à¤ĩà¤ľà¤°": 2209,
      "ru": 2210,
      "à¤¼à¥Ģ,": 2211,
      "ress": 2212,
      "Ġà¤ªà¤¹à¤¨à¤¨": 2213,
      "à¤Ĺà¤ªà¤¤": 2214,
      "à¤¶à¤ķà¤¶": 2215,
      "!!": 2216,
      "Ġà¤Ĩà¤ªà¤¦": 2217,
      "Ġus": 2218,
      "Ġà¤īà¤Ńà¤°": 2219,
      "à¤łà¤ķà¤°": 2220,
      "Ġà¤ĳà¤ķ": 2221,
      "Ġ44": 2222,
      "Ġà¤ĵà¤¡": 2223,
      "Ġ2007": 2224,
      "Ġ1000": 2225,
      "08": 2226,
      "ĠAnd": 2227,
      "39": 2228,
      "Ġà¤ľà¤²à¤µ": 2229,
      "à¤Ńà¤¦": 2230,
      "Ġà¤°à¤£à¤µ": 2231,
      "Ġà¤ħà¤ªà¤¹à¤°à¤£": 2232,
      "Ġà¤¶à¤°à¤¦": 2233,
      "hone": 2234,
      "Ġà¤¸à¤¹à¤ķ": 2235,
      "à¤¶à¤¨à¤ķ": 2236,
      "Ġà¤īà¤¬": 2237,
      "à¤¸à¤Ł": 2238,
      "Ġ47": 2239,
      "à¤°à¤ł": 2240,
      "Ġà¤īà¤ªà¤®": 2241,
      "à¤ıà¤®à¤ıà¤¸": 2242,
      "Ġà¤ħà¤µà¤Ĺà¤¤": 2243,
      "à¤Ĩà¤īà¤Ł": 2244,
      "32": 2245,
      "à¤¡à¤ª": 2246,
      "ult": 2247,
      "à¤£à¤®": 2248,
      "Ġ64": 2249,
      "ana": 2250,
      "à¤¾à¤ģ,": 2251,
      "Ġà¤ıà¤ķà¤²": 2252,
      "Ġà¤Ńà¤Ĺà¤¤": 2253,
      "à¤§à¤ķà¤°": 2254,
      "creen": 2255,
      "Ġà¤¸à¤¦à¤°": 2256,
      "38": 2257,
      "à¤ĸà¤Ń": 2258,
      "à¤¹à¤¡": 2259,
      "AR": 2260,
      "à¤Ĭà¤¨": 2261,
      "Ġà¤ıà¤ķà¤ľ": 2262,
      "Ġde": 2263,
      "Ġà¤Ĳà¤¶": 2264,
      "roid": 2265,
      "Ġà¤ľà¤¶": 2266,
      "Ġà¤Ĩà¤Īà¤ı": 2267,
      "à¤Ĩà¤Ĺ": 2268,
      "à¤Ĩà¤Īà¤ı": 2269,
      "Ġà¤¤à¤ķà¤°": 2270,
      "Ġbe": 2271,
      "ĠApp": 2272,
      "SC": 2273,
      "à¥Ī:": 2274,
      "Ġà¤ĸà¤¨à¤¨": 2275,
      "à¤µà¤¸à¤¨": 2276,
      "ĠAM": 2277,
      "07": 2278,
      "Ġ56": 2279,
      "Ġmore": 2280,
      "nan": 2281,
      "57": 2282,
      "og": 2283,
      "Ġà¤ħà¤µà¤¤": 2284,
      "ĠUp": 2285,
      "Ġà¤ıà¤«à¤Ĩà¤Īà¤Ĩà¤°": 2286,
      "ram": 2287,
      "Ġà¤¸à¤¶à¤ķ": 2288,
      "Ġà¤ıà¤¹à¤¸": 2289,
      "34": 2290,
      "',": 2291,
      "Ġà¤īà¤ªà¤ľ": 2292,
      "Ġà¤ĸà¤²": 2293,
      "à¤¦à¤Ń": 2294,
      "Ġà¤ľà¤Ł": 2295,
      "Ġà¤ıà¤ļà¤¡": 2296,
      "Ġà¤īà¤²à¤Ŀ": 2297,
      "à¤¸à¤ªà¤°": 2298,
      "à¤®à¤¬": 2299,
      "Ġà¤¡à¤¬": 2300,
      "Ġà¤¹à¤¸à¤¨": 2301,
      "Ġà¤¨à¤¨": 2302,
      "à¤¼-": 2303,
      "dit": 2304,
      "ĠBh": 2305,
      "à¤Ĺà¤¦à¤°": 2306,
      "Ġà¤¸à¤¤à¤°": 2307,
      "SL": 2308,
      "Ġà¤Ĩà¤ĩà¤ı": 2309,
      "à¤ªà¤¹": 2310,
      "ID": 2311,
      "ry": 2312,
      "Ġà¤ĳà¤²": 2313,
      "Ġà¤Ķà¤·à¤§": 2314,
      "Ġà¤ĭà¤¤": 2315,
      "ree": 2316,
      "ĠAd": 2317,
      "à¤ĩà¤®à¤°": 2318,
      "Ġyou": 2319,
      "à¤¸à¤Ĺà¥Ŀ": 2320,
      "ie": 2321,
      "Ġ:-": 2322,
      "Ġà¤ľà¤ĸ": 2323,
      "Ġà¤ĺà¤¨": 2324,
      ").": 2325,
      "Ġà¤ĩà¤ķà¤Ł": 2326,
      "Ġà¤µà¤°à¤¨": 2327,
      "ĠDe": 2328,
      "Ġi": 2329,
      "Ġà¤łà¤Ĺ": 2330,
      "Ġà¤ĺà¤¬à¤°": 2331,
      "ownload": 2332,
      "ect": 2333,
      "Ġà¤ļà¤°à¤®": 2334,
      "06": 2335,
      "Ġà¤µà¤ľ": 2336,
      "Ġwith": 2337,
      "ĠUP": 2338,
      "india": 2339,
      "à¤ĩà¤Ĺà¤°": 2340,
      "Ġà¤ĺà¤¡": 2341,
      "Ġ51": 2342,
      "à¥ĩà¥ĩ": 2343,
      "2017": 2344,
      "Ġà¤ľà¤Ĺà¤¦": 2345,
      "Ġà¤°à¤£à¤¬": 2346,
      "à¤ħà¤¦": 2347,
      "à¤ĸà¤µ": 2348,
      "Ġà¤¦à¤¶": 2349,
      "ft": 2350,
      "ari": 2351,
      "à¤ĺà¤µ": 2352,
      "à¤¸à¤«à¤°": 2353,
      "Ġà¤ħà¤¸à¤¤": 2354,
      "ĠAl": 2355,
      "46": 2356,
      "à¤ĵà¤µ": 2357,
      "iz": 2358,
      "à¤Łà¤¡": 2359,
      "Ġà¤ķà¤ªà¥ľ": 2360,
      "ank": 2361,
      "Ġà¤ĸà¤ľ": 2362,
      "à¥Ī..": 2363,
      "à¤¯à¤ľà¤²": 2364,
      "à¤ħà¤ĸ": 2365,
      "à¥ĩà¤Ĥ:": 2366,
      "à¤¾à¤Ĥ-": 2367,
      "Ġke": 2368,
      "Ġà¤Ĩà¤¯à¤ķà¤°": 2369,
      "à¤Ĺà¤Łà¤¨": 2370,
      "à¤«à¤¨": 2371,
      "ath": 2372,
      "Ġà¤Ĩà¤Ł": 2373,
      "ight": 2374,
      "à¤¶à¤¦": 2375,
      "ash": 2376,
      "pl": 2377,
      "Ġà¤«à¤¤": 2378,
      "à¤ħà¤Ĺà¤²": 2379,
      "à¤ķà¤¬": 2380,
      "ata": 2381,
      "Ġ43": 2382,
      "Ġà¤Ŀà¤Ĺà¤¡": 2383,
      "low": 2384,
      "Ġà¤ķà¤·": 2385,
      "à¥ĩ'": 2386,
      "****": 2387,
      "01": 2388,
      "EO": 2389,
      "à¤¨à¤ı": 2390,
      "à¤ķà¤ķà¤°": 2391,
      "Ġà¥¨à¥¦": 2392,
      "Ġà¤Ĺà¤®": 2393,
      "à¤ħà¤ļ": 2394,
      "Ġà¤ĵà¤ª": 2395,
      "Ġà¤µà¤ļà¤¨": 2396,
      "à¤¾à¥ĩà¤Ĥ": 2397,
      "à¤®à¤Ĺà¤°": 2398,
      "udi": 2399,
      "à¤¬à¤ľ": 2400,
      "à¥ģà¤ĥ": 2401,
      "à¤ľà¤¶": 2402,
      "à¤§à¤¶": 2403,
      "orm": 2404,
      "Ġà¤ħà¤ķà¤¬à¤°": 2405,
      "ption": 2406,
      "Ġà¤ķà¤ļà¤°": 2407,
      "ge": 2408,
      "Ġà¤Ľà¤²": 2409,
      "Ġ41": 2410,
      "Ġà¤ħà¤¹à¤¸": 2411,
      "56": 2412,
      "à¤Ĩà¤ĸ": 2413,
      "Ġà¤Ĺà¤¹à¤¨": 2414,
      "Ġà¤®à¤¹à¤²": 2415,
      "à¤Ĺà¤¶": 2416,
      "Ġà¤°à¤¹à¤ķà¤°": 2417,
      "ĠMar": 2418,
      "Ġà¤¸à¤Ĺ": 2419,
      "ĠQ": 2420,
      "à¤¾/": 2421,
      "Ġà¥§à¥¯": 2422,
      "Ġà¤¨à¤¹à¤°": 2423,
      "ĠEx": 2424,
      "Ġà¤®à¥Ľ": 2425,
      "ĠThe": 2426,
      "à¤¶à¤¸": 2427,
      "à¥Ĥ)": 2428,
      "Ġapp": 2429,
      "à¤Ĩà¤²": 2430,
      "à¤¶à¤¹": 2431,
      "Ġà¤¨à¤µà¤°": 2432,
      "Ġà¤Ĩà¤¨à¤¨": 2433,
      "¤±": 2434,
      "à¤±": 2435,
      "IN": 2436,
      "Ġ58": 2437,
      "Ġà¤ĩà¤¬": 2438,
      "à¤¤à¤Ĺ": 2439,
      "à¤ħà¤®à¤°": 2440,
      "Ġà¤¬à¤µ": 2441,
      "à¥Ģ!": 2442,
      "Ġà¤Ķà¤ªà¤ļ": 2443,
      "Ġà¤ªà¤ł": 2444,
      "à¤¹à¤Ĺ": 2445,
      "Ġà¤°à¤ľà¤¤": 2446,
      "à¤°à¤¨à¤Ĺà¤°": 2447,
      "icle": 2448,
      "à¤¤à¤¸à¤°": 2449,
      "à¤Łà¤°à¤¨à¤²": 2450,
      "Ġ72": 2451,
      "à¤®à¤°à¤£": 2452,
      "44": 2453,
      "à¤ĸà¤£": 2454,
      "à¥Īà¥¤)": 2455,
      "à¤ĸà¤¡": 2456,
      "ong": 2457,
      "Ġnews": 2458,
      "à¤¶à¤¨à¤°": 2459,
      "ments": 2460,
      "Ġ52": 2461,
      "à¤¼à¥Ģà¥¤": 2462,
      "Ġà¤¯à¤ľ": 2463,
      "able": 2464,
      "Ġà¤¤à¤ª": 2465,
      "Ġ*": 2466,
      "Ġà¤īà¤¤à¤°à¤¨": 2467,
      "BI": 2468,
      "Ġ+": 2469,
      "Ġà¤°à¤ľà¤¨": 2470,
      "Ġà¤īà¤§": 2471,
      "04": 2472,
      "Ġpost": 2473,
      "Ġan": 2474,
      "Ġà¤ªà¤°à¤¸": 2475,
      "à¥ĭ)": 2476,
      "à¤īà¤°": 2477,
      "cri": 2478,
      "Ġad": 2479,
      "ER": 2480,
      "rom": 2481,
      "à¥Ģ),": 2482,
      "Ġà¤īà¤®à¤°": 2483,
      "Ġà¤ĳà¤¨": 2484,
      "ld": 2485,
      "Ġà¤¨à¤µà¤ľ": 2486,
      "Ġ2006": 2487,
      "ĠSh": 2488,
      "à¥ģ-": 2489,
      "ma": 2490,
      "Ġà¤Ĳà¤ķ": 2491,
      "à¤§à¤¡": 2492,
      "à¤Ĺà¤£à¤¨": 2493,
      "Ġà¤¡à¤¬à¤²": 2494,
      "Ġà¤Ĩà¤Īà¤¡": 2495,
      "Ġà¤ıà¤¸à¤¸": 2496,
      "à¤¹à¤ľ": 2497,
      "à¤ıà¤¨à¤ıà¤¸": 2498,
      "Ġà¤Ĺà¤¦": 2499,
      "à¤ĩà¤°": 2500,
      "à¤ĩà¤ķà¤²": 2501,
      "Ġà¤¦à¤°à¤¬": 2502,
      "JP": 2503,
      "Ġ250": 2504,
      "Ġà¤¥à¤®": 2505,
      "Ġà¤ªà¤²à¤Ł": 2506,
      "Ġà¤ħà¤ªà¤²": 2507,
      "à¤µà¤¯à¤¨": 2508,
      "65": 2509,
      "ov": 2510,
      "ric": 2511,
      "à¤¦à¤°à¤¤": 2512,
      "Ġ$": 2513,
      "à¤ıà¤«à¤¸": 2514,
      "à¥ĩ!": 2515,
      "Ġà¤ªà¥Ŀà¤¨": 2516,
      "Ġà¤ļà¤Ł": 2517,
      "):": 2518,
      "Ġà¤ħà¤«à¤µ": 2519,
      "Ġà¤Ĩà¤°à¤¬": 2520,
      "Ġ54": 2521,
      "Ġ68": 2522,
      "Ġka": 2523,
      "à¤ıà¤¨à¤¯": 2524,
      "¥¥": 2525,
      "à¥¥": 2526,
      "02": 2527,
      "à¤ľà¤¯à¤ª": 2528,
      "Ġà¤ªà¤¥": 2529,
      "ĠLoading": 2530,
      "Ġà¤¨à¤Ĺ": 2531,
      "Ġà¤īà¤Ľ": 2532,
      "Ġà¤Ĩà¤¡": 2533,
      "à¤¨à¤ľ": 2534,
      "Ġà¤ªà¤¹à¤²à¤µ": 2535,
      "Ġà¤§à¤¡": 2536,
      "Ġà¥ª": 2537,
      "Ġà¤Ĺà¤ľ": 2538,
      "Ġhindi": 2539,
      "à¤¡à¤©": 2540,
      "Ġà¤¤à¤²à¤µ": 2541,
      "à¤Ĺà¤µà¤¤": 2542,
      "Ġà¤¬à¥Ŀà¤¨": 2543,
      "à¤ļà¤¸": 2544,
      "Ġà¤ªà¤Łà¤°": 2545,
      "revi": 2546,
      "ĠEn": 2547,
      "ib": 2548,
      "Ġà¤¤à¤ķà¤²": 2549,
      "à¤°à¤¯à¤¤": 2550,
      "à¤Īà¤¦": 2551,
      "à¤īà¤ľ": 2552,
      "03": 2553,
      "ue": 2554,
      "à¤Ĩà¤ĩ": 2555,
      "app": 2556,
      "à¥ĩ:": 2557,
      "AN": 2558,
      "Ġà¥ļ": 2559,
      "Ġà¤¬à¤ľà¤°": 2560,
      "Ġà¤¨à¤«": 2561,
      "58": 2562,
      "Ġà¤Ĩà¤°à¤¤": 2563,
      "Ġà¤ħà¤²à¤°": 2564,
      "Ġà¤¶à¤¹à¤¦": 2565,
      "Ġà¤Ńà¤Łà¤ķ": 2566,
      "Ġup": 2567,
      "Ġà¤ħà¤¨à¤¦": 2568,
      "Ġ57": 2569,
      "42": 2570,
      "Ġà¤¹à¤²à¤ķ": 2571,
      "Ġà¤®à¤¤à¤Ń": 2572,
      "à¤ıà¤¨à¤¸": 2573,
      "Ġà¤«à¤Ł": 2574,
      "ave": 2575,
      "Ġà¥«": 2576,
      "Ġà¤Ĩà¤ķà¤²à¤¨": 2577,
      "Ġà¤°à¤¥": 2578,
      "Ġà¤¹à¤®à¤¸": 2579,
      "à¤¸à¤ıà¤ª": 2580,
      "51": 2581,
      "à¤®à¤Ł": 2582,
      "ĠGoogle": 2583,
      "ase": 2584,
      "à¥Ī;": 2585,
      "line": 2586,
      "à¤ħà¤¶": 2587,
      "à¤Ĺà¤¬": 2588,
      "udio": 2589,
      "à¤§à¤¶à¤¤à¤ķ": 2590,
      "xx": 2591,
      "à¤ıà¤¸à¤¬": 2592,
      "Ġà¤Ĩà¤łà¤µ": 2593,
      "à¤ıà¤¶": 2594,
      "co": 2595,
      "à¤¼à¥ĩ-": 2596,
      "à¤²à¤ªà¤¤": 2597,
      "In": 2598,
      "Ġà¤ªà¤¤à¤²": 2599,
      "wit": 2600,
      "Ġà¤Īà¤µ": 2601,
      "Ġà¤ħà¤¸à¤«à¤²": 2602,
      "ĠRGB": 2603,
      "Ġà¤°à¤®à¤¨": 2604,
      "à¤¬à¤¹à¤°à¤¹": 2605,
      "Ġà¤®à¤¥": 2606,
      "ube": 2607,
      "à¤Ńà¤²": 2608,
      "ĠHSL": 2609,
      "à¥ĭ?": 2610,
      "ood": 2611,
      "à¤¼à¥Į": 2612,
      "Ġnm": 2613,
      "à¤Łà¤°à¤ª": 2614,
      "ĠCam": 2615,
      "AT": 2616,
      "à¤ĩà¤¡à¤°": 2617,
      "à¥Ī)": 2618,
      "à¤Ĩà¤µ": 2619,
      "Ġà¤¤à¤¡": 2620,
      "à¤¥à¤Ĺ": 2621,
      "ĠUpd": 2622,
      "59": 2623,
      "à¥Ĥ.": 2624,
      "à¤ĵà¤²": 2625,
      "Ġà¤¤à¤¹à¤°": 2626,
      "Ġà¤ıà¤ķà¤¡": 2627,
      "na": 2628,
      "Ġà¤īà¤²à¤Ł": 2629,
      "Ġ2005": 2630,
      "ise": 2631,
      "à¤Ĥà¥ĩ": 2632,
      "Ġ99": 2633,
      "Ġà¤µà¤¶": 2634,
      "à¤īà¤ļ": 2635,
      "ss": 2636,
      "Ġà¤®à¤¦à¤¨": 2637,
      "Ġà¤Ĩà¤¡à¤µ": 2638,
      "à¥ģ.": 2639,
      "Ġ2004": 2640,
      "Ġà¤Ŀà¤²à¤ķ": 2641,
      "Ġà¤ľà¤²à¤¨": 2642,
      "à¤Ĺà¤ķ": 2643,
      "hats": 2644,
      "revious": 2645,
      "à¤Īà¤ª": 2646,
      "ount": 2647,
      "ĠTo": 2648,
      "Ġà¤īà¤łà¤¨": 2649,
      "ĠTim": 2650,
      "Ġà¤īà¤ªà¤¹": 2651,
      "à¤¸à¤®à¤¸": 2652,
      "ake": 2653,
      "à¤ıà¤¬": 2654,
      "Ġà¤Ŀà¤¡": 2655,
      "à¤ĳà¤¸": 2656,
      "Ġart": 2657,
      "Ġà¤ªà¤ª": 2658,
      "à¤¹à¤¤à¤ķ": 2659,
      "ebs": 2660,
      "à¤¸à¤¨à¤²": 2661,
      "Ġà¤ħà¤¨à¤¶à¤¨": 2662,
      "Ġà¤īà¤ªà¤ķ": 2663,
      "Ġà¤¨à¤¬": 2664,
      "à¤¯à¤Ĺ": 2665,
      "ĠKa": 2666,
      "à¤Ĩà¤¦": 2667,
      "Ġà¤¤à¤°à¤ķ": 2668,
      "Ġch": 2669,
      "Ġà¤Ńà¤ľà¤¨": 2670,
      "à¤ħà¤«": 2671,
      "Ġhai": 2672,
      "à¤°à¤¬à¤²": 2673,
      "te": 2674,
      "à¤Ĺà¤łà¤¬": 2675,
      "Ġà¤ıà¤®à¤¬": 2676,
      "IC": 2677,
      "100": 2678,
      "ala": 2679,
      "Ġex": 2680,
      "à¤ıà¤¸à¤ıà¤«": 2681,
      "à¥Ĥà¤ģ.": 2682,
      "pr": 2683,
      "--------": 2684,
      "ĠAndroid": 2685,
      "ĠAr": 2686,
      "à¤ĵà¤¸": 2687,
      "à¤¤à¤°à¤ª": 2688,
      "à¤¾\"": 2689,
      "Ġ67": 2690,
      "Ġà¤¸à¤¹à¤¨": 2691,
      "Ġsh": 2692,
      "à¤¨à¤µà¤¤": 2693,
      "Ġ=": 2694,
      "Ġ09": 2695,
      "à¤ıà¤¸à¤ı": 2696,
      "Ġ59": 2697,
      "Ġà¤²à¤ķà¤¡": 2698,
      "witter": 2699,
      "à¤°à¤Ĺà¤°": 2700,
      "Ġà¤Ńà¤¦": 2701,
      "Ġà¤ªà¤¥à¤°": 2702,
      "Ġà¤ªà¤°à¤¤": 2703,
      "52": 2704,
      "à¤¼à¤¾.": 2705,
      "Ġ66": 2706,
      "........": 2707,
      "Ġà¤Ĺà¤£à¤¨": 2708,
      "Ġà¤ĩà¤¸à¤¨": 2709,
      "Ġà¤ıà¤²à¤Īà¤¡": 2710,
      "Ġrec": 2711,
      "à¤ľà¤°à¤¨": 2712,
      "à¥ĩà¤Ĥ-": 2713,
      "à¤¹à¤«": 2714,
      "Ġà¤ħà¤µà¤ķ": 2715,
      "Ġà¤Ĩà¤²à¤®": 2716,
      "à¤ıà¤¨à¤ľ": 2717,
      "43": 2718,
      "2019": 2719,
      "à¥Īà¤Ĥ:": 2720,
      "__": 2721,
      "ead": 2722,
      "à¤¼à¥ĩà¤Ĥ:": 2723,
      "per": 2724,
      "Ġà¤ıà¤¯à¤°à¤²": 2725,
      "à¥Ģà¤ģ": 2726,
      "à¤¯à¤Ń": 2727,
      "ET": 2728,
      "Ġ120": 2729,
      "Ġà¤¨à¤°à¤¸": 2730,
      "Ġà¤Ĩà¤°à¤Ł": 2731,
      "Ġse": 2732,
      "port": 2733,
      "Ġà¤¸à¤¤à¤¹": 2734,
      "Ġà¤ĳà¤¯à¤²": 2735,
      "Ġ85": 2736,
      "Ġà¤ıà¤¸à¤Ł": 2737,
      "77": 2738,
      "Ġ53": 2739,
      "Ġle": 2740,
      "und": 2741,
      "à¤¸à¤ľ": 2742,
      "Ġà¤ľà¤¬à¤°à¤¨": 2743,
      "Ġà¤®à¤¹à¤°": 2744,
      "Ġà¤¨à¤µà¤¨": 2745,
      "Ġà¤īà¤ªà¤¦": 2746,
      "ance": 2747,
      "du": 2748,
      "ĠOn": 2749,
      "====": 2750,
      "Ġà¤Ĩà¤ĩ": 2751,
      "à¤Ĩà¤Īà¤ıà¤®": 2752,
      "Ġà¤ľà¤¨à¤¸à¤Ń": 2753,
      "Ġà¤ıà¤®à¤ª": 2754,
      "Ġ01": 2755,
      "41": 2756,
      "Ġà¤¹à¤²à¤ļà¤²": 2757,
      "Ġà¤¹à¥Ľ": 2758,
      "Ġà¤Īà¤¦": 2759,
      "à¥Ģ..": 2760,
      "88": 2761,
      "Ġà¤«à¤°à¤®": 2762,
      "Ġà¤¬à¤¬": 2763,
      "à¥ĩà¤¼": 2764,
      "Ġà¤ħà¤Łà¤ķ": 2765,
      "Ġor": 2766,
      "Ġhe": 2767,
      "book": 2768,
      "pe": 2769,
      "à¤Īà¤®": 2770,
      "Ġà¤ĺà¤Łà¤ķà¤°": 2771,
      "à¤«à¤¤": 2772,
      "à¤°à¤ľà¤¨": 2773,
      "order": 2774,
      "à¤¸à¤®à¤Ŀ": 2775,
      "à¤¼à¥ĩ,": 2776,
      "Ġà¤®à¤¯": 2777,
      "95": 2778,
      "à¤¦à¤ķà¤°": 2779,
      "Ġà¤«à¤¡": 2780,
      "à¤¤à¤¹": 2781,
      "à¤¶à¤ª": 2782,
      "ĠAn": 2783,
      "Ġà¤Ĩà¤¸à¤¨": 2784,
      "Ġà¤¬à¤ķà¤°": 2785,
      "Ġyour": 2786,
      "Ġà¤ļà¤®à¤¤": 2787,
      "ere": 2788,
      "Ġà¤µà¤²": 2789,
      "ink": 2790,
      "à¤ıà¤®à¤ĵ": 2791,
      "??": 2792,
      "à¤°à¤ļà¤²": 2793,
      "dic": 2794,
      "67": 2795,
      "askar": 2796,
      "à¤¸à¤°à¤¸": 2797,
      "Ġà¤ıà¤ķà¤¦": 2798,
      "Ġà¤°à¤¶": 2799,
      "ĠTe": 2800,
      "ame": 2801,
      "à¤¤à¤¦": 2802,
      "à¤²à¤²": 2803,
      "Ġà¤ħà¤¨à¤ľ": 2804,
      "Ġà¤īà¤ªà¤µ": 2805,
      "Ġà¤ĸà¤¦": 2806,
      "Ġcon": 2807,
      "à¤¤à¤Ń": 2808,
      "à¤Ńà¤Ĺà¤µ": 2809,
      "à¤Ĩà¤¶": 2810,
      "ĠDes": 2811,
      "Ġà¤ĩà¤Łà¤²": 2812,
      "Ġà¤°à¤¤à¤¨": 2813,
      "ĠPl": 2814,
      "ĠTh": 2815,
      "Ġà¤Ĺà¤£à¤¤": 2816,
      "à¤ıà¤ļà¤¡": 2817,
      "¤½": 2818,
      "à¤½": 2819,
      "Ġà¤ķà¤®à¤²à¤¨": 2820,
      "Ġà¤®à¤°à¤®": 2821,
      "à¤«à¤²à¤¤": 2822,
      "Ġà¤¨à¤°à¤®": 2823,
      "à¥ĭà¤Ĥ.": 2824,
      "io": 2825,
      "à¤ªà¥ľ": 2826,
      "à¤ĵà¤®": 2827,
      "Ġ(@": 2828,
      "à¤¥à¤¶": 2829,
      "à¥ĩà¥į": 2830,
      "oft": 2831,
      "act": 2832,
      "à¤µà¤Ĺ": 2833,
      "à¤Ĩà¤¸": 2834,
      "à¤Īà¤ľ": 2835,
      "à¤¯à¤µà¤°": 2836,
      "Ġarticle": 2837,
      "ĠHind": 2838,
      "à¤¶à¤Ńà¤ķ": 2839,
      "Ġà¤°à¤¹à¤®": 2840,
      "IT": 2841,
      "54": 2842,
      "à¤¾;": 2843,
      "Ġà¤ķà¤²à¤®": 2844,
      "Ġà¤¸à¤¨à¤¸à¤¨": 2845,
      "à¤ıà¤¸à¤¡": 2846,
      "Ġ08": 2847,
      "Ġà¤ħà¤ľà¤®": 2848,
      "Ġ62": 2849,
      "à¤Łà¤ħà¤ª": 2850,
      "Ġà¤¸à¤®à¤²": 2851,
      "Previous": 2852,
      "Ġà¤ħà¤¥": 2853,
      "Ġà¤īà¤¦à¤¯": 2854,
      "à¤¨à¤¹à¤°": 2855,
      "à¤ķà¤£": 2856,
      "ali": 2857,
      "à¤Łà¤°à¤Ł": 2858,
      "ĠOff": 2859,
      "à¤¥à¤¤": 2860,
      "Ġà¤Łà¤®": 2861,
      "53": 2862,
      "à¤¸à¤µà¤°": 2863,
      "Ġà¤ĳà¥ŀ": 2864,
      "IDEO": 2865,
      "Ġà¤Ĩà¤Īà¤ıà¤ıà¤¸": 2866,
      "ĠAug": 2867,
      "Ġà¤²à¤Ĺà¤µ": 2868,
      "à¤ªà¤¢": 2869,
      "à¤¸à¤¡": 2870,
      "Ġà¤ĸà¤ªà¤¤": 2871,
      "à¤¢r": 2872,
      "Ġà¤ħà¤µà¤°": 2873,
      "uk": 2874,
      "Ġà¤ľà¤¨à¤¹": 2875,
      "ebsite": 2876,
      "Ġ2002": 2877,
      "68": 2878,
      "acebook": 2879,
      "ire": 2880,
      "atest": 2881,
      "Ġà¤Ĩà¤ĩà¤¡": 2882,
      "à¤¤à¤°à¤¹": 2883,
      "Ġà¤¦à¤®à¤¦": 2884,
      "à¤Ĩà¤°à¤¬": 2885,
      "Ġà¤¬à¤Ĺà¤²": 2886,
      "Ġà¤¤à¤¹": 2887,
      "Ġà¤ķà¤¥à¤¨": 2888,
      "à¤Īà¤°": 2889,
      "Ġpl": 2890,
      "Ġ69": 2891,
      "Ġà¤ľà¥ľ": 2892,
      "à¤°à¤ķà¤²": 2893,
      "Ġà¤ļà¤¶": 2894,
      "à¤Ľà¥ľ": 2895,
      "2016": 2896,
      "Ġà¤Ĩà¤Ĺà¤®à¤¨": 2897,
      "Ġ370": 2898,
      "à¤¯à¤ļ": 2899,
      "ener": 2900,
      "à¥Īà¥¤\"": 2901,
      "Ġà¤¸à¤¹à¤µ": 2902,
      "indow": 2903,
      "à¤ªà¤µ": 2904,
      "Ġà¤Ĩà¤ī": 2905,
      "Ġkar": 2906,
      "tern": 2907,
      "lect": 2908,
      "Ġà¤ıà¤¨à¤ľ": 2909,
      "Ġà¤ıà¤¸à¤ıà¤¸à¤ª": 2910,
      "à¤µà¤¡à¤£": 2911,
      "ell": 2912,
      "Ġà¤ıà¤¨à¤°": 2913,
      "ĠVideo": 2914,
      "Ġà¤ĵà¤®à¤ª": 2915,
      "Ġ78": 2916,
      "ens": 2917,
      "Ġ!!": 2918,
      "Ġit": 2919,
      "à¥ĭ...": 2920,
      "à¥Īà¤Ĥ!": 2921,
      "Ġ63": 2922,
      "Ġà¤¬à¤°à¤¤à¤¨": 2923,
      "Ġà¤ļà¤²à¤ķà¤°": 2924,
      "ĠRes": 2925,
      "Ġ71": 2926,
      "Ġà¥¨à¥¦à¥§": 2927,
      "à¤īà¤¡": 2928,
      "aw": 2929,
      "Ġà¤ħà¤®à¤¨": 2930,
      "Ġà¤¦à¤ĸà¤²": 2931,
      "Ġ2003": 2932,
      "à¤¸à¤Ĺ": 2933,
      "Ġà¤µà¤Ĺ": 2934,
      "Ġà¤ıà¤¥à¤²": 2935,
      "à¤ªà¤¬": 2936,
      "Ġà¤ħà¤Ńà¤¯": 2937,
      "Ġà¤®à¤¦à¤¦à¤Ĺ": 2938,
      "à¤¦à¤¹": 2939,
      "à¤¿à¤ĥ": 2940,
      "à¤ĩà¤Łà¤°": 2941,
      "Ġà¤ľà¤¨à¤ķ": 2942,
      "Ġà¤¦à¤°à¤ķ": 2943,
      "Ġwww": 2944,
      "Ġ600": 2945,
      "erv": 2946,
      "à¤°à¤£à¤¬": 2947,
      "Ġà¤Īà¤¯à¤°": 2948,
      "Ġhttps": 2949,
      "ication": 2950,
      "sh": 2951,
      "Ġà¤¢à¤ķ": 2952,
      "à¤¼à¤¿à¤Ĥ": 2953,
      "Ġà¤¨à¤²": 2954,
      "Ġare": 2955,
      "PL": 2956,
      "Ġà¥Ļà¤¬à¤°": 2957,
      "Ġim": 2958,
      "à¥ĩ..": 2959,
      "69": 2960,
      "à¤ĵà¤Ĺ": 2961,
      "Ġà¤ķà¤£": 2962,
      "Ġà¤¡à¤ķ": 2963,
      "Ġà¤ıà¤¯à¤°à¤Ł": 2964,
      "Ġà¤ķà¤¯": 2965,
      "Ġà¤ĩà¤«": 2966,
      "ainik": 2967,
      "Ġà¤ĩà¤¨à¤ķà¤®": 2968,
      "ph": 2969,
      "ĠYou": 2970,
      "à¥ĩà¤Ĥ...": 2971,
      "Ġà¤ļà¤¹": 2972,
      "Ġà¤²à¤¦": 2973,
      "Ġà¤łà¤ª": 2974,
      "Ġà¤Ĭà¤¨": 2975,
      "ĠBhaskar": 2976,
      "à¤°à¤¹à¤µ": 2977,
      "à¤®à¤ķà¤¤": 2978,
      "78": 2979,
      "à¤ļà¤¢": 2980,
      "SS": 2981,
      "à¤ĳà¤«": 2982,
      "Ġà¤§à¤¨à¤°": 2983,
      "ĠHai": 2984,
      "Ġà¤¦à¤¸à¤µ": 2985,
      "www": 2986,
      "Ġà¤Ĺà¤¹à¤²": 2987,
      "orn": 2988,
      "à¤¯à¤«": 2989,
      "à¤¯à¤¤à¤¨": 2990,
      "à¤ıà¤µ": 2991,
      "à¤ľà¤Ń": 2992,
      "Ġhttp": 2993,
      "St": 2994,
      "à¤ľà¤Ĺà¤¹": 2995,
      "Ġà¤ħà¤«à¤°": 2996,
      "ĠMay": 2997,
      "98": 2998,
      "à¤«à¤°à¤¨à¤Ĺà¤°": 2999,
      "ĠDownload": 3000,
      "Ġà¤Ĩà¤®à¤¨": 3001,
      "à¥Īà¤Ĥ...": 3002,
      "Ġà¤²à¤¹": 3003,
      "Ġà¤Ĩà¤®à¤¦à¤¨": 3004,
      "Ġ73": 3005,
      "à¤ıà¤¨à¤¬": 3006,
      "à¤®à¤Ń": 3007,
      "Ġà¤ĩà¤ľà¤°": 3008,
      "Ġà¥Ľà¤®": 3009,
      "ustan": 3010,
      "à¤µà¤ķà¤°": 3011,
      "Ġà¤µà¥ĺ": 3012,
      "Ġthis": 3013,
      "Ġ05": 3014,
      "à¤Ńà¤¯": 3015,
      "ĠDainik": 3016,
      "ĠQu": 3017,
      "ĠUn": 3018,
      "à¤·à¤ķà¤°": 3019,
      "Ġà¤ĩà¤¤à¤°": 3020,
      "ork": 3021,
      "Ġà¤°à¤¬": 3022,
      "Ġà¤¨à¤¡": 3023,
      "Ġà¤ıà¤¨à¤ķ": 3024,
      "à¤Ľà¤°": 3025,
      "ta": 3026,
      "'s": 3027,
      "à¤¡à¤Ĺ": 3028,
      "à¤ħà¤ľ": 3029,
      "ĠCl": 3030,
      ",,": 3031,
      "lish": 3032,
      "à¤ıà¤ı": 3033,
      "Ġà¤¬à¤²à¤µ": 3034,
      "¥°": 3035,
      "à¥°": 3036,
      "Ġà¤¸à¤Īà¤¦": 3037,
      "put": 3038,
      "ical": 3039,
      "Ġà¤¤à¤¬à¤ķ": 3040,
      "IM": 3041,
      "Ġshar": 3042,
      "à¤ªà¤°à¤¹": 3043,
      "à¤ļà¤°à¤£": 3044,
      "à¤°à¤¹à¤®": 3045,
      "Ġà¤ªà¤°à¤¦": 3046,
      "Ġki": 3047,
      "à¥ĩà¤Ĥ)": 3048,
      "Ġà¤¸à¤®à¤Ŀà¤¦": 3049,
      "2014": 3050,
      "ĠPost": 3051,
      "à¥īà¤Ĥ": 3052,
      "Ġpr": 3053,
      "à¤Łà¤²à¤°": 3054,
      "ĠBJP": 3055,
      "ĠIndi": 3056,
      "Read": 3057,
      "Ġà¤Ĺà¤¡à¤ķà¤°": 3058,
      "Ġà¤ĺà¤Łà¤ķ": 3059,
      "à¤¯à¤°à¤¨": 3060,
      "à¤ľà¤ķà¤°": 3061,
      "ane": 3062,
      "à¤«à¤¬": 3063,
      "ĠZ": 3064,
      "ka": 3065,
      "ĠOne": 3066,
      "à¤¾à¤Ĥà¥ĩ": 3067,
      "Ġà¤¹à¤°à¤¦": 3068,
      "66": 3069,
      "form": 3070,
      "Ġà¤¸à¤®à¤Ĺ": 3071,
      "Ġà¥¬": 3072,
      "ence": 3073,
      "à¤ĸà¤Ł": 3074,
      "à¤¼à¥Ģ-": 3075,
      "Ġ74": 3076,
      "Ġà¤·à¤¡": 3077,
      "ĠHindustan": 3078,
      "Ġal": 3079,
      "ĠFor": 3080,
      "à¤Ńà¤¨": 3081,
      "ON": 3082,
      "AM": 3083,
      "à¤£à¤ª": 3084,
      "hoto": 3085,
      "Ġfrom": 3086,
      "à¤Ĩà¤°à¤Ł": 3087,
      "Ġà¤²à¥ľà¤¨": 3088,
      "à¤ķà¤ļ": 3089,
      "Ġqu": 3090,
      "à¤ľà¤°à¤¤": 3091,
      "Ġ02": 3092,
      "Ġ95": 3093,
      "à¥ĩà¤Ĥ?": 3094,
      "à¤¬à¤¹à¤¨": 3095,
      "Ġà¤¨à¤«à¤°à¤¤": 3096,
      "eng": 3097,
      "Ġà¤¬à¤¹à¤°": 3098,
      "à¤ªà¤°à¤®": 3099,
      "adesh": 3100,
      "Ġà¤ħà¤Ľ": 3101,
      "Ġà¤ľà¤ª": 3102,
      "Ġà¤Ĩà¤Īà¤«": 3103,
      "ĠKe": 3104,
      "à¤Ĩà¤Īà¤¡": 3105,
      "Ġ800": 3106,
      "ĠScreen": 3107,
      "Ġà¤Ĩà¥Ľ": 3108,
      "rou": 3109,
      "Ġ77": 3110,
      "à¤Ĳà¤ª": 3111,
      "Ġ76": 3112,
      "à¤ĸà¤¬": 3113,
      "Ġ07": 3114,
      "Ġà¤ľà¤¬à¤²à¤ª": 3115,
      "à¤¥à¤ª": 3116,
      "à¤¾à¤ĥ": 3117,
      "ok": 3118,
      "à¤¢à¤¨": 3119,
      "ign": 3120,
      "ĠMo": 3121,
      "Ġà¤ıà¤®à¤ıà¤¸": 3122,
      "à¤°à¤¡": 3123,
      "Ġà¤ķà¤ªà¤²": 3124,
      "Ġà¤ĵà¤µ": 3125,
      "Ġà¤«à¤Łà¤ķ": 3126,
      "à¤Ĺà¤Ł": 3127,
      "Ġà¤Ĩà¤°à¤®": 3128,
      "Ġ06": 3129,
      "à¤«à¤°à¤ª": 3130,
      "à¤·à¤¸": 3131,
      "à¤°à¤¤à¤®": 3132,
      "Ġà¤ĺà¤°à¤µ": 3133,
      "Ġà¤°à¤£à¤ľ": 3134,
      "à¤ķà¤°à¤¨": 3135,
      "ĠKi": 3136,
      "Ġ04": 3137,
      "Ġà¤¬à¤ľà¤ķà¤°": 3138,
      "ĠJul": 3139,
      "Ġà¤Ĩà¤ļà¤°à¤£": 3140,
      "ingh": 3141,
      "Ġà¤Ĩà¤Īà¤ıà¤¸": 3142,
      "76": 3143,
      "à¤°à¤µà¤£": 3144,
      "eat": 3145,
      "li": 3146,
      "à¤§à¤²": 3147,
      "Ġà¤Ĩà¤ĩà¤¯": 3148,
      "ational": 3149,
      "obile": 3150,
      "à¤ķà¤µà¤°": 3151,
      "Ġà¤¸à¤ļà¤®": 3152,
      "Ġà¤¦à¤¹à¤¶à¤¤": 3153,
      "old": 3154,
      "à¤ħà¤µ": 3155,
      "cription": 3156,
      "à¤¥à¤¡": 3157,
      "Ġà¤ħà¤·": 3158,
      "ĠCon": 3159,
      "ĠJan": 3160,
      "Ġà¤µà¤°à¤¦": 3161,
      "Ġà¤ıà¤¸à¤¬": 3162,
      "iness": 3163,
      "à¤ıà¤¨à¤ıà¤²": 3164,
      "iss": 3165,
      "Ġà¤ľà¤¨à¤ª": 3166,
      "à¤ĩà¤Łà¤®": 3167,
      "Ġà¤Ĩà¤ªà¤²": 3168,
      "day": 3169,
      "ĠTimes": 3170,
      "Ġà¤¦à¤¶à¤¹à¤°": 3171,
      "AP": 3172,
      "ote": 3173,
      "Ġà¤īà¤¬à¤°": 3174,
      "Ġà¤¸à¤¹à¤Ń": 3175,
      "85": 3176,
      "à¤ĩà¤§à¤°": 3177,
      "Ġà¤ľà¤Ĺà¤¨": 3178,
      "à¤µà¤¨à¤¸": 3179,
      "à¤ķà¤Ĺ": 3180,
      "ĠUpdated": 3181,
      "Ġà¤¬à¤¹à¤¤": 3182,
      "Ġà¤®à¤¹à¤¬": 3183,
      "à¥Ľà¤¨": 3184,
      "ĠJun": 3185,
      "à¤¶à¤ľ": 3186,
      "à¥ĭ'": 3187,
      "Ġà¤ľà¤¦à¤¯": 3188,
      "à¥Īà¥¤'": 3189,
      "ĠNow": 3190,
      "pur": 3191,
      "à¤ĩà¤¤": 3192,
      "à¤Łà¤°à¤®": 3193,
      "elhi": 3194,
      "à¤ŀà¤ª": 3195,
      "Ġà¤ķà¤¤à¤°": 3196,
      "96": 3197,
      "Ġà¤ĩà¤Ł": 3198,
      "à¤²à¤Ĺà¤Ńà¤Ĺ": 3199,
      "......": 3200,
      "Ġas": 3201,
      "à¤¼à¤Ĥ": 3202,
      "Ġà¤¬à¤ĺ": 3203,
      "Ġ61": 3204,
      "Ġà¤Ĺà¤§": 3205,
      "à¤¤à¤°à¤«": 3206,
      "earch": 3207,
      "Ġ84": 3208,
      "à¤¾à¤¾": 3209,
      "999": 3210,
      "Ġ03": 3211,
      "à¤¶à¤¨à¤¶": 3212,
      "Ġ125": 3213,
      "à¤°à¤¨à¤ª": 3214,
      "Ġà¤ıà¤¨à¤ª": 3215,
      "AS": 3216,
      "ef": 3217,
      "à¤Ńà¤ľà¤¨": 3218,
      "à¤ıà¤Ĩà¤Ī": 3219,
      "à¥ĩà¤ģ": 3220,
      "ating": 3221,
      "int": 3222,
      "Ġà¤¬à¤¦à¤²à¤ķà¤°": 3223,
      "Ġ2001": 3224,
      "ins": 3225,
      "ĠSe": 3226,
      "Ġà¤ªà¤Łà¤ķ": 3227,
      "à¤ļà¤¡": 3228,
      "Ġà¤ľà¤²à¤¸": 3229,
      "Ġà¤Ĩà¤Īà¤ľ": 3230,
      "Ġà¤ħà¤Ĺà¤µ": 3231,
      "mber": 3232,
      "ple": 3233,
      "Ġ;": 3234,
      "à¥Ģà¤Ĥ?": 3235,
      "Ġà¤®à¤ķà¤°": 3236,
      "indows": 3237,
      "Ġà¤µà¤§": 3238,
      "à¥Ģà¤ĥ": 3239,
      "à¤Ĺà¤®à¤¨": 3240,
      "Ġà¥Ļà¤°": 3241,
      "Ġcl": 3242,
      "Ġloading": 3243,
      "à¤¾),": 3244,
      "Ġres": 3245,
      "à¤¿)": 3246,
      "BS": 3247,
      "Ġà¤ľà¤¦": 3248,
      "à¤¸à¤¤à¤¨": 3249,
      "Ġà¤ĩà¤£": 3250,
      "à¤Łà¤°à¤«": 3251,
      "à¤ĩà¤ļ": 3252,
      "ics": 3253,
      "à¤¯à¤®à¤¨": 3254,
      "orld": 3255,
      "Ġab": 3256,
      "Ġà¤²à¤¹à¤¸": 3257,
      "à¤ıà¤¯à¤°": 3258,
      "à¤µà¤ķà¤ª": 3259,
      "mi": 3260,
      "Ġà¤īà¤łà¤ķà¤°": 3261,
      "ĠCont": 3262,
      "Ġà¤¨à¤Ĺà¤°à¤ª": 3263,
      "uj": 3264,
      "Ġà¤ıà¤®à¤¸": 3265,
      "Ġ98": 3266,
      "à¤¾)à¥¤": 3267,
      "Ġà¤ĩà¤¸à¤°": 3268,
      "ll": 3269,
      "à¤·à¤ª": 3270,
      "Ġà¤īà¤¦à¤¯à¤ª": 3271,
      "à¤Ĩà¤ªà¤¨": 3272,
      "Ġà¤Ĩà¤°à¤ª": 3273,
      "Ġcan": 3274,
      "ĠBlog": 3275,
      "ĠAP": 3276,
      "Ġà¤ķà¤¦à¤°": 3277,
      "à¤ªà¤£à¤¨": 3278,
      "à¤łà¤¶": 3279,
      "IS": 3280,
      "à¤¨à¤Ńà¤°": 3281,
      "usiness": 3282,
      "Ġwh": 3283,
      "à¤¼à¥ĩà¤Ĥ-": 3284,
      "App": 3285,
      "à¤°à¤£à¤µ": 3286,
      "86": 3287,
      "97": 3288,
      "Ġcont": 3289,
      "Ġà¤ĩà¤°à¤«": 3290,
      "Ġà¥§à¥¦": 3291,
      "Ġà¤ªà¥ľà¤¨": 3292,
      "Ġun": 3293,
      "alth": 3294,
      "live": 3295,
      "twitter": 3296,
      "Ġà¤²à¤¡à¤ķ": 3297,
      "sp": 3298,
      "Ġà¤¸à¥ŀ": 3299,
      "à¤µà¤Ĺà¤¨": 3300,
      "Ġà¤®à¤¦à¤°à¤¸": 3301,
      "view": 3302,
      "à¤Ĺà¤¯": 3303,
      "ĠWhats": 3304,
      "Ġà¤Ĩà¤¹à¤¤": 3305,
      "OR": 3306,
      "à¤¦à¤°à¤Ĺ": 3307,
      "Ġà¤¸à¤µà¤°": 3308,
      "à¤Ĩà¤Īà¤ľ": 3309,
      "à¤ĳà¤ķ": 3310,
      "aya": 3311,
      "2015": 3312,
      "ccount": 3313,
      "Ġà¤¬à¤ķà¤µ": 3314,
      "ĠOct": 3315,
      "ĠLive": 3316,
      "à¤§à¤®": 3317,
      "à¤¬à¤¸à¤ª": 3318,
      "Ġ108": 3319,
      "à¤®à¤ķà¤°": 3320,
      "Ġnot": 3321,
      "Ġà¤īà¤¨à¤ªà¤°": 3322,
      "rig": 3323,
      "ĠEng": 3324,
      "à¤¼à¥ī": 3325,
      "Ġà¤ĸà¤£": 3326,
      "à¤Ĩà¤°à¤¡": 3327,
      "Ġà¤ĵà¤¸": 3328,
      "à¤Ŀà¤ķà¤°": 3329,
      "de": 3330,
      "à¤ľà¤®à¤¹à¤²": 3331,
      "Ġà¤ķà¤¹à¤°": 3332,
      "à¤¹à¤°à¤²": 3333,
      "à¤Īà¤Ī": 3334,
      "Ġà¤Ĩà¤Īà¤Ĩà¤Īà¤Ł": 3335,
      "Ġà¤ħà¤²à¤µ": 3336,
      "à¤¸à¤²à¤°": 3337,
      "à¤®à¤ľà¤¦": 3338,
      "Ġà¤®à¤²à¤¬": 3339,
      "AL": 3340,
      "ĠAm": 3341,
      "à¥ĩà¥ĩà¤Ĥ": 3342,
      "az": 3343,
      "à¤¸à¤®à¤°": 3344,
      "Ġà¤ļà¤¹à¤²": 3345,
      "à¤Ńà¤ª": 3346,
      "ĠIm": 3347,
      "Ġ.....": 3348,
      "à¤¸à¤Ĳà¤ª": 3349,
      "ĠSam": 3350,
      "à¤¬à¤§": 3351,
      "ĠSep": 3352,
      "Ġà¤¤à¤ªà¤¸": 3353,
      "ĠPol": 3354,
      "à¥Ģ\"": 3355,
      "Ġà¤Ńà¤°à¤ķà¤°": 3356,
      "à¤®à¤¨à¤Ĺà¤°": 3357,
      "à¤ķà¤²à¤ķà¤°": 3358,
      ">>": 3359,
      "Ġ86": 3360,
      "ĠPD": 3361,
      "à¤²à¤Ł": 3362,
      "Ġra": 3363,
      "Ġà¤ıà¤®à¤ı": 3364,
      "Ġà¤¹à¤Łà¤¨": 3365,
      "à¤ĩà¤«à¤²": 3366,
      "Ġà¤īà¤ªà¤Ĺ": 3367,
      "à¤ľà¤¨à¤¤": 3368,
      "Ġte": 3369,
      "à¥ģ:": 3370,
      "à¤£à¤ªà¤¤": 3371,
      "à¤¨à¤¡": 3372,
      "Ġà¤«à¤¡à¤£à¤µ": 3373,
      "ox": 3374,
      "apt": 3375,
      "Ġà¤ħà¤£": 3376,
      "à¤µà¤²à¤ªà¤®": 3377,
      "Ġ1999": 3378,
      "à¤Īà¤ļ": 3379,
      "Ġà¤¨à¤®à¤¸": 3380,
      "Ġ81": 3381,
      "à¤¡à¤¤": 3382,
      "84": 3383,
      "arn": 3384,
      "oj": 3385,
      "ĠPri": 3386,
      "à¤¤à¤¨à¤®": 3387,
      "Ġà¤īà¤Ńà¤°à¤¤": 3388,
      "ĠShi": 3389,
      "à¤łà¤²": 3390,
      "à¤¬à¤®": 3391,
      "Ġà¤¸à¤ķà¤²": 3392,
      "Ġ1998": 3393,
      "eneral": 3394,
      "man": 3395,
      "Ġà¤ĺà¤®": 3396,
      "Ġsu": 3397,
      "à¥ĩ/": 3398,
      "à¤ıà¤ļà¤ĵ": 3399,
      "ions": 3400,
      "Ġà¤Łà¤ļ": 3401,
      "Ġà¤Ĩà¤ĵ": 3402,
      "à¤Ĺà¤¤à¤¨": 3403,
      "64": 3404,
      "à¤¬à¤Ĺ": 3405,
      "Ġà¤¡à¤°à¤¤": 3406,
      "cl": 3407,
      "ĠLatest": 3408,
      "Ġuse": 3409,
      "Ġà¤ªà¤¹à¤¨à¤ķà¤°": 3410,
      "Ġà¤Ĩà¤°à¤ľ": 3411,
      "ates": 3412,
      "à¤ĸà¤ª": 3413,
      "à¤²à¥ľà¤ķ": 3414,
      "Ġà¤¤à¤²à¤¬": 3415,
      "71": 3416,
      "Ġà¤ķà¤¤à¤Ī": 3417,
      "à¤ĸà¤²à¤¨": 3418,
      "Ġà¤ªà¤°à¤¹": 3419,
      "lection": 3420,
      "à¤ķà¤Ĩà¤īà¤Ł": 3421,
      "Ġà¤ľà¤¸à¤µ": 3422,
      "91": 3423,
      "ĠiP": 3424,
      "à¤Ĩà¤ľà¤ķà¤²": 3425,
      "Ġvideo": 3426,
      "ays": 3427,
      "Ġà¤ıà¤¸à¤ıà¤®à¤ıà¤¸": 3428,
      "Ġà¤ħà¤¦à¤°à¤ķ": 3429,
      "Ġpol": 3430,
      "à¤Ĩà¤°à¤ıà¤¸": 3431,
      "Ġà¤ªà¤£": 3432,
      "Ġà¤Ĩà¤Īà¤ıà¤¸à¤Ĩà¤Ī": 3433,
      "Ġà¤¯à¤¶à¤µ": 3434,
      "Ġà¤ªà¤Łà¤µ": 3435,
      "à¤ıà¤¨à¤ı": 3436,
      "Ġà¤¹à¤¬": 3437,
      "à¤ħà¤¯": 3438,
      "Ġà¤Ĺà¤£à¤ªà¤¤": 3439,
      "Ġà¤¬à¤²à¤°": 3440,
      "Ġà¤®à¤¸à¤²à¤¨": 3441,
      "Ġà¤ħà¤¨à¤¨": 3442,
      "à¤«à¤¡": 3443,
      "Ġà¤®à¤¨à¤°": 3444,
      "Ġsoc": 3445,
      "à¤ķà¤¦": 3446,
      "92": 3447,
      "IR": 3448,
      "Ġà¤²à¤¶": 3449,
      "Ġà¥Ń": 3450,
      "her": 3451,
      "Ġà¤ıà¤®à¤¡": 3452,
      "à¥Ģà¤Ĥ-": 3453,
      "à¤¨à¤«": 3454,
      "PS": 3455,
      "ax": 3456,
      "Ġà¤®à¤¹à¤®": 3457,
      "à¤¹à¤ľà¤¹": 3458,
      "Ġà¤Ĩà¤ĩà¤Łà¤®": 3459,
      "73": 3460,
      "à¤¯à¤¬à¤°": 3461,
      "Ġà¤īà¤ĸ": 3462,
      "ode": 3463,
      "Ġà¤ķà¤Łà¤°": 3464,
      "à¤Ĩà¤°à¤Ĩà¤Ī": 3465,
      "à¤°à¤Ńà¤¦": 3466,
      "72": 3467,
      "Ġà¤¹à¤°à¤®": 3468,
      "Ġà¤Īà¤¡": 3469,
      "Ġà¤ħà¤¸à¤®à¤°": 3470,
      "Ġ82": 3471,
      "Ġ88": 3472,
      "ĠIndian": 3473,
      "Ġà¤®à¤ł": 3474,
      "Ġà¤¬à¤¢à¤©": 3475,
      "ani": 3476,
      "Ġà¤ħà¤Łà¤ķà¤²": 3477,
      "62": 3478,
      "à¤ıà¤¨à¤¡": 3479,
      "Ġ1990": 3480,
      "ĠTr": 3481,
      "Ġà¤ħà¤¨à¤²": 3482,
      "kh": 3483,
      "Ġpic": 3484,
      "mail": 3485,
      "à¤³à¤µ": 3486,
      "à¤ķà¤°à¤¶": 3487,
      "Ġà¤¨à¤ľà¤°à¤ħ": 3488,
      "à¥Ģ(": 3489,
      "Ġsk": 3490,
      "à¤ķà¤¯": 3491,
      "à¥ĭ!": 3492,
      "à¤Ĺà¤²à¤ª": 3493,
      "ye": 3494,
      "à¤¼à¤¾-": 3495,
      "à¤ģà¥¤": 3496,
      "Ġà¤ķà¤¬à¤¡": 3497,
      "atch": 3498,
      "Ġà¤¯à¤®à¤¨": 3499,
      "ages": 3500,
      "à¤ķà¤«": 3501,
      "à¤ģ,": 3502,
      "Ġvs": 3503,
      "be": 3504,
      "à¤ĵà¤ıà¤¸": 3505,
      "Ġ700": 3506,
      "Ġà¤ļà¤¬": 3507,
      "ond": 3508,
      "à¤¸à¤°à¤£": 3509,
      "à¥Ľà¤²": 3510,
      "ĠDescription": 3511,
      "Ġà¤ħà¤®à¤°à¤¨": 3512,
      "Ġà¤īà¤¤à¤°à¤¤": 3513,
      "Ġà¤¸à¤®à¤ķà¤ķ": 3514,
      "à¤ķà¤ķ": 3515,
      "OS": 3516,
      "400": 3517,
      "93": 3518,
      "air": 3519,
      "à¤ĩà¤Łà¤²": 3520,
      "we": 3521,
      "Ġà¤¸à¤¶à¤¸": 3522,
      "ual": 3523,
      "à¤¥à¤¯": 3524,
      "af": 3525,
      "Ġà¤ħà¤ķà¤¸à¤°": 3526,
      "Ġà¤ıà¤¨à¤ıà¤ļ": 3527,
      "94": 3528,
      "Ġà¤¸à¤¤à¤¤": 3529,
      "à¤ĸà¤®": 3530,
      "à¤ĺà¤²": 3531,
      "ĠIN": 3532,
      "ix": 3533,
      "Ġà¤«à¤²à¤¸": 3534,
      "Next": 3535,
      "Ġthat": 3536,
      "Ġà¤Ķà¤¸à¤¤à¤¨": 3537,
      "ark": 3538,
      "63": 3539,
      "ife": 3540,
      "à¤²à¤¶": 3541,
      "riend": 3542,
      "oor": 3543,
      "Ġà¤ħà¤µà¤²": 3544,
      "oot": 3545,
      "ms": 3546,
      "ĠShar": 3547,
      "ĠSc": 3548,
      "ĠSp": 3549,
      "Ġ83": 3550,
      "à¤ıà¤Łà¤°": 3551,
      "Ġà¤ĩà¤¸à¤ªà¤°": 3552,
      "anc": 3553,
      "à¤¡à¤°à¤°": 3554,
      "à¤ıà¤¸à¤¯": 3555,
      "Ġà¤¬à¥Ŀà¤ķà¤°": 3556,
      "ĠHD": 3557,
      "ĠPradesh": 3558,
      "à¥ĭà¤Ĥ?": 3559,
      "Ġ5000": 3560,
      "à¤ľà¤°à¤²": 3561,
      "ower": 3562,
      "Ġ1500": 3563,
      "Ġà¤¹à¥ľà¤¤": 3564,
      "à¤Ĺà¤¨à¤¬": 3565,
      "à¤Īà¤¶": 3566,
      "à¤ĺà¤®": 3567,
      "ys": 3568,
      "Ġà¥Ļà¤¤": 3569,
      "ike": 3570,
      "à¤°à¤¬à¤¨": 3571,
      "à¤°à¤ĸà¤£": 3572,
      "à¤Ńà¤°à¤¤": 3573,
      "get": 3574,
      "Ġà¤ľà¤¨à¤®": 3575,
      "Ġà¤²à¤ª": 3576,
      "ED": 3577,
      "ĠRecorder": 3578,
      "ĠFacebook": 3579,
      "Ġà¤ĩà¤®à¤°à¤ľ": 3580,
      "à¤ħà¤¹à¤®": 3581,
      "à¤®à¤ĺ": 3582,
      "EN": 3583,
      "rit": 3584,
      "ime": 3585,
      "Ġag": 3586,
      "CC": 3587,
      "Ġà¤īà¤ķà¤¸": 3588,
      "ors": 3589,
      "83": 3590,
      "ati": 3591,
      "irst": 3592,
      "Ġà¤Ĩà¤¯à¤°à¤¨": 3593,
      "Ġà¤Ĺà¥Ŀ": 3594,
      "à¤ĵà¤µà¤°": 3595,
      "Ġsex": 3596,
      "Ġ87": 3597,
      "Ġà¤²à¤¯": 3598,
      "uck": 3599,
      "ĠWindows": 3600,
      "61": 3601,
      "à¤§à¤°à¤¨": 3602,
      "job": 3603,
      "EW": 3604,
      "ĠAll": 3605,
      "à¤¯à¤²à¤²": 3606,
      "Ġà¤®à¤Ł": 3607,
      "uri": 3608,
      "ĠHe": 3609,
      "Ġà¤ªà¤¢à¤¨": 3610,
      "Ġà¤Ĩà¤®à¤¦": 3611,
      "ĠComments": 3612,
      "Ġà¤ıà¤«à¤¡": 3613,
      "à¤¬à¤Ł": 3614,
      "87": 3615,
      "ull": 3616,
      "Ġà¤®à¤¤à¤Ĺà¤£à¤¨": 3617,
      "Ġà¤«à¤¹à¤°": 3618,
      "à¤°à¤Ł": 3619,
      "Ġà¤ľà¤¸à¤ª": 3620,
      "Ġà¤ľà¤¯à¤°": 3621,
      "ĠApr": 3622,
      "'à¥¤": 3623,
      "à¤łà¤®": 3624,
      "ĠGeneral": 3625,
      "Ġ350": 3626,
      "Ġà¤ªà¤¦à¤¸": 3627,
      "à¤Ĩà¤ķ": 3628,
      "now": 3629,
      "MS": 3630,
      "row": 3631,
      "Ġà¤ªà¥Ŀà¤¤": 3632,
      "à¤ĵà¤ª": 3633,
      "Ġam": 3634,
      "ips": 3635,
      "à¤¦à¤°à¤²": 3636,
      "Ġà¤ħà¤¬à¤¤à¤ķ": 3637,
      "Ġà¤ıà¤®à¤ıà¤²": 3638,
      "à¤ľà¤¨à¤¯": 3639,
      "82": 3640,
      "Ġ97": 3641,
      "Ġà¤ħà¤«à¤¸": 3642,
      "ware": 3643,
      "à¤ıà¤ļà¤¸": 3644,
      "Ġà¤ıà¤¨à¤Ĩà¤°à¤¸": 3645,
      "à¤¨à¤¸à¤¨": 3646,
      "300": 3647,
      "à¤¤à¤°à¤ķ": 3648,
      "ĠNew": 3649,
      "Ġà¤ħà¤ªà¤µ": 3650,
      "Ġà¥®": 3651,
      "Ġà¤ķà¤¸à¤°": 3652,
      "over": 3653,
      "ruit": 3654,
      "enc": 3655,
      "Ġblog": 3656,
      "Ġà¤Ńà¤Ĺà¤µà¤¤": 3657,
      "89": 3658,
      "Ġà¤īà¤¸à¤ªà¤°": 3659,
      "Ġsp": 3660,
      "à¤¬à¤µ": 3661,
      "********": 3662,
      "ĠUs": 3663,
      "Ġà¤¿": 3664,
      "ĠHome": 3665,
      "Ġà¤Ĩà¤°à¤¸": 3666,
      "à¤µà¤¤à¤¨": 3667,
      "Ġ92": 3668,
      "à¤ıà¤®à¤ª": 3669,
      "ke": 3670,
      "Ġà¤ĺà¤Łà¤¤": 3671,
      "Ġà¤ķà¤²à¤¶": 3672,
      "Ġà¤¦à¤¬à¤¦à¤¬": 3673,
      "Ġà¤®à¤¶à¤ķ": 3674,
      "Ġko": 3675,
      "à¤ķà¤¤à¤µà¤°": 3676,
      "ideos": 3677,
      "Ġà¤®à¤Ĺ": 3678,
      "Ġà¤²à¤ļ": 3679,
      "igh": 3680,
      "chn": 3681,
      "Ġà¤¥à¤ª": 3682,
      "yst": 3683,
      "ush": 3684,
      "Ġà¤®à¤ª": 3685,
      "Ġà¤ĩà¤ķà¤²": 3686,
      "à¤¦à¤¶à¤¹à¤°": 3687,
      "Ġà¤ķà¤«": 3688,
      "à¤¡à¤«": 3689,
      "à¤Ŀà¤¨": 3690,
      "ĠInst": 3691,
      "Ġà¤īà¤·": 3692,
      "Ġà¤ħà¤¨à¤®": 3693,
      "à¤®à¤°à¤¨": 3694,
      "ĠKh": 3695,
      "à¤¢à¤¤": 3696,
      "Ġ3000": 3697,
      "dicine": 3698,
      "ock": 3699,
      "ĠRs": 3700,
      "à¤¸à¤°à¤¤": 3701,
      "à¤¦à¤°à¤®": 3702,
      ");": 3703,
      "Ġà¤īà¤ªà¤ª": 3704,
      "puter": 3705,
      "Ġà¤Ĺà¥ľ": 3706,
      "ĠVi": 3707,
      "Ġ93": 3708,
      "à¤¾à¤¼": 3709,
      "Ġà¤¦à¤®à¤¨": 3710,
      "Ġà¤Ĥ": 3711,
      "Ġà¤ĩà¤ķà¤¬": 3712,
      "ĠOnline": 3713,
      "Ġscreen": 3714,
      "ade": 3715,
      "mit": 3716,
      "à¤¾à¥¤\"": 3717,
      "à¤ľà¤¨à¤²": 3718,
      "ings": 3719,
      "Ġà¤īà¤®à¤¡": 3720,
      ".....": 3721,
      "à¤¾(": 3722,
      "à¤¯à¤¸à¤µ": 3723,
      "Ġà¤¦à¤¹à¤²": 3724,
      "ĠPat": 3725,
      "2013": 3726,
      "à¤ıà¤®à¤ķ": 3727,
      "à¤ħà¤¡": 3728,
      "Ġ110": 3729,
      "à¤µà¤²à¤ªà¤°": 3730,
      "Ġà¤¤à¤ĸ": 3731,
      "Ġà¤µà¤¯à¤¸": 3732,
      "oard": 3733,
      "Ġà¤Ĩà¤¯à¤¤": 3734,
      "Ġà¤Ĺà¤£à¤®": 3735,
      "à¤łà¤µ": 3736,
      "right": 3737,
      "Ġ79": 3738,
      "ĠMan": 3739,
      "Ġà¤²à¤ĸ": 3740,
      "à¤¯à¤®à¤¯": 3741,
      "à¤¤à¤°à¤¦": 3742,
      "led": 3743,
      "Ġà¤¹à¤°à¤Ńà¤ľà¤¨": 3744,
      "ung": 3745,
      "à¤µà¤ľà¤¹": 3746,
      "à¤Ĩà¤ĩà¤ı": 3747,
      "les": 3748,
      "Ġà¤®à¤µ": 3749,
      "à¥Ī.\"": 3750,
      "Ġ96": 3751,
      "Ġà¤ħà¤ľà¤¹à¤°": 3752,
      "à¤µà¤°à¤ķ": 3753,
      "à¤µà¤¸à¤®": 3754,
      "Ġà¤ļà¤Łà¤ķ": 3755,
      "à¤Ŀà¤ķ": 3756,
      "à¤¬à¤¦à¤²": 3757,
      "à¤·à¤Ń": 3758,
      "urr": 3759,
      "ĠiPhone": 3760,
      "Ġà¤µà¤¡": 3761,
      "UP": 3762,
      "Ġà¤¨à¤ª": 3763,
      "AD": 3764,
      "à¤µà¥ľ": 3765,
      "olog": 3766,
      "Ġà¤ªà¤¹à¤¨à¤¤": 3767,
      "ĠLe": 3768,
      "à¤Łà¤®à¤°": 3769,
      "à¤ıà¤¸à¤ıà¤¨à¤ıà¤²": 3770,
      "ĠFeb": 3771,
      "Ġ89": 3772,
      "Ġ1996": 3773,
      "ĠMP": 3774,
      "ents": 3775,
      "Ġà¤ıà¤¸à¤¯": 3776,
      "à¤ıà¤ļà¤ª": 3777,
      "à¤Ĩà¤Īà¤ıà¤²": 3778,
      "à¤¾à¥Ī": 3779,
      "à¤ķà¤¹à¤¤": 3780,
      "à¤¬à¤¬": 3781,
      "à¥ĩà¤Ĥ|": 3782,
      "Ġà¤ĺà¤£": 3783,
      "Ġwill": 3784,
      "74": 3785,
      "ool": 3786,
      "Ġà¤ĵà¤Ŀ": 3787,
      "à¤¹à¤¹": 3788,
      "Ġà¤ħà¤¨à¤¸": 3789,
      "à¤¨à¤¦à¤¯": 3790,
      "ĠAb": 3791,
      "à¤°à¤¸à¤µ": 3792,
      "irl": 3793,
      "ĠSingh": 3794,
      "Ġà¤Ĩà¤ĺ": 3795,
      "Ġ91": 3796,
      "Ġpar": 3797,
      "Ġà¤¹à¤®à¤ķ": 3798,
      "Ġà¤¨à¤¸à¤²": 3799,
      "Ġ94": 3800,
      "à¤·à¤°à¤¤": 3801,
      "Ġx": 3802,
      "OM": 3803,
      "Ġà¤¸à¤¤à¤ª": 3804,
      "Ġtr": 3805,
      "Ġà¤¬à¤¢à¤¤": 3806,
      "à¤īà¤ķ": 3807,
      "ĠTop": 3808,
      "gar": 3809,
      "ĠDelhi": 3810,
      "ound": 3811,
      "Ġ--": 3812,
      "à¥įà¤¼": 3813,
      "à¤ħà¤ªà¤°": 3814,
      "ian": 3815,
      "CT": 3816,
      "à¤¡à¤°à¤¸à¤¨": 3817,
      "Ġà¤µà¤¨à¤¸": 3818,
      "à¤Ńà¤Ĺà¤¤": 3819,
      "Ġà¤ĵà¤ķ": 3820,
      "à¤ıà¤®à¤¯": 3821,
      "gram": 3822,
      "Ġà¤Ĺà¤¶": 3823,
      "Ġ1947": 3824,
      "ĠHow": 3825,
      "Ġà¤Ļ": 3826,
      "Ġ1984": 3827,
      "à¤¡à¤³": 3828,
      "Ġ180": 3829,
      "¥Ĭ": 3830,
      "à¥Ĭ": 3831,
      "Ġà¤Ĩà¤Īà¤¬": 3832,
      "à¤ıà¤®à¤ı": 3833,
      "Ġà¤¬à¤¹à¤²": 3834,
      "à¤¤à¥Ľ": 3835,
      "ĠUS": 3836,
      "Ġà¤ľà¤¨à¤°": 3837,
      "à¤²à¤¬à¤°": 3838,
      "à¤¸à¤¶": 3839,
      "Ġà¤Ķà¤±": 3840,
      "à¤Ńà¤¤": 3841,
      "Ġà¤ļà¤µ": 3842,
      "era": 3843,
      "pen": 3844,
      "Ġà¤Ńà¤°à¤®": 3845,
      "ts": 3846,
      "Ġà¤¨à¤Ĺà¤¦": 3847,
      "ĠCM": 3848,
      "ttar": 3849,
      "à¤ªà¥Ŀ": 3850,
      "à¤°à¤¶à¤¸": 3851,
      "ĠNov": 3852,
      "à¤¨à¤ľà¤¨à¤ķ": 3853,
      "Ġ130": 3854,
      "à¤°à¤Ĺà¤¢": 3855,
      "à¤ªà¤ķà¤°": 3856,
      "ater": 3857,
      "Ġà¤ªà¤¤à¤¨": 3858,
      "Ġà¤ħà¤Ńà¤¦": 3859,
      "ĠRaj": 3860,
      "à¥Ī'": 3861,
      "à¤ıà¤¸à¤ıà¤²": 3862,
      "ĠFree": 3863,
      "Ġà¤°à¤ĸà¤°à¤ĸ": 3864,
      "Ġà¤¶à¤¸": 3865,
      "à¤Īà¤¬": 3866,
      "Ġà¤ħà¤¸à¤¦": 3867,
      "à¤ıà¤®à¤¡": 3868,
      "Ġ144": 3869,
      "à¤ħà¤¸à¤®": 3870,
      "Ġà¤ıà¤²à¤°": 3871,
      "Ġ),": 3872,
      "à¤·à¤¨": 3873,
      "81": 3874,
      "ES": 3875,
      "ale": 3876,
      "Ġà¤ķà¤Ĺ": 3877,
      "Ġ2022": 3878,
      "à¤Ĭà¤¸": 3879,
      "Ġà¤ªà¤Ľ": 3880,
      "Ġà¤ıà¤¨à¤Ł": 3881,
      "ording": 3882,
      "ĠIS": 3883,
      "à¤¼à¥Ģ.": 3884,
      "à¤īà¤ªà¤°": 3885,
      "à¤®à¤µà¤°": 3886,
      "ruitment": 3887,
      "à¤ıà¤®à¤ıà¤²": 3888,
      "oss": 3889,
      "à¥ĩà¤Ĥ!": 3890,
      "ally": 3891,
      "à¤³à¤¤": 3892,
      "Ġà¤¸à¤®à¤Ŀà¤ķà¤°": 3893,
      "Ġà¤Ĩà¤ľà¤¤à¤ķ": 3894,
      "ĠStory": 3895,
      "Ġà¥¨à¥¦à¥¦": 3896,
      "Ġà¤ľà¤¯à¤²à¤²": 3897,
      "Ġà¤ħà¤ĺ": 3898,
      "sc": 3899,
      "Ġà¤Ĺà¤°à¤ľ": 3900,
      "AI": 3901,
      "Ġà¤¸à¤¹à¤¸": 3902,
      "Ġà¤ľà¤²à¤¤": 3903,
      "TM": 3904,
      "Ġà¤¬à¤¹à¤°à¤¹": 3905,
      "Ġà¤Ńà¤¸": 3906,
      "ories": 3907,
      "à¤¬à¤¢": 3908,
      "Ġà¤¶à¤®à¤¶": 3909,
      "à¤°à¤ķà¤®": 3910,
      "ĠAPK": 3911,
      "à¤¯à¤¤à¤ķà¤°": 3912,
      "à¤ĩà¤Ĺ": 3913,
      "Ġà¤ħà¤µà¤®": 3914,
      "ember": 3915,
      "Ġà¤¨à¤µà¤Ń": 3916,
      "à¤ħà¤Ĺ": 3917,
      "pan": 3918,
      "Ġà¤ħà¤¸à¤«à¤²à¤¤": 3919,
      "ĠMedicine": 3920,
      "ĠMed": 3921,
      "à¤¿à¥į": 3922,
      "à¤īà¤¦à¤¯à¤ª": 3923,
      "Ġà¤¸à¤¹à¤²": 3924,
      "Ġall": 3925,
      "à¤ŀà¤¤": 3926,
      "aster": 3927,
      "its": 3928,
      "Ġà¤¹à¤²à¤«à¤¨": 3929,
      "à¤µà¤¨à¤¶": 3930,
      "Ġà¤°à¤®à¤ľ": 3931,
      "à¤¶à¤ĸà¤¬à¤°": 3932,
      "à¤ıà¤Ī": 3933,
      "à¤ħà¤¹à¤®à¤¦": 3934,
      "à¤¾à¥¤'": 3935,
      "ti": 3936,
      "à¤³à¤£": 3937,
      "Ġà¤ĵà¤Ł": 3938,
      "à¥ĩ;": 3939,
      "Ġà¤Ĩà¤¢": 3940,
      "II": 3941,
      "Ġaap": 3942,
      "à¤¤à¤°à¤¤": 3943,
      "Ġà¥¯": 3944,
      "Ġà¤ķà¤°à¤¦": 3945,
      "Ġwebsite": 3946,
      "ipe": 3947,
      "vember": 3948,
      "Ġà¤¸à¤¹à¤°": 3949,
      "Ġà¤¹à¤°à¤¸": 3950,
      "ty": 3951,
      "à¤ľà¤µà¤²": 3952,
      "VIDEO": 3953,
      "à¤Ĺà¤°à¤ª": 3954,
      "Ġà¤®à¤°à¤¤": 3955,
      "ble": 3956,
      "à¤¨à¤ļà¤°": 3957,
      "studio": 3958,
      "ĠResult": 3959,
      "Ġà¤ħà¤²à¤ķ": 3960,
      "ich": 3961,
      "Ġà¤ľà¤¨à¤Ĺà¤£à¤¨": 3962,
      "à¥Ģ;": 3963,
      "ĠRo": 3964,
      "icro": 3965,
      "Ġà¤®à¤Ľ": 3966,
      "à¤°à¤¦à¤¯": 3967,
      "Ġà¤Ĩà¤¶à¤¯": 3968,
      "oday": 3969,
      "ina": 3970,
      "ĠExam": 3971,
      "Ġ128": 3972,
      "Ġ1980": 3973,
      "Ġ1992": 3974,
      "adh": 3975,
      "nel": 3976,
      "à¥ĭà¤Ĥ)": 3977,
      "Ġà¤®à¤¨à¤µ": 3978,
      "à¥ĩà¤¾": 3979,
      "¤İ": 3980,
      "à¤İ": 3981,
      "Ġman": 3982,
      "Ġà¤¦à¤£": 3983,
      "à¤ıà¤®à¤Ī": 3984,
      "EWS": 3985,
      "Ġà¤ªà¤°à¤ĸ": 3986,
      "Ġà¤īà¤ªà¤²à¤ķ": 3987,
      "ĠOneindia": 3988,
      "aking": 3989,
      "à¤¢à¤²": 3990,
      "Ġ1991": 3991,
      "\",": 3992,
      "Ġà¤¦à¤°à¤Ĺ": 3993,
      "Ġà¤ªà¤²à¤ķ": 3994,
      "Ġà¤Ĺà¤ľà¤¬": 3995,
      "ject": 3996,
      "Ġve": 3997,
      "Ġ1993": 3998,
      "yal": 3999,
      "à¤®à¤¨à¤µ": 4000,
      "Ġà¤¦à¤«à¤¨": 4001,
      "ĠMedia": 4002,
      "Ġà¤¨à¤®à¤¨": 4003,
      "79": 4004,
      "Ġà¤ıà¤µà¤ľ": 4005,
      "Ġet": 4006,
      "ternet": 4007,
      "Ġà¤ļà¤ļ": 4008,
      "Ġà¤ļà¤¡": 4009,
      "à¤®à¤ķà¤¥": 4010,
      "Ġà¤¸à¤¨à¤°": 4011,
      "Ġà¤ıà¤¸à¤Ĩà¤Īà¤Ł": 4012,
      "à¤¸à¤¨à¤ķ": 4013,
      "Ġà¤ªà¤¡à¤¤": 4014,
      "Ġ{": 4015,
      "ĠJo": 4016,
      "Ġà¤ªà¤²à¤Łà¤µ": 4017,
      "abar": 4018,
      "Ġ%": 4019,
      "à¤¤à¤¯": 4020,
      "Ġà¤Ĩà¤¯à¤°à¤²": 4021,
      "Ġà¤ıà¤µà¤°": 4022,
      "à¤Łà¤¸à¤¨": 4023,
      "Ġà¤ĭà¤·à¤Ń": 4024,
      "ollow": 4025,
      "à¤¯à¤ľà¤¨à¤ķ": 4026,
      "ĠMedindia": 4027,
      "ĠSu": 4028,
      "Ġà¤¦à¤¹à¤¨": 4029,
      "Ġà¥§à¥«": 4030,
      "Ġà¤ıà¤ķà¤¤à¤°à¤«": 4031,
      "ĠChan": 4032,
      "à¥Īà¤Ĥ;": 4033,
      "amp": 4034,
      "ĠAugust": 4035,
      ".)": 4036,
      "à¤®à¤®à¤¤": 4037,
      "Ġdes": 4038,
      "¤į": 4039,
      "à¤į": 4040,
      "Ġmy": 4041,
      "à¥ĩà¤Ĥà¤Ĥ": 4042,
      "unction": 4043,
      "Ġà¤ıà¤²à¤ľ": 4044,
      "Ġà¤¤à¤°à¤²": 4045,
      "à¤ĵà¤¬": 4046,
      "ger": 4047,
      "à¥Īà¤Ĥ..": 4048,
      "à¤Ĩà¤°à¤ıà¤«": 4049,
      "à¥ĭ:": 4050,
      "ags": 4051,
      "à¤¬à¤¯": 4052,
      "Ġà¤ħà¤īà¤°": 4053,
      "Ġà¤ħà¤¸à¤¹à¤®à¤¤": 4054,
      "à¤¸à¤¬à¤°": 4055,
      "Ġà¤ľà¤¨à¤¨": 4056,
      "AA": 4057,
      "Ġà¤īà¤Ľà¤²": 4058,
      "ations": 4059,
      "à¤ıà¤¨à¤Ĩà¤Ī": 4060,
      "Ġà¤Ńà¥ľà¤ķ": 4061,
      "Ġà¤Ĩà¤®à¤ľà¤¨": 4062,
      "Ġ140": 4063,
      "Ġà¤¬à¤¬à¤²": 4064,
      "ĠUttar": 4065,
      "ĠVIDEO": 4066,
      "oftware": 4067,
      "Ġà¤Īà¤Ł": 4068,
      "à¤¿à¤¾": 4069,
      "à¤Ľà¤¹": 4070,
      "Ġri": 4071,
      "DI": 4072,
      "Ġà¤ĩà¤¨à¤ª": 4073,
      "à¤ħà¤ľà¤¯": 4074,
      "aut": 4075,
      "PM": 4076,
      "Tube": 4077,
      "à¤µà¤³": 4078,
      "Ġà¤Ĺà¤£à¤°": 4079,
      "à¤ĺà¤Ł": 4080,
      "ĠSC": 4081,
      "Ġà¤Ĺà¤łà¤ľ": 4082,
      "Ġà¤®à¤¦à¤°": 4083,
      "ĠBest": 4084,
      "à¤ĵà¤¡": 4085,
      "Ġà¤ıà¤®à¤ıà¤®": 4086,
      "fer": 4087,
      "ĠDay": 4088,
      "à¤ªà¤ª": 4089,
      "abad": 4090,
      "rd": 4091,
      "UR": 4092,
      "extlive": 4093,
      "for": 4094,
      "à¤ıà¤«à¤Ĩà¤Ī": 4095,
      "à¤ĵà¤ı": 4096,
      "xxx": 4097,
      "à¤¡à¤£": 4098,
      "à¥ĭà¤Ĥà¤Ĥ": 4099,
      "ĠReview": 4100,
      "à¤¼à¥ĩà¤Ĥà¥¤": 4101,
      "Ġà¤ħà¤ªà¤Ĺ": 4102,
      "Ġà¥§à¥¨": 4103,
      "umar": 4104,
      "Ġà¤«à¤ķ": 4105,
      "Ġdo": 4106,
      "Ġsocal": 4107,
      "Ġà¤ħà¤°à¤¸": 4108,
      "Ġà¤ħà¤ªà¤ķ": 4109,
      "ĠDi": 4110,
      "2012": 4111,
      "========": 4112,
      "hani": 4113,
      "yo": 4114,
      "Ġ||": 4115,
      "à¤¶à¤ķà¤°": 4116,
      "Ġà¤®à¤¨à¤ª": 4117,
      "Ġà¤¹à¤µà¤¨": 4118,
      "Ġà¤¸à¤¤à¤¨": 4119,
      "ystem": 4120,
      "Ġà¤ıà¤£": 4121,
      "Ġnew": 4122,
      "à¤ĳà¤°": 4123,
      "Ġà¤¹à¤ķà¤¦": 4124,
      "à¤Ĥ-": 4125,
      "ĠKhan": 4126,
      "à¤¤à¤¡": 4127,
      "urn": 4128,
      "Ġà¤īà¤«": 4129,
      "ĠBe": 4130,
      "Ġà¤ĸà¤Łà¤ĸà¤Ł": 4131,
      "ons": 4132,
      "ihar": 4133,
      "Ġà¤Łà¤²": 4134,
      "Ġà¤®à¤¹à¤ķà¤®": 4135,
      "Ġà¤²à¤ªà¤ķ": 4136,
      "Ġà¤ªà¤®": 4137,
      "à¥Ĥà¥¤": 4138,
      "mer": 4139,
      "ense": 4140,
      "à¤°à¤¸à¤°": 4141,
      "Ġà¤ĵà¤¹": 4142,
      "Ġà¤«à¤°à¤¹": 4143,
      "hotos": 4144,
      "Ġà¤«à¤¨": 4145,
      "à¤ľà¤ªà¤¤": 4146,
      "ĠPar": 4147,
      "Ġà¤¨à¤°à¤ķ": 4148,
      "press": 4149,
      "Ġwe": 4150,
      "eature": 4151,
      "ĠOf": 4152,
      "900": 4153,
      "rol": 4154,
      "Ġà¤¤à¤°à¤¸": 4155,
      "à¤¥à¤¸": 4156,
      "à¤ıà¤¨à¤ª": 4157,
      "Ġà¤ķà¤Łà¤¨": 4158,
      "Ġà¤¬à¤¦à¤¬": 4159,
      "Ġà¤ĸà¤¸": 4160,
      "ĠAs": 4161,
      "Ġhave": 4162,
      "à¤ķà¤°à¤¤": 4163,
      "à¤§à¤¸": 4164,
      "ert": 4165,
      "ular": 4166,
      "à¤°à¤¹à¤°": 4167,
      "ĠTV": 4168,
      "à¤¨à¤¸à¤°": 4169,
      "à¤¨à¤¯à¤¨": 4170,
      "à¤®à¤¬à¤¤": 4171,
      "à¤ļà¤ª": 4172,
      "Ġ1997": 4173,
      "mart": 4174,
      "ĠCamstudio": 4175,
      "Ġà¤¸à¤®à¤¤": 4176,
      "ĠPay": 4177,
      "/-": 4178,
      "Ġà¤ħà¤²à¤µà¤°": 4179,
      "Ġne": 4180,
      "Ġà¤°à¤£à¤¦": 4181,
      "Ġà¤ıà¤ķà¤°": 4182,
      "elf": 4183,
      "Ġà¤¬à¤²à¤¬": 4184,
      "Ġà¤ıà¤µà¤®": 4185,
      "war": 4186,
      "ild": 4187,
      "Ġdownload": 4188,
      "Ġà¤¹à¤®à¤°": 4189,
      "à¤ĺà¤ķ": 4190,
      "Ġà¤¸à¤¬à¤¨": 4191,
      "----------------": 4192,
      "ccess": 4193,
      "Ġà¤ıà¤²à¤ª": 4194,
      "à¤ªà¤°à¤ķ": 4195,
      "reat": 4196,
      "à¥Ī.'": 4197,
      "à¤¬à¤ĸ": 4198,
      "ĠToday": 4199,
      "ĠDec": 4200,
      "à¥Īà¥¤[": 4201,
      "MP": 4202,
      "Ġà¤ľà¤Ĺà¤ľ": 4203,
      "Ġà¤ıà¤«à¤¸": 4204,
      "800": 4205,
      "à¥Ĥ'": 4206,
      "Ġà¤ıà¤²à¤¬": 4207,
      "Ġà¤¢à¤¹": 4208,
      "Ġà¤¬à¤¦à¤¹": 4209,
      "¥Ĳ": 4210,
      "à¥Ĳ": 4211,
      "Ġà¤ªà¤°à¤¶": 4212,
      "AC": 4213,
      "Ġper": 4214,
      "à¤Łà¤¯": 4215,
      "à¤ħà¤«à¤Ĺ": 4216,
      "à¤¼à¥ĩ.": 4217,
      "Com": 4218,
      "ĠWhatsApp": 4219,
      "org": 4220,
      "Ġà¤ĵà¤ªà¤¨à¤°": 4221,
      "Ġà¤ıà¤¡à¤²": 4222,
      "Ġà¤¦à¤®à¤ķà¤²": 4223,
      "outube": 4224,
      "ĠRecruitment": 4225,
      "Ġà¤ĸà¤¯": 4226,
      "à¤ĳà¤¨à¤²": 4227,
      "à¤ľà¤Ńà¤µà¤¨": 4228,
      "Ġà¤ĩà¤¨à¤µ": 4229,
      "à¤µà¤°à¤ķà¤°": 4230,
      "EC": 4231,
      "à¤ıà¤«à¤ĵ": 4232,
      "Ġà¤¸à¤§": 4233,
      "la": 4234,
      "Ġà¤ķà¤²à¤ķà¤¤": 4235,
      "ĠBusiness": 4236,
      "olly": 4237,
      ")-": 4238,
      "à¤°à¤µà¤ļà¤¨": 4239,
      "à¤¥à¤°à¤¬": 4240,
      "à¥ĭà¤Ĥ/": 4241,
      "Ġà¤ĺà¥ľ": 4242,
      "Ġ160": 4243,
      "à¤¹à¤®à¤²": 4244,
      "Ġà¤µà¤¤": 4245,
      "Ġfree": 4246,
      "600": 4247,
      "____": 4248,
      "à¤Ĩà¤Ĺà¤°": 4249,
      "lication": 4250,
      "Ġà¤¹à¤Łà¤ķà¤°": 4251,
      "ures": 4252,
      "à¤ĩà¤ªà¤°": 4253,
      "à¥Ģ)-": 4254,
      "Ġà¤Ĺà¥ľà¤¬à¥ľ": 4255,
      "TV": 4256,
      "Ġà¤ļà¤°à¤®à¤ª": 4257,
      "à¤Łà¤ľ": 4258,
      "à¤ıà¤®à¤Ĩà¤Ī": 4259,
      "IV": 4260,
      "Ġà¤īà¤²à¤Ŀà¤¨": 4261,
      "à¤Īà¤ıà¤¸": 4262,
      "ĠKo": 4263,
      "ĠWebsite": 4264,
      "Ġà¤Īà¤ķ": 4265,
      "à¤Ĺà¤«": 4266,
      "à¤Ĩà¤ł": 4267,
      "à¤ĩà¤«à¤¸": 4268,
      "Ġskreen": 4269,
      "Ġà¤¬à¤¦à¤¤à¤°": 4270,
      "ĠCol": 4271,
      "word": 4272,
      "à¤¶à¤²à¤¤": 4273,
      "à¥ģà¥į": 4274,
      "ĠCard": 4275,
      "Ġà¤ªà¤§": 4276,
      "aryana": 4277,
      "Ġro": 4278,
      "à¤¡à¤Ī": 4279,
      "à¤¬à¤ľà¤Ł": 4280,
      "ĠVid": 4281,
      "ĠBank": 4282,
      "ĠPhoto": 4283,
      "à¤¿...": 4284,
      "ksha": 4285,
      "Ġà¤ľà¤¨à¤µ": 4286,
      "à¤¯à¤°à¤¡": 4287,
      "à¤ıà¤¸à¤ľ": 4288,
      "à¤ľà¤®à¤°": 4289,
      "bh": 4290,
      "Ġà¤ķà¤Ľ": 4291,
      "à¤ķà¤®à¤²": 4292,
      "ortal": 4293,
      "ĠBl": 4294,
      "à¤Īà¤ħà¤¡": 4295,
      "à¤Īà¤«": 4296,
      "Ġen": 4297,
      "Ġà¤ıà¤ıà¤¸à¤Ĩà¤Ī": 4298,
      "Ġà¤ıà¤®à¤ľ": 4299,
      "Ch": 4300,
      "Ġà¤®à¤¨à¤¸": 4301,
      "Ġà¤¸à¤¬à¤°": 4302,
      "Ġabout": 4303,
      "Ġtra": 4304,
      "à¥ģà¥ģ": 4305,
      "à¤°à¤¬à¤¦à¤²": 4306,
      "Ġà¤ķà¤¸à¤¨": 4307,
      "Ġà¤Ĳà¤¨": 4308,
      "à¤Ĩà¤°à¤ķ": 4309,
      "ĠSub": 4310,
      "à¤ĩà¤¬à¤²": 4311,
      "¥Ĩ": 4312,
      "à¥Ĩ": 4313,
      "wood": 4314,
      "à¤ļà¤²à¤¨": 4315,
      "ĠNEWS": 4316,
      "à¥ħà¤¾": 4317,
      "à¤ľà¤ķà¤¤": 4318,
      "Ġà¤ıà¤¸à¤ķ": 4319,
      "ĠBhar": 4320,
      "Ġà¤§à¤¬": 4321,
      "Ġar": 4322,
      "Ġà¤¢à¤²": 4323,
      "anj": 4324,
      "Ġ1971": 4325,
      "à¤ªà¤°à¤¨": 4326,
      "Ġà¤ªà¤¹à¤°": 4327,
      "umber": 4328,
      "ĠBy": 4329,
      "Ġà¤ªà¤¸à¤°": 4330,
      "à¥Īà¤Ĥ)": 4331,
      "Ġà¤¸à¤¦à¤®": 4332,
      "The": 4333,
      "Ġà¤ļà¤Łà¤°": 4334,
      "Ġà¤µà¤«": 4335,
      "Ġà¤¤à¤µ": 4336,
      "Ġà¤®à¤²à¤¯": 4337,
      "Ġà¤Ĩà¤¬à¤ķ": 4338,
      "Ġà¤Ĩà¤ĩà¤¸": 4339,
      "à¤łà¤°": 4340,
      "ĠRed": 4341,
      "ĠMobile": 4342,
      "Ġà¤Ķà¤ľ": 4343,
      "anch": 4344,
      "Ġget": 4345,
      "Ġà¤Ĳà¤¡": 4346,
      "Ġà¤¤à¤°à¥ŀ": 4347,
      "Hindi": 4348,
      "à¤Ĺà¤«à¤²": 4349,
      "ĠKar": 4350,
      "ki": 4351,
      "pro": 4352,
      "Ġà¤ıà¤Ĩà¤Ī": 4353,
      "à¤¡à¥ļ": 4354,
      "à¤µà¤µà¤°": 4355,
      "à¤¾à¥ħ.": 4356,
      "Ġà¤ķà¤¸à¤®": 4357,
      "US": 4358,
      "Ġ1995": 4359,
      "à¤°à¤¸à¤¤": 4360,
      "Ġadd": 4361,
      "to": 4362,
      "Ġinst": 4363,
      "à¤Ŀà¤®": 4364,
      "Ġà¤¸à¤ľà¤Ĺ": 4365,
      "ĠNext": 4366,
      "Ġà¤§à¤¨à¤¤": 4367,
      "rime": 4368,
      "à¤¹à¤°à¤¤": 4369,
      "2011": 4370,
      "ery": 4371,
      "à¤Łà¤Ł": 4372,
      "ahi": 4373,
      "à¤¿'": 4374,
      "à¤¨à¤ĸ": 4375,
      "Ġ1994": 4376,
      "à¤¾....": 4377,
      "Ġà¤ªà¤¡à¤²": 4378,
      "ĠNot": 4379,
      "Ġà¤ľà¤ķ": 4380,
      "Ġà¤ĵà¤²à¤®": 4381,
      "à¤ıà¤¨à¤ıà¤¨": 4382,
      "à¤Ŀà¤¤": 4383,
      "Ġà¤Ŀà¤Ĺà¥ľ": 4384,
      "so": 4385,
      "Ġà¤¬à¤²à¤¦": 4386,
      "Ġà¤ĺà¤¸": 4387,
      "ĠArt": 4388,
      "opy": 4389,
      "Ġà¤®à¤Ŀ": 4390,
      "Ġà¤²à¤£": 4391,
      "ober": 4392,
      "à¤«à¤Ł": 4393,
      "à¤¤à¤°à¤®": 4394,
      "Ġà¤°à¤ĸà¤µ": 4395,
      "utt": 4396,
      "ahar": 4397,
      "ĠMark": 4398,
      "Ġà¤ĳà¤²à¤°": 4399,
      "à¤Ĩà¤°à¤ıà¤¸à¤ıà¤¸": 4400,
      "à¤Ĩà¤Īà¤ıà¤¸": 4401,
      "à¤¸à¤Ĭà¤¦": 4402,
      "Ġà¤Ĺà¤Ĺà¤¨": 4403,
      "ĠJuly": 4404,
      "tember": 4405,
      "Ġà¤¸à¤°à¤Ĺà¤¨": 4406,
      "ĠNovember": 4407,
      "Ġà¤¡à¤Ł": 4408,
      "à¤·à¤Ĺ": 4409,
      "Ġà¤ľà¤¯à¤¸": 4410,
      "Ġ1200": 4411,
      "Ġshared": 4412,
      "akh": 4413,
      "Ġà¤ħà¤²à¤®": 4414,
      "Ġà¤İ": 4415,
      "Ġà¤¹à¤²à¤µ": 4416,
      "ĠEnglish": 4417,
      "à¤ķà¤°à¤®": 4418,
      "Ġà¤ľà¤®à¤¶": 4419,
      "Ġ105": 4420,
      "2010": 4421,
      "WE": 4422,
      "à¤ľà¤¯à¤¨": 4423,
      "à¤¦à¤¡": 4424,
      "à¤ıà¤®à¤Ł": 4425,
      "à¥¤à¥¤": 4426,
      "Ġà¤ªà¤Łà¤ķà¤¥": 4427,
      ".,": 4428,
      "Ġ900": 4429,
      "Ġà¤Īà¤ª": 4430,
      "à¤¸à¤ĸ": 4431,
      "à¤²à¤°à¤¶": 4432,
      "lowjob": 4433,
      "ĠPun": 4434,
      "à¤ķà¤Ŀ": 4435,
      "Ġà¤Ĩà¤²à¤¸": 4436,
      "à¤°à¤ĺ": 4437,
      "ĠFil": 4438,
      "à¤ĩà¤¡à¤²": 4439,
      "à¤łà¤Ĺ": 4440,
      "à¤²à¤®à¤ª": 4441,
      "Ġ1989": 4442,
      "raph": 4443,
      "Ġà¤°à¤¹à¤²": 4444,
      "à¤µà¤¬": 4445,
      "à¥ĺà¤°": 4446,
      "ĠRT": 4447,
      "Ġà¤¹à¤ľà¤°à¤¤": 4448,
      "Ġà¤²à¤ĸà¤¨": 4449,
      "Ġaur": 4450,
      "Ġà¤ĸà¤®": 4451,
      "à¥Īà¤Ĥà¥¤\"": 4452,
      "Ġà¤ıà¤ļà¤ª": 4453,
      "Ġà¤ıà¤ķà¥ľ": 4454,
      "à¤ıà¤°": 4455,
      "Ġà¤²à¤ķà¥ľ": 4456,
      "aka": 4457,
      "Ġà¤«à¤Łà¤¨": 4458,
      "Ġsc": 4459,
      "à¤®à¤Ī": 4460,
      "Ġà¤¸à¤ķà¤¨": 4461,
      "Ġà¤¹à¤¨à¤¨": 4462,
      "Ġà¤ıà¤¯à¤°à¤µ": 4463,
      "PF": 4464,
      "icket": 4465,
      "ames": 4466,
      "Ġà¤ķà¤ľ": 4467,
      "à¤ĩà¤¨à¤¸": 4468,
      "aper": 4469,
      "Ġà¤Ĺà¤Ł": 4470,
      "Ġchan": 4471,
      "à¤ļà¤¯à¤¨": 4472,
      "Ġà¤¸à¤¡à¤ķ": 4473,
      "ollywood": 4474,
      "Ġà¤Ĩà¤ķà¤¸": 4475,
      "à¤Ĥà¤¾": 4476,
      "Ġà¤ªà¤°à¤µà¤°": 4477,
      "à¤¤à¤«": 4478,
      "à¤¼à¥¤": 4479,
      "à¤Ĩà¤ľà¤®": 4480,
      "à¤Ĩà¤®à¤¤": 4481,
      "ital": 4482,
      "Ġ......": 4483,
      "à¤°à¤ļà¤²à¤¨": 4484,
      "à¤ĵà¤ķ": 4485,
      "à¤°à¤®à¤¨": 4486,
      "Ġà¤ľà¤²à¤ķà¤°": 4487,
      "à¤¯à¤°à¤ķ": 4488,
      "Ġà¥§à¥®": 4489,
      "estion": 4490,
      "à¤·à¤µà¤°": 4491,
      "Ġà¤µà¤¨à¤µ": 4492,
      "LL": 4493,
      "à¤®à¤¥": 4494,
      "à¤¾à¤Ĥà¥¤": 4495,
      "omi": 4496,
      "ĠWeb": 4497,
      "Ġà¤ıà¤¹": 4498,
      "à¤¤à¤«à¤°": 4499,
      "mp": 4500,
      "rat": 4501,
      "à¤µà¤¯à¤ķ": 4502,
      "ĠWord": 4503,
      "Ġem": 4504,
      "Ġà¤ļà¤®à¤ķà¤¦": 4505,
      "ĠBS": 4506,
      "PC": 4507,
      "Ġà¤Ĩà¤Īà¤¨": 4508,
      "ĠMot": 4509,
      "Ġà¤¬à¤¦à¤°": 4510,
      "à¥ĩ\"": 4511,
      "à¤¬à¤ª": 4512,
      "riya": 4513,
      "apoor": 4514,
      "RC": 4515,
      "Ġà¤¸à¤¹à¤ķà¤°": 4516,
      "Ġà¤¸à¤¯": 4517,
      "à¤¨à¤®à¤¸": 4518,
      "Ġà¤ıà¤ķà¤¸": 4519,
      "Ġà¤ªà¤²à¤µà¤²": 4520,
      "Ġà¤ªà¤ķà¥ľà¤¨": 4521,
      "duct": 4522,
      "Ġ101": 4523,
      "à¤¦à¤ķà¤¤": 4524,
      "ĠND": 4525,
      "à¤¤à¤¶": 4526,
      "à¤ľà¤¹à¤¬": 4527,
      "à¤Ĩà¤Īà¤µ": 4528,
      "Ġà¤ļà¤¯à¤¨à¤ķà¤°": 4529,
      "à¤¯à¤¸à¤®": 4530,
      "Ġà¤ķà¤²à¤¹": 4531,
      "umb": 4532,
      "Ġ4000": 4533,
      "à¤¨à¤°à¤²": 4534,
      "à¤µà¤²à¤ª": 4535,
      "ices": 4536,
      "ĠFl": 4537,
      "Ġà¤¤à¤°à¤ľ": 4538,
      "Ġà¤ıà¤®à¤Ł": 4539,
      "formation": 4540,
      "Ġà¤Ĩà¤Ĺà¤ľà¤¨": 4541,
      "roup": 4542,
      "ister": 4543,
      "à¤®à¤¤à¤¦": 4544,
      "Ġà¤²à¤ľ": 4545,
      "ĠHealth": 4546,
      "ĠEdit": 4547,
      "way": 4548,
      "à¥ĭà¤ģ": 4549,
      "uch": 4550,
      "à¤¾à¤ģ-": 4551,
      "Ġà¤¦à¤°à¤®": 4552,
      "ĠIPL": 4553,
      "à¤¹à¤°à¤¬": 4554,
      "Ġà¤Ńà¤¯à¤Ń": 4555,
      "reate": 4556,
      "min": 4557,
      "à¤²à¤¨à¤ķ": 4558,
      "lic": 4559,
      "Ġà¤Ŀà¤°à¤¨": 4560,
      "à¤®à¤ļà¤¨": 4561,
      "ĠRating": 4562,
      "à¥¨à¥¦": 4563,
      "à¤ĳà¤ªà¤°": 4564,
      "à¤®à¤¡": 4565,
      "diyo": 4566,
      "gh": 4567,
      "adi": 4568,
      "à¤Ĩà¤°à¤ĵ": 4569,
      "cation": 4570,
      "tm": 4571,
      "mary": 4572,
      "ada": 4573,
      "ĠWorld": 4574,
      "à¤°à¤Ĩà¤¨": 4575,
      "vel": 4576,
      "Ġà¤Ľà¤Ł": 4577,
      "ĠJio": 4578,
      "Ġblowjob": 4579,
      "¥ĳ": 4580,
      "à¥ĳ": 4581,
      "Ġà¤ıà¤¨à¤Ĩà¤Īà¤ı": 4582,
      "Ġà¤°à¤ªà¤Ł": 4583,
      "ivers": 4584,
      "Ġà¤ªà¤²à¤Łà¤¨": 4585,
      "ĠBit": 4586,
      "ny": 4587,
      "ateg": 4588,
      "ffic": 4589,
      "RE": 4590,
      "à¤Łà¤Ĺ": 4591,
      "gov": 4592,
      "Me": 4593,
      "ĠTra": 4594,
      "à¤Ńà¤®": 4595,
      "Ġpart": 4596,
      "à¤¤à¤¥": 4597,
      "Ġà¤¶à¤¹à¤ľ": 4598,
      "Ġà¤¤à¤µà¤ľ": 4599,
      "à¤ķà¤²à¤µ": 4600,
      "ga": 4601,
      "atus": 4602,
      "à¤ľà¤¡": 4603,
      "Ġà¤ļà¤®à¤¡": 4604,
      "Ġrik": 4605,
      "Ġà¤®à¤¹à¤ķ": 4606,
      "à¤Łà¤°à¤²": 4607,
      "à¤Ĺà¤²à¤ķ": 4608,
      "à¥Ī....": 4609,
      "Ġà¤²à¤Ł": 4610,
      "à¤ľà¤¨à¤µà¤°": 4611,
      "oney": 4612,
      "riends": 4613,
      "Ġ102": 4614,
      "Ġ104": 4615,
      "Ġà¤®à¤¨à¤ļ": 4616,
      "ĠRel": 4617,
      "120": 4618,
      "BC": 4619,
      "à¥Ģ)à¥¤": 4620,
      "à¤ħà¤Ĺà¤¸": 4621,
      "Ġmo": 4622,
      "Ġà¤ĳà¤¨à¤°": 4623,
      "à¤°à¤ľà¤¨à¤¨": 4624,
      "Ġ2500": 4625,
      "Ġà¤µà¤¹à¤¨": 4626,
      "Ġà¤ıà¤®à¤ıà¤ıà¤ļ": 4627,
      "Ġà¤ķà¤¸à¤¤": 4628,
      "à¤¯à¤ķà¤µ": 4629,
      "mo": 4630,
      "con": 4631,
      "à¤ľà¤¯à¤µà¤°": 4632,
      "ĠAccount": 4633,
      "Ġstory": 4634,
      "à¤®à¤ļà¤°": 4635,
      "Ġà¤¸à¤¹à¤ľà¤¤": 4636,
      "ral": 4637,
      "Ġ30000": 4638,
      "Ġà¤ĩà¤Ĺ": 4639,
      "Ġ450": 4640,
      "à¤·à¤ľà¤¨à¤ķ": 4641,
      "asthan": 4642,
      "Ġxxx": 4643,
      "ĠYouTube": 4644,
      "Ġà¤¦à¤°à¤Ń": 4645,
      "Ġmein": 4646,
      "endra": 4647,
      "TC": 4648,
      "Ġà¤²à¤¸": 4649,
      "ĠGST": 4650,
      "ĠIs": 4651,
      "ute": 4652,
      "ize": 4653,
      "Ġà¤ķà¤°à¤ª": 4654,
      "à¤£à¤Ĺ": 4655,
      "à¤¡à¤¶": 4656,
      "ology": 4657,
      "Ġà¤ľà¤¨à¤®à¤¤": 4658,
      "ror": 4659,
      "ĠDis": 4660,
      "à¤ľà¤¤à¤¨": 4661,
      "Ġà¤ıà¤¹à¤¤": 4662,
      "Ġ1950": 4663,
      "à¤ķà¤ł": 4664,
      "hy": 4665,
      "à¤ħà¤°à¤µ": 4666,
      "à¤²à¤ķà¤®": 4667,
      "à¤ĳà¤²": 4668,
      "ĠModi": 4669,
      "char": 4670,
      "jab": 4671,
      "Ġhas": 4672,
      "Ġà¤ĳà¤¬": 4673,
      "htt": 4674,
      "RA": 4675,
      "Ar": 4676,
      "Ġà¤ªà¤¸à¤¨": 4677,
      "ux": 4678,
      "aa": 4679,
      "Ġà¥¤à¥¤": 4680,
      "news": 4681,
      "Ġtime": 4682,
      "ĠPra": 4683,
      "Ġà¤ªà¤Ĺ": 4684,
      "Ġà¤¡à¤°à¤¨": 4685,
      "inue": 4686,
      "à¤Ĩà¤Īà¤Ĩà¤Ī": 4687,
      "Ġà¤®à¤ľà¤¹à¤¬": 4688,
      "Ġ10000": 4689,
      "ution": 4690,
      "velo": 4691,
      "amil": 4692,
      "Ġout": 4693,
      "à¤¸à¤²à¤µ": 4694,
      "Ġà¤ħà¤§à¤°": 4695,
      "ĠClick": 4696,
      "Ġà¤¸à¤¬à¤¬": 4697,
      "à¥Īà¤ĥ": 4698,
      "uary": 4699,
      "Ġà¤¥à¤®à¤¨": 4700,
      "Ġà¤¹à¤°à¤ª": 4701,
      "à¥Ī\"": 4702,
      "Ġà¤ħà¤¨à¤Ĺ": 4703,
      "HO": 4704,
      "à¥ľà¤ª": 4705,
      "ines": 4706,
      "Ġà¤§à¤°à¤£": 4707,
      "Ġà¤ħà¤ł": 4708,
      "Ġà¤Ĩà¤µà¤ķ": 4709,
      "ĠPre": 4710,
      "...]": 4711,
      "à¤īà¤¨à¤¸": 4712,
      "Ġà¤ªà¤ĸà¤µ": 4713,
      "Ġà¤ľà¤¯à¤ķ": 4714,
      "Ġcol": 4715,
      "ett": 4716,
      "asic": 4717,
      "ĠWe": 4718,
      "Ġà¤Ŀà¤Ł": 4719,
      "ission": 4720,
      "700": 4721,
      "à¤¶à¤®à¤¨": 4722,
      "à¤Ĺà¤¨à¤µ": 4723,
      "à¤¨à¤µà¤ľ": 4724,
      "ition": 4725,
      "à¤¸à¤¬à¤ķ": 4726,
      "vert": 4727,
      "Ġà¤Łà¤ª": 4728,
      "à¤°à¤«à¤²": 4729,
      "Ġà¤®à¤¦à¤¤": 4730,
      "à¥Ĥà¤Ĥ?": 4731,
      "IF": 4732,
      "ĠPhotos": 4733,
      "ourt": 4734,
      "Ġà¤¸à¤¬à¤®": 4735,
      "Ġà¤ªà¤Ĺà¤¡": 4736,
      "other": 4737,
      "ĠKhabar": 4738,
      "à¤ľà¤¨à¤¸": 4739,
      "Ġoff": 4740,
      "à¤Ĥà¤Ĥ": 4741,
      "ĠAur": 4742,
      "à¤ĩà¤¸à¤°": 4743,
      "à¥į,": 4744,
      "AB": 4745,
      "ĠJune": 4746,
      "Ġà¤Ĩà¤Īà¤ıà¤ıà¤¨à¤ıà¤¸": 4747,
      "Ġà¤¬à¤¤à¤²": 4748,
      "à¥įà¤¿": 4749,
      "à¤ħà¤Łà¤²": 4750,
      "Ġhain": 4751,
      "Ġà¤ļà¤Łà¤¨": 4752,
      "ĠAct": 4753,
      "Ġà¤īà¤ªà¤®à¤¹": 4754,
      "à¤ĩà¤¸à¤¨": 4755,
      "cess": 4756,
      "ashi": 4757,
      "ĠMi": 4758,
      "Ġà¤°à¤Ĺ": 4759,
      "ĠIt": 4760,
      "ĠSex": 4761,
      "Ġà¤ħà¤ľà¤¨": 4762,
      "à¥ľà¤Ĺ": 4763,
      "eh": 4764,
      "Ġà¤İà¤¸": 4765,
      "à¥Ľà¤Ĺ": 4766,
      "à¥įà¤¾": 4767,
      "Ġà¤ħà¥ŀ": 4768,
      "Ġà¤§à¥ľ": 4769,
      "ype": 4770,
      "ĠVir": 4771,
      "à¤¥à¤²à¤Ĺ": 4772,
      "raj": 4773,
      "ality": 4774,
      "ĠAp": 4775,
      "Ġsa": 4776,
      "Ġà¤²à¤²à¤ķ": 4777,
      "pport": 4778,
      "à¤¬à¤°à¤¦": 4779,
      "Ġaccount": 4780,
      "Ġà¤¨à¤Ĺà¤°à¤¸": 4781,
      "ĠJob": 4782,
      "Ġà¤ªà¤Łà¤²": 4783,
      "Ġà¤ĩà¤ľà¤¹": 4784,
      "ĠCo": 4785,
      "à¥ľà¤Ľ": 4786,
      "Ġà¤¶à¤¹à¤¨": 4787,
      "Ġà¤°à¤Īà¤¸": 4788,
      "ĠAdd": 4789,
      "ification": 4790,
      "lease": 4791,
      "Ġà¤¸à¤¹à¤®": 4792,
      "Ġà¤ĵà¤¢": 4793,
      "Ġà¤ıà¤¸à¤ıà¤ļà¤ĵ": 4794,
      "Ġà¤«à¤¸": 4795,
      "Ġà¤Īà¤¨": 4796,
      "Ġpre": 4797,
      "à¤®à¤ķà¤°à¤£": 4798,
      "Ġà¤¾": 4799,
      "Ġà¤®à¤Łà¤°": 4800,
      "India": 4801,
      "Ġsite": 4802,
      "ĠMain": 4803,
      "Ġà¤ħà¤¹à¤²": 4804,
      "à¤®à¤Ĺà¤¢": 4805,
      "à¤«à¤¹à¤®": 4806,
      "Ġ`": 4807,
      "à¤¨à¤ªà¤¤": 4808,
      "à¤·à¤¸à¤¹": 4809,
      "MB": 4810,
      "vid": 4811,
      "à¤®à¤¤à¤²à¤¬": 4812,
      "Ġ360": 4813,
      "Ġà¤¡à¤¸": 4814,
      "erson": 4815,
      "à¥ĭà¥ĩ": 4816,
      "Ġà¤¸à¤°à¤²à¤¤": 4817,
      "Ġà¤ħà¤µà¤¨": 4818,
      "Ġà¤Ĩà¤Ĭ": 4819,
      "Ġà¤²à¤¹à¤ľ": 4820,
      "à¤®à¤ł": 4821,
      "Ġà¤ļà¤®à¤ķà¤¤": 4822,
      "à¤ķà¤ĺà¤°": 4823,
      "weet": 4824,
      "RO": 4825,
      "hip": 4826,
      "Ġwas": 4827,
      "Ġà¥§à¥§": 4828,
      "RB": 4829,
      "Ġbest": 4830,
      "Ġà¤ĺà¤¨à¤¶": 4831,
      "Pl": 4832,
      "overn": 4833,
      "Ġà¤ľà¤¨à¤¸à¤®": 4834,
      "Ġap": 4835,
      "à¤¾.\"": 4836,
      "Ġpe": 4837,
      "Ġà¤ħà¤¨à¤µà¤°": 4838,
      "Ġà¤ĸà¤²à¤¨": 4839,
      "ful": 4840,
      "Ġexam": 4841,
      "à¤§à¤°à¤£": 4842,
      "à¤¡à¤°à¤²": 4843,
      "à¤ľà¤Ńà¤°": 4844,
      "lock": 4845,
      "orr": 4846,
      "Ġà¤¬à¤¸à¤¨": 4847,
      "ĠAir": 4848,
      "Ġz": 4849,
      "urrent": 4850,
      "Ġph": 4851,
      "Ġfeature": 4852,
      "Ġà¤¸à¤°à¤«à¤°": 4853,
      "ann": 4854,
      "appy": 4855,
      "à¥ĭ..": 4856,
      "lectric": 4857,
      "Ġà¤¹à¥ĺ": 4858,
      "à¤ĭà¤·": 4859,
      "Ġà¤ķà¤¸à¤°à¤¤": 4860,
      "à¥Īà¤Ĥà¥¤'": 4861,
      "Ġà¤Ĩà¥ľ": 4862,
      "Ġà¤®à¤ĸ": 4863,
      "Ġà¤ľà¤¯à¤¦": 4864,
      "my": 4865,
      "ites": 4866,
      "Ġà¤ªà¤¨à¤ª": 4867,
      "Ġà¥¥": 4868,
      "ĠPhone": 4869,
      "EL": 4870,
      "Ġà¤ªà¤Ľà¤¤": 4871,
      "agar": 4872,
      "ĠPDF": 4873,
      "à¤Ĩà¤°à¤ľ": 4874,
      "Ġà¤ĸà¤Ĺ": 4875,
      "Ġà¤ķà¤Łà¤µ": 4876,
      "ĠPDT": 4877,
      "à¤ĩà¥Ľ": 4878,
      "Ġà¤ķà¤²à¤ķ": 4879,
      "à¤¬à¤²à¤¡à¤¨": 4880,
      "ource": 4881,
      "ream": 4882,
      "ative": 4883,
      "BJP": 4884,
      "IP": 4885,
      "Ġà¤¯à¤¤": 4886,
      "ars": 4887,
      "Ġ]": 4888,
      "Ġà¤§à¤¨à¤¬": 4889,
      "work": 4890,
      "Ġà¤²à¤¬": 4891,
      "Ġà¤ıà¤¤": 4892,
      "ĠMarch": 4893,
      "990": 4894,
      "à¤µà¤°à¤¤": 4895,
      "xy": 4896,
      "ĠPrice": 4897,
      "ĠMein": 4898,
      "ura": 4899,
      "Ġà¤¸à¤ĺà¤¨": 4900,
      "Ġà¤ľà¤«à¤°": 4901,
      "Ġà¤ķà¤¢": 4902,
      "à¤¦à¤°à¤¨à¤Ĺà¤°": 4903,
      "Ġà¤Ńà¤°à¤µ": 4904,
      "Ġà¤Ŀà¤²": 4905,
      "Ġà¤®à¤¹à¤«": 4906,
      "TET": 4907,
      "à¤²à¤Ĺà¤¤": 4908,
      "very": 4909,
      "à¤ĩà¤ķà¤°": 4910,
      "Ġpm": 4911,
      "ersion": 4912,
      "Ġà¤ĸà¤°à¤¬": 4913,
      "icy": 4914,
      "ĠThis": 4915,
      "Ġà¤Ńà¤£": 4916,
      "Ġà¤¨à¥Ľ": 4917,
      "Ġà¤ıà¤¯à¤°à¤ķ": 4918,
      "Ġà¤Ńà¤¨à¤ķ": 4919,
      "Ġshare": 4920,
      "ĠFIR": 4921,
      "come": 4922,
      "oun": 4923,
      "Ġà¤Ĩà¤īà¤Łà¤²": 4924,
      "Ġà¤¤à¤¨à¤ĸ": 4925,
      "à¤Ĭà¤ªà¤°": 4926,
      "à¤ĳà¤Ł": 4927,
      "Ġà¤°à¤Ĺà¤¡": 4928,
      "à¤ıà¤ļà¤¯": 4929,
      "va": 4930,
      "iaomi": 4931,
      "oy": 4932,
      "Ġà¤ĸà¤°à¤Ĺ": 4933,
      "vie": 4934,
      "Ġà¤Ĩà¤°à¤ıà¤¸": 4935,
      "Ġà¤¯à¤¶à¤ª": 4936,
      "ION": 4937,
      "shot": 4938,
      "à¤¯à¤°à¤§": 4939,
      "otes": 4940,
      "Ġà¤«à¤²à¤¦": 4941,
      "à¤®à¤²à¤¤": 4942,
      "à¤®à¤¸à¤®à¤°": 4943,
      "ĠAss": 4944,
      "Ġà¤Ķà¤ļ": 4945,
      "Ġà¤ĳà¤«à¤²": 4946,
      "Ġcr": 4947,
      "à¤¸à¤¡à¤°": 4948,
      "à¤µà¤°à¤¨": 4949,
      "Ġvi": 4950,
      "Ġà¤ĸà¤«": 4951,
      "ĠAg": 4952,
      "Ġà¤¸à¤°à¤¹à¤¦": 4953,
      "agram": 4954,
      "oint": 4955,
      "Ġ1975": 4956,
      "play": 4957,
      "Ġà¤¤à¤®à¤¨": 4958,
      "ĠJanuary": 4959,
      "Ġà¤ľà¤¯à¤¶": 4960,
      "à¤³à¤²": 4961,
      "Ġà¤Ńà¤°à¤£": 4962,
      "Ġ1977": 4963,
      "ĠSearch": 4964,
      "iles": 4965,
      "Ġvee": 4966,
      "à¤ļà¤¤à¤°": 4967,
      "à¥¤\"": 4968,
      "ING": 4969,
      "Ġà¤¬à¤¶à¤°": 4970,
      "Ġsub": 4971,
      "Ġà¤ħà¤¸à¤¹à¤ľ": 4972,
      "rika": 4973,
      "à¤¯à¤«à¤²": 4974,
      "etail": 4975,
      "à¤ľà¤¬à¤²": 4976,
      "à¤®à¤ĸ": 4977,
      "Ġsak": 4978,
      "Ġà¤ıà¤¨à¤ıà¤¸à¤¯": 4979,
      "Ġpolit": 4980,
      "à¤Ĩà¤Īà¤¬": 4981,
      "Ġà¤ļà¤®à¤ļ": 4982,
      "Ġà¤łà¤¹à¤°à¤¨": 4983,
      "Ġà¤īà¤¥à¤²": 4984,
      "Th": 4985,
      "à¤¸à¤ķà¤¤": 4986,
      "LA": 4987,
      "hah": 4988,
      "à¤Ĺà¤°à¤®": 4989,
      "à¤ļà¤²à¤¤": 4990,
      "à¥§à¥¯": 4991,
      "à¤®à¤Ĺà¥Ŀ": 4992,
      "Ġà¥ŀà¤°": 4993,
      "ther": 4994,
      "ĠPlay": 4995,
      "à¤ıà¤²à¤ıà¤«": 4996,
      "uss": 4997,
      "Ġà¤ħà¤¸à¤£": 4998,
      "ited": 4999,
      "kia": 5000,
      "Ġà¤¤à¤Ĺà¤¡": 5001,
      "Ġour": 5002,
      "ator": 5003,
      "Ġà¤¤à¤¹à¤²à¤ķ": 5004,
      "Ġà¥Ĳ": 5005,
      "à¤ĵà¤¯": 5006,
      "à¤°à¤¦à¤¤": 5007,
      "aily": 5008,
      "Ġà¤Ŀà¤ľ": 5009,
      "ĠUse": 5010,
      "à¤Ĩà¤¯à¤¨": 5011,
      "à¤Ĺà¤ļ": 5012,
      "ĠFirst": 5013,
      "land": 5014,
      "yle": 5015,
      "à¥ĩà¥¤\"": 5016,
      "eth": 5017,
      "à¤¥à¤³": 5018,
      "Ġ115": 5019,
      "à¥ĭà¤Ĥ...": 5020,
      "ĠTechn": 5021,
      "à¤¤à¤¨à¤ª": 5022,
      "ii": 5023,
      "ĠNet": 5024,
      "Ġà¤®à¥Ľà¤¬": 5025,
      "Ġà¤Ĺà¤ľà¤²": 5026,
      "ĠMy": 5027,
      "à¤®à¤°à¤¸": 5028,
      "ĠMarket": 5029,
      "à¤ĸà¤¸": 5030,
      "à¤¬à¤³": 5031,
      "Ġà¤ıà¤ıà¤¸à¤ª": 5032,
      "à¤°à¤¤à¤µ": 5033,
      "ĠSeptember": 5034,
      "scri": 5035,
      "à¥Į.": 5036,
      "Ġà¤¡à¤²": 5037,
      "Ġà¥ĺà¤°": 5038,
      "Ġà¤ķà¤°à¤®": 5039,
      "Ġà¤Ńà¤Ĺà¤¦": 5040,
      "2009": 5041,
      "ose": 5042,
      "Ġà¤¨à¤µà¤²": 5043,
      "Ġphoto": 5044,
      "à¥ĭà¥ĩà¤Ĥ": 5045,
      "df": 5046,
      "Ġà¤ıà¤ļà¤Ĩà¤Īà¤µ": 5047,
      "aun": 5048,
      "Ġà¤ıà¤¸à¤ıà¤¸": 5049,
      "Ġà¤¸à¤°à¤¨": 5050,
      "Ġà¤Ĩà¤«à¤¤": 5051,
      "Ġ1986": 5052,
      "à¤®à¤«": 5053,
      "pic": 5054,
      "OW": 5055,
      "Ġà¤ħà¤°à¤®": 5056,
      "Ġà¤ħà¤ļà¤²": 5057,
      "ĠApril": 5058,
      "wal": 5059,
      "ĠInd": 5060,
      "ĠVidyal": 5061,
      "ĠNokia": 5062,
      "ĠOctober": 5063,
      "Ġà¤ħà¤ªà¤ķà¤®": 5064,
      "Ġveediyo": 5065,
      "ĠHot": 5066,
      "à¤·à¤¦à¤°": 5067,
      "Ġà¤ħà¥ľ": 5068,
      "ency": 5069,
      "à¤³à¤Ĺ": 5070,
      "ĠMin": 5071,
      "à¤¡à¤Ł": 5072,
      "AK": 5073,
      "udai": 5074,
      "Ġà¤Ĩà¤ĩà¤ķà¤¨": 5075,
      "à¤ľà¤ľ": 5076,
      "Ġso": 5077,
      "à¤¦à¤²à¤ª": 5078,
      "Ġà¤ľà¤¯à¤¨": 5079,
      "arat": 5080,
      "à¥Īà¥¤...": 5081,
      "riv": 5082,
      "ĠVideos": 5083,
      "Ġmon": 5084,
      "ĠCent": 5085,
      "à¤·à¤§à¤°": 5086,
      "Ġà¤ıà¤¨à¤¬": 5087,
      "à¥ģà¥¤": 5088,
      "Ġu": 5089,
      "---": 5090,
      "ĠYour": 5091,
      "Ġà¤ıà¤ķà¤¬": 5092,
      "Ġà¤¦à¤¯à¤¨": 5093,
      "Ġà¤¹à¤Łà¤µ": 5094,
      "Ġany": 5095,
      "TE": 5096,
      "achar": 5097,
      "overnment": 5098,
      "Ġà¤ªà¥Ŀà¤ķà¤°": 5099,
      "Ġà¤Ĩà¤Īà¤ĵà¤ıà¤¸": 5100,
      "à¤¹à¤¯": 5101,
      "IPL": 5102,
      "à¤§à¤µà¤¨": 5103,
      "ould": 5104,
      "ser": 5105,
      "à¤īà¤¸à¤®": 5106,
      "Ġà¤¬à¤Łà¤²à¤°": 5107,
      "Ġmin": 5108,
      "ublish": 5109,
      "Qu": 5110,
      "phone": 5111,
      "let": 5112,
      "Ġ112": 5113,
      "Ġà¤¨à¤ķà¤µ": 5114,
      "endriya": 5115,
      "Ġact": 5116,
      "ĠMaster": 5117,
      "Ġà¤īà¤¤à¤°à¤ķà¤°": 5118,
      "à¤¶à¤°à¤¥": 5119,
      "ara": 5120,
      "ĠReviewed": 5121,
      "nic": 5122,
      "à¤ķà¤¹à¤¨": 5123,
      "Ġ1962": 5124,
      "Ġà¤¸à¤¹à¤Ĺà¤²": 5125,
      "mm": 5126,
      "2008": 5127,
      "à¤²à¤¶à¤¨": 5128,
      "à¤Ĭà¤°": 5129,
      "à¥¦à¥¦à¥¦": 5130,
      "ĠAaj": 5131,
      "ĠApps": 5132,
      "Ġform": 5133,
      "itle": 5134,
      "De": 5135,
      "à¤Łà¤ĸ": 5136,
      "Ġ170": 5137,
      "ran": 5138,
      "Ġà¤īà¤ªà¤¨à¤Ĺà¤°": 5139,
      "à¤¡à¤°à¤µ": 5140,
      "Ġà¤ķà¤°à¤µà¤Ł": 5141,
      "ople": 5142,
      "à¤ªà¤Ĺà¤¢": 5143,
      "Sh": 5144,
      "pm": 5145,
      "à¤ªà¤°à¤¤": 5146,
      "à¤ıà¤«à¤ª": 5147,
      "à¤¸à¤ªà¤¨": 5148,
      "à¤¢à¤£": 5149,
      "à¤Ĺà¤¹": 5150,
      "à¤·à¤µ": 5151,
      "Ġ1988": 5152,
      "Ġà¤Ľà¤®": 5153,
      "Ġà¤®à¤Łà¤ķ": 5154,
      "à¤¨à¤Ńà¤¦": 5155,
      "coin": 5156,
      "à¤¤à¤ķà¤¨": 5157,
      "à¤ļà¤¬": 5158,
      "ident": 5159,
      "Ġà¤¤à¤ľ": 5160,
      "ĠNe": 5161,
      "ĠVidyalaya": 5162,
      "als": 5163,
      "rad": 5164,
      "ones": 5165,
      "à¤Īà¤ıà¤²": 5166,
      "Ġà¤¦à¤¶à¤®": 5167,
      "à¤¾',": 5168,
      "à¤ıà¤®à¤ľ": 5169,
      "ksh": 5170,
      "Ġà¤ıà¤¯à¤°à¤«": 5171,
      "Ġ106": 5172,
      "Press": 5173,
      "ience": 5174,
      "ging": 5175,
      "Ġà¤Ńà¤Łà¤ķà¤¤": 5176,
      "ĠAap": 5177,
      "Ġà¤Ĩà¤Īà¤ıà¤¸à¤Ĩà¤Īà¤ıà¤¸": 5178,
      "Ġà¤¬à¤¦à¤¸à¤²": 5179,
      "à¤ªà¤¹à¤ļ": 5180,
      "à¤Ĩà¤¹": 5181,
      "Ġher": 5182,
      "ĠShare": 5183,
      "Ġà¤ªà¤¨à¤¡": 5184,
      "fter": 5185,
      "Ġà¤§à¤ľ": 5186,
      "An": 5187,
      "ĠComm": 5188,
      "à¤¤à¤°à¤¨": 5189,
      "à¤®à¤¨à¤®": 5190,
      "Ġgoogle": 5191,
      "angu": 5192,
      "ĠPart": 5193,
      "à¤ĺà¤¡": 5194,
      "Ġà¤°à¤¬à¤°": 5195,
      "à¤Ĺà¤³": 5196,
      "Ġclick": 5197,
      "Ġà¤¸à¤²à¤µ": 5198,
      "Ġà¤°à¤®à¤£": 5199,
      "ĠKumar": 5200,
      "yan": 5201,
      "ervice": 5202,
      "Ġà¤ħà¤¸à¤°à¤¦": 5203,
      "ji": 5204,
      "ruary": 5205,
      "Ġà¤īà¤¬à¤²": 5206,
      "SP": 5207,
      "Ġ:)": 5208,
      "Ġ107": 5209,
      "Ġ1970": 5210,
      "ĠWith": 5211,
      "à¤¤à¤³": 5212,
      "Ġmobile": 5213,
      "Ġà¤¸à¤¡à¥ĺ": 5214,
      "ĠPower": 5215,
      "NL": 5216,
      "iya": 5217,
      "ĠTime": 5218,
      "Ġ1985": 5219,
      "Ġsearch": 5220,
      "uth": 5221,
      "Ġlike": 5222,
      "Ġà¤¶à¤²": 5223,
      "à¥Ģà¤Ĥ...": 5224,
      "à¤Ĩà¤ı": 5225,
      "Ġ220": 5226,
      "ĠComputer": 5227,
      "Ġà¤¨à¤¯à¤¨": 5228,
      "Ġmins": 5229,
      "à¤°à¤¤à¤µà¤°": 5230,
      "à¤īà¤¨à¤®": 5231,
      "Ġà¤ıà¤¸à¤ĵ": 5232,
      "ĠForm": 5233,
      "Ġwork": 5234,
      "Ġà¤ļà¤°à¤ĸ": 5235,
      "à¤ļà¤£": 5236,
      "Ġà¤Ĺà¤²à¤¤à¤«à¤¹à¤®": 5237,
      "à¤¨à¤®à¤¨": 5238,
      "uper": 5239,
      "à¤Ĺà¤Ī": 5240,
      "Ġà¤ķà¤®à¥Ľ": 5241,
      "à¤Łà¤£": 5242,
      "RI": 5243,
      "Ġ!!!": 5244,
      "wa": 5245,
      "à¤īà¤£": 5246,
      "Ġ124": 5247,
      "uru": 5248,
      "ND": 5249,
      "Ġà¤Ķà¤²": 5250,
      "Ġà¥§à¥ª": 5251,
      "ĠCr": 5252,
      "à¤ĵà¤°": 5253,
      "Ġ1987": 5254,
      "Ġà¤Īà¤ľ": 5255,
      "Ġ103": 5256,
      "à¤īà¤ªà¤¨": 5257,
      "à¥¤'": 5258,
      "Ex": 5259,
      "à¤¾à¤Ĥ.": 5260,
      "à¤¦à¤ĸà¤²": 5261,
      "Ġcomp": 5262,
      "HI": 5263,
      "Ġà¤µà¤¤à¤¨": 5264,
      "Studio": 5265,
      "à¤¶à¤¶": 5266,
      "Ġà¤¹à¤°à¤®à¤¨à¤ª": 5267,
      "ĠCopy": 5268,
      "ĠAff": 5269,
      "à¥Ģà¤Ĥ!": 5270,
      "Ġonline": 5271,
      "ko": 5272,
      "use": 5273,
      "()": 5274,
      "à¤µà¤°à¤ª": 5275,
      "ĠGu": 5276,
      "Ġà¤¨à¤µà¤Ĺ": 5277,
      "Ġno": 5278,
      "Ġà¥¦": 5279,
      "à¤Ĩà¤ļ": 5280,
      "à¤¦à¤¨à¤Ĺà¤°": 5281,
      "à¤¸à¤®à¤¤": 5282,
      "]]": 5283,
      "Ġcomment": 5284,
      "Ġà¤ĩà¤¯à¤°": 5285,
      "Ġà¤Īà¤²": 5286,
      "ika": 5287,
      "Ġà¤®à¤¡": 5288,
      "Ġlink": 5289,
      "à¤ĸà¤¨à¤¨": 5290,
      "Ġ750": 5291,
      "ism": 5292,
      "à¤®à¤¸à¤¨": 5293,
      "garh": 5294,
      "reaking": 5295,
      "à¤¹à¤²à¤¤": 5296,
      "BSE": 5297,
      "ouse": 5298,
      "Ġà¤¶à¤¤à¤°": 5299,
      "Ġà¤¨à¤Ł": 5300,
      "ĠPC": 5301,
      "Ġà¤ıà¤¯à¤°à¤¬": 5302,
      "res": 5303,
      "Ġà¤Ĩà¤ĩà¤¸à¤ķ": 5304,
      "à¤Ĺà¤²à¤¤": 5305,
      "Ġà¤ıà¤¸à¤ľ": 5306,
      "Ġà¤ıà¤¸à¤Ĩà¤Ī": 5307,
      "Ġà¤ľà¤ķà¤¡": 5308,
      "ĠComment": 5309,
      "à¤¯à¤ķà¤²": 5310,
      "Ġà¤ľà¤²à¤ª": 5311,
      "heck": 5312,
      "à¤°à¤®à¤ľ": 5313,
      "ĠTips": 5314,
      "Ġrel": 5315,
      "à¤ľà¤ªà¤ļ": 5316,
      "à¤ħà¤°à¤¬": 5317,
      "Ġà¤ªà¤¡à¤©": 5318,
      "Ġà¤§à¤¨à¤µ": 5319,
      "Ġà¤°à¤¤à¤²": 5320,
      "Ġà¤ħà¤¨à¤ļ": 5321,
      "à¤¾.'": 5322,
      "velop": 5323,
      "à¤°à¤¥à¤²": 5324,
      "Ġà¤ĩà¤¨à¤«": 5325,
      "Ġsec": 5326,
      "Ġday": 5327,
      "Ġà¤ľà¤£": 5328,
      "ese": 5329,
      "à¤°à¤²à¤¯": 5330,
      "Ġ1983": 5331,
      "à¤¬à¤°à¤¦à¤¸": 5332,
      "Ġà¤łà¤£": 5333,
      "yn": 5334,
      "ĠPrimary": 5335,
      "Ġà¥¨à¥«": 5336,
      "post": 5337,
      "Ġpage": 5338,
      "ava": 5339,
      "Ġà¤ĵà¤ıà¤¸": 5340,
      "ĠWWE": 5341,
      "aba": 5342,
      "ograph": 5343,
      "atur": 5344,
      "Ġà¤¨à¤°à¤µ": 5345,
      "à¤īà¤ªà¤²à¤¬": 5346,
      "Ġà¥ļà¤²à¤¤": 5347,
      "ĠHel": 5348,
      "Ġcrime": 5349,
      "que": 5350,
      "à¥Ŀà¤¤": 5351,
      "Ġà¤¦à¤¶à¤°à¤¥": 5352,
      "ĠCBI": 5353,
      "maz": 5354,
      "Ġà¤«à¤µ": 5355,
      "enef": 5356,
      "ĠPortal": 5357,
      "ĠPage": 5358,
      "Ġà¤Łà¤Ł": 5359,
      "Ġav": 5360,
      "Ġà¤°à¤£à¤§": 5361,
      "Ġbh": 5362,
      "à¤¬à¤°à¤¤": 5363,
      "Ġinter": 5364,
      "à¤¬à¤°à¤¸": 5365,
      "à¤Łà¤ļ": 5366,
      "à¤ıà¤²à¤Ł": 5367,
      "à¤ľà¤¨à¤°à¤²": 5368,
      "acy": 5369,
      "Ġupd": 5370,
      "à¥§à¥¦": 5371,
      "Ġà¤«à¤¤à¤µ": 5372,
      "of": 5373,
      "pany": 5374,
      "Ġà¤ķà¤®à¤¬à¤ĸ": 5375,
      "net": 5376,
      "ĠReg": 5377,
      "à¤ıà¤®à¤ıà¤®": 5378,
      "à¤°à¤¹à¤²": 5379,
      "ron": 5380,
      "à¤Łà¤¦": 5381,
      "à¤ļà¥ľ": 5382,
      "Ġà¤ªà¤°à¤ļà¤®": 5383,
      "ports": 5384,
      "Ġà¤¬à¤°à¤¬": 5385,
      "ĠCamStudio": 5386,
      "Ġà¤¦à¤¨": 5387,
      "à¤¬à¤ļà¤ªà¤¨": 5388,
      "à¤¯à¤°à¤¬": 5389,
      "ng": 5390,
      "vent": 5391,
      "ml": 5392,
      "Ġone": 5393,
      "à¤ħà¤ĸà¤¬": 5394,
      "Ġà¤ıà¤²à¤¬à¤®": 5395,
      "irth": 5396,
      "Ġatt": 5397,
      "ĠSk": 5398,
      "Ġà¤īà¤¬à¤°à¤¨": 5399,
      "aps": 5400,
      "Ġà¤®à¤¶à¤°": 5401,
      "Ġ135": 5402,
      "à¤§à¥ľ": 5403,
      "à¤µà¤°à¤®": 5404,
      "Ġà¥§à¥¬": 5405,
      "à¤ªà¤ķà¤¡": 5406,
      "ret": 5407,
      "ĠPatrika": 5408,
      "à¥Ģà¥¤\"": 5409,
      "Ġback": 5410,
      "à¤ļà¤°à¤°": 5411,
      "Ġyear": 5412,
      "à¤ħà¤¹": 5413,
      "à¤īà¤ľà¤°": 5414,
      "Ġà¤ķà¤µà¤ļ": 5415,
      "soft": 5416,
      "andhi": 5417,
      "ĠTwitter": 5418,
      "Ġ126": 5419,
      "à¤Ĩà¤¬": 5420,
      "Ġà¤ħà¤ĸà¤°": 5421,
      "ĠMicro": 5422,
      "à¤«à¤°à¤µà¤°": 5423,
      "à¤Ĥ:": 5424,
      "à¤ıà¤¨à¤Ł": 5425,
      "ĠMon": 5426,
      "Ġà¤²à¤¡à¤©": 5427,
      "Ġ550": 5428,
      "Ġà¥©à¥¦": 5429,
      "à¥ľà¤µ": 5430,
      "Ġà¤²à¤°": 5431,
      "150": 5432,
      "à¥Ģ....": 5433,
      "Ġ118": 5434,
      "Ġà¤ķà¤ļà¤¹à¤°": 5435,
      "à¥Ģà¤¼": 5436,
      "Ġ1948": 5437,
      "à¥Īà¤ģ": 5438,
      "EM": 5439,
      "Ġ~": 5440,
      "à¤¡à¤¯": 5441,
      "Ġà¤Ńà¤Łà¤ķà¤¨": 5442,
      "Ġà¤Ľà¤ªà¤°": 5443,
      "Ġà¤Ĭà¤·": 5444,
      "ĠGo": 5445,
      "rict": 5446,
      "à¤Īà¤ĵà¤µà¤°": 5447,
      "Ġà¤®à¤°à¤£": 5448,
      "Ġà¥ļà¥Ľà¤²": 5449,
      "à¤ĩà¤¨à¤ª": 5450,
      "Ġà¤ľà¤¨à¤¸à¤¤": 5451,
      "Video": 5452,
      "IA": 5453,
      "alaxy": 5454,
      "ĠInternet": 5455,
      "rid": 5456,
      "ities": 5457,
      "à¤¯à¤Łà¤°": 5458,
      "ĠUpdate": 5459,
      "ĠInter": 5460,
      "à¥ĩà¤Ĥ..": 5461,
      "à¤¿/": 5462,
      "Ġund": 5463,
      "Ġà¤ªà¤¥à¤ķ": 5464,
      "isit": 5465,
      "ĠBasic": 5466,
      "Ġà¤ħà¤µà¤¹": 5467,
      "Ġplay": 5468,
      "Ġà¤ĩà¤¯": 5469,
      "asht": 5470,
      "Ġà¤ĺà¤¡à¤²": 5471,
      "hatt": 5472,
      "à¤¾à¥¤[": 5473,
      "Ġà¤ªà¤¦à¤¯": 5474,
      "Ġhel": 5475,
      "Ġà¤Ľà¤¡": 5476,
      "ility": 5477,
      "Ġà¤®à¤ľà¤²": 5478,
      "portant": 5479,
      "Ġ117": 5480,
      "Ġà¤ħà¤¶à¤°à¤«": 5481,
      "aks": 5482,
      "Ġà¤¬à¤ľà¤¤": 5483,
      "Ġà¤¸à¥Ľ": 5484,
      "à¤¯à¤ľà¤¨": 5485,
      "ody": 5486,
      "%,": 5487,
      "ĠIT": 5488,
      "CR": 5489,
      "Ġà¤Ľà¤¨": 5490,
      "à¤®à¤°à¤¤": 5491,
      "Ġ1800": 5492,
      "Ġprot": 5493,
      "à¤¹à¤¨à¤²": 5494,
      "Ġ114": 5495,
      "Ġà¤¤à¤«": 5496,
      "ĠViews": 5497,
      "Ġà¤Ĭà¤¤à¤ķ": 5498,
      "Ġà¤¸à¤®à¤¯à¤¸": 5499,
      "à¥ĺà¤¤": 5500,
      "ĠID": 5501,
      "Ġà¤ľà¤ĺà¤¨": 5502,
      "à¤²à¤ķà¤¨": 5503,
      "à¥ĭ|": 5504,
      "à¤°à¤®à¤°": 5505,
      "à¤ıà¤¸à¤ıà¤¸à¤ª": 5506,
      "Ġà¤ªà¤ķà¤µ": 5507,
      "Ġà¤Ĩà¤ĩà¤²": 5508,
      "ude": 5509,
      "Ġà¤Ŀà¤ķà¤Ŀ": 5510,
      "Ġà¤¸à¤°à¤ļ": 5511,
      "Ġgirl": 5512,
      "ĠFebruary": 5513,
      "à¤Ĥà¥Īà¥¤": 5514,
      "à¤ıà¤®à¤¬": 5515,
      "Ġà¤¸à¤°à¤¯": 5516,
      "à¥Ľà¤¤": 5517,
      "ena": 5518,
      "sung": 5519,
      "à¤²à¤ĺ": 5520,
      "à¤Ĩà¤Īà¤ıà¤ıà¤¨à¤ıà¤¸": 5521,
      "à¤Ĩà¤°à¤ıà¤²": 5522,
      "MC": 5523,
      "Ġà¤ªà¤¦à¤Ń": 5524,
      "à¤ĸà¥ľ": 5525,
      "Ġà¤¹à¤ł": 5526,
      "Ġà¤¹à¤¥à¤ķ": 5527,
      "à¥ĩ....": 5528,
      "Ġ<": 5529,
      "à¤Ĩà¤°à¤ı": 5530,
      "ffect": 5531,
      "à¤¹à¥ľ": 5532,
      "à¤¯à¤µà¤§": 5533,
      "à¥ĭà¤Ĥ'": 5534,
      "Ġpolitical": 5535,
      "Ġà¤ĩà¤¡": 5536,
      "à¤ıà¤«à¤Ł": 5537,
      "iversity": 5538,
      "Ġreg": 5539,
      "ĠComp": 5540,
      "igg": 5541,
      "Ġ109": 5542,
      "Ġà¤ĵà¤ķà¤°": 5543,
      "ĠRedmi": 5544,
      "ĠSec": 5545,
      "Ġ1965": 5546,
      "Ġà¤Ĩà¤īà¤Łà¤ª": 5547,
      "Ġà¤ħà¥Ļ": 5548,
      "Ġ230": 5549,
      "ĠData": 5550,
      "à¤ķà¤°à¤¬à¤°": 5551,
      "Ġbl": 5552,
      "HAR": 5553,
      "à¤Ĩà¤¯à¤ķà¤°": 5554,
      "à¤¾à¤Ĥ)": 5555,
      "à¤¨à¤ªà¤°": 5556,
      "Ah": 5557,
      "Ġà¤ĩà¤ķà¤ł": 5558,
      "ĠContinue": 5559,
      "Ġà¤Ĩà¤ľà¤®à¤Ĺà¤¢": 5560,
      "Ġ1960": 5561,
      "Ġ240": 5562,
      "Ġà¤¹à¤¯": 5563,
      "à¤īà¤¸à¤¸": 5564,
      "Ġ00": 5565,
      "Ġ1982": 5566,
      "à¤ĩà¤ªà¤²": 5567,
      "à¤ªà¤Ĺ": 5568,
      "ĠGroup": 5569,
      "vest": 5570,
      "ĠPO": 5571,
      "Ġà¤ħà¤¯à¤¸": 5572,
      "Ġà¤Ĳà¤¤à¤°": 5573,
      "Ġà¤¬à¤¹à¤ķ": 5574,
      "hatsapp": 5575,
      "à¤°à¤ªà¤¦": 5576,
      "Ġà¤¬à¤ľà¤¨": 5577,
      "ration": 5578,
      "adhya": 5579,
      "à¤°à¤¤à¤²": 5580,
      "Ġbut": 5581,
      "à¤¯à¤®à¤¸à¤¨": 5582,
      "ĠBihar": 5583,
      "unt": 5584,
      "][": 5585,
      "Ġà¤¬à¤²à¤ľ": 5586,
      "Ġà¤ªà¤łà¤¨": 5587,
      "ĠSa": 5588,
      "Ġass": 5589,
      "yar": 5590,
      "Ġek": 5591,
      "New": 5592,
      "Ġupay": 5593,
      "à¤ªà¤ľ": 5594,
      "ĠLog": 5595,
      "Ġà¤ĭà¤ļ": 5596,
      "Ġà¤ĵà¤ıà¤¨à¤ľ": 5597,
      "à¤°à¤µà¤ł": 5598,
      "Ġà¤Ĩà¤īà¤Łà¤¸": 5599,
      "à¤Īà¤ı": 5600,
      "à¤Łà¤Ĩà¤īà¤Ł": 5601,
      "ĠChannel": 5602,
      "à¤¯à¤°à¤ªà¤°": 5603,
      "aye": 5604,
      "Ġà¤ıà¤¥": 5605,
      "Ġ122": 5606,
      "Ġà¤Ĩà¤ªà¤®": 5607,
      "Ġ256": 5608,
      "ĠVo": 5609,
      "Te": 5610,
      "Ġharyana": 5611,
      "puri": 5612,
      "Ġà¤Ńà¤°à¤ķà¤®": 5613,
      "Ġà¤Ńà¤°à¤¤à¤ª": 5614,
      "Ġà¤ħà¤²à¤¸": 5615,
      "à¤¡à¤¯à¤¨": 5616,
      "ĠTO": 5617,
      "Ġ175": 5618,
      "Ġ111": 5619,
      "à¤Łà¤°à¤ķ": 5620,
      "ern": 5621,
      "Ġdis": 5622,
      "back": 5623,
      "à¤®à¤¨à¤°": 5624,
      "à¤ķà¤Łà¤¤à¤®": 5625,
      "Ġfile": 5626,
      "2020": 5627,
      "à¤ļà¤°à¤²": 5628,
      "var": 5629,
      "à¤µà¤«": 5630,
      "Ġ6000": 5631,
      "ĠPunjab": 5632,
      "à¤¹à¤Ń": 5633,
      "Ġà¤¬à¤ł": 5634,
      "wali": 5635,
      "Ġà¤¯à¤®à¤°": 5636,
      "Ġà¤ªà¤¢à¤©": 5637,
      "à¤Ĩà¤°à¤ıà¤®": 5638,
      "à¤µà¤°à¤«": 5639,
      "à¥Ģ./": 5640,
      "ustom": 5641,
      "ĠFile": 5642,
      "à¤Ľà¤µ": 5643,
      "apture": 5644,
      "ecial": 5645,
      "à¥Īà¤Ĥ.\"": 5646,
      "ĠWh": 5647,
      "erved": 5648,
      "à¥ĩà¥¤'": 5649,
      "ĠClass": 5650,
      "à¤µà¤ĺà¤°": 5651,
      "Ġà¤Ĺà¤¬": 5652,
      "Ġac": 5653,
      "à¤Ńà¤µà¤¨": 5654,
      "Ġrecord": 5655,
      "ĠRoad": 5656,
      "ey": 5657,
      "lectricity": 5658,
      "à¤ľà¤¹à¤¦": 5659,
      "Ġhot": 5660,
      "Ġà¤ĵà¤¶": 5661,
      "PSC": 5662,
      "Ġà¤²à¥ľà¤¤": 5663,
      "Ġà¤Ĺà¤ª": 5664,
      "à¤ķà¤¦à¤²": 5665,
      "ĠShiksha": 5666,
      "à¤Īà¤ķà¤®": 5667,
      "à¤Ľà¤ł": 5668,
      "Ġà¤Łà¤ªà¤ķ": 5669,
      "amm": 5670,
      "ĠNote": 5671,
      "Ġà¤²à¤¨": 5672,
      "ces": 5673,
      "à¤ĵà¤¨": 5674,
      "Ġà¤ıà¤¸à¤ıà¤¸à¤¸": 5675,
      "à¤Ńà¤Ł": 5676,
      "Ġà¤ħà¤ªà¤¶à¤¬": 5677,
      "Ġà¤Ķà¤ķ": 5678,
      "Ġ}": 5679,
      "à¤ıà¤¦": 5680,
      "Ġà¤¶à¤ķà¤¤": 5681,
      "ama": 5682,
      "à¤ıà¤¸à¤ĵ": 5683,
      "ĠCha": 5684,
      "à¤ıà¤«à¤¡": 5685,
      "à¤¬à¤ķà¤°": 5686,
      "à¤ıà¤²à¤¬": 5687,
      "Ġà¤®à¤¨à¤ľ": 5688,
      "ĠTest": 5689,
      "Ġà¤¹à¤°à¤«": 5690,
      "ights": 5691,
      "à¤§à¤¬": 5692,
      "Ġ132": 5693,
      "Ġshow": 5694,
      "Ġà¤ħà¤ªà¤ĺ": 5695,
      "RL": 5696,
      "Ġà¤ľà¤Ĺà¤®": 5697,
      "Ġà¤ĵà¤µà¤°à¤²": 5698,
      "Ġà¤¬à¤Ĺà¤¦": 5699,
      "cember": 5700,
      "Ġà¤Ĩà¤Īà¤¯": 5701,
      "à¤°à¤ķà¤ª": 5702,
      "Ġà¤¬à¤ª": 5703,
      "ĠRecord": 5704,
      "Ad": 5705,
      "ĠHigh": 5706,
      "Ġent": 5707,
      "Ġà¤ħà¤®à¤°à¤ľ": 5708,
      "Ġà¤¨à¤µà¤¦": 5709,
      "Ġà¤ħà¤¨à¤¹": 5710,
      "FC": 5711,
      "à¤¸à¤£": 5712,
      "orial": 5713,
      "ujarat": 5714,
      "Ġ650": 5715,
      "ĠWordPress": 5716,
      "à¤ľà¤Ĺà¤¢": 5717,
      "Ġà¤ĩà¤·": 5718,
      "Ġà¤ħà¤°à¤¬à¤ªà¤¤": 5719,
      "ional": 5720,
      "edu": 5721,
      "à¤ĸà¤®à¤°": 5722,
      "eta": 5723,
      "Ġà¤¬à¤¶": 5724,
      "Ġser": 5725,
      "ĠSab": 5726,
      "Ġà¤¥à¤²": 5727,
      "à¤®à¤¹à¤°": 5728,
      "ica": 5729,
      "IL": 5730,
      "ict": 5731,
      "ĠSBI": 5732,
      "à¥Ģà¥¤'": 5733,
      "ĠTrans": 5734,
      "Ġà¤¦à¤²à¤¬": 5735,
      "IVE": 5736,
      "à¤¶à¤°à¤¦": 5737,
      "Ġà¤Ĩà¤µà¤°à¤£": 5738,
      "Ġ>>": 5739,
      "à¤ıà¤¸à¤ķ": 5740,
      "Ġà¤īà¤¦à¤ĺ": 5741,
      "Ġhow": 5742,
      "ope": 5743,
      "Ġà¤ıà¤®à¤ķ": 5744,
      "à¤ĸà¤ļ": 5745,
      "Ġ119": 5746,
      "ĠSamachar": 5747,
      "Ġà¤ıà¤²à¤Ł": 5748,
      "à¤ľà¤£": 5749,
      "UN": 5750,
      "Ġà¤¨à¤ļ": 5751,
      "Ġsoftware": 5752,
      "ocial": 5753,
      "2000": 5754,
      "ĠInstagram": 5755,
      "Ġà¤¬à¤¢à¤¨": 5756,
      "à¤ıà¤²à¤¸": 5757,
      "Ġà¤°à¤ķà¤¬": 5758,
      "ĠSSC": 5759,
      "à¤¤à¤ĸà¤¤": 5760,
      "Ġfeatured": 5761,
      "Ġlife": 5762,
      "etails": 5763,
      "à¤¼)": 5764,
      "ublic": 5765,
      "Ġà¤®à¤°à¤µ": 5766,
      "Ġ123": 5767,
      "chool": 5768,
      "Ġà¥§à¥©": 5769,
      "2007": 5770,
      "Ġà¤ıà¤ļà¤Ł": 5771,
      "ĠSmart": 5772,
      "à¤ķà¤°à¤µ": 5773,
      "ĠElection": 5774,
      "à¤µà¤²à¤¦": 5775,
      "Ġover": 5776,
      "................": 5777,
      "GN": 5778,
      "****************": 5779,
      "ĠGB": 5780,
      "Ġ145": 5781,
      "à¤¨à¤Ĺà¤¢": 5782,
      "Ġà¤ĸà¤²à¤¬à¤²": 5783,
      "Ġ1972": 5784,
      "ven": 5785,
      "ĠWhatsapp": 5786,
      "ĠDist": 5787,
      "Ġà¤¦à¤²à¤¦à¤²": 5788,
      "ĠPer": 5789,
      "Ġà¤ĵà¤µà¤²": 5790,
      "ĠXiaomi": 5791,
      "Ġprogram": 5792,
      ".\"": 5793,
      "à¤ıà¤«à¤ıà¤¸": 5794,
      "Ġà¤ħà¤ľà¤¨à¤¬": 5795,
      "Ġà¤Ķà¤ļà¤ķ": 5796,
      "ocu": 5797,
      "ĠAds": 5798,
      "à¤£à¤¤à¤¯": 5799,
      "der": 5800,
      "à¤¹à¤£à¤ľ": 5801,
      "omen": 5802,
      "à¤µà¤¶à¤ķ": 5803,
      "ĠPh": 5804,
      "Ġà¤²à¤ªà¤Ł": 5805,
      "inks": 5806,
      "Ġvideos": 5807,
      "Ġà¤ľà¤®à¤¨": 5808,
      "ym": 5809,
      "Ġà¤¤à¤Łà¤¸": 5810,
      "NU": 5811,
      "Ġ377": 5812,
      "à¤¶à¤ļ": 5813,
      "Ġbusiness": 5814,
      "à¤ħà¤ľà¤®": 5815,
      "à¤Ĩà¤Īà¤Ĩà¤Īà¤Ł": 5816,
      "à¤²à¤Ńà¤Ĺ": 5817,
      "inal": 5818,
      "Ġlove": 5819,
      "à¤ĭà¤¤": 5820,
      "aad": 5821,
      "Ġà¤īà¤²à¤Łà¤«": 5822,
      "ĠGet": 5823,
      "ni": 5824,
      "Ġà¤ħà¤Łà¤²à¤ľ": 5825,
      "à¤¶à¤Ĺ": 5826,
      "Ġà¤ªà¤ķà¤¨": 5827,
      "Ġà¤ħà¤ľà¤µ": 5828,
      "ongress": 5829,
      "Ġedit": 5830,
      "à¤ļà¥Ŀ": 5831,
      "à¤²à¤¯à¤¨": 5832,
      "Ġif": 5833,
      "Ġà¤ħà¤«à¤ľà¤²": 5834,
      "à¤°à¤£à¤¯": 5835,
      "Ġà¤¨à¤ľà¤°à¤¬": 5836,
      "ness": 5837,
      "ĠHain": 5838,
      "Ġà¤¬à¤¦à¤¸": 5839,
      "ĠNational": 5840,
      "ĠGalaxy": 5841,
      "zw": 5842,
      "à¤¯à¤ļà¤ķ": 5843,
      "'.": 5844,
      "top": 5845,
      "à¥Į-": 5846,
      "Ġà¤°à¤¡": 5847,
      "emb": 5848,
      "Ġà¤ıà¤²à¤¸": 5849,
      "aunch": 5850,
      "Ġà¤¤à¤°à¤¬": 5851,
      "Ġà¤¬à¤°à¤ª": 5852,
      "ĠKey": 5853,
      "ayari": 5854,
      "ible": 5855,
      "ected": 5856,
      "ĠBook": 5857,
      "ĠPlus": 5858,
      "Ġà¤¸à¤°à¤¬à¤ľ": 5859,
      "ĠAAP": 5860,
      "ĠIAS": 5861,
      "Ġà¤Ĩà¤īà¤Łà¤¡": 5862,
      "à¥Īà¥į": 5863,
      "Tak": 5864,
      "News": 5865,
      "Ġà¤Ĩà¤·": 5866,
      "ĠOpen": 5867,
      "à¤ªà¤°à¤«": 5868,
      "ĠEdu": 5869,
      "Ġà¥¨à¥¦à¥§à¥®": 5870,
      "Ġ1967": 5871,
      "fi": 5872,
      "à¤¸à¤¦à¤¨": 5873,
      "Ġà¤·à¤¡à¤¯": 5874,
      "att": 5875,
      "à¤¶à¤Ń": 5876,
      "à¤ģ.": 5877,
      "Ġà¤ħà¤ķà¤°à¤®": 5878,
      "Ġà¤µà¤¯": 5879,
      "à¤Ŀà¤°": 5880,
      "uro": 5881,
      "à¥Ĥà¤ģ?": 5882,
      "Ġà¤¹à¥ľà¤ķ": 5883,
      "à¥Ģ',": 5884,
      "à¤²à¤£": 5885,
      "Ġrecipe": 5886,
      "à¤°à¤Ľ": 5887,
      "atta": 5888,
      "à¤²à¤¹à¤¨": 5889,
      "à¤°à¤ªà¤°": 5890,
      "à¤ļà¤²à¤°": 5891,
      "ĠProgram": 5892,
      "unny": 5893,
      "Ġopen": 5894,
      "Ġright": 5895,
      "à¤°à¤ĸà¤°": 5896,
      "Ġà¤¸à¤°à¤Ĺ": 5897,
      "Ġà¤ªà¤°à¤®à¤ľ": 5898,
      "à¤īà¤¸à¤«": 5899,
      "Ġknow": 5900,
      "Ġapps": 5901,
      "function": 5902,
      "chan": 5903,
      "MT": 5904,
      "à¤ķà¤®à¤°": 5905,
      "ĠST": 5906,
      "Ġfirst": 5907,
      "ĠPolice": 5908,
      "Ġ1857": 5909,
      "à¤µà¤°à¤²": 5910,
      "Ġà¤ħà¤ľà¤Ĺà¤°": 5911,
      "Ġindi": 5912,
      "ene": 5913,
      "Ġinextlive": 5914,
      "à¤Īà¤Ĺ": 5915,
      "Ġhome": 5916,
      "anguage": 5917,
      "ĠPo": 5918,
      "ĠMB": 5919,
      "ĠCopyright": 5920,
      "ĠOffice": 5921,
      "Ġago": 5922,
      "Ġà¤¤à¤¸à¤²": 5923,
      "inextlive": 5924,
      "Ġà¤ľà¤Ĺà¤®à¤Ĺ": 5925,
      "ĠMake": 5926,
      "à¤¸à¤ĺ": 5927,
      "à¤Ĺà¤³à¤µ": 5928,
      "Ġà¤ıà¤¡à¤µà¤°": 5929,
      "Ġà¤Ĩà¤īà¤Łà¤«": 5930,
      "ini": 5931,
      "scribe": 5932,
      "rist": 5933,
      "Ġoption": 5934,
      "ĠRSS": 5935,
      "Ġà¤ħà¤ľà¤¬": 5936,
      "Ġcomputer": 5937,
      "Al": 5938,
      "250": 5939,
      "à¤ķà¤§": 5940,
      "à¤®à¤ªà¤¤": 5941,
      "ĠUj": 5942,
      "à¤·à¤¯à¤ķ": 5943,
      "à¤ıà¤ıà¤¸": 5944,
      "Ġcha": 5945,
      "Ġà¤¹à¤°à¤ķ": 5946,
      "Ġà¤Ńà¤Ĺà¤¦à¤¡": 5947,
      "à¤ħà¤Ł": 5948,
      "ĠSMS": 5949,
      "Ġà¤Ľà¤¤à¤°à¤ª": 5950,
      "asy": 5951,
      "Ġya": 5952,
      "Ġà¤§à¤®à¤¨": 5953,
      "Ġà¤Ĩà¤ªà¤£": 5954,
      "Ġà¤Ĺà¤ĩà¤²": 5955,
      "Ġà¤ıà¤¤à¤°": 5956,
      "amb": 5957,
      "à¤ľà¤Ĺà¤¤": 5958,
      "istory": 5959,
      "ĠBitcoin": 5960,
      "Ġà¤Ĩà¥Ļ": 5961,
      "aur": 5962,
      "Ġà¤®à¤¨à¤ªà¤¸": 5963,
      "board": 5964,
      "Ġà¥ŀà¤°à¤µà¤°": 5965,
      "à¤¥à¤°à¤¸": 5966,
      "hem": 5967,
      "Ġdata": 5968,
      "Ġ113": 5969,
      "à¤¦à¤°à¤ª": 5970,
      "Ġgo": 5971,
      "à¤µà¤¥": 5972,
      "à¤Ŀà¤Ł": 5973,
      "ĠBoard": 5974,
      "Tags": 5975,
      "Ġà¤ĵà¤¨": 5976,
      "à¤®à¤¸à¤²à¤¨": 5977,
      "à¤¸à¤°à¤ª": 5978,
      "Ġtrans": 5979,
      "Ġà¤¬à¤¸à¤¤": 5980,
      "Ġà¤ļà¤ªà¤°": 5981,
      "à¤¸à¤¨à¤°": 5982,
      "Ġà¤§à¤°à¤®": 5983,
      "uy": 5984,
      "ĠSystem": 5985,
      "à¤°à¤§à¤¨": 5986,
      "utton": 5987,
      "Ġà¤ħà¤¨à¤¬à¤¨": 5988,
      "Ġwho": 5989,
      "ami": 5990,
      "Ġà¤¹à¤°à¤«à¤¨à¤®": 5991,
      "Ġà¤ľà¤¯à¤¤": 5992,
      "Ġà¤Ĩà¤ĸà¤°": 5993,
      "urs": 5994,
      "Ġà¤ľà¤ĸà¤®": 5995,
      "à¤²à¤Ńà¤°": 5996,
      "ner": 5997,
      "ĠDate": 5998,
      "à¤ıà¤¨à¤ıà¤¸à¤Ī": 5999,
      "Ġà¤Ĩà¤¯à¤¨": 6000,
      "à¤µà¤°à¤ļ": 6001,
      "Ġ153": 6002,
      "Ġhigh": 6003,
      "à¤¯à¤¨à¤ķ": 6004,
      "Ġà¤®à¤Ĺà¤°à¤®à¤ļ": 6005,
      "à¤Ĩà¤Ĩ": 6006,
      "ĠFull": 6007,
      "Ġcard": 6008,
      "Ġ121": 6009,
      "ĠPolicy": 6010,
      "à¤®à¤¨à¤¸": 6011,
      "usic": 6012,
      "Ġà¤Ńà¤Łà¤¨": 6013,
      "cle": 6014,
      "dis": 6015,
      "à¤²à¤¸à¤°": 6016,
      "Ġà¤ļà¤ĸ": 6017,
      "Ġeng": 6018,
      "ARP": 6019,
      "à¤ıà¤®à¤Ĩà¤°": 6020,
      "à¤ħà¤µà¤§": 6021,
      "Ġà¤®à¤Ĭ": 6022,
      "Cl": 6023,
      "rypt": 6024,
      "ĠMac": 6025,
      "Ġhere": 6026,
      "à¤Ĥà¥ģ": 6027,
      "Ġà¤¸à¤¨à¤ķ": 6028,
      "Ġ190": 6029,
      "Ġ116": 6030,
      "Ġ149": 6031,
      "ĠDecember": 6032,
      "CCI": 6033,
      "Ġà¤Ĩà¤¯à¤¶": 6034,
      "td": 6035,
      "gy": 6036,
      "Ġà¤Ńà¤Ī": 6037,
      "Ġmake": 6038,
      "ĠNa": 6039,
      "Ġcomm": 6040,
      "Ġà¤ªà¤ķà¥ľà¤ķà¤°": 6041,
      "'t": 6042,
      "ĠMicrosoft": 6043,
      "ĠSoftware": 6044,
      "ĠSharma": 6045,
      "Ġà¤ıà¤ļà¤¸": 6046,
      "à¤¾à¥Ģ": 6047,
      "ĠAmaz": 6048,
      "Ġà¤¦à¤²à¤¹à¤¨": 6049,
      "yp": 6050,
      "ĠOption": 6051,
      "Ġà¥§à¥Ń": 6052,
      "ues": 6053,
      "à¤¾à¤Ĥ'": 6054,
      "ĠRBI": 6055,
      "à¤¹à¤°à¤¦": 6056,
      "EE": 6057,
      "Ġà¤¨à¤µà¤¯": 6058,
      "Ġà¤ªà¤¦à¤®": 6059,
      "ĠBharat": 6060,
      "Ġinstall": 6061,
      "Ġà¤¹à¤°à¤ľ": 6062,
      "IND": 6063,
      "Ġà¤Ĩà¤®à¤°à¤£": 6064,
      "airs": 6065,
      "Ġcomments": 6066,
      "à¤ĳà¤¨": 6067,
      "à¥įà¤Ĥ": 6068,
      "ivo": 6069,
      "ĠDaily": 6070,
      "Ġà¤ħà¥Ļà¤¬": 6071,
      "ters": 6072,
      "Ġà¤ħà¤°à¤¶à¤¦": 6073,
      "ĠAt": 6074,
      "à¤¸à¤¯": 6075,
      "Ġà¤ļà¤®à¤¨": 6076,
      "itt": 6077,
      "à¤¹à¤¤à¤®": 6078,
      "adha": 6079,
      "Ġà¤¶à¤«": 6080,
      "à¤¡à¤°à¤¶": 6081,
      "à¤¯à¤ķà¤°à¤£": 6082,
      "lim": 6083,
      "Ġà¤Ĩà¤ĩà¤ª": 6084,
      "Ġà¤¸à¤®à¤°à¤¸à¤¤": 6085,
      "Ġà¤ħà¤¥à¤ķ": 6086,
      "ĠTer": 6087,
      "à¤ĵà¤Ł": 6088,
      "\".": 6089,
      "rect": 6090,
      "ili": 6091,
      "oll": 6092,
      "à¤¢à¤ķ": 6093,
      "ased": 6094,
      "ĠJobs": 6095,
      "Ġà¤ħà¤¨à¤°": 6096,
      "UT": 6097,
      "heme": 6098,
      "à¤²à¤Ńà¤Ĺà¤¢": 6099,
      "Ġà¤¸à¥ŀà¤°": 6100,
      "à¤°à¤Ī": 6101,
      "????": 6102,
      "Ġpass": 6103,
      "Pro": 6104,
      "à¤Łà¤¨à¤°à¤¶": 6105,
      "à¤µà¤¨à¤¦": 6106,
      "Ġà¥«à¥¦": 6107,
      "à¤·à¤¶": 6108,
      "Ġà¤¹à¤µà¤²à¤¦": 6109,
      "ĠStud": 6110,
      "urve": 6111,
      "à¤¨à¤¦à¤¹": 6112,
      "ita": 6113,
      "à¤¡à¤°à¤µà¤°": 6114,
      "Ġà¤¹à¤µà¤¸": 6115,
      "Ġ2021": 6116,
      "ĠList": 6117,
      "ĠAajTak": 6118,
      "Ġà¤°à¥ŀ": 6119,
      "els": 6120,
      "à¥Ĥ:": 6121,
      "à¤¸à¤§": 6122,
      "à¤¤à¤Ńà¤°": 6123,
      "à¥į&": 6124,
      "Ġà¤ħà¤¬à¤ķ": 6125,
      "à¤®à¤Ŀ": 6126,
      "Ġà¤¹à¤®à¤®": 6127,
      "ĠPriv": 6128,
      "Ġà¤ĩà¤¥": 6129,
      "Ġindia": 6130,
      "Ġà¤Īà¤¡à¤¨": 6131,
      "omain": 6132,
      "Ġà¤ıà¤ıà¤¨": 6133,
      "à¤Ĺà¤Ń": 6134,
      "ĠArticle": 6135,
      "zwj": 6136,
      "Ġ1100": 6137,
      "Ġ1978": 6138,
      "Ġà¤ıà¤ıà¤¨à¤Ĩà¤Ī": 6139,
      "oon": 6140,
      "umbai": 6141,
      "Ġà¤Ĩà¤°à¤¡": 6142,
      "Ġ1981": 6143,
      "Ġimage": 6144,
      "ĠStatus": 6145,
      "ved": 6146,
      "Ġà¤Ĩà¤¹à¤Ł": 6147,
      "ĠRa": 6148,
      "Ġpay": 6149,
      "Ġà¤ķà¤Łà¤ĺà¤°": 6150,
      "blog": 6151,
      "Ġà¤Ľà¤ªà¤¨": 6152,
      "hee": 6153,
      "hell": 6154,
      "ĠKapoor": 6155,
      "Ġà¤«à¤ľ": 6156,
      "Ġà¤¸à¤°à¤¤": 6157,
      "Ġdef": 6158,
      "Ġà¤®à¤¨à¤¨": 6159,
      "khand": 6160,
      "ump": 6161,
      "html": 6162,
      "Ġà¤¹à¤ľà¤ķ": 6163,
      "Ġjo": 6164,
      "ĠNumber": 6165,
      "Ġ147": 6166,
      "à¤¥à¤ķà¤¤": 6167,
      "Ġà¤Ĩà¤µà¤°": 6168,
      "ĠNDTV": 6169,
      "ify": 6170,
      "ats": 6171,
      "à¤°à¤ľà¤ª": 6172,
      "Ġà¤ķà¤°à¤¸": 6173,
      "Ġ420": 6174,
      "ols": 6175,
      "Ġà¤ıà¤²à¤Ĩà¤Īà¤¸": 6176,
      "à¤µà¤Łà¤°": 6177,
      "à¤µà¤ļà¤¨": 6178,
      "Ġread": 6179,
      "à¤¡à¤¡": 6180,
      "à¤Ĺà¤®à¤¤": 6181,
      "Ġà¤©": 6182,
      "à¤ªà¤Łà¤ķ": 6183,
      "ĠAny": 6184,
      "TP": 6185,
      "Ġà¤ĩà¤®à¤²": 6186,
      "UV": 6187,
      "AG": 6188,
      "Ġà¤Ĩà¤ªà¤¬": 6189,
      "hag": 6190,
      "à¤ıà¤²à¤Ĩà¤°": 6191,
      "Ġfl": 6192,
      "Ġkahani": 6193,
      "SH": 6194,
      "ĠSer": 6195,
      "ĠPR": 6196,
      "Plus": 6197,
      "ĠCurrent": 6198,
      "Ġresult": 6199,
      "Ġfollow": 6200,
      "Ġlie": 6201,
      "Ġweb": 6202,
      "alk": 6203,
      "Ġà¤¨à¤µà¤µà¤°": 6204,
      "da": 6205,
      "Ġmark": 6206,
      "ĠIC": 6207,
      "ĠII": 6208,
      "Ġstart": 6209,
      "à¤ıà¤¨à¤ıà¤ļ": 6210,
      "AY": 6211,
      "à¤¯à¤¨à¤°": 6212,
      "istan": 6213,
      "Vi": 6214,
      "à¤ªà¤µà¤¨": 6215,
      "ategory": 6216,
      "à¤Łà¤°à¤¸à¤¨": 6217,
      "à¤¤à¤°à¤ľ": 6218,
      "à¤¯à¤¦à¤°": 6219,
      "Ġà¤¸à¤°à¤ľà¤®": 6220,
      "Ġlist": 6221,
      "à¤¼à¥ĩà¤Ĥà¤ĥ": 6222,
      "Ġà¤ıà¤®à¤ĵà¤¯": 6223,
      "DS": 6224,
      "à¤¼à¥Ģà¤Ĥ": 6225,
      "Ġà¤īà¤ĸà¤¡": 6226,
      "à¤ıà¤²à¤ª": 6227,
      "à¤ľà¤ĺ": 6228,
      "ĠRam": 6229,
      "ĠUniversity": 6230,
      "enefits": 6231,
      "Ġà¤ıà¤«à¤ıà¤®à¤¸": 6232,
      "Ġkarane": 6233,
      "Ġphone": 6234,
      "Ġhelp": 6235,
      "Ġà¤¸à¤°à¤µ": 6236,
      "Ġword": 6237,
      "à¤Ńà¤§": 6238,
      "Ġret": 6239,
      "Ġà¤²à¤«": 6240,
      "ific": 6241,
      "Ġà¤§à¤¤": 6242,
      "Ġà¤Ŀà¤°": 6243,
      "lood": 6244,
      "Ġà¤Ĩà¤¯à¤²": 6245,
      "Ġà¤¬à¤¦à¤²à¤µ": 6246,
      "ĠBoss": 6247,
      "Ġà¤¨à¤²à¤ķ": 6248,
      "à¤ıà¤¨à¤ıà¤ķ": 6249,
      "à¤«à¤ķ": 6250,
      "ĠYoj": 6251,
      "à¤¡à¤ķà¤ª": 6252,
      "Ġà¤Ľà¤¦": 6253,
      "Ġbig": 6254,
      "Ġalso": 6255,
      "eek": 6256,
      "ffer": 6257,
      "Ġà¤ªà¤Ĺà¤²": 6258,
      "Ġà¤®à¥Ľà¤¦": 6259,
      "odi": 6260,
      "Ġà¤¬à¤°à¤ķ": 6261,
      "à¤ıà¤®à¤ıà¤«": 6262,
      "TS": 6263,
      "ours": 6264,
      "à¤īà¤ªà¤Ń": 6265,
      "Shi": 6266,
      "à¤¸à¤°à¤¦": 6267,
      "à¤§à¤°à¤¤": 6268,
      "à¤®à¤¶à¤¹": 6269,
      "Ġà¤¤à¤¬à¤¸": 6270,
      "Ġ134": 6271,
      "hindi": 6272,
      "OC": 6273,
      "aipur": 6274,
      "Ġ182": 6275,
      "Ġ1979": 6276,
      "Ġà¤ĺà¤¨à¤¤": 6277,
      "\"à¥¤": 6278,
      "Ġhis": 6279,
      "ĠCamera": 6280,
      "Ġà¤īà¤¹": 6281,
      "Ġà¤®à¤¨à¤¦": 6282,
      "Ġà¤ħà¤¨à¤§": 6283,
      "à¤Ĥ?": 6284,
      "Ġà¤¸à¤°à¤Ĺà¤°": 6285,
      "Ġà¤ĩà¤¨à¤¬": 6286,
      "Ġfil": 6287,
      "Ġà¤ļà¤°à¤¸": 6288,
      "ĠAbout": 6289,
      "!!!": 6290,
      "à¤°à¥ŀ": 6291,
      "TML": 6292,
      "Ġà¤ĵà¤ľ": 6293,
      "ĠRajasthan": 6294,
      "cy": 6295,
      "à¤Ĥ)": 6296,
      "Ġà¤ħà¤¤à¤°": 6297,
      "à¤¦à¤ľ": 6298,
      "Ġà¤¶à¤Łà¤°": 6299,
      "Ġles": 6300,
      "Ġ1973": 6301,
      "tel": 6302,
      "à¤ıà¤¸à¤Ĩà¤°": 6303,
      "cre": 6304,
      "isa": 6305,
      "gmail": 6306,
      "à¤ľà¤¸à¤®": 6307,
      "Ġ1952": 6308,
      "à¤ªà¤ł": 6309,
      "ervices": 6310,
      "à¥ĩ),": 6311,
      "Ġ1974": 6312,
      "Ġà¤ľà¤¬à¤¤à¤ķ": 6313,
      "à¤ķà¤Łà¤µà¤°": 6314,
      "aran": 6315,
      "Ġclass": 6316,
      "ross": 6317,
      "Ġ1600": 6318,
      "Ġà¤¬à¤°à¤¨": 6319,
      "How": 6320,
      "à¤ľà¤¬à¤²à¤ª": 6321,
      "Ġà¤ħà¤¦à¤¨": 6322,
      "ĠBhi": 6323,
      "Ġà¤ħà¤ªà¤¶": 6324,
      "à¤¸à¤¦à¤°": 6325,
      "à¤Ķà¤¦": 6326,
      "Ġà¤®à¤¢": 6327,
      "wo": 6328,
      "à¤Łà¤ķà¤Ł": 6329,
      "Ġprice": 6330,
      "Ġà¤ľà¤°à¤¦": 6331,
      "Ġà¤¬à¤°à¤ĸ": 6332,
      "blem": 6333,
      "ĠGujarat": 6334,
      "à¤²à¤ĺà¤°": 6335,
      "Ġà¤īà¤Ńà¤°à¤¨": 6336,
      "Le": 6337,
      "à¤¬à¤¹à¤°": 6338,
      "+]": 6339,
      "ĠDep": 6340,
      "à¤¦à¤£": 6341,
      "à¤Ĺà¤Ĺ": 6342,
      "Ġà¤ĩà¥Ľ": 6343,
      "à¤²à¤¹à¤°": 6344,
      "Ġà¤¨à¤°à¤Ĺ": 6345,
      "Ġstud": 6346,
      "Ġreading": 6347,
      "eld": 6348,
      "Ġà¤µà¤¨à¤ª": 6349,
      "à¤ªà¤²à¤µà¤²": 6350,
      "Ġ1956": 6351,
      "ĠUPTET": 6352,
      "ĠIP": 6353,
      "Ġà¤ķà¤¹à¤¬": 6354,
      "Ġà¤ħà¤¸à¤²à¤®": 6355,
      "ren": 6356,
      "Ġà¤¹à¤¶": 6357,
      "à¤¡à¤¸à¤¨": 6358,
      "utorial": 6359,
      "Ġà¤Ĩà¤¦à¤°à¤£": 6360,
      "Ġà¤¶à¤¹à¤°à¤µ": 6361,
      "à¤£à¤°": 6362,
      "Ġà¤ľà¤¨à¤ķà¤ª": 6363,
      "à¥§à¥¨": 6364,
      "à¤¤à¤¹à¤¸": 6365,
      "à¤°à¤¶à¤°": 6366,
      "Ġ[+]": 6367,
      "ĠBollywood": 6368,
      "ĠPass": 6369,
      "Re": 6370,
      "Ġother": 6371,
      "jp": 6372,
      ".......": 6373,
      "à¤ľà¤¨à¤ªà¤¦": 6374,
      "à¤¦à¤°à¤ľ": 6375,
      "à¤Īà¤µà¤°": 6376,
      "ĠOr": 6377,
      "Ġ155": 6378,
      "ifi": 6379,
      "ĠCreate": 6380,
      "Ġà¤°à¤¥à¤¯": 6381,
      "ather": 6382,
      "Ġà¤®à¤²à¤ķ": 6383,
      "ĠBi": 6384,
      "Ġà¤Ĩà¤Īà¤ıà¤¸à¤ıà¤®": 6385,
      "à¥į.": 6386,
      "Ġsim": 6387,
      "à¤Ĳà¤¶": 6388,
      "osh": 6389,
      "atic": 6390,
      "Ġà¤ıà¤²à¤ĵà¤¸": 6391,
      "à¤Ĺà¥Ľ": 6392,
      "rand": 6393,
      "Ġà¤ľà¤²à¤Ńà¤°": 6394,
      "ward": 6395,
      "Ġà¤ªà¤ĸ": 6396,
      "ids": 6397,
      "Ġ3500": 6398,
      "Ġà¤Ĩà¤ĩà¤¨": 6399,
      "Ġà¤¤à¥ľà¤ķ": 6400,
      "Ġ1949": 6401,
      "à¤ļà¤¶": 6402,
      "ĠPa": 6403,
      "Ġbet": 6404,
      "Ġà¥ĩ": 6405,
      "à¤®à¤¢": 6406,
      "arendra": 6407,
      "Ġà¥Ŀ": 6408,
      "irthday": 6409,
      "bi": 6410,
      "à¤¯à¤Ĺà¤¢": 6411,
      "ĠFollow": 6412,
      "à¤°à¤µà¤¤": 6413,
      "à¤Ńà¤°à¤ķà¤®": 6414,
      "Ġfuck": 6415,
      "++": 6416,
      "à¤µà¤§à¤°": 6417,
      "à¥ľà¤®": 6418,
      "Ġcontent": 6419,
      "à¤ıà¤¨à¤Ĩà¤Īà¤ı": 6420,
      "à¤¡à¤°à¤Ĺ": 6421,
      "à¥Īà¤Ĥ.'": 6422,
      "ature": 6423,
      "Ġ127": 6424,
      "Ġ1951": 6425,
      "=\"": 6426,
      "Ġà¤ªà¤°à¤ļ": 6427,
      "à¤µà¤¨à¤ķ": 6428,
      "ged": 6429,
      "Ġworld": 6430,
      "à¤¯à¤µà¤¶": 6431,
      "Ġà¤°à¤¨à¤µ": 6432,
      "à¤ıà¤®à¤¡à¤¬": 6433,
      "à¤°à¤µà¤¶": 6434,
      "Ġlatest": 6435,
      "à¤¢à¤µ": 6436,
      "Ġà¤ĸà¤ļ": 6437,
      "Ġà¤«à¤¤à¤¹": 6438,
      "tr": 6439,
      "Ġà¤¡à¤²à¤µ": 6440,
      "à¤¦à¤°à¤¬": 6441,
      "à¤¸à¤¹à¤¨": 6442,
      "2004": 6443,
      "à¤¨à¤Ĺà¤°à¤ª": 6444,
      "Ġà¤¬à¤¦à¤¤à¤®": 6445,
      "à¤«à¤¸": 6446,
      "Ġà¤ļà¤¸": 6447,
      "Ġkaise": 6448,
      "ĠMob": 6449,
      "Ġà¥§à¥¦à¥¦": 6450,
      "Ġ\\": 6451,
      "ĠEducation": 6452,
      "Ġdev": 6453,
      "ĠSP": 6454,
      "ĠATM": 6455,
      "ĠKaise": 6456,
      "Sc": 6457,
      "Ġà¥¨à¥ª": 6458,
      "adav": 6459,
      "ĠAI": 6460,
      "Ġsystem": 6461,
      "opal": 6462,
      "à¤£à¤¦": 6463,
      "à¤¼à¤¾à¤Ĥ": 6464,
      "itive": 6465,
      "Ġà¤¡à¤®": 6466,
      "ĠEditor": 6467,
      "Ġà¤ıà¤¯à¤°à¤¸": 6468,
      "ivity": 6469,
      "VI": 6470,
      "rib": 6471,
      "ailable": 6472,
      "à¤¨à¤Ń": 6473,
      "ora": 6474,
      "Ġ136": 6475,
      "ĠGandhi": 6476,
      "Ġà¤¥à¤ªà¤¥": 6477,
      "Ġà¤¹à¤°à¤µ": 6478,
      "Ġà¤¸à¤¤à¤¬": 6479,
      "à¤°à¤ĸà¤¨": 6480,
      "ster": 6481,
      "alp": 6482,
      "gan": 6483,
      "Ġà¤¤à¤®à¤Ĺ": 6484,
      "à¤µà¤¦à¤²": 6485,
      "Ġà¤Ĺà¤ľà¤°": 6486,
      "eed": 6487,
      "ahin": 6488,
      "ony": 6489,
      "ĠSEO": 6490,
      "Ġà¤ıà¤¨à¤ıà¤¸à¤ľ": 6491,
      "ives": 6492,
      "Ġà¤ħà¥Ľ": 6493,
      "Ġkey": 6494,
      "à¤«à¥ľ": 6495,
      "onor": 6496,
      "Ġà¤ªà¤°à¤Ĺà¤¨": 6497,
      "à¤¡à¤¹à¤°": 6498,
      "Ġà¤łà¤¹": 6499,
      "Ġà¤Ľà¤ªà¤µ": 6500,
      "Ġà¤Ŀà¤ª": 6501,
      "au": 6502,
      "Ġà¤ħà¤¸à¤Ń": 6503,
      "NA": 6504,
      "Ġ139": 6505,
      "ovt": 6506,
      "à¤ªà¤ķà¤²": 6507,
      "Ġrikord": 6508,
      "à¤Łà¤¹": 6509,
      "Ġà¤ıà¤®à¤ıà¤¸à¤ª": 6510,
      "ĠCup": 6511,
      "Ġà¤¥à¤ªà¤¥à¤ª": 6512,
      "peed": 6513,
      "Ġà¤¹à¤®à¤¦à¤°": 6514,
      "à¤¯à¤²à¤¯": 6515,
      "Ġà¤ļà¤ķà¤®": 6516,
      "Ġà¤Ĩà¤¨à¤²": 6517,
      "Ġinformation": 6518,
      "Ġ[-": 6519,
      "bject": 6520,
      "à¤ıà¤¸à¤ıà¤®": 6521,
      "Ġà¤ªà¤¨à¤ªà¤¨": 6522,
      "Ġ148": 6523,
      "à¤ľà¤µà¤³": 6524,
      "à¥©à¥¦": 6525,
      "à¤¤à¤ĸ": 6526,
      "Ġà¤ķà¤Łà¤ķ": 6527,
      "zz": 6528,
      "Ġ151": 6529,
      "NG": 6530,
      "Ġà¤Ŀà¤²à¤ķà¤¤": 6531,
      "ae": 6532,
      "iye": 6533,
      "à¤ļà¤µà¤°": 6534,
      "ason": 6535,
      "Ġsam": 6536,
      "Ġà¤·à¤·": 6537,
      "ĠAC": 6538,
      "Ġà¤Īà¤ıà¤®à¤Ĩà¤Ī": 6539,
      "arm": 6540,
      "ĠRE": 6541,
      "Ġafter": 6542,
      "ĠHu": 6543,
      "Ġà¤ħà¤¨à¤Ń": 6544,
      "Ġandroid": 6545,
      "ants": 6546,
      "rowser": 6547,
      "à¤¡à¤ļ": 6548,
      "Step": 6549,
      "ĠMag": 6550,
      "à¤ĩà¤®à¤²": 6551,
      "ets": 6552,
      "Ġà¤¯à¤¶à¤¸": 6553,
      "ĠSol": 6554,
      "You": 6555,
      "Ġversion": 6556,
      "HP": 6557,
      "Ġ376": 6558,
      "http": 6559,
      "ternational": 6560,
      "¥¢": 6561,
      "à¥¢": 6562,
      "Ġà¤ıà¤²à¤¡": 6563,
      "Ġ[-]": 6564,
      "à¤Ŀà¤¬": 6565,
      "à¤ªà¤²à¤Ł": 6566,
      "à¤¶à¤Ł": 6567,
      "ctor": 6568,
      "Ġà¤Ľà¤¤à¤°": 6569,
      "à¥Ī)à¥¤": 6570,
      "NC": 6571,
      "à¥§à¥§": 6572,
      "Ġtechn": 6573,
      "à¤ªà¤ªà¤¤": 6574,
      "Ġà¤ľà¤¨à¤ķà¤²": 6575,
      "Ġà¤ĭà¤Ĺ": 6576,
      "Ġjob": 6577,
      "Ġpeople": 6578,
      "à¥Ĥà¥į": 6579,
      "ĠMS": 6580,
      "Ġla": 6581,
      "GH": 6582,
      "vir": 6583,
      "ĠCricket": 6584,
      "à¤¼.": 6585,
      "à¤¸à¤²à¤¨": 6586,
      "Ġà¤¹à¤°à¤Ĺ": 6587,
      "ĠSong": 6588,
      "ĠBan": 6589,
      "ries": 6590,
      "Ġà¤²à¤¥": 6591,
      "oud": 6592,
      "tra": 6593,
      "Ġ164": 6594,
      "MI": 6595,
      "Ġ320": 6596,
      "Ġà¤ıà¤¨à¤ıà¤®": 6597,
      "ĠTags": 6598,
      "à¤ĸà¤°à¤¨": 6599,
      ")'": 6600,
      "à¤®à¤Ĭ": 6601,
      "Ġà¤Ŀà¤®": 6602,
      "Ġà¤ıà¤¸à¤µ": 6603,
      "Ġà¤į": 6604,
      "à¤¹à¤¨à¤µ": 6605,
      "ange": 6606,
      "à¤¸à¤¦à¤¸": 6607,
      "Ġà¤¸à¤ļà¤¦": 6608,
      "sk": 6609,
      "spot": 6610,
      "amily": 6611,
      "à¤Ĺà¤²à¤°": 6612,
      "à¤°à¤®à¤£à¤ķ": 6613,
      "LIC": 6614,
      "Ġà¤Ĩà¤ĩà¤ķ": 6615,
      "à¤²à¤¬à¤¤": 6616,
      "ĠAmar": 6617,
      "orp": 6618,
      "ĠLink": 6619,
      "Ġ1969": 6620,
      "à¥Ģà¥°": 6621,
      "à¤¼à¥ĩà¤Ĥ,": 6622,
      "à¤¬à¤ľà¤°": 6623,
      "Ġà¤Ĩà¤Īà¤Ĩà¤Īà¤ıà¤®": 6624,
      "oga": 6625,
      "Ġà¤«à¤²à¤ķ": 6626,
      "à¤łà¤®à¤²": 6627,
      "ba": 6628,
      "à¥ħà¤Ĥ": 6629,
      "Ġ1976": 6630,
      "à¥ĩà¤Ĥ'": 6631,
      "Ġà¤ħà¤¨à¤µà¤°à¤¤": 6632,
      "Ġà¤ľà¤Ĺà¤¦à¤²à¤ª": 6633,
      "Ġà¤¨à¤¸à¤¬": 6634,
      "hu": 6635,
      "Ġà¤ĸà¤ª": 6636,
      "à¤Ĩà¤ĩà¤Ł": 6637,
      "Ġ2030": 6638,
      "icles": 6639,
      "eatures": 6640,
      "auty": 6641,
      "ĠDr": 6642,
      "Ġ1966": 6643,
      "ads": 6644,
      "à¥ĩ.\"": 6645,
      "Ġà¤īà¤®à¥ľ": 6646,
      "Ġà¤¸à¤¹à¤ª": 6647,
      "ethod": 6648,
      "]]>": 6649,
      "ĠApplication": 6650,
      "Too": 6651,
      "2006": 6652,
      "à¤²à¤¸à¤¨": 6653,
      "à¥ģ)": 6654,
      "Google": 6655,
      "Ġapplication": 6656,
      "wer": 6657,
      "================": 6658,
      "Ġrecording": 6659,
      "à¤Ĩà¤Īà¤ıà¤¸à¤ıà¤«": 6660,
      "à¤®à¤£à¤µ": 6661,
      "Ġ:,": 6662,
      "ĠGovernment": 6663,
      "Ġà¤Ĩà¤®à¤ļ": 6664,
      "Ġstep": 6665,
      "Ġà¤ıà¤ªà¤²": 6666,
      "ĠDig": 6667,
      "2005": 6668,
      "Ġ143": 6669,
      "à¥«à¥¦": 6670,
      "UB": 6671,
      "br": 6672,
      "à¤ıà¤²à¤ı": 6673,
      "ision": 6674,
      "ME": 6675,
      "Ġstories": 6676,
      "ĠEmail": 6677,
      "ĠJans": 6678,
      "vers": 6679,
      "à¤¹à¤²à¤¨": 6680,
      "ĠSal": 6681,
      "Ġwhat": 6682,
      "à¤®à¤¦à¤Ĺ": 6683,
      "Ġporn": 6684,
      "Ġà¥§à¥¯à¥¯": 6685,
      "à¤Łà¤²à¤®": 6686,
      "à¤¶à¤¨à¤Ĺ": 6687,
      "à¤¹à¤¥": 6688,
      "à¤īà¤ªà¤®": 6689,
      "Ġà¤ĺà¤ªà¤²": 6690,
      "à¤®à¤²à¤²": 6691,
      "ĠHal": 6692,
      "Ġà¤²à¤µà¤²": 6693,
      "Ġà¤¶à¤°à¤®": 6694,
      "à¤¶à¤°à¤£": 6695,
      "Ġmil": 6696,
      "ĠState": 6697,
      "à¤ĸà¤ªà¤¤": 6698,
      "Indi": 6699,
      "à¤ķà¤¬à¤¸": 6700,
      "à¤Ĩà¤ĵ": 6701,
      "hel": 6702,
      ",,,,": 6703,
      "ĠMA": 6704,
      "Ġà¤ķà¤®à¤¤à¤°": 6705,
      "Ġà¤ıà¤¡à¤ľà¤¸": 6706,
      "ĠLove": 6707,
      "à¤¡à¤¹": 6708,
      "à¤ĸà¤ľ": 6709,
      "eter": 6710,
      "ĠDistrict": 6711,
      "Ġ137": 6712,
      "ization": 6713,
      "akistan": 6714,
      "ĠCall": 6715,
      "Ġà¤Ľà¤²à¤¨": 6716,
      "ĠRail": 6717,
      "à¤®à¤¸à¤Ń": 6718,
      "Ġà¤īà¤Ĺà¤¤": 6719,
      "à¤³à¤ª": 6720,
      "ĠRecipe": 6721,
      "à¥įà¥¤": 6722,
      "ĠLife": 6723,
      "à¤°à¤¬à¤°": 6724,
      "Ġà¤ĩà¤ķà¤¨": 6725,
      "à¤¥à¤¨à¤Ĺà¤°": 6726,
      "Ġ165": 6727,
      "à¤®à¤ľà¤¨": 6728,
      "Ġà¤ªà¤°à¤ĸà¤¨": 6729,
      "Ġà¤¨à¤¸à¤°": 6730,
      "ĠIND": 6731,
      "fl": 6732,
      "à¤®à¤«à¤²": 6733,
      "ppo": 6734,
      "à¤µà¤²à¤¨": 6735,
      "ĠCar": 6736,
      "à¤Ĺà¤²à¤¸": 6737,
      "DP": 6738,
      "acts": 6739,
      "Ġà¤ļà¤ķà¤°": 6740,
      "ĠDev": 6741,
      "à¤¿à¥ĩ": 6742,
      "à¤®à¤°à¤ķ": 6743,
      "Ġà¤ľà¤¸à¤²": 6744,
      "à¤ľà¤¨à¤ľ": 6745,
      "CM": 6746,
      "Ġagain": 6747,
      "ĠURL": 6748,
      "Ġà¤²à¤ļà¤°": 6749,
      "bal": 6750,
      "à¤Ŀà¤²": 6751,
      "ĠBox": 6752,
      "ĠMa": 6753,
      "Ġà¤²à¤Łà¤ķà¤¤": 6754,
      "ja": 6755,
      "ĠSamsung": 6756,
      "Ġà¤ıà¤¨à¤Ĩà¤°à¤Ĩà¤Ī": 6757,
      "Ġ129": 6758,
      "OT": 6759,
      "Ġ210": 6760,
      "Ġcum": 6761,
      "Ġ1400": 6762,
      "enu": 6763,
      "Ġà¤¬à¤¸à¤°": 6764,
      "Ġ138": 6765,
      "erc": 6766,
      "Ġco": 6767,
      "Ġà¤¹à¤Łà¤¤": 6768,
      "OL": 6769,
      "Ġ302": 6770,
      "ĠNav": 6771,
      "Ġà¤Ĺà¤°à¤¬": 6772,
      "SE": 6773,
      "Ġà¤²à¤¥à¤ªà¤¥": 6774,
      "à¤Ĺà¤§": 6775,
      "à¤¼:": 6776,
      "Ġ225": 6777,
      "Ġà¤ıà¤®à¤ıà¤²à¤¸": 6778,
      "à¤¯à¤¸à¤¨": 6779,
      "Ġnumber": 6780,
      "à¤®à¤¬à¤°": 6781,
      "à¤¨à¤®à¤ķ": 6782,
      "inter": 6783,
      "à¤¤à¤®à¤¸": 6784,
      "ĠAffairs": 6785,
      "à¤ľà¤²à¤µ": 6786,
      "ĠPe": 6787,
      "Ġà¤ħà¤²à¤¬à¤¤": 6788,
      "Ġà¤ħà¤¬à¤°": 6789,
      "Ġrikording": 6790,
      "ĠFilm": 6791,
      "Ġpra": 6792,
      "à¤¸à¤¹à¤µ": 6793,
      "à¤¸à¤Ī": 6794,
      "Ġads": 6795,
      "Ġ1920": 6796,
      "val": 6797,
      "Ġà¤Ŀà¥ľ": 6798,
      "ĠJansatta": 6799,
      "Ġà¤īà¤Ĺà¤²": 6800,
      "Ġà¤ľà¤¬à¤¸": 6801,
      "vs": 6802,
      "à¤ļà¤Ĺ": 6803,
      "ĠHTML": 6804,
      "Ġwhatsapp": 6805,
      "à¤¨à¤¬à¤°": 6806,
      "ĠMah": 6807,
      "à¤Ĺà¤®à¤Ĺ": 6808,
      "uto": 6809,
      "ocument": 6810,
      "à¥ľà¤²": 6811,
      "à¥Īà¤Ĥà¥¤[": 6812,
      "à¥Ģà¤Ĥ|": 6813,
      "Ġà¤Ĩà¤Īà¤Ĩà¤°à¤¸": 6814,
      "Ġà¤¸à¤¹à¤°à¤¸": 6815,
      "Ġ131": 6816,
      "Ġà¤°à¤Ł": 6817,
      "Ġà¤ħà¤¹à¤µ": 6818,
      "Ġà¤¤à¤Ĩà¤²": 6819,
      "ctions": 6820,
      "Ġà¤¹à¤Ī": 6821,
      "à¤¾,\"": 6822,
      "à¤°à¤ªà¤Ł": 6823,
      "etrol": 6824,
      "Ġà¤ıà¤«à¤¬": 6825,
      "Ġà¤®à¤¨à¤ļà¤²": 6826,
      "Ġà¤²à¤µà¤°": 6827,
      "uman": 6828,
      "Ġà¤°à¤ļà¤¤": 6829,
      "Ġà¤ķà¤łà¤ª": 6830,
      "Ġà¤¬à¤®à¤¬": 6831,
      "Ġà¤¯à¤¸": 6832,
      "Ġà¤¤à¤¨à¤µ": 6833,
      "ĠSi": 6834,
      "Ġà¤ħà¤¦à¤Ń": 6835,
      "ĠJa": 6836,
      "medi": 6837,
      "ĠBack": 6838,
      "Ġà¤ıà¤ļà¤Ĩà¤°": 6839,
      "urity": 6840,
      "rive": 6841,
      "à¤¾à¤ģà¥¤": 6842,
      "à¤¬à¤°à¤²": 6843,
      "à¤ıà¤¨à¤Ĩà¤°à¤¸": 6844,
      "ĠDo": 6845,
      "à¤°à¤¤à¤Ł": 6846,
      "ĠMal": 6847,
      ".'": 6848,
      "à¤Īà¤ķà¤°": 6849,
      "Ġmicro": 6850,
      "Ġtips": 6851,
      "quest": 6852,
      "ĠSocial": 6853,
      "à¤ĩà¤Łà¤¨": 6854,
      "Ġ133": 6855,
      "1000": 6856,
      "RT": 6857,
      "à¤¸à¤ıà¤ķ": 6858,
      "à¤ıà¤®à¤Ĩà¤°à¤¸": 6859,
      "esari": 6860,
      "ĠCan": 6861,
      "à¤Ĺà¤²à¤ªà¤¨": 6862,
      "Ġname": 6863,
      "à¤²à¤Ī": 6864,
      "ĠHar": 6865,
      "à¤¬à¤¦à¤®": 6866,
      "Ġà¤¤à¤¦": 6867,
      "Ġà¥¨à¥§": 6868,
      "ĠISO": 6869,
      "Ġthan": 6870,
      "Ġà¤ķà¥ľà¤µ": 6871,
      "Ġà¤īà¤®à¤¸": 6872,
      "ography": 6873,
      "orks": 6874,
      "à¤¤à¤¨à¤Ĺà¤°": 6875,
      "isgarh": 6876,
      "ĠPaytm": 6877,
      "à¤¤à¤µà¤°": 6878,
      "à¤ĳà¤¡": 6879,
      "LE": 6880,
      "Ġgu": 6881,
      "à¥ĩà¤Ĥ\"": 6882,
      "à¥ŀà¤°": 6883,
      "à¤¬à¤Łà¤¨": 6884,
      "Ġ7000": 6885,
      "Ġ1961": 6886,
      "))": 6887,
      "à¤¤à¤§": 6888,
      "rop": 6889,
      "orrent": 6890,
      "Ġà¤ıà¤«à¤ıà¤®": 6891,
      "à¤Ĩà¤ĩà¤¯": 6892,
      "Ġà¤ıà¤¨à¤ıà¤¸à¤Ī": 6893,
      "à¤ľà¤ªà¤¥": 6894,
      "Ġmedia": 6895,
      "fo": 6896,
      "ĠPST": 6897,
      "à¤ıà¤ıà¤²": 6898,
      "ĠDh": 6899,
      "à¤Ĩà¤°à¤¤": 6900,
      "ams": 6901,
      "ĠImage": 6902,
      "à¤°à¤®à¤¸": 6903,
      "par": 6904,
      "Ġà¤Ĩà¤¸à¤°": 6905,
      "Ġà¤®à¤ķà¤¬à¤°": 6906,
      "opular": 6907,
      "mir": 6908,
      "à¤¥à¤Ĺà¤¨": 6909,
      "à¤ħà¤¸à¤°": 6910,
      "dition": 6911,
      "uja": 6912,
      "à¤Īà¤Ĩà¤°à¤Ł": 6913,
      "Ġà¤¶à¤¹à¤¡": 6914,
      "ei": 6915,
      "à¤ıà¤«à¤ı": 6916,
      "Ġmar": 6917,
      "Ġà¤«à¤£": 6918,
      "Ġà¤²à¤ĸà¤µ": 6919,
      ">>>>": 6920,
      "outh": 6921,
      "Ġà¤¬à¤ļà¤ķà¤°": 6922,
      "à¤§à¤¨à¤¤": 6923,
      "à¤²à¤ĸà¤£": 6924,
      "ĠSw": 6925,
      "Ġlog": 6926,
      "à¥į-": 6927,
      "Ġà¤µà¤Ł": 6928,
      "Ġà¤ħà¤¸à¤¹à¤¨": 6929,
      "ĠQuestion": 6930,
      "za": 6931,
      "à¥ĭ\"": 6932,
      "ĠMost": 6933,
      "Ġval": 6934,
      "untu": 6935,
      "Ġà¤ıà¤®à¤ıà¤¸à¤¸": 6936,
      "à¤ĺà¤¤": 6937,
      "à¤Ńà¤ļ": 6938,
      "Ġ162": 6939,
      "kan": 6940,
      "Ġcode": 6941,
      "Ġperson": 6942,
      "Ġà¤ħà¤ķà¤²": 6943,
      "Ġà¤Ĺà¤¬à¤¨": 6944,
      "Ġvir": 6945,
      "Ġà¤Ľà¤²à¤ķ": 6946,
      "Ġà¤Ľà¤łà¤µ": 6947,
      "DM": 6948,
      "Ġà¤¨à¤¨à¤¦": 6949,
      "Ġà¤ıà¤¨à¤µ": 6950,
      "Ġposted": 6951,
      "Ġà¤ľà¤¹à¤¨": 6952,
      "à¤¯à¤£à¤Ĺà¤¢": 6953,
      "ĠShiv": 6954,
      "Ġà¤ıà¤®à¤ıà¤¸à¤ıà¤®à¤Ī": 6955,
      "less": 6956,
      "Ġits": 6957,
      "rain": 6958,
      "Ġ1957": 6959,
      "ĠCR": 6960,
      "à¤ªà¤Ĺà¥Ŀ": 6961,
      "à¥Ģà¤Ĥ:": 6962,
      "itra": 6963,
      "bs": 6964,
      "ataka": 6965,
      "aker": 6966,
      "Ġà¤ıà¤¸à¤ı": 6967,
      "Ġà¤¬à¤¸à¤²": 6968,
      "ĠBreaking": 6969,
      "ĠCourt": 6970,
      "Ġext": 6971,
      "ĠEk": 6972,
      "une": 6973,
      "Ġà¤ĵà¤¹à¤¦": 6974,
      "à¥Ģà¤Ĥ..": 6975,
      "Ġà¤ķà¤²à¤¯": 6976,
      "harat": 6977,
      "Ġà¤ļà¤¤à¤°": 6978,
      "à¤®à¤¨à¤ª": 6979,
      "Ġvisit": 6980,
      "engal": 6981,
      "Ġà¤ķà¤¨à¤ķ": 6982,
      "edd": 6983,
      "à¤¾à¤¿": 6984,
      "Ġà¤ļà¤°à¤®à¤°": 6985,
      "Ġimportant": 6986,
      "ĠMovie": 6987,
      "ĠSat": 6988,
      "artment": 6989,
      "Ġà¤Ĩà¤°à¤Ĩà¤°à¤¬": 6990,
      "ĠUjala": 6991,
      "à¤ķà¤ļà¤°": 6992,
      "à¤¸à¥ľà¤ķ": 6993,
      "Ġà¤Ĩà¤ķà¤¡": 6994,
      "ĠFirstpost": 6995,
      "ooks": 6996,
      "hik": 6997,
      "Ġ1955": 6998,
      "Ġà¥ļà¤°": 6999,
      "à¤ıà¤²à¤¡": 7000,
      "--------------------------------": 7001,
      "ĠNetwork": 7002,
      "ĠAc": 7003,
      "à¤Ľà¤ª": 7004,
      "Ġdec": 7005,
      "This": 7006,
      "ibaba": 7007,
      "Ġà¤ħà¤¡à¤µ": 7008,
      "https": 7009,
      "à¥ľà¤«": 7010,
      "ĠAB": 7011,
      "oh": 7012,
      "à¤ľà¤¯à¤ķ": 7013,
      "Ġà¤Ĳà¤°": 7014,
      "ashtra": 7015,
      "VM": 7016,
      "Ġ??": 7017,
      "Ġà¤Ńà¥ľ": 7018,
      "Ġà¤¬à¤Łà¤°": 7019,
      "à¤°à¤ľà¤®": 7020,
      "hellip": 7021,
      "vide": 7022,
      "à¤īà¤ªà¤¯": 7023,
      "à¤¹à¤ķà¤°": 7024,
      "à¥§à¥®": 7025,
      "Ġ8000": 7026,
      "Ġ280": 7027,
      "Raj": 7028,
      "Ġà¥§à¥¯à¥ª": 7029,
      "SSC": 7030,
      "ĠCAA": 7031,
      "Ġ154": 7032,
      "à¥§à¥«": 7033,
      "à¤Ĩà¤²à¤®": 7034,
      "ĠiOS": 7035,
      "Ġ270": 7036,
      "à¤Ĥà¥Ī": 7037,
      "Bh": 7038,
      "Ġfacebook": 7039,
      "Ġchar": 7040,
      "Ġà¤īà¤ĺ": 7041,
      "ĠAy": 7042,
      "gl": 7043,
      "à¤°à¤¸à¤ķ": 7044,
      "à¤µà¤Ńà¤°": 7045,
      "ring": 7046,
      "Ġà¤§à¤¨à¤ĸà¤¡": 7047,
      "à¤°à¤ľà¤ķ": 7048,
      "ĠYojana": 7049,
      "ahul": 7050,
      "Ġà¤¬à¤°à¤µ": 7051,
      "Ġà¤¹à¤°à¤¨": 7052,
      "à¤Ĩà¤ªà¤°": 7053,
      "aip": 7054,
      "UL": 7055,
      "à¤µà¤°à¤¸": 7056,
      "velopment": 7057,
      "Ġà¤¯à¤¶à¤°": 7058,
      "Ġcar": 7059,
      "à¤ħà¤ķà¤¬à¤°": 7060,
      "ĠAtt": 7061,
      "Ġban": 7062,
      "à¤¤à¤ľà¤¨": 7063,
      "à¤°à¤Ńà¤ķ": 7064,
      "Ġà¤ķà¤ĩà¤¯": 7065,
      "ending": 7066,
      "ĠSar": 7067,
      "Ġ1942": 7068,
      "stro": 7069,
      "Ġà¤°à¤¨à¤°": 7070,
      "ero": 7071,
      "à¤°à¤Ĺà¥Ŀ": 7072,
      "ĠShow": 7073,
      "mAh": 7074,
      "Ġsm": 7075,
      "à¤īà¤¡à¤¸": 7076,
      "Ġà¤Ĩà¤Īà¤²": 7077,
      "Ġà¤Ķà¤ªà¤¨": 7078,
      "Ġà¤ľà¤¯à¤µà¤°": 7079,
      "Ġemail": 7080,
      "ĠRelated": 7081,
      "à¥Ģ.\"": 7082,
      "à¤ľà¤Ĺà¤¦": 7083,
      "Ġjust": 7084,
      "Ġset": 7085,
      "Ġtem": 7086,
      "Ġà¤łà¤°à¤²": 7087,
      "andh": 7088,
      "à¤Ĺà¤µà¤°": 7089,
      "à¤¨à¤Īà¤¦": 7090,
      "ĠPaper": 7091,
      "à¤¬à¤²à¤°": 7092,
      "read": 7093,
      "Ġsab": 7094,
      "Ġà¤ħà¤¸à¤®à¤¯": 7095,
      "ĠScheme": 7096,
      "à¥ĩà¤Ĥ;": 7097,
      "Ġà¤¸à¤®à¤¤à¤²": 7098,
      "Ġà¤ħà¤ľà¤®à¤²": 7099,
      "oni": 7100,
      "Ġfull": 7101,
      "à¥įà¥į": 7102,
      "Ġcre": 7103,
      "Ġcall": 7104,
      "Ġà¤¤à¤¦à¤¨": 7105,
      "ĠWest": 7106,
      "Ġ142": 7107,
      "ĠLtd": 7108,
      "Ġ224": 7109,
      "Ġà¤Ńà¤¨": 7110,
      "NB": 7111,
      "à¤īà¤®à¤°": 7112,
      "Ġà¤ıà¤®à¤µ": 7113,
      "2003": 7114,
      "face": 7115,
      "imes": 7116,
      "ways": 7117,
      "View": 7118,
      "Fi": 7119,
      "Post": 7120,
      "à¥Ĥà¥Ĥ": 7121,
      "~~": 7122,
      "MeToo": 7123,
      "à¤°à¤Ĺà¤Ł": 7124,
      "à¤¯à¤£à¤ª": 7125,
      "Ġà¤ıà¤ıà¤®à¤¯": 7126,
      "ĠName": 7127,
      "ĠIns": 7128,
      "Ġà¤¦à¤°à¤ĸ": 7129,
      "chal": 7130,
      "à¤Łà¤¨à¤®": 7131,
      "DU": 7132,
      "à¥Ī.''": 7133,
      "Ġ1968": 7134,
      "No": 7135,
      "Ġà¤ªà¤Ĺà¤¬": 7136,
      "ĠOther": 7137,
      "Ġà¤¯à¤¨": 7138,
      "Ġmain": 7139,
      "ĠReal": 7140,
      "ĠMadhya": 7141,
      "hattisgarh": 7142,
      "Ġà¤Ľà¤Łà¤ªà¤Ł": 7143,
      "Ġà¤ªà¤ľ": 7144,
      "Ġà¤ıà¤¨à¤ĵà¤¸": 7145,
      "________": 7146,
      "AAP": 7147,
      "Ġ365": 7148,
      "Ġà¤®à¤¨à¤ķ": 7149,
      "Kendriya": 7150,
      "antra": 7151,
      "Ġà¤¤à¤ķà¤¦": 7152,
      "ĠAmazon": 7153,
      "Ġà¤Ĳà¤ľ": 7154,
      "Ġà¤Ŀà¥ľà¤¨": 7155,
      "Ġà¤ıà¤®à¤Ĩà¤Ī": 7156,
      "ĠFr": 7157,
      "Ġà¤Ńà¤ľ": 7158,
      "ient": 7159,
      "Ġà¤¶à¤Ĺ": 7160,
      "ĠWhat": 7161,
      "Im": 7162,
      "à¤µà¤¨à¤¡": 7163,
      "Ġ1964": 7164,
      "Ġ1300": 7165,
      "à¤®à¤¸à¤®": 7166,
      "ĠHo": 7167,
      "Ġrecorder": 7168,
      "à¤ľà¤ªà¤ķ": 7169,
      "Ġà¤¸à¤¨à¤¸": 7170,
      "à¥ģà¤¼": 7171,
      "esent": 7172,
      "Ġ1930": 7173,
      "%)": 7174,
      "ĠMess": 7175,
      "NS": 7176,
      "kari": 7177,
      "Ġà¤¸à¤ľà¤¨": 7178,
      "go": 7179,
      "ĠEngine": 7180,
      "odel": 7181,
      "à¤ķà¤®à¤²à¤¨": 7182,
      "by": 7183,
      "à¤³à¤ķà¤°": 7184,
      "kart": 7185,
      "Ġ152": 7186,
      "Ġà¤°à¤¹à¤®à¤¤": 7187,
      "Ġ260": 7188,
      "gi": 7189,
      "ĠGMT": 7190,
      "à¤¾:-": 7191,
      "à¤ıà¤ķà¤¤": 7192,
      "Ġà¤¯à¤°": 7193,
      "Ġà¤ĵà¤°à¤²": 7194,
      "ĠInformation": 7195,
      "Ġà¤Ŀà¤ªà¤Ł": 7196,
      "loy": 7197,
      "Ġà¤¸à¤¹à¤¨à¤¶": 7198,
      "Ġà¤īà¤¤à¤°à¤µ": 7199,
      "Vir": 7200,
      "Ġgam": 7201,
      "Ġà¤®à¤Ĺà¤§": 7202,
      "CH": 7203,
      "à¤®à¤¨à¤µà¤®": 7204,
      "ĠQuotes": 7205,
      "('": 7206,
      "ĠStories": 7207,
      "ĠBa": 7208,
      "Ġfriends": 7209,
      "ĠInstall": 7210,
      "Ġsmart": 7211,
      "los": 7212,
      "à¤³à¤ķ": 7213,
      "Ġprof": 7214,
      "Ġà¤ħà¤¦à¤²": 7215,
      "à¥į...": 7216,
      "Ġà¤Ńà¤Ĺà¤µà¤¨": 7217,
      "110": 7218,
      "IST": 7219,
      "à¤°à¤£à¤µà¤¶": 7220,
      "Ġpower": 7221,
      "Ġà¤ķà¤°à¤²": 7222,
      "à¥Īà¥¤''": 7223,
      "ĠYear": 7224,
      "Ġonly": 7225,
      "Ġinternet": 7226,
      "Ġà¤¤à¤¸à¤µ": 7227,
      "Ġimages": 7228,
      "ĠAnt": 7229,
      "Ġkya": 7230,
      "à¤Ĺà¤¡à¤®": 7231,
      "Ġtheir": 7232,
      "à¤ķà¤¨à¤Ĺ": 7233,
      "ĠNahi": 7234,
      "bb": 7235,
      "à¤¬à¤°à¤®à¤¤": 7236,
      "VP": 7237,
      "à¤§à¤®à¤ķ": 7238,
      "As": 7239,
      "ĠApple": 7240,
      "Ġà¤¡à¤ļ": 7241,
      "à¤Ĺà¤®à¤°à¤®à¤°": 7242,
      "Ġsol": 7243,
      "Ġà¤Ľà¤ªà¤¤": 7244,
      "ĠOnePlus": 7245,
      "RRB": 7246,
      "Ġà¤ķà¤°à¤Ĺ": 7247,
      "ination": 7248,
      "ager": 7249,
      "à¤®à¤¦à¤°": 7250,
      "eel": 7251,
      "Ġà¤¦à¤Ĺ": 7252,
      "Ġà¤®à¤¨à¤®à¤°": 7253,
      "Ġsocial": 7254,
      "osting": 7255,
      "ĠChar": 7256,
      "Ġproduct": 7257,
      "ges": 7258,
      "à¤°à¤§à¤°": 7259,
      "ĠTech": 7260,
      "Ġà¤¸à¤¬à¤²": 7261,
      "Ġpo": 7262,
      "Ġà¤ıà¤¨à¤«": 7263,
      "à¤«à¤¸à¤²": 7264,
      "bar": 7265,
      "à¤¤à¤¬à¤°": 7266,
      "Ġà¤ıà¤¨à¤Ĩà¤Īà¤Ł": 7267,
      "mar": 7268,
      "à¤ıà¤¨à¤Ĩà¤°": 7269,
      "For": 7270,
      "uring": 7271,
      "Ġter": 7272,
      "Ġ156": 7273,
      "pa": 7274,
      "Ġà¤Ĭà¤¬": 7275,
      "Ġ1080": 7276,
      "ning": 7277,
      "Ġà¤ħà¤°à¤°": 7278,
      "Ġà¤ķà¤łà¤ĺà¤°": 7279,
      "ĠYoutube": 7280,
      "ender": 7281,
      "Ġà¥§à¥¯à¥Ń": 7282,
      "à¤µà¤°à¤¹": 7283,
      "Ġà¥¨à¥¨": 7284,
      "à¤¸à¤¨à¤¹": 7285,
      "à¤ľà¤¦à¤¯": 7286,
      "Ġsur": 7287,
      "Ġ1954": 7288,
      "Ġà¤Łà¤¹à¤²à¤¨": 7289,
      "ĠImages": 7290,
      "Ġà¤łà¤¨": 7291,
      "ĠKund": 7292,
      "><": 7293,
      "à¤Ĥ...": 7294,
      "lete": 7295,
      "Ġsupport": 7296,
      "ĠVer": 7297,
      "did": 7298,
      "Ġ506": 7299,
      "à¤µà¤¨à¤°": 7300,
      "Alive": 7301,
      "à¤ľà¤¨à¤Ĺà¤°": 7302,
      "Ġà¤ľà¤¸à¤¬": 7303,
      "à¥Īà¤Ĥ'": 7304,
      "DC": 7305,
      "Ġà¤ıà¤ķà¤¨": 7306,
      "Ġà¤īà¤¥à¤ª": 7307,
      "à¤ĺà¤ļ": 7308,
      "ledge": 7309,
      "jay": 7310,
      "Ġunder": 7311,
      "Ġà¤ļà¤°à¤£à¤¬à¤¦": 7312,
      "à¤µà¤¨à¤Ĺà¤°": 7313,
      "ARY": 7314,
      "à¤Ĩà¤¦à¤®": 7315,
      "à¤Ĳà¤ķ": 7316,
      "Ġnet": 7317,
      "youtube": 7318,
      "clus": 7319,
      "à¤ĵà¤¹": 7320,
      "arnataka": 7321,
      "Ġ.......": 7322,
      "Ġà¤ħà¤µà¤¤à¤°": 7323,
      "à¤¤à¤°à¤¸": 7324,
      "Ġà¤ľà¤¤à¤¨": 7325,
      "Ġà¤ıà¤²à¤¨": 7326,
      "Ġhealth": 7327,
      "Ġà¤ħà¤¦à¤®": 7328,
      "Ġà¤Ķà¤«": 7329,
      "à¤µà¤¡à¤°": 7330,
      "ĠNC": 7331,
      "à¤¶à¤²à¤®": 7332,
      "Ġà¤łà¤ķ": 7333,
      "Ġà¤ħà¤ªà¤¹": 7334,
      "Up": 7335,
      "à¤¾à¥¤...": 7336,
      "à¤ıà¤¸à¤ıà¤¸à¤¸": 7337,
      "à¤²à¤¹à¤¸": 7338,
      "à¥īà¥¤": 7339,
      "Ġà¤ļà¥Ŀà¤¨": 7340,
      "ney": 7341,
      "à¤ıà¤¸à¤ıà¤²à¤µ": 7342,
      "Ġà¥ªà¥¦": 7343,
      "abh": 7344,
      "à¤¹à¤³": 7345,
      "Ġmonth": 7346,
      "à¤ıà¤²à¤ĵ": 7347,
      "à¤¯à¤°à¤µ": 7348,
      "à¤Ĺà¤£à¤¤": 7349,
      "ĠBar": 7350,
      "thing": 7351,
      "anka": 7352,
      "Ġmost": 7353,
      "ely": 7354,
      "XX": 7355,
      "ĠGames": 7356,
      "Ġwhich": 7357,
      "lot": 7358,
      "orth": 7359,
      "Ġ//": 7360,
      "à¤¦à¤¨à¤¹": 7361,
      "à¥Ģà¤Ĥ)": 7362,
      "à¤Łà¤¶": 7363,
      "Ġà¤ªà¤¢à¤¤": 7364,
      "inst": 7365,
      "à¤¦à¤ĸ": 7366,
      "ĠTem": 7367,
      "estions": 7368,
      "ENT": 7369,
      "Ġmarket": 7370,
      "harkhand": 7371,
      "à¤¹à¤Ĺà¤¢": 7372,
      "RS": 7373,
      "Ġind": 7374,
      "Ġà¤ıà¤®à¤ıà¤²à¤ı": 7375,
      "ĠWatch": 7376,
      "Ġà¤ªà¤²à¤¡": 7377,
      "ĠShayari": 7378,
      "rong": 7379,
      "Ġà¤ıà¤ķà¤®à¤¤": 7380,
      "à¤ĩà¤¸à¤ľ": 7381,
      "Ġà¤²à¤µà¤ķà¤°": 7382,
      "OD": 7383,
      "à¤Ĺà¤²à¤¨": 7384,
      "à¥ľà¤ªà¤¤": 7385,
      "Ġà¤«à¤ľà¤²": 7386,
      "Ġcent": 7387,
      "à¤īà¤ļà¤°": 7388,
      "à¥ĩ.'": 7389,
      "oman": 7390,
      "ipkart": 7391,
      "CTC": 7392,
      "ĠFriends": 7393,
      "ious": 7394,
      "ĠTopY": 7395,
      "à¤¤à¤¨à¤¤": 7396,
      "ĠTopYaps": 7397,
      "à¤¦à¤°à¤µ": 7398,
      "Ġà¤¸à¤®à¤ľ": 7399,
      "Ġacc": 7400,
      "Ġprotected": 7401,
      "Ġer": 7402,
      "à¥§à¥Ń": 7403,
      "ĠStore": 7404,
      "ORE": 7405,
      "Ġà¤¨à¤µà¤µ": 7406,
      "à¤Ńà¤²à¤ķà¤°": 7407,
      "Ġà¥ĺà¤¦à¤®": 7408,
      "eli": 7409,
      "asa": 7410,
      "Ġà¤°à¤¸à¤¦": 7411,
      "urrency": 7412,
      "Ġà¤¸à¤®à¤¯à¤¬à¤¦": 7413,
      "ĠPosted": 7414,
      "elfie": 7415,
      "2002": 7416,
      "Ġmay": 7417,
      "Ġcrypt": 7418,
      "ĠService": 7419,
      "à¤¦à¤¶à¤®": 7420,
      "ĠPrivacy": 7421,
      "à¤¯à¤ªà¤°": 7422,
      "buntu": 7423,
      "Ġtop": 7424,
      "aste": 7425,
      "wan": 7426,
      "ĠShe": 7427,
      "à¤¡à¤°à¤®": 7428,
      "Ġà¤ħà¤µà¤¯à¤µ": 7429,
      "cept": 7430,
      "bo": 7431,
      "à¤°à¤®à¤¦": 7432,
      "ĠWah": 7433,
      "à¥ģ'": 7434,
      "à¤¹à¤¤à¤Ĺ": 7435,
      "atural": 7436,
      "Ġ159": 7437,
      "oth": 7438,
      "Ġkh": 7439,
      "erala": 7440,
      "Indian": 7441,
      "INDI": 7442,
      "ized": 7443,
      "Ġexper": 7444,
      "aptop": 7445,
      "à¥Ĥà¤ģ..": 7446,
      "Ġà¤¼": 7447,
      "à¤®à¤µà¤¤": 7448,
      "Ġà¤īà¤ªà¤¬": 7449,
      "Ġ166": 7450,
      "rip": 7451,
      "Ġest": 7452,
      "à¤¼'": 7453,
      "Ġquestion": 7454,
      "à¤Ńà¤¡": 7455,
      "Ġ1945": 7456,
      "Ġà¤¹à¤¸à¤°à¤¤": 7457,
      "Ġ720": 7458,
      "à¤¾):": 7459,
      "Give": 7460,
      "Ġà¤ıà¤²à¤ıà¤²à¤¬": 7461,
      "Ġà¤¤à¤¬à¤¦": 7462,
      "yl": 7463,
      "uc": 7464,
      "à¤¸à¤¹à¤°": 7465,
      "à¤ıà¤¸à¤Ĩà¤Īà¤Ł": 7466,
      "Ġà¤ĵà¤µà¤°à¤¸": 7467,
      "ĠLED": 7468,
      "à¤¯à¤°à¤«": 7469,
      "Ġà¤¬à¤°à¤Ĺà¤¦": 7470,
      "Ġant": 7471,
      "ettings": 7472,
      "Ġà¤ªà¤°à¤ķ": 7473,
      "ĠTechnology": 7474,
      "AV": 7475,
      "email": 7476,
      "Ġà¤ħà¤°à¤¹à¤°": 7477,
      "à¤¬à¤¤à¤ļ": 7478,
      "He": 7479,
      "ze": 7480,
      "Ġprocess": 7481,
      "enn": 7482,
      "akhand": 7483,
      "à¤°à¤Ŀ": 7484,
      "Ġkee": 7485,
      "Ġà¤Ĩà¥Ľà¤®": 7486,
      "à¤¯à¤Ńà¤°": 7487,
      "Ġà¤ķà¤®à¤¶": 7488,
      "Ġà¤¶à¤°à¤¤": 7489,
      "the": 7490,
      "Ġsome": 7491,
      "Ġà¤īà¥ľà¤¨": 7492,
      "Ġpa": 7493,
      "Ġà¤Ńà¤°à¤¸à¤ķ": 7494,
      "à¤Ĩà¤Īà¤ıà¤®à¤Ĩà¤Īà¤ıà¤®": 7495,
      "à¤²à¤ªà¤®": 7496,
      "iter": 7497,
      "à¤ķà¤²à¤°": 7498,
      "Ġà¤ħà¤¨à¤ªà¤¢": 7499,
      "Ġ176": 7500,
      "ĠPublish": 7501,
      "Ġ---": 7502,
      "à¤Ĩà¤¦à¤°": 7503,
      "Ġà¤ĺà¤Ī": 7504,
      "je": 7505,
      "Ġkaip": 7506,
      "ĠRet": 7507,
      "Ġcreate": 7508,
      "Ġevery": 7509,
      "Ġmoney": 7510,
      "à¤¡à¤§": 7511,
      "add": 7512,
      "Ġcons": 7513,
      "Ġà¤¸à¤¤à¤²": 7514,
      "Ġkaipchar": 7515,
      "Ġà¤ľà¤Ĺà¤°": 7516,
      "ĠEnter": 7517,
      "mission": 7518,
      "à¤¤à¤ļà¤°": 7519,
      "TA": 7520,
      "yon": 7521,
      "Ġà¤ªà¤°à¤Ľ": 7522,
      "Ġid": 7523,
      "Ġà¤ħà¤ķà¤°": 7524,
      "Ġà¤ļà¤¹à¤°": 7525,
      "ĠProduct": 7526,
      "nect": 7527,
      "ĠSim": 7528,
      "oug": 7529,
      "TH": 7530,
      "Ġà¤Ĩà¤¯à¤°": 7531,
      "ĠHaryana": 7532,
      "Ġà¤Ŀà¤ªà¤ķ": 7533,
      "Ġà¤Ĺà¤¹à¤®": 7534,
      "Ġà¤¡à¤¯": 7535,
      "On": 7536,
      "Ġneed": 7537,
      "ĠSite": 7538,
      "Ġavailable": 7539,
      "alt": 7540,
      "Ġà¤ĵà¤³": 7541,
      "Ġà¤łà¤°": 7542,
      "Ġbank": 7543,
      "Ġà¥§à¥¯à¥¬": 7544,
      "aksh": 7545,
      "Ġà¤¬à¤Ľà¤¡": 7546,
      "Ġà¤¦à¤¦": 7547,
      "Ġà¤Ĩà¤«à¤°": 7548,
      "ĠHonor": 7549,
      "à¤ľà¤¯à¤¦": 7550,
      "Ġà¤Ĺà¤®à¤²": 7551,
      "à¥Į,": 7552,
      "à¤ªà¤¤à¤µ": 7553,
      "ĠSn": 7554,
      "à¤Ĺà¥ľà¤¤": 7555,
      "google": 7556,
      "acher": 7557,
      "à¤¡à¤¸à¤®": 7558,
      "enge": 7559,
      "à¤ıà¤¸à¤¡à¤¬": 7560,
      "Ġà¤ªà¤ķà¤¡à¤©": 7561,
      "à¤ķà¤°à¤ª": 7562,
      "inary": 7563,
      "Ġà¤Ŀà¤£": 7564,
      "à¥§à¥¬": 7565,
      "à¥ĥ.": 7566,
      "aharashtra": 7567,
      "2001": 7568,
      "Ġà¤ĩà¤¹": 7569,
      "à¤Łà¤°à¤¬": 7570,
      "osc": 7571,
      "light": 7572,
      "à¤¨à¤Ŀ": 7573,
      "arid": 7574,
      "rest": 7575,
      "à¤¡à¤¦": 7576,
      "Ġà¤¤à¤¹à¤ķ": 7577,
      "à¥Ģà¥ĩ": 7578,
      "Cont": 7579,
      "Ġà¤Ĺà¥Ŀà¤µ": 7580,
      "ĠUbuntu": 7581,
      "Ġcam": 7582,
      "à¤ªà¤¤à¤²": 7583,
      "Ġà¤¨à¤Īà¤®": 7584,
      "ands": 7585,
      "à¤łà¤ª": 7586,
      "à¤µà¤Ī": 7587,
      "otal": 7588,
      "ele": 7589,
      "à¤®à¤ľà¤¬": 7590,
      "à¤¤à¤Ĺà¤¤": 7591,
      "vertise": 7592,
      "utom": 7593,
      "Ġà¤¨à¤ĩ": 7594,
      "à¤ıà¤¯à¤°à¤Ł": 7595,
      "ott": 7596,
      "ĠVivo": 7597,
      "OP": 7598,
      "box": 7599,
      "Ġà¤ķà¤ĩà¤²": 7600,
      "à¤Ĩà¤ĩà¤¸": 7601,
      "Ġà¥§à¥¯à¥®": 7602,
      "à¥§à¥ª": 7603,
      "Delhi": 7604,
      "med": 7605,
      "Ġ146": 7606,
      "rec": 7607,
      "raw": 7608,
      "Ġgood": 7609,
      "Ġà¤ķà¤¨à¤µà¤°": 7610,
      "à¤°à¤½": 7611,
      "0000": 7612,
      "round": 7613,
      "à¤ĥ,": 7614,
      "CAA": 7615,
      "à¤Ĩà¤µà¤¶": 7616,
      "ĠSo": 7617,
      "Ġà¤ľà¤¨à¤§à¤¨": 7618,
      "à¥ĭ/": 7619,
      "à¤ľà¤Ł": 7620,
      "Ġà¤Ĺà¤¹à¤¨à¤¤": 7621,
      "à¤¹à¤¨à¤Ĺà¤°": 7622,
      "ĠTH": 7623,
      "à¥ĩ(": 7624,
      "rav": 7625,
      "Ġfin": 7626,
      "à¤¦à¤«": 7627,
      "ĠRep": 7628,
      "à¤ıà¤ıà¤«": 7629,
      "Ġà¤¨à¤¤à¤®à¤¸": 7630,
      "ahab": 7631,
      "Ġà¤²à¤¡à¥ĺ": 7632,
      "arning": 7633,
      "Ġ158": 7634,
      "ainment": 7635,
      "Ġà¤¸à¤¶": 7636,
      "à¤²à¤µà¤°": 7637,
      "à¤ĵà¤ªà¤¨": 7638,
      "Ġà¤¶à¤¯à¤¨": 7639,
      "Ġà¤Ĩà¤Īà¤ıà¤¨à¤ıà¤¸": 7640,
      "à¤Ĩà¤ªà¤¸": 7641,
      "kin": 7642,
      "à¤¯à¤¤à¤¯": 7643,
      "Ġ141": 7644,
      "Ġdep": 7645,
      "à¤¹à¤µà¤°": 7646,
      "à¥Īà¤Ĥ....": 7647,
      "Ġconf": 7648,
      "à¤Łà¤ľà¤°à¤²": 7649,
      "à¤¥à¤¦": 7650,
      "Ġ188": 7651,
      "Ġnow": 7652,
      "ĠMax": 7653,
      "aning": 7654,
      "ĠHy": 7655,
      "Ġ1946": 7656,
      "Ġà¤ªà¤°à¤²": 7657,
      "à¤¬à¤°à¤¨": 7658,
      "pping": 7659,
      "Ġà¤«à¤²à¤¤": 7660,
      "Ġà¤Īà¤ĵ": 7661,
      "à¤Ĩà¤ĩà¤¡": 7662,
      "ape": 7663,
      "ĠCP": 7664,
      "Ġfound": 7665,
      "Ġà¤Ńà¤ĩà¤¯": 7666,
      "à¤¤à¤°à¤¬": 7667,
      "ĠSet": 7668,
      "Ġà¤ħà¤¸à¤Ĺà¤°": 7669,
      "à¥ĭ;": 7670,
      "ĠBharti": 7671,
      "Ġupayog": 7672,
      "Ġ177": 7673,
      "à¤°à¤¤à¤¨": 7674,
      "Ġnahin": 7675,
      "à¤ıà¤«à¤ıà¤²": 7676,
      "à¤¯à¤¤à¤®": 7677,
      "à¤¨à¤¹à¤Ĺ": 7678,
      "ĠBengal": 7679,
      "à¤Īà¤Ĩà¤°à¤¸": 7680,
      "ĠCode": 7681,
      "Ġà¤Ńà¤Ĺà¤µà¤¦": 7682,
      "Ġà¤ªà¤°à¤®à¤¹": 7683,
      "ĠPort": 7684,
      "hare": 7685,
      "Ġà¤¨à¤¹à¤²": 7686,
      "à¤ľà¤Ī": 7687,
      "Ġà¤¸à¤¹à¤¤": 7688,
      "Ġà¤Ĩà¤Īà¤ķ": 7689,
      "Ġà¤ĩà¤°à¤¶": 7690,
      "quire": 7691,
      "this": 7692,
      "Ġà¤Łà¤¹à¤²": 7693,
      "ĠResults": 7694,
      "Ġà¤Ľà¤¬": 7695,
      "ĠLim": 7696,
      "ucknow": 7697,
      "Ġà¤¬à¤°à¤®": 7698,
      "Ġà¤§à¥ľà¤ķà¤¨": 7699,
      "inux": 7700,
      "ĠContact": 7701,
      "uthor": 7702,
      "Ġji": 7703,
      "Ġà¤¬à¤°à¤¸à¤¤": 7704,
      "Ġ::": 7705,
      "Ġma": 7706,
      "à¤¯à¤µà¤¤": 7707,
      "Ġà¤ľà¤²à¤®": 7708,
      "Ġà¤¹à¤ľà¤®": 7709,
      "Ġà¤ħà¤²à¤ĸ": 7710,
      "ĠCity": 7711,
      "Ġcourt": 7712,
      "à¤ķà¤Łà¤¤": 7713,
      "à¤Ĺà¤²à¤¬": 7714,
      "à¤¤à¤ķà¤µ": 7715,
      "Ġà¤¤à¤¬à¤²": 7716,
      "Sp": 7717,
      "à¤ķà¤³": 7718,
      "Ġportal": 7719,
      "ĠBCCI": 7720,
      "à¤¡à¤ľ": 7721,
      "Ġ330": 7722,
      "ĠVib": 7723,
      "Ġà¤ķà¤ľà¤°": 7724,
      "Man": 7725,
      "bit": 7726,
      "Ġlive": 7727,
      "urvedic": 7728,
      "asi": 7729,
      "Ġ174": 7730,
      "Ġà¤¬à¤°à¤ķà¤¤": 7731,
      "Ġà¤¶à¤¬à¤¨à¤®": 7732,
      "Ġ323": 7733,
      "à¤°à¤ľà¤Ń": 7734,
      "#*": 7735,
      "hir": 7736,
      "Ġà¥¨à¥Ń": 7737,
      "ATION": 7738,
      "gin": 7739,
      "ĠCare": 7740,
      "ĠBlack": 7741,
      "arty": 7742,
      "ĠExpress": 7743,
      "à¤²à¤¦à¤¸": 7744,
      "Ġà¤ķà¤µà¤¯": 7745,
      "à¤Īà¤ĺà¤°": 7746,
      "Ġ1963": 7747,
      "Ġà¥Ģ": 7748,
      "à¤«à¤Ī": 7749,
      "Ġsee": 7750,
      "ique": 7751,
      "(\"": 7752,
      "Ġà¤¸à¤ķà¤°": 7753,
      "Ġà¤ĥ": 7754,
      "à¤¾''": 7755,
      "Bigg": 7756,
      "Ġà¤ķà¤®à¤¬": 7757,
      "à¤µà¤²à¤®": 7758,
      "Ġà¤ħà¤ľà¤°": 7759,
      "cm": 7760,
      "Ġà¤īà¤Ńà¤°à¤ķà¤°": 7761,
      "à¤¸à¤®à¤Ŀà¤¨": 7762,
      "ĠOffic": 7763,
      "Ġ168": 7764,
      "ĠDesign": 7765,
      "Ġ185": 7766,
      "Ġquality": 7767,
      "à¤¸à¤²à¤ķà¤°": 7768,
      "Ġtar": 7769,
      "uts": 7770,
      "à¤¬à¤²à¤¤": 7771,
      "à¤¸à¤«à¤²à¤¤": 7772,
      "Ġà¤²à¤ķà¤µ": 7773,
      "ĠBlogger": 7774,
      "ĠYes": 7775,
      "à¤īà¤ªà¤ļ": 7776,
      "DA": 7777,
      "à¤¨à¤ĵà¤µà¤°": 7778,
      "ĠShah": 7779,
      "Ġtoday": 7780,
      "Ġà¥¨à¥¬": 7781,
      "ĠPan": 7782,
      "ĠBah": 7783,
      "ĠLIVE": 7784,
      "Ġà¤¸à¤¨à¤®": 7785,
      "Ġchudai": 7786,
      "Ġ304": 7787,
      "ĠSur": 7788,
      "à¤µà¤°à¤Ĺ": 7789,
      "à¤µà¤¹à¤°": 7790,
      "à¥įà¥Ģ": 7791,
      "Ġà¤Ńà¤°à¤²": 7792,
      "aim": 7793,
      "Ġchange": 7794,
      "hird": 7795,
      "à¤§à¤£": 7796,
      "ashmir": 7797,
      "Ġà¤°à¥Ľ": 7798,
      "istration": 7799,
      "ĠIR": 7800,
      "Ġà¤ªà¤°à¤®à¤ª": 7801,
      "Ġ1940": 7802,
      "ĠTeam": 7803,
      "à¤ķà¤®à¤ľ": 7804,
      "ĠSign": 7805,
      "à¤ħà¤¨à¤ľ": 7806,
      "Ġà¤¨à¤Łà¤°": 7807,
      "ĠAdsense": 7808,
      "à¤¤à¥ľ": 7809,
      "link": 7810,
      "Ġ157": 7811,
      "tak": 7812,
      "Ġmp": 7813,
      "red": 7814,
      "arta": 7815,
      "à¤ıà¤ļà¤ıà¤¸": 7816,
      "EB": 7817,
      "More": 7818,
      "Hel": 7819,
      "ĠAns": 7820,
      "à¤Ĺà¥ľà¤¨": 7821,
      "ison": 7822,
      "oli": 7823,
      "Ġà¤°à¤¬à¤¡": 7824,
      "Ġà¤ªà¤°à¤ľ": 7825,
      "atter": 7826,
      "Ġà¤Ĩà¤Īà¤µ": 7827,
      "Ġà¤ħà¤µà¤¸à¤°à¤µ": 7828,
      "ĠUSB": 7829,
      "Ġà¤ħà¤¡à¤ļà¤£": 7830,
      "ancer": 7831,
      "Ġà¥¨à¥©": 7832,
      "Ġà¤®à¤°à¤ķ": 7833,
      "Ġà¤¦à¤®à¤ĸà¤®": 7834,
      "ountry": 7835,
      "à¤¹à¤§": 7836,
      "Ġcase": 7837,
      "Ġà¤ıà¤ħà¤°": 7838,
      "ĠKendriya": 7839,
      "aridabad": 7840,
      "eri": 7841,
      "Un": 7842,
      "ATE": 7843,
      "ĠYadav": 7844,
      "Ġaddress": 7845,
      "Ġsays": 7846,
      "Ġà¤Ĳà¤ªà¤²": 7847,
      "à¤ıà¤Ĩà¤°": 7848,
      "Ġà¤ĵà¤µà¤°à¤Ł": 7849,
      "rag": 7850,
      "à¤¸à¤°à¤²": 7851,
      "à¤¶à¤¨à¤¸": 7852,
      "ĠNRC": 7853,
      "Ġà¤ľà¤¨à¤¶à¤ķ": 7854,
      "Ġà¤ĸà¤Łà¤ķ": 7855,
      "ĠRailway": 7856,
      "à¤¹à¤°à¤¨": 7857,
      "à¤¤à¤®à¤¬": 7858,
      "idd": 7859,
      "Ġà¤®à¤ķà¤¡": 7860,
      "cam": 7861,
      "ĠHistory": 7862,
      "rish": 7863,
      "à¤Łà¤°à¤¤": 7864,
      "Torrent": 7865,
      "ĠAD": 7866,
      "ojpuri": 7867,
      "Lo": 7868,
      "Ġà¤ļà¤£": 7869,
      "Ġsl": 7870,
      "à¥Ģ.'": 7871,
      "Ġà¤¡à¤¬à¤µ": 7872,
      "Ġà¤¸à¤ªà¤°": 7873,
      "à¤¯à¤¬à¤²": 7874,
      "à¤Ńà¤µà¤¹": 7875,
      "à¤ĩà¤°à¤¸": 7876,
      "Ġà¤Īà¤¬": 7877,
      "tual": 7878,
      "ĠOper": 7879,
      "ĠBal": 7880,
      "Ġbeen": 7881,
      "Ġà¤ķà¤°à¤¤à¤¬": 7882,
      "Ġà¤ĵà¤µà¤°à¤¬": 7883,
      "Ġja": 7884,
      "Ġrights": 7885,
      "à¤¼à¥ĭà¤Ĥ,": 7886,
      "Ġà¤ıà¤¸à¤ıà¤«à¤Ĩà¤Ī": 7887,
      "lege": 7888,
      "Ġthem": 7889,
      "ĠProf": 7890,
      "Ġà¤ħà¤Ĺà¤°à¤¬à¤¤": 7891,
      "Ġà¤¨à¤¥": 7892,
      "à¤¾,'": 7893,
      "Ġ186": 7894,
      "Happy": 7895,
      "mon": 7896,
      "Ġuser": 7897,
      "Ġà¤ľà¤¨à¤Ń": 7898,
      "ĠCapture": 7899,
      "vies": 7900,
      "Ġà¤īà¤ªà¤¸à¤Ń": 7901,
      "MA": 7902,
      "Ġba": 7903,
      "Ġ161": 7904,
      "Ġà¤Ĩà¤®à¤²": 7905,
      "ĠTitle": 7906,
      "Ġà¤ħà¤¢": 7907,
      "à¤°à¤°à¤ķ": 7908,
      "à¤ķà¤²à¤®": 7909,
      "à¥ĭà¤Ĥ!": 7910,
      "Ġ163": 7911,
      "akta": 7912,
      "Ġà¤Ĩà¤£à¤²": 7913,
      "ĠAN": 7914,
      "clusive": 7915,
      "Ġà¤ħà¤ªà¤¸": 7916,
      "Ġà¤²à¤¢": 7917,
      "Ġ205": 7918,
      "cha": 7919,
      "Ġà¤ĸà¤¸à¤°": 7920,
      "blogspot": 7921,
      "ety": 7922,
      "ĠKya": 7923,
      "Ġ999": 7924,
      "à¤¬à¤Īà¤¤": 7925,
      "ĠDire": 7926,
      "ĠKundali": 7927,
      "ases": 7928,
      "ebsites": 7929,
      "ouch": 7930,
      "à¤Ŀà¤¡": 7931,
      "à¤Ĩà¤Ń": 7932,
      "à¤¤à¤ķà¤¬": 7933,
      "hli": 7934,
      "Ġdem": 7935,
      "à¤½à¤½": 7936,
      "à¤Ĥà¥Ĥ": 7937,
      "Ġà¤Ĩà¤Īà¤ıà¤®à¤ıà¤«": 7938,
      "Ġ1959": 7939,
      "ĠGirl": 7940,
      "Ġ178": 7941,
      "à¤°à¤®à¤ķ": 7942,
      "Ġà¤¨à¤Ĺà¤²": 7943,
      "Ġ15000": 7944,
      "TI": 7945,
      "à¤Ĳà¤¤": 7946,
      "à¤¡à¤µà¤°": 7947,
      "Ind": 7948,
      "à¤Ĩà¤¡à¤µ": 7949,
      "à¥¨à¥©": 7950,
      "logy": 7951,
      "Ġà¤¹à¤°à¤£": 7952,
      "||": 7953,
      "Ġ171": 7954,
      "Ġà¤ıà¤«à¤ª": 7955,
      "ĠBlu": 7956,
      "vas": 7957,
      "Ġ1958": 7958,
      "Ġà¤¬à¤¨à¤²": 7959,
      "Ġà¤¸à¤īà¤¦": 7960,
      "à¤¥à¤ľ": 7961,
      "Ġà¤Ĩà¤Īà¤ĵà¤¸": 7962,
      "Ġà¤ħà¤ļà¤°à¤ľ": 7963,
      "unia": 7964,
      "Ġwant": 7965,
      "Ġ310": 7966,
      "Ġcumshot": 7967,
      "Ġà¤Łà¤¹à¤¨": 7968,
      "atform": 7969,
      "à¤Ĺà¤ľà¤¨": 7970,
      "à¤Ŀà¤Ĺà¤¡": 7971,
      "Ġà¤Ĩà¤ľà¤¸": 7972,
      "Des": 7973,
      "ĠShiksh": 7974,
      "agement": 7975,
      "Ġà¤¨à¥ĺ": 7976,
      "ĠOut": 7977,
      "aveyar": 7978,
      "NE": 7979,
      "ĠSubscribe": 7980,
      "ĠHelp": 7981,
      "à¤µà¤°à¤£à¤µ": 7982,
      "Ġ9000": 7983,
      "conom": 7984,
      "à¤ĸà¤°à¤¤": 7985,
      "Ġà¤°à¤¹à¤µ": 7986,
      "cast": 7987,
      "Ġcal": 7988,
      "uf": 7989,
      "à¤ķà¤·": 7990,
      "à¤ıà¤²à¤ľ": 7991,
      "Ġproblem": 7992,
      "ension": 7993,
      "oda": 7994,
      "Ġà¤°à¤ľà¤ķ": 7995,
      "Ġver": 7996,
      "Ġà¤¤à¤¬à¤¤à¤ķ": 7997,
      "Ġà¤®à¤ľà¤°": 7998,
      "Ġ181": 7999,
      "Ġel": 8000,
      "ĠLG": 8001,
      "Ġ251": 8002,
      "à¥ĭà¤¼": 8003,
      "Ġhd": 8004,
      "ĠPune": 8005,
      "rome": 8006,
      "Ġà¤īà¤¶": 8007,
      "abhi": 8008,
      "emory": 8009,
      "Ġeffect": 8010,
      "awei": 8011,
      "Ġà¤īà¤¦à¤¹": 8012,
      "Ġna": 8013,
      "Ġ4500": 8014,
      "à¤ľà¤¯à¤¸": 8015,
      "à¥ľà¤ĸ": 8016,
      "Ġà¤ħà¤Łà¤ªà¤Ł": 8017,
      "ĠKare": 8018,
      "Ġà¤¬à¤°à¤¤à¤¤": 8019,
      "Ġà¤Ĩà¤¸à¤ķ": 8020,
      "SBI": 8021,
      "1999": 8022,
      "Ġà¤ĩà¤¤à¤ķ": 8023,
      "Ġ2025": 8024,
      "ĠRRB": 8025,
      "opra": 8026,
      "à¤¹à¤Łà¤²": 8027,
      "Ġà¥¨à¥¯": 8028,
      "Ġà¤Ĩà¤²à¤°": 8029,
      "ault": 8030,
      "Ġà¤¨à¥Ľà¤¦": 8031,
      "Ġà¤°à¤ļà¤¯": 8032,
      "Ġyears": 8033,
      "Ġà¤ħà¤ªà¤ļ": 8034,
      "SA": 8035,
      "ĠTweet": 8036,
      "à¤¤à¤²à¤¹à¤°": 8037,
      "Ġtest": 8038,
      "edding": 8039,
      "Ġà¤§à¤µà¤²": 8040,
      "à¤²à¤ķà¤¤": 8041,
      "Ġà¤¤à¤°à¤£": 8042,
      "à¤¸à¤ħà¤ª": 8043,
      "ERT": 8044,
      "Ġà¤ıà¤ļà¤ıà¤¸": 8045,
      "Ġ203": 8046,
      "Ġhard": 8047,
      "cer": 8048,
      "Ġ399": 8049,
      "ought": 8050,
      "Ġà¤¡à¤²à¤¹": 8051,
      "Ġà¤ħà¤¸à¤¹à¤¯": 8052,
      "Ġ167": 8053,
      "Ġwhen": 8054,
      "IMS": 8055,
      "uild": 8056,
      "Ġà¤ıà¤«à¤Ł": 8057,
      "111": 8058,
      "ĠMLA": 8059,
      "à¤¨à¤µà¤®": 8060,
      "à¥Ī),": 8061,
      "ĠFrom": 8062,
      "à¥Ģ.,": 8063,
      "rah": 8064,
      "Ġview": 8065,
      "à¤Ĩà¤«": 8066,
      "Ġchannel": 8067,
      "Ġà¤µà¥Ľà¤¨": 8068,
      "Ġà¤łà¤¹à¤°à¤¤": 8069,
      "Ġvery": 8070,
      "Ġà¤ĵà¤¬à¤°": 8071,
      "PA": 8072,
      "Porn": 8073,
      ")/": 8074,
      "ĠAdmit": 8075,
      "Ġà¤Łà¤¨à¤²": 8076,
      "ĠLoc": 8077,
      "125": 8078,
      "à¤¦à¥ľ": 8079,
      "fal": 8080,
      "Quote": 8081,
      "Ġà¤¹à¤ĩ": 8082,
      "à¤ıà¤¡à¤µ": 8083,
      "Ġà¤Ĺà¤«": 8084,
      "Ġà¤ĳà¤ĩà¤²": 8085,
      "ĠGK": 8086,
      "Ġà¤ħà¤ĸà¤£": 8087,
      "Ġà¤ĸà¤¤à¤®": 8088,
      "ĠWork": 8089,
      "Ġtool": 8090,
      "à¤¸à¤®à¤Ŀà¤ķà¤°": 8091,
      "Ġà¤ľà¤°à¤¨": 8092,
      "Ġthey": 8093,
      "elect": 8094,
      "Ġà¤®à¤¦à¤¨à¤²": 8095,
      "Ġà¤ĵà¥Ŀ": 8096,
      "à¤ªà¤°à¤ľ": 8097,
      "Ġ307": 8098,
      "Ġà¤ļà¥Ŀà¤ķà¤°": 8099,
      "Ġà¤Ĩà¤ĩà¤¸à¤²": 8100,
      "ida": 8101,
      "){": 8102,
      "ĠCompany": 8103,
      "à¤ıà¤¤": 8104,
      "à¤ıà¤®à¤µ": 8105,
      "Ġà¤Ĩà¤£à¤ĸ": 8106,
      "à¤ķà¤¦à¤°": 8107,
      "à¥§à¥©": 8108,
      "ĠPorn": 8109,
      "Ġdr": 8110,
      "GST": 8111,
      "ĠKnow": 8112,
      "ĠKam": 8113,
      "ĠThan": 8114,
      "ĠStep": 8115,
      "à¤ħà¤«à¤¸à¤°": 8116,
      "ĠSE": 8117,
      "ĠAv": 8118,
      "ĠLast": 8119,
      "ĠCH": 8120,
      "Ġà¤ªà¤¨à¤ªà¤¤": 8121,
      "Ġcompany": 8122,
      "à¤¸à¤¨à¤Ĺà¤°": 8123,
      "Ġà¤ķà¤īà¤¨": 8124,
      "Ġwindow": 8125,
      "à¤ķà¤ªà¤¡": 8126,
      "Ġà¤īà¤ªà¤ĸ": 8127,
      "tag": 8128,
      "à¥Īà¥Ī": 8129,
      "à¤Ĩà¤Ľ": 8130,
      "à¤ħà¤²à¤µà¤°": 8131,
      "Ġengine": 8132,
      "Di": 8133,
      "ĠJag": 8134,
      "à¤ļà¤ķà¤¤": 8135,
      "ĠStart": 8136,
      "à¤§à¤Ĺà¤¯": 8137,
      "à¤¤à¤¹à¤¤": 8138,
      "Ġdirect": 8139,
      "ino": 8140,
      "Ġà¤¤à¥ľà¤ª": 8141,
      "UI": 8142,
      "Ġà¤®à¤¤à¤ªà¤¤": 8143,
      "à¤¾à¤Ĥà¤Ĥ": 8144,
      "ĠConst": 8145,
      "Ġetc": 8146,
      "Ġ325": 8147,
      "à¥Ģ]": 8148,
      "à¥Ī/": 8149,
      "à¤ĸà¤®à¤¯": 8150,
      "Ġà¤ļà¤Łà¤ªà¤Ł": 8151,
      "à¤¹à¤¨à¤¤à¤ķà¤¶": 8152,
      "Ġà¤īà¥ľà¤¤": 8153,
      "ĠSource": 8154,
      "Ġà¤īà¤¦à¤°": 8155,
      "Ġ[...]": 8156,
      "à¤¬à¤°à¤ļ": 8157,
      "à¥ĩà¤ĥ": 8158,
      "à¥Ľà¤®": 8159,
      "ĠChat": 8160,
      "ined": 8161,
      "à¤¸à¤Łà¤°": 8162,
      "Ġà¤®à¥ľ": 8163,
      "Ġ195": 8164,
      "Ġà¤ļà¤²à¤µ": 8165,
      "Ġindian": 8166,
      "à¤Ĺà¤°à¤ķ": 8167,
      "ĠDef": 8168,
      "Ġà¤¹à¤°à¤¬": 8169,
      "Ġà¤Īà¤¦à¤Ĺ": 8170,
      "Ġcle": 8171,
      "Ġreal": 8172,
      "à¤ĩà¤°à¤«": 8173,
      "ause": 8174,
      "ĠSuper": 8175,
      "à¤ľà¤¯à¤¨à¤Ĺà¤°": 8176,
      "Ġà¤ķà¤§": 8177,
      "à¤¯à¤²à¤°": 8178,
      "ĠKesari": 8179,
      "à¤Īà¤Ĺà¤°": 8180,
      "comm": 8181,
      "ĠFire": 8182,
      "Ġresp": 8183,
      "Ġtak": 8184,
      "ookies": 8185,
      "ĠMoney": 8186,
      "GC": 8187,
      "isi": 8188,
      "ĠSUV": 8189,
      "Ġmess": 8190,
      "ining": 8191,
      "Ġà¤ķà¤²à¤¸": 8192,
      "ĠKA": 8193,
      "130": 8194,
      "Ġnext": 8195,
      "roll": 8196,
      "à¤°à¤ķà¤¬": 8197,
      "Ġà¤ĸà¤°à¤ªà¤¤à¤µ": 8198,
      "Ġrun": 8199,
      "ems": 8200,
      "à¤ªà¤°à¤²": 8201,
      "Ġshi": 8202,
      "Ġint": 8203,
      "zi": 8204,
      "Ġ512": 8205,
      "à¤¬à¤²à¤¸": 8206,
      "1990": 8207,
      "Ġà¤¦à¤²à¤ľ": 8208,
      "ĠFin": 8209,
      "à¤·à¤°à¤£": 8210,
      "à¤¡à¤°à¤Ł": 8211,
      "à¤Ĩà¤Īà¤ıà¤«": 8212,
      "istant": 8213,
      "hav": 8214,
      "Ġà¤¹à¥ľ": 8215,
      "à¤Ĺà¤²à¤¸à¤°": 8216,
      "HD": 8217,
      "RBI": 8218,
      "aug": 8219,
      "ĠStudio": 8220,
      "Ġ1700": 8221,
      "Ġ000": 8222,
      "Ġinto": 8223,
      "adhaar": 8224,
      "à¤¾à¥¤à¥¤": 8225,
      "à¤Ĺà¤²à¤®": 8226,
      "Ġdon": 8227,
      "Ġlook": 8228,
      "ĠNDA": 8229,
      ")|": 8230,
      "move": 8231,
      "Ġ340": 8232,
      "ule": 8233,
      "à¤®à¤¹à¤ľ": 8234,
      "Ġshort": 8235,
      "oscope": 8236,
      "IB": 8237,
      "à¤Ľà¤ķà¤°": 8238,
      "à¤°à¤ĸà¤§": 8239,
      "ĠLike": 8240,
      "à¤¯à¤®à¤µà¤°": 8241,
      "Ġà¤Ĺà¤Ĺà¤°": 8242,
      "Ġà¤¤à¤ªà¤¨": 8243,
      "Ġcheck": 8244,
      "ling": 8245,
      "Ġ222": 8246,
      "cript": 8247,
      "None": 8248,
      "ĠVibhag": 8249,
      "à¥Ī.....": 8250,
      "à¤ıà¤¯à¤°à¤ª": 8251,
      "370": 8252,
      "lex": 8253,
      "à¤¨à¤ķà¤²": 8254,
      "à¤¾.....": 8255,
      "Ġusing": 8256,
      "des": 8257,
      "IG": 8258,
      "à¤Ĩà¤¨à¤¨": 8259,
      "Ġà¤¹à¥Ľà¤°à¤¤": 8260,
      "ĠPrevious": 8261,
      "à¤ľà¤¯à¤°": 8262,
      "ĠMinister": 8263,
      "ĠOppo": 8264,
      "ĠUPSC": 8265,
      "à¥Ī.(": 8266,
      "nection": 8267,
      "ĠMumbai": 8268,
      "Ġstate": 8269,
      "ced": 8270,
      "Ġtext": 8271,
      "à¤ªà¤µà¤°": 8272,
      "à¤¼à¥ĩà¤Ĥ.": 8273,
      "ca": 8274,
      "Ġelection": 8275,
      "Ġà¥¨à¥®": 8276,
      "à¤Ĺà¤¡à¤ķà¤°": 8277,
      "Ġà¤ĩà¤¨à¤¡": 8278,
      "Ġà¤®à¤°à¤¹à¤®": 8279,
      "harma": 8280,
      "à¤Ńà¤¸": 8281,
      "à¤£à¤ļ": 8282,
      "Ġà¤Ĩà¤®à¤¸à¤Ń": 8283,
      "Ġà¤ħà¤¸à¤²à¤¹": 8284,
      "Ġà¤īà¤Ĺà¤¨": 8285,
      "Ġfr": 8286,
      "reatment": 8287,
      "Shiksha": 8288,
      "Ġà¤ľà¤²à¤®à¤Ĺ": 8289,
      "à¤¸à¤¹à¤¯": 8290,
      "Ġ169": 8291,
      "Ġà¤Ĩà¤°à¤ĵ": 8292,
      "ĠSpecial": 8293,
      "ĠIf": 8294,
      "mal": 8295,
      "ersfor": 8296,
      "Ġà¤¹à¤®à¤µà¤¤à¤¨": 8297,
      "à¤Łà¤Ń": 8298,
      "ĠHalchal": 8299,
      "à¤°à¤®à¤§": 8300,
      "ĠNE": 8301,
      "à¤łà¤¤à¤®": 8302,
      "Ġvari": 8303,
      "ĠView": 8304,
      "Ġà¤Ĩà¤ĩà¤¡à¤²": 8305,
      "à¥¨à¥«": 8306,
      "Ġà¤¤à¤°à¤²à¤¤": 8307,
      "rough": 8308,
      "</": 8309,
      "ras": 8310,
      "Ġà¤ļà¤ªà¤¤": 8311,
      "à¤°à¤¶à¤¨": 8312,
      "Ġcare": 8313,
      "Ġ192": 8314,
      "à¤ħà¤µà¤¸à¤°": 8315,
      "Ġfind": 8316,
      "ĠServices": 8317,
      "Ġfunction": 8318,
      "Ġgame": 8319,
      "Ġgames": 8320,
      "ktop": 8321,
      "ĠChudai": 8322,
      "Ġà¤ªà¤¦à¤µ": 8323,
      "anchi": 8324,
      "udget": 8325,
      "Ġ193": 8326,
      "à¤¤à¤¨à¤¶": 8327,
      "ishes": 8328,
      "Ġà¤ıà¤¨à¤ıà¤¸à¤ıà¤¸": 8329,
      "prove": 8330,
      "rs": 8331,
      "à¤Ĭà¤²": 8332,
      "Ġà¤Ĺà¤ľà¤¨": 8333,
      "ĠVal": 8334,
      "à¤²à¤¥": 8335,
      "Ġà¤¸à¥ľ": 8336,
      "à¤Ŀà¤ľ": 8337,
      "Ġmot": 8338,
      "Ġ184": 8339,
      "Ġ324": 8340,
      "Ġà¤ħà¤¶à¤«": 8341,
      "à¤¸à¤°à¤¶": 8342,
      "ahabr": 8343,
      "older": 8344,
      "Ġà¤ħà¤®à¤°à¤ķ": 8345,
      "ĠKahabr": 8346,
      "Ġ354": 8347,
      "Ġà¤ĵà¤µà¤¨": 8348,
      "Ġà¤Ĺà¤¦à¤°": 8349,
      "Ġ1931": 8350,
      "ume": 8351,
      "Ġcustom": 8352,
      "ĠDiwali": 8353,
      "à¤¤à¤®à¤¯": 8354,
      "Ġ183": 8355,
      "oroscope": 8356,
      "Ġà¤ĩà¤¶à¤°à¤¤": 8357,
      "Ġà¤łà¤Ĺà¤¨": 8358,
      "à¤³à¤ļ": 8359,
      "ĠIB": 8360,
      "à¤Ĩà¤¸à¤®": 8361,
      "oci": 8362,
      "ERE": 8363,
      "ĠCongress": 8364,
      "Ġà¤®à¤¶à¤Ĺ": 8365,
      "Ġvik": 8366,
      "ola": 8367,
      "à¤µà¤¤à¤ĸ": 8368,
      "CL": 8369,
      "ourse": 8370,
      "LICK": 8371,
      "Ġà¤ļà¤®à¤ķà¤¨": 8372,
      "Ġà¤ıà¤ķà¤²à¤µ": 8373,
      "ori": 8374,
      "Ġà¤¬à¤«à¤°": 8375,
      "Ġà¤ıà¤ıà¤¸": 8376,
      "Ġ1953": 8377,
      "ĠTable": 8378,
      "urance": 8379,
      "SI": 8380,
      "Ġà¤ıà¤¸à¤ıà¤¸à¤¬": 8381,
      "Ġselect": 8382,
      "ahariya": 8383,
      "Ġà¤īà¤ªà¤²": 8384,
      "Ġà¥ŀà¤°à¤®": 8385,
      "Ġpict": 8386,
      "iliate": 8387,
      "ĠDigital": 8388,
      "ĠObject": 8389,
      "à¤¡à¤°à¤ª": 8390,
      "ugin": 8391,
      "ĠGovt": 8392,
      "Ġà¤Ľà¤¥": 8393,
      "outu": 8394,
      ".........": 8395,
      "cent": 8396,
      "che": 8397,
      "ĠIIT": 8398,
      "Ġà¤ıà¤®à¤ıà¤®à¤ıà¤¸": 8399,
      "Ġà¤«à¤«": 8400,
      "à¤°à¤µà¤§": 8401,
      "Ġtake": 8402,
      "à¤¾à¥į": 8403,
      "Ġà¤Ĩà¤£à¤£": 8404,
      "ĠPlease": 8405,
      "raft": 8406,
      "Mar": 8407,
      "medies": 8408,
      "499": 8409,
      "Ġà¤²à¤Ĺà¤ķà¤°": 8410,
      "ĠBhopal": 8411,
      "Ġà¤¬à¤³": 8412,
      "plete": 8413,
      "Ġ187": 8414,
      "ho": 8415,
      "ĠRights": 8416,
      "à¤²à¤Ńà¤Ń": 8417,
      "ten": 8418,
      "ising": 8419,
      "à¤°à¤¤à¤ħ": 8420,
      "Ġadmin": 8421,
      "à¤°à¤¡à¤®": 8422,
      "ough": 8423,
      "Faridabad": 8424,
      "Ġà¤¤à¤ªà¤¤": 8425,
      "à¥ĩà¤Ĥà¥¤,": 8426,
      "pos": 8427,
      "à¤¤à¤¶à¤¤": 8428,
      "à¤µà¤¤à¤®": 8429,
      "Ġsar": 8430,
      "à¤¡à¤¬à¤²": 8431,
      "à¤Ĩà¤¸à¤ª": 8432,
      "ĠPad": 8433,
      "Ġà¤ªà¤°à¤ª": 8434,
      "Ġreserved": 8435,
      "à¤ļà¤¦": 8436,
      "Ġà¤¡à¤Ĺ": 8437,
      "à¤¸à¤³": 8438,
      "hen": 8439,
      "Ġ68500": 8440,
      "à¤ļà¤¹": 8441,
      "Ġupdate": 8442,
      "Ġway": 8443,
      "Ġà¤¸à¤¤à¤Ĺ": 8444,
      "Ġà¤¬à¤°à¤Ĺà¤²": 8445,
      "Ġà¤¨à¤Ĺà¤£": 8446,
      "ĠSave": 8447,
      "Ġà¤ķà¤¸à¤ķà¤°": 8448,
      "reme": 8449,
      "ift": 8450,
      "Ġà¤ľà¤¯à¤µ": 8451,
      "à¤¤à¤²à¤µ": 8452,
      "By": 8453,
      "aik": 8454,
      "ĠAmer": 8455,
      "Ġà¤ĩà¤¡à¤²": 8456,
      "Ġà¤¤à¤¹à¤ľ": 8457,
      "à¤¹à¤°à¤µ": 8458,
      "jan": 8459,
      "ĠLanguage": 8460,
      "?)": 8461,
      "ask": 8462,
      "Ġface": 8463,
      "Ġà¤£": 8464,
      "ĠSchool": 8465,
      "à¤ıà¤¡à¤®": 8466,
      "Ġbana": 8467,
      "ela": 8468,
      "jobs": 8469,
      "Ġà¤ªà¤¦à¤ļ": 8470,
      "Ġà¤ĸà¤²à¤²": 8471,
      "World": 8472,
      "ĠCLICK": 8473,
      "1998": 8474,
      "karan": 8475,
      "Ġsuccess": 8476,
      "illion": 8477,
      "Ġ173": 8478,
      "CD": 8479,
      "irc": 8480,
      "à¤§à¤¯": 8481,
      "GO": 8482,
      "à¤¹à¤°à¤¦à¤Ĺ": 8483,
      "à¤¯à¤²à¤®": 8484,
      "ĠISIS": 8485,
      "ming": 8486,
      "ĠLahariya": 8487,
      "ĠIPS": 8488,
      "Pay": 8489,
      "ĠTak": 8490,
      "Ġà¤ķà¤Łà¤¤": 8491,
      "Ġhand": 8492,
      "Ġà¤²à¤¬à¤°": 8493,
      "ract": 8494,
      "à¤¨à¤°à¤¸": 8495,
      "arts": 8496,
      "à¥Ģà¤Ĥà¤Ĥ": 8497,
      "Ġà¥Ļà¤¤à¤°": 8498,
      "à¥īà¤ģ": 8499,
      "ĠPuri": 8500,
      "à¤²à¤ķà¤¶": 8501,
      "Ġelectricity": 8502,
      "aving": 8503,
      "ĠPH": 8504,
      "MW": 8505,
      "lose": 8506,
      "Ġ189": 8507,
      "à¤¼/": 8508,
      "Ġà¤ĵà¤¤": 8509,
      "à¤ķà¤¨à¤Ĺà¤°": 8510,
      "Ġ172": 8511,
      "SR": 8512,
      "Ġà¤¤à¤Łà¤¬": 8513,
      "HIK": 8514,
      "Ġkare": 8515,
      "à¤°à¤ı": 8516,
      "Ġrelated": 8517,
      "à¤¸à¤¹à¤ķ": 8518,
      "à¤²à¤¨à¤¶": 8519,
      "aint": 8520,
      "à¥Ĥà¤Ĥ...": 8521,
      "à¤Ĩà¤Īà¤¯": 8522,
      "ĠTR": 8523,
      "à¥īà¤¼": 8524,
      "Ġà¤ıà¤Łà¤®": 8525,
      "ald": 8526,
      "à¥ĭà¤Ĥ:": 8527,
      "Ġà¤īà¤ªà¤ķà¤ª": 8528,
      "ako": 8529,
      "à¤¯à¤Ĺà¥Ŀ": 8530,
      "ĠMoto": 8531,
      "à¤Ĭà¤Ĭ": 8532,
      "rab": 8533,
      "son": 8534,
      "à¤¹à¤°à¤ª": 8535,
      "ipes": 8536,
      "ammu": 8537,
      "JI": 8538,
      "Ġà¤¡à¤Ĺà¤®à¤Ĺ": 8539,
      "à¤¸à¤ĸà¤£": 8540,
      "Ġà¤¦à¥ŀ": 8541,
      "ĠOF": 8542,
      "à¤¶à¤ªà¤¥": 8543,
      "Ġ850": 8544,
      "ĠMO": 8545,
      "ĠHi": 8546,
      "à¤Īà¤ıà¤¸à¤Ĩà¤°": 8547,
      "Ġ235": 8548,
      "youtu": 8549,
      "Ġà¤ĵà¤Ľ": 8550,
      "Ġpk": 8551,
      "Ġbi": 8552,
      "ricks": 8553,
      "350": 8554,
      "ains": 8555,
      "Ġà¤ĸà¤¶": 8556,
      "Ġà¤Ŀà¥ľà¤ª": 8557,
      "à¤ªà¤®à¤¤": 8558,
      "aterial": 8559,
      "dd": 8560,
      "ĠMir": 8561,
      "ores": 8562,
      "à¤µà¤¶à¤¤": 8563,
      "à¤ĩà¤®à¤¨": 8564,
      "Ġagainst": 8565,
      "Art": 8566,
      "CB": 8567,
      "ĠBach": 8568,
      "Ġpolice": 8569,
      "Ġà¤«à¤ĸà¤°": 8570,
      "Ġpri": 8571,
      "Ġà¤¸à¤¶à¤°": 8572,
      "Ġpat": 8573,
      "Ġann": 8574,
      "was": 8575,
      "à¤ľà¤°à¤µ": 8576,
      "inder": 8577,
      "à¥Ģ.)": 8578,
      "à¤µà¤µà¤¤": 8579,
      "à¤²à¤ľà¤¯": 8580,
      "Ġ208": 8581,
      "à¤®à¤¹à¤¬": 8582,
      "bl": 8583,
      "à¤Ĭà¤¤": 8584,
      "Ġpos": 8585,
      "Ġà¤ıà¤¸à¤ıà¤¨": 8586,
      "afe": 8587,
      "Ġ275": 8588,
      "à¤µà¤¨à¤¯": 8589,
      "à¤¬à¥ľà¤¤": 8590,
      "Ġà¤¨à¤µà¤¸": 8591,
      "Ġà¤°à¤Ĺà¥ľ": 8592,
      "Ġfeatures": 8593,
      "Ġbr": 8594,
      "à¤®à¤¬à¤²": 8595,
      "Ġkam": 8596,
      "ĠOptions": 8597,
      "JD": 8598,
      "Ġà¤ļà¤®à¥ľ": 8599,
      "à¤ľà¤ĸ": 8600,
      "Ġshe": 8601,
      "Ġà¤īà¤Ľà¤²à¤ķà¤°": 8602,
      "aby": 8603,
      "Ġà¤¹à¥ŀ": 8604,
      "ĠMil": 8605,
      "Ġà¤ıà¤®à¤°": 8606,
      "Ġà¥¬à¥¦": 8607,
      "Ġà¤¤à¤°à¤¤": 8608,
      "ĠTax": 8609,
      "ĠGad": 8610,
      "Ġ???": 8611,
      "ĠText": 8612,
      "Ġà¤¬à¤¸à¤µ": 8613,
      "ĠICC": 8614,
      "Ġ2100": 8615,
      "ĠCollection": 8616,
      "Be": 8617,
      "Ġsign": 8618,
      "Ġà¤Īà¤·": 8619,
      "cel": 8620,
      "ĠUN": 8621,
      "Ġà¤¸à¤«à¤¦à¤°à¤ľ": 8622,
      "à¤¾]": 8623,
      "à¤ķà¤®à¤Ĺà¤¢": 8624,
      "Ġà¤ħà¥ŀà¤¸": 8625,
      "watch": 8626,
      "à¤¿\"": 8627,
      "ĠOS": 8628,
      "Ġà¤Ĺà¤¦à¤Ĺ": 8629,
      "hn": 8630,
      "ĠChi": 8631,
      "Ġà¤Īà¤¯": 8632,
      "Ġà¤«à¤°à¤ķ": 8633,
      "Ġà¤ķà¥Ŀ": 8634,
      "ĠNarendra": 8635,
      "ĠKarnataka": 8636,
      "Ġend": 8637,
      "à¤ıà¤¸à¤µ": 8638,
      "Ġà¤ªà¤Łà¤ĸà¤¨": 8639,
      "udd": 8640,
      "TR": 8641,
      "à¤¼à¥Ĥà¤Ĥ": 8642,
      "ĠWater": 8643,
      "Ġdown": 8644,
      "Ġà¤Łà¤¯": 8645,
      "à¤¯à¤°à¤¹": 8646,
      "ĠBirthday": 8647,
      "Ġ215": 8648,
      "OK": 8649,
      "Ġlast": 8650,
      "750": 8651,
      "Ġà¤Īà¤¸à¤µ": 8652,
      "Ġà¤¨à¤Īà¤¦": 8653,
      "Ġà¤²à¤µà¤£": 8654,
      "ONE": 8655,
      "Ġusers": 8656,
      "ĠPerson": 8657,
      "rap": 8658,
      "ĠEVM": 8659,
      "à¤ľà¤ķà¤ª": 8660,
      "Ġà¤ħà¤¥à¤°": 8661,
      "Ġà¤Ĩà¤Īà¤Īà¤¡": 8662,
      "à¤ªà¤ļà¤¯": 8663,
      "video": 8664,
      "Ġà¤īà¤ªà¤¶": 8665,
      "Ġà¤®à¤¦à¤¹": 8666,
      "à¤®à¤¦à¤²": 8667,
      "uff": 8668,
      "à¤²à¤ªà¤°": 8669,
      "cont": 8670,
      "à¤ķà¤°à¤¸": 8671,
      "izen": 8672,
      "à¤°à¤ķà¤¡": 8673,
      "à¤¶à¤¨à¤ª": 8674,
      "atr": 8675,
      "ĠSports": 8676,
      "ĠReport": 8677,
      "ocurrency": 8678,
      "ĠCentral": 8679,
      "Ġsakate": 8680,
      "Ġà¤ıà¤ıà¤¨à¤ıà¤®": 8681,
      "ĠTar": 8682,
      "Ġservice": 8683,
      "à¤Ĺà¤¹à¤®": 8684,
      "ĠCheck": 8685,
      "Aam": 8686,
      "ĠFlipkart": 8687,
      "Ġà¤ľà¤¨à¤²": 8688,
      "à¤ħà¤Ńà¤¯": 8689,
      "ĠYeh": 8690,
      "Ġ()": 8691,
      "ĠSupport": 8692,
      "ĠCG": 8693,
      "Ġdisc": 8694,
      "Ġà¤¡à¤Łà¤ķà¤°": 8695,
      "Ġà¤Ĩà¤ĩà¤Ł": 8696,
      "à¤¢à¤°": 8697,
      "OG": 8698,
      "Ġ272": 8699,
      "Ġur": 8700,
      "à¤¯à¥Ľ": 8701,
      "Ġ1900": 8702,
      "Ġaccess": 8703,
      "ĠGod": 8704,
      "à¤¼à¤¼": 8705,
      "à¤ħà¤²à¤¬à¤¤": 8706,
      "à¤°à¤¦à¤¨": 8707,
      "ĠBH": 8708,
      "unity": 8709,
      "Ġà¤īà¤ľà¤¡": 8710,
      "AF": 8711,
      "ĠTerms": 8712,
      "aly": 8713,
      "à¤¸à¤ķà¤¨": 8714,
      "antri": 8715,
      "ĠProm": 8716,
      "à¥Ģ):": 8717,
      "Ġil": 8718,
      "imal": 8719,
      "Ġà¤¹à¤®à¤¸à¤«à¤°": 8720,
      "à¤ıà¤ļà¤ıà¤®": 8721,
      "Ham": 8722,
      "à¤¢à¤°à¤ª": 8723,
      "PG": 8724,
      "Ġà¤ħà¤¯à¤ª": 8725,
      "à¤·à¤¯à¤µà¤¸": 8726,
      "Ġà¤ħà¤«à¤ľ": 8727,
      "128": 8728,
      "ĠFast": 8729,
      "Ġà¤ħà¤®à¤ľà¤¦": 8730,
      "Ġà¤ıà¤Ĩà¤°": 8731,
      "à¤ľà¤¯à¤µ": 8732,
      "Go": 8733,
      "à¤°à¤¹à¤¸": 8734,
      "Ġà¤ħà¤¦à¤¦": 8735,
      "Ġà¤Ĩà¤°à¤Ĩà¤Īà¤ıà¤²": 8736,
      "à¤ķà¤¶à¤¨": 8737,
      "Ġà¤ıà¤¨à¤Ĩà¤°": 8738,
      "igation": 8739,
      "viron": 8740,
      "à¤ĭà¤£": 8741,
      "à¤ľà¤®à¤¶": 8742,
      "Aug": 8743,
      "CS": 8744,
      "Ġà¤¬à¤ļà¤ķ": 8745,
      "Ġwater": 8746,
      "Ġlaunch": 8747,
      "Ġwithout": 8748,
      "Ġteam": 8749,
      "Ġà¤ªà¤°à¤¬": 8750,
      "Ġà¤¥à¤ķà¤¤": 8751,
      "Ġbody": 8752,
      "ĠDepartment": 8753,
      "à¤°à¤®à¤¯": 8754,
      "102": 8755,
      "à¤²à¤µà¤²": 8756,
      "ĠBig": 8757,
      "ĠViral": 8758,
      "Ġà¤ħà¤µà¤ľ": 8759,
      "ĠReading": 8760,
      "Ġà¤µà¤ļà¤¨à¤¬à¤¦": 8761,
      "à¤¸à¤ł": 8762,
      "à¤ªà¤ķà¤¤": 8763,
      "ASH": 8764,
      "ĠHuawei": 8765,
      "Ġbook": 8766,
      "à¤¯à¤£à¤¨": 8767,
      "HOT": 8768,
      "ĠGe": 8769,
      "Ġà¤°à¤ľà¤µ": 8770,
      "admi": 8771,
      "Ġbox": 8772,
      "ources": 8773,
      "Ġà¥Ľà¤¹à¤°": 8774,
      "à¤°à¤¹à¤¨": 8775,
      "à¤ĸà¤¨à¤²": 8776,
      "à¤¸à¤Īà¤ıà¤¨": 8777,
      "gn": 8778,
      "à¤¯à¤¶à¤µ": 8779,
      "Ġà¤¹à¤ľà¤°à¤¤à¤Ĺ": 8780,
      "Ġà¤¨à¤ľà¤®": 8781,
      "yanka": 8782,
      "à¤²à¤Ĺà¤¢": 8783,
      "Ġà¤īà¤ªà¤ķà¤°": 8784,
      "ĠMaharashtra": 8785,
      "vind": 8786,
      "Ġà¤ıà¤ļà¤Ĩà¤°à¤Ł": 8787,
      "Ġà¤ļà¥Ŀà¤¤": 8788,
      "Ġà¤¸à¤¤à¤µ": 8789,
      "ĠLaunch": 8790,
      "Ġyoutube": 8791,
      "ĠUttarakhand": 8792,
      "Ġà¤¤à¤¬à¤°": 8793,
      "à¤ķà¤°à¤ķ": 8794,
      "à¤Ĩà¤Īà¤ıà¤ıà¤¸": 8795,
      "à¤Ĺà¤ĩà¤¨": 8796,
      "Ġdesign": 8797,
      "à¤ķà¤®à¤¤": 8798,
      "à¤¾à¥¤''": 8799,
      "Ġut": 8800,
      "à¤µà¤°à¤µ": 8801,
      "Ġà¤ĩà¤ª": 8802,
      "Ġoper": 8803,
      "ĠKahani": 8804,
      "adhan": 8805,
      "à¤µà¤Ńà¤ķ": 8806,
      "Ġ315": 8807,
      "ĠMet": 8808,
      "à¤Ĩà¤Īà¤ıà¤®à¤ıà¤«": 8809,
      "roups": 8810,
      "ĠLinux": 8811,
      "à¤ħà¤¦à¤°à¤ķ": 8812,
      "Ġsecond": 8813,
      "ayan": 8814,
      "Ġ480": 8815,
      "Ġà¤ľà¤ľà¤ª": 8816,
      "jri": 8817,
      "Ġà¤Ńà¤Ĺà¤¤à¤¸": 8818,
      "ĠInf": 8819,
      "ls": 8820,
      "Ġà¤ĩà¤ķà¤°": 8821,
      "embly": 8822,
      "Ġà¤Łà¤ļà¤¸": 8823,
      "ĠCal": 8824,
      "Ġà¤ĺà¤¨à¤ĺ": 8825,
      "Ġoffer": 8826,
      "crease": 8827,
      "osp": 8828,
      "lement": 8829,
      "Ġà¤¶à¤°à¤¬à¤¤": 8830,
      "ĠBSNL": 8831,
      "ĠJharkhand": 8832,
      "Ġ194": 8833,
      "esp": 8834,
      "à¥Ģà¤Ĥ'": 8835,
      "Ġtraffic": 8836,
      "Ġà¤¢à¤²à¤¤": 8837,
      "Ġà¤Ĭà¤¸": 8838,
      "101": 8839,
      "ĠUser": 8840,
      "ĠInternational": 8841,
      "Ġ206": 8842,
      "Ġà¤ıà¤²à¤ıà¤¨à¤ľ": 8843,
      "Ġ245": 8844,
      "Ġà¤¸à¤¦à¤Ń": 8845,
      "friend": 8846,
      "ĠMat": 8847,
      "ĠHappy": 8848,
      "alman": 8849,
      "ĠChhattisgarh": 8850,
      "Ġvikalp": 8851,
      "ĠArch": 8852,
      "vis": 8853,
      "à¤²à¤¤à¤ª": 8854,
      "Ġà¤Ĩà¤¦à¤®à¤ª": 8855,
      "à¥¤,": 8856,
      "ior": 8857,
      "Ġà¤ħà¤¤à¤ıà¤µ": 8858,
      "band": 8859,
      "à¤µà¤¨à¤Ńà¤°": 8860,
      "à¤łà¤¡": 8861,
      "Ġà¤ıà¤Łà¤²": 8862,
      "Ġoffic": 8863,
      "à¥ī,": 8864,
      "à¥Ĥà¤Ĥà¥¤\"": 8865,
      "ier": 8866,
      "à¤®à¤¸à¤°": 8867,
      "à¤£à¤ľ": 8868,
      "Ġiss": 8869,
      "ĠContent": 8870,
      "cal": 8871,
      "à¥Ĥà¤ģ|": 8872,
      "Ġà¤Ĺà¤¦à¤Ĺà¤¦": 8873,
      "Ġà¤ĳà¤Ĺà¤¸": 8874,
      "quo": 8875,
      "And": 8876,
      "Ġà¤ľà¤ķà¥ľ": 8877,
      "Ġà¤ļà¤°à¤µ": 8878,
      "ĠApply": 8879,
      "Ġà¤Ĩà¤ĩà¤ľ": 8880,
      "ĠInvest": 8881,
      "à¤§à¤¨à¤¬": 8882,
      "à¤ļà¤Ł": 8883,
      "ĠCre": 8884,
      "Ġà¤¢à¤²à¤¨": 8885,
      "Ġà¤ħà¤¹à¤®à¤¦à¤¨à¤Ĺà¤°": 8886,
      "à¤®à¤ªà¤°": 8887,
      "ĠCO": 8888,
      "hile": 8889,
      "à¤¦à¤°à¤¸": 8890,
      "Ġ239": 8891,
      "à¥Ĥà¤ģ...": 8892,
      "fore": 8893,
      "nar": 8894,
      "opath": 8895,
      "Ġ204": 8896,
      "ĠCommission": 8897,
      "room": 8898,
      "à¤īà¤Łà¤°": 8899,
      "HIKSH": 8900,
      "ĠDip": 8901,
      "à¤ªà¤¨à¤Ĺà¤°": 8902,
      "Ġtry": 8903,
      "ĠInt": 8904,
      "à¤¡à¥ĺà¤°": 8905,
      "à¤«à¤°à¤²": 8906,
      "jriwal": 8907,
      "à¤Ķà¤°à¤¤": 8908,
      "ĠRAM": 8909,
      "à¤ľà¤ĺà¤°": 8910,
      "We": 8911,
      "ĠMI": 8912,
      "à¤Ĩà¤ĩà¤Ĩà¤°": 8913,
      "ified": 8914,
      "ĠBrowser": 8915,
      "ikes": 8916,
      "320": 8917,
      "Ġbre": 8918,
      "ering": 8919,
      "140": 8920,
      "Ġà¤ľà¤¶à¤ª": 8921,
      "Ġà¤¬à¤«": 8922,
      "Ġown": 8923,
      "asat": 8924,
      "à¤°à¤ķà¤¨": 8925,
      "ĠEl": 8926,
      "à¤ıà¤¬à¤²": 8927,
      "à¤ıà¤ļà¤Ł": 8928,
      "Ġà¤Ĩà¤łà¤µà¤¡": 8929,
      "à¤°à¤Ĺà¤²": 8930,
      "ĠTag": 8931,
      "Ġsave": 8932,
      "Ġbar": 8933,
      "Ġà¤ħà¤ķà¤¡": 8934,
      "IFA": 8935,
      "Ġ498": 8936,
      "Ġdist": 8937,
      "Ġà¤ķà¤°à¤¬": 8938,
      "ĠJNU": 8939,
      "Ġrem": 8940,
      "à¤Ĩà¤°à¤µ": 8941,
      "ĠChrist": 8942,
      "Ġtwo": 8943,
      "ĠPassword": 8944,
      "Ġà¤¦à¤Ĺà¤¡": 8945,
      "Ġcapt": 8946,
      "ĠIII": 8947,
[...]
