{
  "version": "1.0",
  "truncation": null,
  "padding": null,
  "added_tokens": [],
  "normalizer": null,
  "pre_tokenizer": {
    "type": "ByteLevel",
    "add_prefix_space": false,
    "trim_offsets": true,
    "use_regex": true
  },
  "post_processor": {
    "type": "ByteLevel",
    "add_prefix_space": true,
    "trim_offsets": false,
    "use_regex": true
  },
  "decoder": {
    "type": "ByteLevel",
    "add_prefix_space": true,
    "trim_offsets": true,
    "use_regex": true
  },
  "model": {
    "type": "BPE",
    "dropout": null,
    "unk_token": null,
    "continuing_subword_prefix": "",
    "end_of_word_suffix": "",
    "fuse_unk": false,
    "byte_fallback": false,
    "vocab": {
      "<s>": 0,
      "<pad>": 1,
      "</s>": 2,
      "<unk>": 3,
      "<cls>": 4,
      "<sep>": 5,
      "<mask>": 6,
      "!": 7,
      "\"": 8,
      "#": 9,
      "$": 10,
      "%": 11,
      "&": 12,
      "'": 13,
      "(": 14,
      ")": 15,
      "*": 16,
      "+": 17,
      ",": 18,
      "-": 19,
      ".": 20,
      "/": 21,
      "0": 22,
      "1": 23,
      "2": 24,
      "3": 25,
      "4": 26,
      "5": 27,
      "6": 28,
      "7": 29,
      "8": 30,
      "9": 31,
      ":": 32,
      ";": 33,
      "<": 34,
      "=": 35,
      ">": 36,
      "?": 37,
      "@": 38,
      "A": 39,
      "B": 40,
      "C": 41,
      "D": 42,
      "E": 43,
      "F": 44,
      "G": 45,
      "H": 46,
      "I": 47,
      "J": 48,
      "K": 49,
      "L": 50,
      "M": 51,
      "N": 52,
      "O": 53,
      "P": 54,
      "Q": 55,
      "R": 56,
      "S": 57,
      "T": 58,
      "U": 59,
      "V": 60,
      "W": 61,
      "X": 62,
      "Y": 63,
      "Z": 64,
      "[": 65,
      "\\": 66,
      "]": 67,
      "^": 68,
      "_": 69,
      "`": 70,
      "a": 71,
      "b": 72,
      "c": 73,
      "d": 74,
      "e": 75,
      "f": 76,
      "g": 77,
      "h": 78,
      "i": 79,
      "j": 80,
      "k": 81,
      "l": 82,
      "m": 83,
      "n": 84,
      "o": 85,
      "p": 86,
      "q": 87,
      "r": 88,
      "s": 89,
      "t": 90,
      "u": 91,
      "v": 92,
      "w": 93,
      "x": 94,
      "y": 95,
      "z": 96,
      "{": 97,
      "|": 98,
      "}": 99,
      "~": 100,
      "¡": 101,
      "¢": 102,
      "£": 103,
      "¤": 104,
      "¥": 105,
      "¦": 106,
      "§": 107,
      "¨": 108,
      "©": 109,
      "ª": 110,
      "«": 111,
      "¬": 112,
      "®": 113,
      "¯": 114,
      "°": 115,
      "±": 116,
      "²": 117,
      "³": 118,
      "´": 119,
      "µ": 120,
      "¶": 121,
      "·": 122,
      "¸": 123,
      "¹": 124,
      "º": 125,
      "»": 126,
      "¼": 127,
      "½": 128,
      "¾": 129,
      "¿": 130,
      "À": 131,
      "Á": 132,
      "Â": 133,
      "Ã": 134,
      "Ä": 135,
      "Å": 136,
      "Æ": 137,
      "Ç": 138,
      "È": 139,
      "É": 140,
      "Ê": 141,
      "Ë": 142,
      "Ì": 143,
      "Í": 144,
      "Î": 145,
      "Ï": 146,
      "Ð": 147,
      "Ñ": 148,
      "Ò": 149,
      "Ó": 150,
      "Ô": 151,
      "Õ": 152,
      "Ö": 153,
      "×": 154,
      "Ø": 155,
      "Ù": 156,
      "Ú": 157,
      "Û": 158,
      "Ü": 159,
      "Ý": 160,
      "Þ": 161,
      "ß": 162,
      "à": 163,
      "á": 164,
      "â": 165,
      "ã": 166,
      "ä": 167,
      "å": 168,
      "æ": 169,
      "ç": 170,
      "è": 171,
      "é": 172,
      "ê": 173,
      "ë": 174,
      "ì": 175,
      "í": 176,
      "î": 177,
      "ï": 178,
      "ð": 179,
      "ñ": 180,
      "ò": 181,
      "ó": 182,
      "ô": 183,
      "õ": 184,
      "ö": 185,
      "÷": 186,
      "ø": 187,
      "ù": 188,
      "ú": 189,
      "û": 190,
      "ü": 191,
      "ý": 192,
      "þ": 193,
      "ÿ": 194,
      "Ā": 195,
      "ā": 196,
      "Ă": 197,
      "ă": 198,
      "Ą": 199,
      "ą": 200,
      "Ć": 201,
      "ć": 202,
      "Ĉ": 203,
      "ĉ": 204,
      "Ċ": 205,
      "ċ": 206,
      "Č": 207,
      "č": 208,
      "Ď": 209,
      "ď": 210,
      "Đ": 211,
      "đ": 212,
      "Ē": 213,
      "ē": 214,
      "Ĕ": 215,
      "ĕ": 216,
      "Ė": 217,
      "ė": 218,
      "Ę": 219,
      "ę": 220,
      "Ě": 221,
      "ě": 222,
      "Ĝ": 223,
      "ĝ": 224,
      "Ğ": 225,
      "ğ": 226,
      "Ġ": 227,
      "ġ": 228,
      "Ģ": 229,
      "ģ": 230,
      "Ĥ": 231,
      "ĥ": 232,
      "Ħ": 233,
      "ħ": 234,
      "Ĩ": 235,
      "ĩ": 236,
      "Ī": 237,
      "ī": 238,
      "Ĭ": 239,
      "ĭ": 240,
      "Į": 241,
      "į": 242,
      "İ": 243,
      "ı": 244,
      "Ĳ": 245,
      "ĳ": 246,
      "Ĵ": 247,
      "ĵ": 248,
      "Ķ": 249,
      "ķ": 250,
      "ĸ": 251,
      "Ĺ": 252,
      "ĺ": 253,
      "Ļ": 254,
      "ļ": 255,
      "Ľ": 256,
      "ľ": 257,
      "Ŀ": 258,
      "ŀ": 259,
      "Ł": 260,
      "ł": 261,
      "Ń": 262,
      "Ġà": 263,
      "Ġà¤": 264,
      "à¥": 265,
      "à¤": 266,
      "à¤¾": 267,
      "à¥ĩ": 268,
      "à¤°": 269,
      "Ġà¤ķ": 270,
      "à¥į": 271,
      "à¥Ģ": 272,
      "à¤¿": 273,
      "à¤Ĥ": 274,
      "à¤¨": 275,
      "à¥ĭ": 276,
      "à¤¤": 277,
      "à¤ķ": 278,
      "à¤²": 279,
      "à¤¸": 280,
      "à¤¯": 281,
      "Ġà¤¸": 282,
      "Ġà¤¹": 283,
      "à¤¹": 284,
      "Ġà¤®": 285,
      "à¤®": 286,
      "Ġà¤ª": 287,
      "à¥ģ": 288,
      "à¥Ī": 289,
      "à¤µ": 290,
      "à¤¦": 291,
      "à¤ª": 292,
      "à¥ĩà¤Ĥ": 293,
      "à¤Ĺ": 294,
      "Ġà¤¬": 295,
      "Ġà¤¨": 296,
      "à¤ľ": 297,
      "à¤Ł": 298,
      "Ġà¤ľ": 299,
      "à¥¤": 300,
      "Ġà¤¦": 301,
      "Ġà¤µ": 302,
      "Ġà¤ħ": 303,
      "Ġà¤°": 304,
      "Ġà¤²": 305,
      "à¥ĭà¤Ĥ": 306,
      "à¤¬": 307,
      "à¥Ĥ": 308,
      "à¤¶": 309,
      "à¤ı": 310,
      "à¤¡": 311,
      "à¤ļ": 312,
      "Ġà¤Ĩ": 313,
      "Ġà¤Ĺ": 314,
      "Ġà¤¤": 315,
      "Ġà¤ķà¤°": 316,
      "Ġà¤Ń": 317,
      "à¤§": 318,
      "Ġà¤ī": 319,
      "à¤·": 320,
      "Ġà¤ĩ": 321,
      "Ġà¤ªà¤°": 322,
      "à¤Ī": 323,
      "Ġà¤Ķ": 324,
      "Ġà¤Ķà¤°": 325,
      "à¤¼": 326,
      "à¤¥": 327,
      "à¥Īà¤Ĥ": 328,
      "Ġà¤ļ": 329,
      "à¤¾à¤Ĥ": 330,
      "Ġà¤¯": 331,
      "Ġà¤¶": 332,
      "à¤ĸ": 333,
      "Ġà¤ı": 334,
      "à¤£": 335,
      "à¥Īà¥¤": 336,
      "à¤Ń": 337,
      "à¤«": 338,
      "Ġà¤¥": 339,
      "Ġà¤°à¤¹": 340,
      "Ġà¤ĩà¤¸": 341,
      "Ġà¤ĸ": 342,
      "à¥Ģà¤Ĥ": 343,
      "Ġà¤«": 344,
      "à¤ĩ": 345,
      "à¥Į": 346,
      "à¤ķà¤°": 347,
      "à¤ªà¤¨": 348,
      "Ġà¤ıà¤ķ": 349,
      "à¤¾à¥¤": 350,
      "à¤°à¤¤": 351,
      "Ġà¤¨à¤¹": 352,
      "à¤¿à¤Ĥ": 353,
      "Ġà¤ķà¤¹": 354,
      "Ġà¤¸à¤®": 355,
      "Ġà¤īà¤¨": 356,
      "à¤°à¤ķ": 357,
      "à¥ī": 358,
      "Ġà¤Ł": 359,
      "à¤Ľ": 360,
      "Ġà¤ķà¤°à¤¨": 361,
      "Ġà¤ħà¤ªà¤¨": 362,
      "à¤Ĩ": 363,
      "Ġà¤¡": 364,
      "Ġà¤¯à¤¹": 365,
      "à¤ł": 366,
      "Ġà¤Ĺà¤¯": 367,
      "à¥Īà¤Ĥà¥¤": 368,
      "Ġà¤īà¤¸": 369,
      "Ġà¤ªà¤¹": 370,
      "à¤¾,": 371,
      "Ġà¤²à¤Ĺ": 372,
      "Ġà¤ĺ": 373,
      "à¥Ģà¥¤": 374,
      "à¤ķà¤¤": 375,
      "Ġà¤¬à¤¨": 376,
      "à¤¤à¤°": 377,
      "à¤µà¤°": 378,
      "Ġà¤Ĩà¤ª": 379,
      "Ġà¤®à¤¹": 380,
      "Ġà¤ħà¤¨": 381,
      "à¤ľà¤¨": 382,
      "à¥Ī.": 383,
      "à¤ĩà¤¸": 384,
      "à¤ī": 385,
      "à¤ĵ": 386,
      "à¤¯à¤ķ": 387,
      "Ġ.": 388,
      "à¥ĥ": 389,
      "Ġà¤ħà¤§": 390,
      "à¥ĩà¥¤": 391,
      "à¤Łà¤°": 392,
      "à¥ľ": 393,
      "Ġà¤¹à¤®": 394,
      "à¤ħ": 395,
      "Ġà¤Ľ": 396,
      "à¤¢": 397,
      "à¤°à¤¦": 398,
      "à¤¸à¤°": 399,
      "Ġà¤§": 400,
      "à¤¹à¤°": 401,
      "Ġà¤µà¤¹": 402,
      "à¤¶à¤¨": 403,
      "à¤Ĺà¤°": 404,
      "Ġ(": 405,
      "Ġà¤ķà¤°à¤¤": 406,
      "Ġà¤¸à¤ķà¤¤": 407,
      "Ġà¤¤à¤ķ": 408,
      "Ġà¤īà¤¨à¤ķ": 409,
      "à¥Ī,": 410,
      "Ġà¤ªà¤¹à¤²": 411,
      "à¤¼à¤¾": 412,
      "à¤°à¤®": 413,
      "à¤¾.": 414,
      "à¥Ģ,": 415,
      "Ġà¤¸à¤°à¤ķ": 416,
      "Ġà¤¤à¤°": 417,
      "à¤¬à¤°": 418,
      "à¤²à¤¨": 419,
      "Ġà¤Ĺà¤Ī": 420,
      "à¤¯à¤°": 421,
      "Ġà¤ķà¤®": 422,
      "à¤²à¤¤": 423,
      "à¥ģà¤Ĥ": 424,
      "Ġà¤¬à¤¤": 425,
      "à¤ªà¤°": 426,
      "à¤°à¤£": 427,
      "Ġà¤Ĳ": 428,
      "Ġà¤µà¤°": 429,
      "à¤¨à¤ķ": 430,
      "à¤Ŀ": 431,
      "à¤¯à¤®": 432,
      "à¤ģ": 433,
      "à¤°à¤µ": 434,
      "Ġ,": 435,
      "à¤®à¤²": 436,
      "Ġà¤īà¤ª": 437,
      "Ġà¥": 438,
      "Ġà¤ľà¤¬": 439,
      "Ġà¤ªà¤¤": 440,
      "Ġà¤Ĩà¤¯": 441,
      "à¤¼à¥Ģ": 442,
      "Ġà¤Ĩà¤°": 443,
      "Ġà¤¸à¤¬": 444,
      "Ġà¤īà¤¸à¤ķ": 445,
      "à¤°à¤¸": 446,
      "Ġà¤ĩà¤¸à¤ķ": 447,
      "à¤¤à¤¨": 448,
      "à¤®à¤¨": 449,
      "Ġà¤¬à¤¹": 450,
      "à¤ĺ": 451,
      "à¤µà¤¨": 452,
      "..": 453,
      "à¤Łà¤¨": 454,
      "à¤¸à¤²": 455,
      "Ġà¤Ĳà¤¸": 456,
      "Ġà¤Ĺà¤ı": 457,
      "Ġà¤Ĩà¤ªà¤ķ": 458,
      "à¤ľà¤°": 459,
      "à¤¹à¤¤": 460,
      "à¥ĩ.": 461,
      "Ġà¤ħà¤¬": 462,
      "Ġà¤°à¤ĸ": 463,
      "Ġà¤¸à¤¹": 464,
      "à¥Ģ.": 465,
      "Ġà¤ľà¤¨": 466,
      "Ġà¤¬à¤ļ": 467,
      "Ġà¤ħà¤²": 468,
      "Ġà¤ĩà¤¨": 469,
      "à¤ªà¤¤": 470,
      "Ġà¤¦à¤°": 471,
      "Ġà¤¹à¤°": 472,
      "Ġà¤ĵ": 473,
      "à¥Īà¤Ĥ.": 474,
      "Ġà¤ħà¤Ń": 475,
      "Ġ-": 476,
      "à¤¯à¤¤": 477,
      "Ġà¤Ĩà¤ľ": 478,
      "Ġà¤¤à¤°à¤¹": 479,
      "à¤¼à¥ĩ": 480,
      "Ġà¤īà¤¤": 481,
      "à¤¸à¤®": 482,
      "à¥ĩ,": 483,
      "à¤¦à¤°": 484,
      "à¤īà¤¨": 485,
      "Ġà¤¸à¤®à¤¯": 486,
      "Ġà¤¸à¤Ń": 487,
      "à¤ıà¤¸": 488,
      "à¤ıà¤Ĺ": 489,
      "à¤Ĺà¤²": 490,
      "Ġà¤ļà¤²": 491,
      "à¤²à¤¯": 492,
      "à¤·à¤£": 493,
      "à¤ķà¤²": 494,
      "à¤®à¤¤": 495,
      "à¤µà¤¸": 496,
      "à¥Īà¤Ĥ,": 497,
      "Ġà¤ķà¤Ī": 498,
      "à¤ĩà¤¨": 499,
      "Ġà¤ĳ": 500,
      "à¤¸à¤ķ": 501,
      "Ġà¤®à¤¨": 502,
      "à¤¸à¤¨": 503,
      "Ġà¤¬à¤¢": 504,
      "Ġ:": 505,
      "Ġà¤Ĩà¤¤": 506,
      "à¤ļà¤¨": 507,
      "Ġà¤¸à¤°": 508,
      "à¤¯à¤¨": 509,
      "Ġà¤Ĩà¤¦": 510,
      "Ġà¤Ŀ": 511,
      "Ġà¤ľà¤°": 512,
      "à¤Ĺà¤¤": 513,
      "Ġà¤¬à¤¡": 514,
      "Ġà¤ħà¤®": 515,
      "Ġà¤ĺà¤°": 516,
      "à¥Ĥà¤Ĥ": 517,
      "à¤ıà¤®": 518,
      "à¤¦à¤¨": 519,
      "à¤Ĩà¤Ī": 520,
      "à¤¾à¤ģ": 521,
      "Ġà¤ıà¤µ": 522,
      "Ġ'": 523,
      "à¤¸à¤¦": 524,
      "Ġà¤ł": 525,
      "Ġà¤¶à¤°": 526,
      "à¤ľà¤ª": 527,
      "à¤µà¤¤": 528,
      "Ġà¤Ńà¤°": 529,
      "Ġà¤ħà¤¸": 530,
      "Ġà¤¤à¤¥": 531,
      "à¤ªà¤¯": 532,
      "Ġà¤¬à¤²": 533,
      "Ġà¤Ĩà¤Ī": 534,
      "Ġà¤ħà¤°": 535,
      "Ġà¤ªà¤¡": 536,
      "Ġà¥¤": 537,
      "Ġà¤¸à¤¬à¤¸": 538,
      "à¤¯à¤¹": 539,
      "à¤¨à¤¤": 540,
      "Ġà¤¸à¤ķ": 541,
      "Ġà¤ħà¤ļ": 542,
      "à¤µà¤²": 543,
      "Ġà¤Ĩà¤Ĺ": 544,
      "à¤ŀ": 545,
      "Ġà¤Ĩà¤µ": 546,
      "Ġà¤ħà¤µ": 547,
      "Ġà¤Ĩà¤¨": 548,
      "à¤ĸà¤¨": 549,
      "à¤§à¤¨": 550,
      "à¤¹à¤®": 551,
      "Ġà¤ľà¤®": 552,
      "à¤°à¤§": 553,
      "à¤¸à¤Ń": 554,
      "à¤ªà¤ķ": 555,
      "à¤¯à¤²": 556,
      "Ġà¤īà¤®": 557,
      "à¤ĩà¤¸à¤ķ": 558,
      "à¤¨à¤®": 559,
      "à¤°à¤¶": 560,
      "à¥Ŀ": 561,
      "à¤µà¤¹": 562,
      "Ġà¤ªà¤¦": 563,
      "Ġà¤¬à¤¦": 564,
      "Ġà¤ķà¤²": 565,
      "Ġà¤ĸà¤°": 566,
      "à¤¬à¤²": 567,
      "à¤®à¤ķ": 568,
      "à¤²à¤¬": 569,
      "Ġà¤ħà¤ª": 570,
      "Ġà¤Ĩà¤§": 571,
      "à¤°à¤Ń": 572,
      "Ġà¤Ī": 573,
      "Ġà¤ķà¤ª": 574,
      "à¤ľà¤²": 575,
      "à¤Ľà¤²": 576,
      "Ġà¤ľà¤²": 577,
      "à¤¹à¤¨": 578,
      "à¤°à¤¨": 579,
      "Ġà¤¬à¤ľ": 580,
      "Ġà¤ħà¤ķ": 581,
      "à¤²à¤ķ": 582,
      "à¥ĩà¤Ĥà¥¤": 583,
      "à¤¶à¤ķ": 584,
      "Ġà¤ıà¤¸": 585,
      "à¤Łà¤²": 586,
      "à¤¦à¤µ": 587,
      "à¤¡à¤°": 588,
      "à¤¤à¤ķ": 589,
      "Ġà¤ĵà¤°": 590,
      "à¤°à¤¹": 591,
      "Ġà¤īà¤ł": 592,
      "à¤®à¤°": 593,
      "à¤¾-": 594,
      "Ġ|": 595,
      "à¤¯à¤¦": 596,
      "à¤Łà¤ķ": 597,
      "Ġà¤īà¤¦": 598,
      "à¤ľà¤¬": 599,
      "à¤¡à¤²": 600,
      "à¤³": 601,
      "Ġà¤¸à¤¤": 602,
      "Ġà¤ĩà¤²": 603,
      "Ġà¤ħà¤Ĺà¤°": 604,
      "à¤ľà¤¹": 605,
      "à¤¦à¤¸": 606,
      "Ġà¤ªà¤ķ": 607,
      "à¤°à¤¯": 608,
      "Ġà¤¸à¤®à¤Ŀ": 609,
      "Ġà¤²à¤¡": 610,
      "Ġà¤¹à¤ľ": 611,
      "Ġà¤°à¤¹à¤¤": 612,
      "Ġà¤ľà¤¹": 613,
      "Ġà¤¬à¤°": 614,
      "à¤¼à¤¿": 615,
      "Ġà¤ľà¤Ĺ": 616,
      "à¥Ģ-": 617,
      "à¤¨à¤¨": 618,
      "à¤Ĩà¤°": 619,
      "à¤ĩà¤²": 620,
      "Ġà¤Ĩà¤¹": 621,
      "Ġà¤Ĺà¤°": 622,
      "Ġà¤Ĭ": 623,
      "à¤²à¤°": 624,
      "à¤ľà¤¯": 625,
      "à¤ķà¤°à¤£": 626,
      "à¤ĩà¤Ł": 627,
      "Ġà¤¤à¤¬": 628,
      "Ġà¤ķà¤¹à¤¨": 629,
      "Ġà¤¸à¤«": 630,
      "Ġà¤¸à¤ļ": 631,
      "Ġà¤¬à¤¸": 632,
      "à¤µà¤ķ": 633,
      "Ġà¤®à¤¤": 634,
      "Ġà¤Ĩà¤¸": 635,
      "à¤¨à¤²": 636,
      "Ġà¤¸à¤µ": 637,
      "à¤°à¤¦à¤°": 638,
      "à¤ªà¤ı": 639,
      "à¥Ľ": 640,
      "à¤®à¤ļ": 641,
      "Ġà¤ħà¤¤": 642,
      "Ġà¤¦à¤²": 643,
      "à¤ıà¤ķ": 644,
      "à¤·à¤ķ": 645,
      "Ġà¤¶à¤¹à¤°": 646,
      "à¤¨à¤µ": 647,
      "à¤Ĭ": 648,
      "Ġà¤®à¤¦": 649,
      "à¤łà¤ķ": 650,
      "à¤¨à¤°": 651,
      "Ġà¤¨à¤µ": 652,
      "à¤¯à¤µà¤¸": 653,
      "Ġ()": 654,
      "Ġà¤ĺà¤Łà¤¨": 655,
      "à¤ķà¤¨": 656,
      "Ġà¤°à¤¹à¤¨": 657,
      "à¤¹à¤²": 658,
      "Ġà¤¬à¤¦à¤²": 659,
      "Ġà¤ľà¤µ": 660,
      "Ġà¤ħà¤²à¤Ĺ": 661,
      "Ġà¤µà¤ľà¤¹": 662,
      "Ġà¤Ĩà¤®": 663,
      "à¤¤à¤®": 664,
      "à¤¯à¤ª": 665,
      "à¤¦à¤®": 666,
      "à¤§à¤°": 667,
      "Ġà¤Ĩà¤ı": 668,
      "Ġà¤ħà¤Ĺ": 669,
      "Ġà¤«à¤°": 670,
      "à¤²à¤µ": 671,
      "Ġà¤°à¤¨": 672,
      "à¤ªà¤¸": 673,
      "Ġà¤ľà¤¬à¤ķ": 674,
      "à¥ĩ-": 675,
      "à¤ļà¤°": 676,
      "Ġà¤ĳà¤«": 677,
      "Ġà¤ķà¤Ń": 678,
      "Ġà¤ªà¤¢": 679,
      "Ġà¤¢": 680,
      "Ġà¤ĩà¤¸à¤¸": 681,
      "Ġà¤ľà¤Ĺà¤¹": 682,
      "à¤®à¤¦": 683,
      "Ġà¤¨à¤°": 684,
      "Ġà¤°à¤µ": 685,
      "Ġà¤¸à¤®à¤¸": 686,
      "Ġà¤¨à¤ľà¤°": 687,
      "Ġà¤Ĩà¤²": 688,
      "Ġà¤ļà¤²à¤¤": 689,
      "à¤ķà¤¸": 690,
      "Ġà¤ĩà¤¸à¤²": 691,
      "Ġà¤Ĩà¤¶": 692,
      "Ġà¤¤à¤¹à¤¤": 693,
      "...": 694,
      "à¤łà¤¨": 695,
      "Ġà¤§à¤°": 696,
      "Ġà¤ľà¤¨à¤¤": 697,
      "Ġà¤¹à¤®à¤²": 698,
      "à¤¬à¤¹": 699,
      "Ġà¤²à¤Ĺà¤¤": 700,
      "à¤°à¤«": 701,
      "Ġà¤µà¤ķ": 702,
      "à¤°à¤ª": 703,
      "à¤¶à¤²": 704,
      "à¤¶à¤¤": 705,
      "à¤¬à¤¤": 706,
      "Ġà¤ĩà¤¤à¤¨": 707,
      "à¥ĩà¤Ĥ,": 708,
      "à¤ķà¤Ł": 709,
      "Ġà¤¸à¤¦à¤¸": 710,
      "à¤¬à¤Ī": 711,
      "Ġà¤®à¤§": 712,
      "à¤ľà¤¸": 713,
      "Ġà¤ķà¤¹à¤¤": 714,
      "à¤¸à¤¸": 715,
      "à¤ĸà¤¤": 716,
      "Ġà¤ķà¤°à¤ķ": 717,
      "à¤¬à¤¸": 718,
      "Ġà¤ļà¤°": 719,
      "à¤ķà¤¡": 720,
      "à¤¨à¤¸": 721,
      "à¤ıà¤²": 722,
      "Ġà¤°à¤ĸà¤¨": 723,
      "Ġà¤¸à¤²": 724,
      "Ġ\"": 725,
      "Ġà¤®à¤¦à¤¦": 726,
      "Ġà¤¸à¤®à¤°": 727,
      "Ġà¤¤à¤°à¤«": 728,
      "Ġà¤ķà¤°à¤µ": 729,
      "Ġà¤¬à¥ľ": 730,
      "à¤Ĳ": 731,
      "Ġà¤ħà¤¦": 732,
      "à¤Ĩà¤¤": 733,
      "Ġà¤īà¤ļ": 734,
      "Ġà¤¨à¤Ĺà¤°": 735,
      "à¤°à¤²": 736,
      "Ġà¤®à¤¹à¤¤": 737,
      "Ġà¤¹à¤¤": 738,
      "Ġà¤ĩà¤¸à¤®": 739,
      "à¤°à¤¬": 740,
      "à¤¨à¤¦": 741,
      "à¤§à¤µ": 742,
      "à¥Ģà¤Ĥà¥¤": 743,
      "à¤ļà¤²": 744,
      "à¤¨à¤¸à¤Ń": 745,
      "Ġà¤ıà¤®": 746,
      "à¤¤à¤µ": 747,
      "à¥ĭ,": 748,
      "à¤Ńà¤Ĺ": 749,
      "à¤Łà¤®": 750,
      "Ġà¤ĸà¤¬à¤°": 751,
      "Ġà¤īà¤¸à¤¨": 752,
      "Ġà¤ħà¤«": 753,
      "Ġà¤²à¤ķ": 754,
      "Ġà¤ĩà¤¨à¤ķ": 755,
      "à¥Ģà¤Ĥ,": 756,
      "à¤¥à¤¨": 757,
      "à¤ıà¤¨": 758,
      "à¤ĩà¤ķ": 759,
      "à¤ĥ": 760,
      "à¤¿,": 761,
      "à¤¸à¤ª": 762,
      "à¤®à¤µ": 763,
      "Ġà¤¨à¤¯": 764,
      "Ġà¤¸à¤ª": 765,
      "Ġà¤¬à¤¯": 766,
      "à¤²à¤ķà¤°": 767,
      "à¤¸à¤¤": 768,
      "Ġà¤®à¤°": 769,
      "Ġà¤¨à¤Ī": 770,
      "à¤Ĺà¤¨": 771,
      "Ġà¤¨à¤ı": 772,
      "Ġà¤¬à¥Ŀ": 773,
      "à¤Ĺà¤¢": 774,
      "à¤¹à¤¤à¤°": 775,
      "Ġà¤¯à¤¦": 776,
      "Ġà¤ıà¤¨": 777,
      "à¥Ĥà¤ģ": 778,
      "à¤µà¤ª": 779,
      "à¤µà¤ľ": 780,
      "Ġ)": 781,
      "Ġà¤°à¤ķ": 782,
      "à¤Ĺà¤µ": 783,
      "à¤Ńà¤µ": 784,
      "à¤Ĺà¤®": 785,
      "à¥Ģ)": 786,
      "Ġà¤īà¤ªà¤²à¤¬": 787,
      "à¤ħà¤¬": 788,
      "Ġà¤ªà¥ľ": 789,
      "Ġà¤īà¤ªà¤¯": 790,
      "à¤¦à¤Ĺ": 791,
      "Ġ/": 792,
      "à¥Įà¤Ĥ": 793,
      "Ġà¤¤à¤¸": 794,
      "à¥ĭà¤Ĥ,": 795,
      "à¤Ĳà¤¸": 796,
      "à¤°à¤ľ": 797,
      "à¤ľà¤Ĺ": 798,
      "à¤¨à¤Ī": 799,
      "Ġà¤²à¤Ĺà¤Ńà¤Ĺ": 800,
      "Ġà¤ħà¤¶": 801,
      "à¤°à¤ªà¤¤": 802,
      "Ġà¤ķà¤¬": 803,
      "à¤·à¤¯": 804,
      "à¤ıà¤«": 805,
      "Ġà¤¹à¤µ": 806,
      "Ġà¤ħà¤ĸ": 807,
      "Ġà¤®à¤ľà¤¬": 808,
      "à¤Ĺà¤łà¤¨": 809,
      "Ġà¤§à¤¨": 810,
      "à¤²à¤Ĺ": 811,
      "Ġà¤®à¤ľ": 812,
      "à¤¸à¤µ": 813,
      "à¤ĺà¤°": 814,
      "à¤¹à¤¦": 815,
      "Ġà¤īà¤²": 816,
      "Ġà¤ªà¤¸": 817,
      "Ġà¤¦à¤¬": 818,
      "à¤Ńà¤°": 819,
      "à¤¹à¤¸": 820,
      "Ġà¤ªà¤¶": 821,
      "à¤®à¤¹": 822,
      "à¤¥à¤®": 823,
      "Ġà¤ħà¤Ĺà¤²": 824,
      "à¥ľà¤ķ": 825,
      "Ġà¤¶à¤ķ": 826,
      "à¤¼à¥ĭà¤Ĥ": 827,
      "à¤ķà¤µ": 828,
      "à¤ĸà¤°": 829,
      "Ġà¤®à¤¸": 830,
      "à¤¯à¤ķà¤°": 831,
      "Ġà¤¤à¤²": 832,
      "Ġà¤¸à¤¡": 833,
      "Ġà¤Ĩà¤ķ": 834,
      "Ġà¤ħà¤µà¤¸à¤°": 835,
      "à¤ľà¤®": 836,
      "Ġà¤¦à¤¸": 837,
      "à¤·à¤¦": 838,
      "à¤ķà¤¸à¤Ń": 839,
      "à¤ªà¤²": 840,
      "à¤ĩà¤¸à¤¸": 841,
      "à¤¦à¤²": 842,
      "Ġà¤ķà¤Ł": 843,
      "à¤°à¤ĸ": 844,
      "à¤¬à¤¨": 845,
      "à¤īà¤¸": 846,
      "Ġà¤¨à¤ķ": 847,
      "à¤¥à¤²": 848,
      "Ġà¤¤à¤¯": 849,
      "Ġà¤Ĺà¤¤": 850,
      "Ġà¤ķà¤¶": 851,
      "Ġà¤ıà¤ľ": 852,
      "Ġà¤µà¤¸": 853,
      "Ġà¤ķà¤¨": 854,
      "à¤īà¤¨à¤ķ": 855,
      "à¤¯à¤µ": 856,
      "Ġà¤ĸà¤¡": 857,
      "à¤ľà¤ķ": 858,
      "à¥ĭà¥¤": 859,
      "Ġà¤ħà¤¹à¤®": 860,
      "Ġà¤Ĺà¤²à¤¤": 861,
      "Ġà¤Ĩà¤µà¤¶": 862,
      "Ġà¤¹à¤Ł": 863,
      "Ġà¤ªà¤Ł": 864,
      "à¤Ĩà¤ľ": 865,
      "à¤¶à¤¨à¤²": 866,
      "à¤Ĺà¤²à¤µ": 867,
      "à¤²à¤¸": 868,
      "Ġà¤¹à¤²": 869,
      "Ġà¤ħà¤ªà¤°": 870,
      "Ġà¤¶à¤¬": 871,
      "à¤ªà¤£": 872,
      "Ġà¤µà¤¨": 873,
      "Ġà¤¶à¤¨": 874,
      "à¤·à¤¤": 875,
      "Ġà¤Ĭà¤ªà¤°": 876,
      "à¤¦à¤ķ": 877,
      "Ġà¤¤à¤¤": 878,
      "Ġà¤Ĩà¤ĸ": 879,
      "Ġà¤¤à¤®": 880,
      "à¤«à¤°": 881,
      "Ġà¤ªà¤°à¤®": 882,
      "à¤¤à¤²": 883,
      "Ġà¤Ńà¤Ĺà¤µ": 884,
      "à¤°à¤ļ": 885,
      "Ġà¤ķà¤¦à¤®": 886,
      "à¥¦": 887,
      "Ġà¤¬à¤¨à¤¨": 888,
      "à¤¹à¤ķ": 889,
      "Ġà¤¸à¤ľ": 890,
      "Ġà¤®à¤¤à¤¦": 891,
      "Ġà¤ªà¤¹à¤ļ": 892,
      "à¤¯à¤¸": 893,
      "à¤µà¤µ": 894,
      "Ġà¤ķà¤µ": 895,
      "à¤¼à¥ĭ": 896,
      "à¤ħà¤Ĺà¤°": 897,
      "Ġà¤ĩà¤¤": 898,
      "Ġà¤ħà¤ľ": 899,
      "Ġà¤ĸà¤¤": 900,
      "à¥Ī?": 901,
      "Ġà¤ıà¤²": 902,
      "Ġà¤ıà¤¡": 903,
      "Ġà¤¸à¤¹à¤¯": 904,
      "Ġà¤°à¤ĸà¤¤": 905,
      "à¥ĩà¤Ĥ.": 906,
      "à¤²à¤®": 907,
      "à¤ļà¤ķ": 908,
      "à¤µà¤¯": 909,
      "à¥ħ": 910,
      "à¤ľà¤µ": 911,
      "Ġà¤ľà¤¨à¤µà¤°": 912,
      "à¤ĩà¤¡": 913,
      "à¤¾)": 914,
      "à¤ķà¤ª": 915,
      "à¤Ľà¤¤": 916,
      "à¤¤à¤ļ": 917,
      "Ġà¤Ńà¤µ": 918,
      "Ġà¤¦à¤ķ": 919,
      "à¤Ĥà¥¤": 920,
      "à¤µà¤Ł": 921,
      "à¤®à¤¸": 922,
      "à¤¨à¤Ł": 923,
      "à¥ŀ": 924,
      "Ġà¤°à¤£": 925,
      "Ġà¤¸à¤¨": 926,
      "à¤Ĺà¤¡": 927,
      "Ġà¤Ĩà¤ķà¤°": 928,
      "Ġà¤®à¤²": 929,
      "à¤¨à¤Ĺà¤°": 930,
      "Ġà¤Ĺà¤£": 931,
      "Ġà¤®à¤¶": 932,
      "à¤£à¤¯": 933,
      "à¤µà¤°à¤£": 934,
      "à¤ħà¤ªà¤¨": 935,
      "à¤¦à¤¬": 936,
      "à¥ī.": 937,
      "Ġ!": 938,
      "à¤®à¤ª": 939,
      "Ġ...": 940,
      "Ġà¤īà¤¸à¤¸": 941,
      "à¤ħà¤¸à¤²": 942,
      "Ġà¤īà¤ªà¤¸": 943,
      "Ġà¤ľà¤¤": 944,
      "à¤ĩà¤®": 945,
      "à¤¼à¥ĩà¤Ĥ": 946,
      "Ġà¤ħà¤Ĺà¤¸": 947,
      "Ġà¤ħà¤¸à¤²": 948,
      "Ġà¤ıà¤¯à¤°": 949,
      "à¤¸à¤¬": 950,
      "Ġà¤®à¤ķ": 951,
      "à¤¥à¤µ": 952,
      "Ġà¤ķà¤°à¤£": 953,
      "Ġà¤ªà¤²": 954,
      "Ġà¤°à¤¸": 955,
      "à¤¼à¥į": 956,
      "à¤®à¤§": 957,
      "Ġà¤Ĩà¤¦à¤®": 958,
      "Ġà¤¸à¤¬à¤ķ": 959,
      "à¤µà¤ļ": 960,
      "à¤¸à¤ļ": 961,
      "à¤²à¤¹": 962,
      "à¤ĩà¤¯": 963,
      "à¤Łà¤«": 964,
      "Ġà¤Ľà¤¹": 965,
      "à¤ıà¤ļ": 966,
      "à¤ĸà¤ķà¤°": 967,
      "à¤ĩà¤µ": 968,
      "Ġà¤ħà¤°à¤¬": 969,
      "Ġà¤ªà¥Ŀ": 970,
      "Ġà¤ħà¤®à¤°": 971,
      "à¤ªà¤Ł": 972,
      "à¤µà¤§": 973,
      "Ġà¤ĩà¤ķ": 974,
      "Ġà¤¨à¤¦": 975,
      "à¤¨à¤ª": 976,
      "Ġà¤ĭ": 977,
      "Ġà¤ĸà¤¤à¤°": 978,
      "Ġà¤Ĩà¤ł": 979,
      "à¤¡à¤¨": 980,
      "Ġà¤®à¤Ī": 981,
      "à¤Ķ": 982,
      "Ġà¤Ĺà¤ł": 983,
      "Ġà¥Ľ": 984,
      "Ġà¤īà¤¨à¤¸": 985,
      "Ġà¤ķà¤¡": 986,
      "Ġà¤¹à¤¸": 987,
      "Ġà¤ķà¤¥": 988,
      "--": 989,
      "Ġà¤ªà¤ķà¤¡": 990,
      "à¤®à¤Ĺ": 991,
      "à¤īà¤¤": 992,
      "à¤ľà¤¦": 993,
      "à¥ĭ.": 994,
      "à¤Łà¤°à¤¨": 995,
      "Ġà¤īà¤¤à¤°": 996,
      "Ġà¤ĺà¤Ł": 997,
      "à¤°à¤·": 998,
      "à¤ķà¤®": 999,
      "Ġà¤¹à¤®à¤¨": 1000,
      "à¤ªà¤·": 1001,
      "à¤ĩà¤¸à¤®": 1002,
      "à¤ħà¤®": 1003,
      "Ġà¤ĵà¤µà¤°": 1004,
      "Ġà¤ħà¤¸à¤°": 1005,
      "à¤ĸà¤²": 1006,
      "à¤§à¤ķ": 1007,
      "Ġ?": 1008,
      "à¤Ĺà¤¦": 1009,
      "à¤Łà¤¬": 1010,
      "Ġà¤¤à¤¨": 1011,
      "à¤¤à¤ľ": 1012,
      "à¤¥à¤ķ": 1013,
      "Ġà¤¸à¤«à¤²à¤¤": 1014,
      "à¤¸à¤°à¤ķ": 1015,
      "Ġà¤īà¤¸à¤®": 1016,
      "Ġà¤Ĺà¤²": 1017,
      "à¤ĩà¤¨à¤²": 1018,
      "à¤ªà¤¦": 1019,
      "à¤¥à¤°": 1020,
      "à¤·à¤®à¤¤": 1021,
      "à¤ļà¤¤": 1022,
      "à¤¨à¤ķà¤°": 1023,
      "Ġà¤ĩà¤®": 1024,
      "à¤®à¤¯": 1025,
      "à¤ĸà¤¨à¤Ĭ": 1026,
      "Ġà¤īà¤¡": 1027,
      "à¤¶à¤°": 1028,
      "Ġà¤¬à¤ľà¤Ł": 1029,
      "à¤ħà¤¨": 1030,
      "à¥Ĥà¤Ĥà¥¤": 1031,
      "Ġà¤¸à¤«à¤²": 1032,
      "à¥Ĥ-": 1033,
      "à¤Ķà¤°": 1034,
      "Ġà¤ķà¤®à¤°": 1035,
      "Ġà¤ħà¤µà¤§": 1036,
      "Ġà¤¸à¤¸": 1037,
      "Ġà¤ľà¤¯": 1038,
      "Ġà¤ķà¤¸": 1039,
      "Ġà¤¦à¤µ": 1040,
      "à¤Ĩà¤ªà¤ķ": 1041,
      "à¤ľà¤¤": 1042,
      "à¤¬à¤¦": 1043,
      "à¤ĺà¤Łà¤¨": 1044,
      "Ġà¤ļà¤°à¤£": 1045,
      "à¤ªà¤®": 1046,
      "à¤µà¤¶": 1047,
      "Ġà¤Ľà¤¤": 1048,
      "à¤ĩà¤ľ": 1049,
      "à¤¾?": 1050,
      "à¤ķà¤¶": 1051,
      "Ġà¤Ńà¤²": 1052,
      "à¤«à¤²": 1053,
      "à¤īà¤Ł": 1054,
      "Ġà¤®à¤ļ": 1055,
      "à¤ľà¤§": 1056,
      "Ġà¤¶à¤µ": 1057,
      "à¤ħà¤ª": 1058,
      "à¤°à¤Ĺ": 1059,
      "à¤¡à¤ķ": 1060,
      "à¤¸à¤²à¤®": 1061,
      "à¥Ī|": 1062,
      "Ġà¤¤à¤ķà¤¨": 1063,
      "Ġà¤īà¤°": 1064,
      "à¤Ĩà¤ª": 1065,
      "Ġà¤«à¤°à¤µà¤°": 1066,
      "à¤ħà¤²à¤Ĺ": 1067,
      "à¤¯à¤ķà¤¤": 1068,
      "Ġà¤ļà¤²à¤¨": 1069,
      "à¤®à¤£": 1070,
      "à¤Ĺà¤ľ": 1071,
      "Ġà¤ĳà¤¨à¤²": 1072,
      "),": 1073,
      "Ġà¤¸à¤¦": 1074,
      "à¤§à¤¤": 1075,
      "Ġà¤ıà¤ª": 1076,
      "Ġà¤ļà¤ķ": 1077,
      "Ġ%": 1078,
      "Ġà¤¶à¤¹": 1079,
      "à¤Ĺà¤£": 1080,
      "à¤¡à¤µ": 1081,
      "à¥Ģà¤Ĥ.": 1082,
      "à¥Ģ:": 1083,
      "Ġà¤ļà¤¯à¤¨": 1084,
      "à¤¯à¤°à¤²": 1085,
      "à¤ħà¤°": 1086,
      "à¤°à¤¹à¤£": 1087,
      "Ġà¤ıà¤«": 1088,
      "à¤¬à¤¡": 1089,
      "à¤·à¤®": 1090,
      "Ġà¤Ĩà¤°à¤ķ": 1091,
      "à¤ħà¤Ń": 1092,
      "Ġà¤¡à¤°": 1093,
      "Ġà¥ŀ": 1094,
      "à¤¸à¤ķà¤°": 1095,
      "Ġà¤®à¤Ĺà¤°": 1096,
      "à¤ĳ": 1097,
      "à¤¹à¤°à¤£": 1098,
      "à¤ªà¤¹à¤²": 1099,
      "à¤²à¤¦": 1100,
      "Ġà¤ıà¤¶": 1101,
      "Ġà¤®à¤¹à¤¸": 1102,
      "à¥ģà¤ģ": 1103,
      "Ġà¤Īà¤°": 1104,
      "à¤¡à¤¸": 1105,
      "à¤Łà¤µ": 1106,
      "Ġà¤²à¥ľà¤ķ": 1107,
      "à¤¤à¤°à¤°": 1108,
      "Ġà¤¨à¤®": 1109,
      "Ġà¤¸à¤ªà¤¨": 1110,
      "à¤°à¤®à¤£": 1111,
      "Ġà¤Ńà¤µà¤¨": 1112,
      "à¤¶à¤µ": 1113,
      "à¤°à¤¥à¤®": 1114,
      "Ġà¤¬à¤¹à¤¨": 1115,
      "Ġà¤ķà¤ķ": 1116,
      "§à¥": 1117,
      "à¤²à¤ļ": 1118,
      "Ġà¤¤à¤Ń": 1119,
      "Ġà¤¹à¤¥": 1120,
      "à¤Īà¤ķ": 1121,
      "à¤¨à¤¯": 1122,
      "Ġà¤ªà¤µ": 1123,
      "Ġà¤ĩà¤ľ": 1124,
      "à¤ıà¤¸à¤ª": 1125,
      "Ġà¤ĩà¤ļ": 1126,
      "à¤µà¤ľà¤¨": 1127,
      "à¤īà¤¸à¤ķ": 1128,
      "Ġà¤²à¤Ĺà¤¨": 1129,
      "Ġ#": 1130,
      "Ġà¤¸à¤²à¤®": 1131,
      "à¤¤à¤¤": 1132,
      "à¤¯à¤£": 1133,
      "Ġà¤ķà¤®à¤ľ": 1134,
      "à¤¦à¤°à¤ħà¤¸à¤²": 1135,
      "Ġà¤ıà¤ļ": 1136,
      "à¤Ĥ,": 1137,
      "Ġà¥Ļ": 1138,
      "à¥Ĥ,": 1139,
      "Ġà¤ķà¤ł": 1140,
      "Ġà¤«à¤¸à¤²": 1141,
      "à¤¹à¤¬": 1142,
      "Ġà¤Ĩà¤ªà¤¨": 1143,
      "à¤°à¤¤à¤²à¤¬": 1144,
      "à¤ıà¤¸à¤Ł": 1145,
      "à¤ħà¤²": 1146,
      "Ġà¤¦à¤®": 1147,
      "à¤¡à¤®": 1148,
      "Ġà¤īà¤ªà¤ļ": 1149,
      "à¤¦à¤¯": 1150,
      "à¥ĭ-": 1151,
      "Ġà¤Ĺà¤¹à¤°": 1152,
      "Ġà¤®à¤¤à¤²à¤¬": 1153,
      "Ġà¤Ĩà¤ªà¤¸": 1154,
      "Ġà¤Ĩà¤Īà¤ª": 1155,
      "à¤ķà¤Ī": 1156,
      "....": 1157,
      "Ġà¤Ĭà¤°": 1158,
      "à¤°à¤µà¤ķ": 1159,
      "Ġà¤ĳà¤¸": 1160,
      "Ġà¤Ĺà¤łà¤¬": 1161,
      "Ġà¤ļà¤¢": 1162,
      "Ġà¤§à¤®à¤ķ": 1163,
      "à¤¤à¤°à¤£": 1164,
      "Ġà¤«à¤²": 1165,
      "Ġà¤¹à¤¡": 1166,
      "à¥ĺ": 1167,
      "Ġà¤¬à¤¨à¤¤": 1168,
      "à¤ªà¤¹à¤°": 1169,
      "à¤ĩà¤¸à¤²": 1170,
      "à¤ħà¤§": 1171,
      "à¥ľà¤¨": 1172,
      "Ġà¤¨à¤¤": 1173,
      "Ġ..": 1174,
      "Ġà¤°à¤ľ": 1175,
      "à¤µà¤¡": 1176,
      "à¤¾:": 1177,
      "à¤ªà¤¡": 1178,
      "Ġà¤ľà¤®à¤ķà¤°": 1179,
      "Ġà¤Ĩà¤ıà¤Ĺ": 1180,
      "Ġà¤¹à¤ķ": 1181,
      "à¤®à¤¶": 1182,
      "Ġà¤īà¤ªà¤Ń": 1183,
      "Ġà¤®à¤ľà¤¦": 1184,
      "Ġà¤²à¤ĸà¤¨à¤Ĭ": 1185,
      "Ġà¤ªà¤¹à¤¨": 1186,
      "Ġà¤°à¤ļà¤¨": 1187,
      "Ġà¤¨à¤ľ": 1188,
      "Ġà¤¹à¤«": 1189,
      "Ġà¤Ĩà¤£": 1190,
      "Ġà¤Ńà¤ķ": 1191,
      "Ġà¤Ĩà¤¸à¤ª": 1192,
      "Ġà¤Ĩà¤¬": 1193,
      "à¤¯à¤µà¤¹": 1194,
      "à¤Ńà¤ķ": 1195,
      "à¤¯à¤¬": 1196,
      "Ġà¤īà¤¨à¤®": 1197,
      "Ġ[": 1198,
      "Ġà¤īà¤ľ": 1199,
      "Ġà¤ķà¤ªà¤¡": 1200,
      "à¤¯à¤¯à¤¨": 1201,
      "à¤¾à¤Ĥ,": 1202,
      "à¤ıà¤¶à¤¨": 1203,
      "à¤¸à¤¹": 1204,
      "à¤¦à¤¶": 1205,
      "Ġà¤ħà¤¯": 1206,
      "à¤Łà¤¤": 1207,
      "Ġà¤Ĩà¤īà¤Ł": 1208,
      "Ġà¤ĩà¤°": 1209,
      "Ġà¤¦à¤¶à¤ķ": 1210,
      "Ġà¤ħà¤¡": 1211,
      "Ġà¤Īà¤¶": 1212,
      "à¤¼,": 1213,
      "à¤²à¤ª": 1214,
      "à¤Ĥ.": 1215,
      "Ġà¤ªà¤¨": 1216,
      "à¤°à¤ķà¤°": 1217,
      "Ġà¤ıà¤ķà¤¤": 1218,
      "Ġà¤ħà¤¹à¤®à¤¦": 1219,
      "à¤¯à¤¡": 1220,
      "à¤īà¤¨à¤²": 1221,
      "à¤¹à¤¨à¤¤": 1222,
      "à¤ĸà¤ķ": 1223,
      "//": 1224,
      "à¤ĺà¤¨": 1225,
      "à¤¾à¥ħ": 1226,
      "à¤¯à¤°à¤®": 1227,
      "à¤ªà¤¥": 1228,
      "à¤¦à¤¦": 1229,
      "Ġà¤°à¤®": 1230,
      "à¤¾'": 1231,
      "à¤¿à¤¼": 1232,
      "à¤ıà¤¡": 1233,
      "Ġà¤¸à¤¹à¤®à¤¤": 1234,
      "Ġà¤°à¤£à¤¨": 1235,
      "Ġà¤¦à¤¹": 1236,
      "Ġà¤ħà¤ĸà¤¬": 1237,
      "Ġà¤¸à¤ĸ": 1238,
      "à¤·à¤ľ": 1239,
      ")à¥¤": 1240,
      "à¤©": 1241,
      "à¤µà¤£": 1242,
      "Ġà¤ĩà¤¨à¤®": 1243,
      "Ġà¤Ńà¤¯": 1244,
      "Ġà¤ĵà¤²": 1245,
      "à¤¿-": 1246,
      "Ġà¤ħà¤¸à¤®": 1247,
      "Ġ>": 1248,
      "Ġà¤ħà¤¥à¤µ": 1249,
      "Ġà¤¶à¤ĸ": 1250,
      "à¤ķà¤¦à¤®": 1251,
      "à¤¡à¤¬": 1252,
      "Ġà¤¬à¤°à¤¸": 1253,
      "à¥Īà¤Ĥ?": 1254,
      "Ġà¤īà¤ªà¤°": 1255,
      "à¤¨à¤¤à¤®": 1256,
      "Ġà¤ľà¤¨à¤°à¤²": 1257,
      "Ġà¤Ŀà¤Łà¤ķ": 1258,
      "à¤¹à¤ª": 1259,
      "à¤ķà¤²à¤¨": 1260,
      "Ġà¤īà¤¤à¤¨": 1261,
      "Ġà¤ľà¤¡": 1262,
      "Ġà¤ĩà¤¶": 1263,
      "à¤¹à¤£": 1264,
      "Ġà¤ªà¤¦à¤ķ": 1265,
      "Ġà¤Ĳà¤²": 1266,
      "Ġà¤ħà¤ľà¤¯": 1267,
      "Ġà¤Ĺà¤¡": 1268,
      "Ġà¤ĸà¥ľ": 1269,
      "Ġà¤Łà¤ķ": 1270,
      "à¤¸à¤Ĺà¤¢": 1271,
      "à¤ľà¤¨à¤ķ": 1272,
      "à¤¾|": 1273,
      "Ġà¤¸à¤®à¤ķ": 1274,
      "à¤ĩà¤«": 1275,
      "à¤ķà¤¹": 1276,
      "Ġà¥¨": 1277,
      "Ġà¤ĳà¤ªà¤°": 1278,
      "Ġà¤¹à¤¨": 1279,
      "à¤°à¤ķà¤¤": 1280,
      "Ġà¤°à¤¦": 1281,
      "Ġà¤¬à¤¦à¤²à¤¨": 1282,
      "Ġà¤ľà¤¸": 1283,
      "Ġà¤ħà¤Ł": 1284,
      "Ġà¤ħà¤«à¤¸à¤°": 1285,
      "à¤Ĭà¤¦": 1286,
      "Ġà¤Ĺà¤łà¤¨": 1287,
      "à¤·à¤°": 1288,
      "à¤Łà¤ķà¤°": 1289,
      "Ġà¤µà¤¨à¤¡": 1290,
      "Ġà¤ľà¤Ĺà¤¤": 1291,
      "à¤ªà¤Łà¤¨": 1292,
      "Ġà¤ħà¤°à¤µ": 1293,
      "à¤ĩà¤ı": 1294,
      "Ġà¤¸à¤®à¤Ŀà¤¨": 1295,
      "à¥Ģ'": 1296,
      "à¤¼à¤¾à¥¤": 1297,
      "à¤ªà¤ļ": 1298,
      "à¤Łà¤µà¤°": 1299,
      "à¤Īà¤²": 1300,
      "Ġà¤¬à¤§": 1301,
      "à¤¤à¤ķà¤°": 1302,
      "Ġà¤¨à¤¶": 1303,
      "Ġà¤Ĳà¤ª": 1304,
      "Ġà¤ļà¤®": 1305,
      "à¤¿.": 1306,
      "à¤Ĺà¥Ŀ": 1307,
      "Ġà¤¸à¥ľà¤ķ": 1308,
      "Ġà¤łà¤¹à¤°": 1309,
      "à¤¶à¤¹à¤°": 1310,
      "Ġà¤ĵà¤ªà¤¨": 1311,
      "Ġà¤®à¤¨à¤®": 1312,
      "à¤ļà¤µ": 1313,
      "Ġà¤Īà¤®": 1314,
      "à¤¼à¥ģ": 1315,
      "Ġà¤Ĩà¤ļ": 1316,
      "à¤µà¤¹à¤¨": 1317,
      "Ġà¤ķà¤ļ": 1318,
      "à¥ĥà¤Ĥ": 1319,
      "à¤īà¤¦": 1320,
      "Ġà¤¦à¤°à¤µ": 1321,
      "à¤¨à¤¬": 1322,
      "Ġà¤ľà¤ľ": 1323,
      "à¤ĩà¤ª": 1324,
      "Ġà¤ľà¤¨à¤¸": 1325,
      "Ġà¤Ńà¤Ł": 1326,
      "Ġà¤¶à¤¤": 1327,
      "Ġà¤īà¤ķ": 1328,
      "Ġà¤Łà¤¨": 1329,
      "Ġà¥§à¥": 1330,
      "à¤¤à¤¬": 1331,
      "Ġà¤ļà¤¨": 1332,
      "à¤®à¤¹à¤¤": 1333,
      "Ġà¤ķà¤®à¤²": 1334,
      "à¤ıà¤¸à¤ıà¤¸": 1335,
      "à¤°à¤µà¤°": 1336,
      "à¤£à¤µà¤¤": 1337,
      "Ġ.%": 1338,
      "Ġà¤ªà¤Łà¤¨": 1339,
      "à¥ĩ?": 1340,
      "à¤¦à¤¤": 1341,
      "à¤¶à¤®": 1342,
      "Ġà¤Ĩà¤Ń": 1343,
      "Ġà¤ĭà¤£": 1344,
      "Ġà¤§à¤°à¤¨": 1345,
      "à¤ķà¥ľ": 1346,
      "à¤¾à¥ĩ": 1347,
      "Ġà¤īà¤ªà¤ķà¤°à¤£": 1348,
      "à¤²à¤¡": 1349,
      "à¤ħà¤ķ": 1350,
      "Ġà¤ĩà¤®à¤°": 1351,
      "à¤Ĩà¤®": 1352,
      "Ġà¤ľà¤¯à¤ª": 1353,
      "à¤ľà¤¬à¤ķ": 1354,
      "à¤²à¤Ń": 1355,
      "Ġà¤®à¤¹à¤ľ": 1356,
      "à¤ĩà¤¨à¤®": 1357,
      "Ġà¤Ĳà¤¤": 1358,
      "Ġà¤Ĩà¤¦à¤°": 1359,
      "Ġà¤¶à¤¤à¤ķ": 1360,
      "à¤ļà¤ķà¤°": 1361,
      "à¤¨à¤¹": 1362,
      "Ġà¤ªà¥ľà¤¤": 1363,
      "à¤¯à¤¶": 1364,
      "à¤¤à¤ª": 1365,
      "à¤ķà¤Ń": 1366,
      "Ġà¤¬à¤®": 1367,
      "Ġà¤ıà¤¸à¤ª": 1368,
      "Ġà¤§à¤®": 1369,
      "à¤īà¤§à¤°": 1370,
      "à¤īà¤²": 1371,
      "Ġà¤ĳà¤Ł": 1372,
      "Ġà¤¤à¤¹à¤¸": 1373,
      "Ġà¤°à¤«": 1374,
      "Ġà¤Ńà¤°à¤ª": 1375,
      "Ġà¤¬à¤ļà¤¨": 1376,
      "Ġà¤¶à¤ªà¤¥": 1377,
      "Ġà¤¬à¤Ĺ": 1378,
      "à¤ıà¤Ł": 1379,
      "à¤¯à¤Łà¤¨": 1380,
      "Ġà¤Ńà¤°à¤¨": 1381,
      "à¤¬à¤ļ": 1382,
      "à¤¯à¤ľ": 1383,
      "à¤¯à¤¸à¤Ń": 1384,
      "Ġà¤°à¤ķà¤®": 1385,
      "Ġà¤Īà¤¸": 1386,
      "Ġ,,": 1387,
      "Ġà¤ıà¤Ĺ": 1388,
      "Ġà¤ıà¤Ł": 1389,
      "Ġà¤¹à¤¦": 1390,
      "Ġà¤¬à¤¦à¤®": 1391,
      "à¤łà¤Ń": 1392,
      "à¤°à¤¦à¤¸": 1393,
      "Ġà¤®à¤¶à¤¹": 1394,
      "Ġà¤¦à¤¤": 1395,
      "à¤°à¤Ĺà¤¤": 1396,
      "Ġà¤¸à¤¦à¤¨": 1397,
      "Ġà¤µà¤ľà¤¨": 1398,
      "à¤Īà¤¸": 1399,
      "à¤°à¤ķà¤°à¤£": 1400,
      "Ġà¤īà¤ªà¤¨": 1401,
      "Ġà¤ħà¤¹": 1402,
      "à¤ªà¤°à¤µ": 1403,
      "Ġà¤ħà¤µà¤¸": 1404,
      "Ġà¤ħà¤µà¤¶": 1405,
      "Ġà¤®à¤¸à¤²": 1406,
      "Ġà¤®à¤®à¤¤": 1407,
      "Ġà¤ħà¤Łà¤²": 1408,
      "Ġà¤¦à¤«": 1409,
      "à¤ıà¤®à¤¸": 1410,
      "Ġà¤¬à¤¹à¤¸": 1411,
      "Ġ''": 1412,
      "Ġà¤²à¤®": 1413,
      "à¤°à¤¸à¤¨": 1414,
      "Ġà¤¬à¤ķ": 1415,
      "à¤ļà¤¯": 1416,
      "Ġà¤¨à¤¸": 1417,
      "Ġà¤ªà¤¬": 1418,
      "à¤²à¤ļà¤¸": 1419,
      "à¤Ĩà¤Īà¤Ł": 1420,
      "Ġà¤ıà¤¸à¤¡": 1421,
      "à¤¡à¤ķà¤°": 1422,
      "à¥Ģ?": 1423,
      "à¤īà¤¸à¤¨": 1424,
      "Ġà¤¸à¤«à¤°": 1425,
      "Ġà¤Ľà¤µ": 1426,
      "à¥Ĥà¤Ĥ,": 1427,
      "Ġ--": 1428,
      "à¤ªà¤¶": 1429,
      "à¤Łà¤°à¤µ": 1430,
      "Ġà¤Ĩà¤«": 1431,
      "Ġà¤ĳà¤¡": 1432,
      "à¤ıà¤¸à¤Ī": 1433,
      "Ġà¤¸à¤Ł": 1434,
      "Ġà¤ıà¤°": 1435,
      "à¤¨à¤µà¤°": 1436,
      "Ġà¤ĭà¤·": 1437,
      "Ġà¤²à¥ľ": 1438,
      "à¤Ĩà¤Īà¤¸": 1439,
      "Ġà¤ľà¤¬à¤°à¤¦à¤¸": 1440,
      "à¥Ĥà¤Ĥ.": 1441,
      "Ġà¤ķà¤¤": 1442,
      "Ġà¤Ķà¤¦": 1443,
      "**": 1444,
      "à¤Īà¤Ł": 1445,
      "à¤ĩà¤¤à¤¨": 1446,
      "Ġà¤ļà¤¤": 1447,
      "Ġà¤¬à¤¨à¤µ": 1448,
      "à¤Ĩà¤Īà¤ª": 1449,
      "à¤°à¤°": 1450,
      "Ġà¤¸à¤®à¤Ŀà¤¤": 1451,
      "Ġà¤¦à¤°à¤ħà¤¸à¤²": 1452,
      "à¤Ľà¤¡": 1453,
      "Ġà¤¨à¤ľà¤¦": 1454,
      "Ġà¤ªà¤°à¤¨": 1455,
      "Ġà¤°à¤¤": 1456,
      "à¤¼à¤¾,": 1457,
      "à¤¾...": 1458,
      "Ġà¤®à¤£": 1459,
      "Ġà¤Ĩà¤ªà¤¤": 1460,
      "Ġà¤Ńà¤¡": 1461,
      "Ġà¤ļà¤ª": 1462,
      "Ġà¤Ĩà¤Īà¤Ł": 1463,
      "à¥Ľà¤°": 1464,
      "Ġà¤Ľà¤ł": 1465,
      "Ġà¤Ķà¤¸à¤¤": 1466,
      "Ġà¤¬à¥Ŀà¤¤": 1467,
      "à¤ķà¤ħà¤ª": 1468,
      "à¤Ĺà¤ł": 1469,
      "à¤¸à¤«": 1470,
      "Ġà¤¸à¤Ĭà¤¦": 1471,
      "à¥Ī-": 1472,
      "à¤£à¤¸": 1473,
      "Ġà¤¸à¤°à¤ª": 1474,
      "Ġà¤¬à¤¨à¤ķà¤°": 1475,
      "à¤¯à¤Łà¤ķ": 1476,
      "Ġ-,": 1477,
      "Ġà¤¬à¤¸à¤ª": 1478,
      "à¤Ĩà¤¯": 1479,
      "à¥ĩ)": 1480,
      "Ġà¤ħà¤ªà¤¡": 1481,
      "Ġà¤¦à¤¯": 1482,
      "à¤Īà¤ĵ": 1483,
      "Ġà¤Ĩà¤Īà¤¸": 1484,
      "Ġà¤Ĺà¤¨": 1485,
      "à¤Ŀà¤¸": 1486,
      "à¥ģ,": 1487,
      "à¤¹à¤Ł": 1488,
      "Ġà¤Ĩà¤ľà¤®": 1489,
      "à¤Ĩà¤°à¤ª": 1490,
      "Ġà¤¸à¤°à¤¸": 1491,
      "à¤ħà¤¸": 1492,
      "Ġà¤²à¤¹à¤°": 1493,
      "à¤Ĺà¤¸": 1494,
      "à¤¶à¤¬": 1495,
      "à¤µà¤Ń": 1496,
      "à¤Ĺà¤ª": 1497,
      "Ġà¤ĳà¤«à¤°": 1498,
      "Ġà¤ĸà¤Ł": 1499,
      "à¤ĩà¤¨à¤ķ": 1500,
      "à¤ıà¤¸à¤¸": 1501,
      "à¤²à¤ľ": 1502,
      "à¤ĩà¤µà¤°": 1503,
      "Ġà¤¨à¤ķà¤¦": 1504,
      "Ġà¤ªà¤ķà¥ľ": 1505,
      "à¥¨": 1506,
      "à¤ķà¤¤à¤°": 1507,
      "Ġà¤ħà¤«à¤Ĺ": 1508,
      "à¥Īà¤Ĥ|": 1509,
      "Ġà¤ĳà¤°": 1510,
      "à¤Ńà¤µà¤¤": 1511,
      "''": 1512,
      "à¤¨à¤Ĺ": 1513,
      "Ġà¤īà¤Ĺ": 1514,
      "à¤¼à¥Ī": 1515,
      "à¤¿:": 1516,
      "Ġà¤¬à¤Ł": 1517,
      "à¤Ĩà¤¨": 1518,
      "à¤ķà¤¥": 1519,
      "à¤µà¤¦": 1520,
      "----": 1521,
      "à¤Łà¤ĩ": 1522,
      "Ġà¤Ľà¤ķ": 1523,
      "Ġà¤ĵà¤¬": 1524,
      "Ġ[]": 1525,
      "Ġà¥Ľà¤°": 1526,
      "Ġà¤§à¤°à¤¤": 1527,
      "à¤Łà¤¸": 1528,
      "à¤£à¤µ": 1529,
      "Ġà¤°à¤ĸà¤ķà¤°": 1530,
      "à¤°à¤¥": 1531,
      "Ġà¤Ńà¤Ĺ": 1532,
      "Ġà¤Łà¤ķà¤°": 1533,
      "à¤Ĭà¤¨": 1534,
      "à¤Ĩà¤°à¤¸": 1535,
      "Ġà¤Ĩà¤ªà¤°": 1536,
      "à¤£à¤¨": 1537,
      "à¤¯à¤Ł": 1538,
      "Ġà¤Ĺà¤µ": 1539,
      "à¤¶à¤Ńà¤°": 1540,
      "Ġà¤ķà¤µà¤°": 1541,
      "à¥ĩ...": 1542,
      "à¥ľà¤¤": 1543,
      "Ġà¤¨à¤µà¤®": 1544,
      "Ġà¤ıà¤¨à¤¡": 1545,
      "à¤µà¤®": 1546,
      "Ġà¤°à¤ļ": 1547,
      "à¥Ł": 1548,
      "à¤ıà¤ľ": 1549,
      "Ġà¤ĸà¤¤à¤°à¤¨": 1550,
      "à¤īà¤¥": 1551,
      "à¤ĸà¤¬à¤°": 1552,
      "à¤ĸà¤¦": 1553,
      "Ġà¤ıà¤¡à¤®": 1554,
      "Ġà¤ħà¤®à¤²": 1555,
      "à¤Łà¤¨à¤°": 1556,
      "Ġà¤ļà¤®à¤ķ": 1557,
      "à¤īà¤ª": 1558,
      "Ġà¤¬à¤°à¤¤": 1559,
      "Ġà¤ıà¤¯à¤°à¤ª": 1560,
      "à¤ķà¤¤à¤®": 1561,
      "Ġà¤ıà¤ķà¤®": 1562,
      "Ġà¤ľà¤¨à¤ľ": 1563,
      "à¤ĩà¤¬à¤°": 1564,
      "Ġà¤ªà¤µà¤¨": 1565,
      "Ġà¤Ķà¤°à¤¤": 1566,
      "Ġà¤¬à¤¨à¤°": 1567,
      "à¤¦à¤ª": 1568,
      "à¤Ĩà¤Īà¤Ĩà¤°": 1569,
      "Ġà¤¯à¤ķ": 1570,
      "Ġà¤¬à¤ļà¤ªà¤¨": 1571,
      "Ġà¤¶à¤°à¤£": 1572,
      "à¤¸à¤¬à¤¸": 1573,
      "à¤Ĩà¤§": 1574,
      "Ġà¤Ńà¤¤": 1575,
      "à¤²à¤ĸà¤¨à¤Ĭ": 1576,
      "à¥Ĥà¤ģà¥¤": 1577,
      "à¥§à¥": 1578,
      "à¤¾!": 1579,
      "à¤īà¤®": 1580,
      "à¤ıà¤ª": 1581,
      "Ġà¤¹à¤°à¤ķà¤¤": 1582,
      "à¤¯à¤°à¤¤": 1583,
      "à¤ľà¤«": 1584,
      "Ġà¤§à¤µà¤¨": 1585,
      "Ġà¤ħà¤ªà¤®": 1586,
      "à¤ĩà¤¶": 1587,
      "à¤°à¤ķà¤Ł": 1588,
      "à¤Łà¤ª": 1589,
      "à¤¦à¤¨à¤¶": 1590,
      "Ġà¤ªà¤ļ": 1591,
      "à¤Īà¤¡": 1592,
      "Ġà¤¬à¤°à¤ķà¤°": 1593,
      "Ġà¤ªà¤°à¤µ": 1594,
      "Ġà¤Ĩà¤¦à¤¤": 1595,
      "Ġ,.": 1596,
      "à¤ħà¤¤": 1597,
      "Ġà¤ıà¤¨à¤¸": 1598,
      "Ġà¤¬à¤ļà¤¤": 1599,
      "Ġà¤¯à¤®": 1600,
      "à¤¨à¤ľà¤°": 1601,
      "Ġà¤§à¤ķ": 1602,
      "à¤ķà¤ľ": 1603,
      "à¤®à¤ľ": 1604,
      "Ġà¤¤à¤Ł": 1605,
      "à¤£à¤¤": 1606,
      "à¤Ĩà¤µà¤ľ": 1607,
      "à¥ĭà¤Ĥ-": 1608,
      "à¤Ĺà¤ķà¤°": 1609,
      "Ġà¤Ńà¤°à¤¤": 1610,
      "Ġà¤ħà¤¸à¤¤": 1611,
      "à¤¶à¤¯": 1612,
      "Ġà¤²à¤ĺ": 1613,
      "Ġà¤ĸà¤¨": 1614,
      "à¤²à¤Ŀ": 1615,
      "à¤ļà¤¤à¤®": 1616,
      "à¤ıà¤¸à¤Ĩà¤Ī": 1617,
      "à¤¤à¤¸": 1618,
      "Ġà¤ıà¤¡à¤µ": 1619,
      "Ġ(),": 1620,
      "Ġà¤Ľà¤ª": 1621,
      "à¥«": 1622,
      "()": 1623,
      "à¤¯à¤¯": 1624,
      "Ġà¤ķà¥ľ": 1625,
      "Ġà¤¨à¤·": 1626,
      "Ġà¤®à¤ķà¤¸à¤¦": 1627,
      "à¥Ī!": 1628,
      "Ġà¤Łà¤°": 1629,
      "==": 1630,
      "à¤¹à¤¡": 1631,
      "à¤ļà¤®": 1632,
      "à¤Łà¤°à¤¸": 1633,
      "à¤¹à¤µ": 1634,
      "Ġà¤¨à¤®à¤ķ": 1635,
      "à¤¯à¤§": 1636,
      "Ġà¤²à¤µ": 1637,
      "Ġà¤¸à¤°à¤²": 1638,
      "Ġà¥ĺ": 1639,
      "à¤Īà¤µ": 1640,
      "à¤Ľà¤¨": 1641,
      "à¤¬à¤°à¤®": 1642,
      "Ġà¤¨à¤ķà¤²": 1643,
      "à¤ķà¤²à¤¤": 1644,
      "à¤¨à¤ļ": 1645,
      "Ġà¤īà¤łà¤¤": 1646,
      "Ġà¤īà¤ªà¤®": 1647,
      "à¤¹à¤ľ": 1648,
      "à¤Īà¤¯": 1649,
      "à¤£à¤ķ": 1650,
      "à¤¹à¤®à¤¨": 1651,
      "Ġà¤Ĩà¤ľà¤ķà¤²": 1652,
      "à¤²à¤ĸ": 1653,
      "Ġà¤īà¤Ń": 1654,
      "à¤¯à¤²à¤Ł": 1655,
      "%%": 1656,
      "Ġà¤¸à¤°à¤¦": 1657,
      "à¤Ĩà¤Ĺ": 1658,
      "à¤¯à¤¨à¤¶": 1659,
      "à¤Ĺà¤°à¤£": 1660,
      "Ġà¤²à¤Łà¤ķ": 1661,
      "Ġà¤ķà¤²à¤°": 1662,
      "à¤¨à¤¶": 1663,
      "Ġà¤ĵà¤®": 1664,
      "Ġà¤¸à¤¹à¤ķ": 1665,
      "à¤¯à¤°à¤¸": 1666,
      "Ġà¤·": 1667,
      "à¤¶à¤¨à¤ķ": 1668,
      "Ġà¤ľà¤¬à¤°": 1669,
      "à¥©": 1670,
      "Ġà¤°à¤ĺ": 1671,
      "Ġà¤¬à¤ĸ": 1672,
      "Ġà¤¬à¤¦à¤²à¤¤": 1673,
      "à¤¹à¤°à¤¹": 1674,
      "à¤°à¤ĸà¤ª": 1675,
      "Ġà¤ľà¤¹à¤°": 1676,
      "à¤²à¤«": 1677,
      "à¥Ģ...": 1678,
      "Ġà¤ıà¤ķà¤¦à¤®": 1679,
      "à¥Ģ|": 1680,
      "à¤®à¤®": 1681,
      "Ġà¤¥à¤ķ": 1682,
      "à¤¬à¥ľ": 1683,
      "à¤ĩà¤¨à¤°": 1684,
      "Ġà¤¸à¤®à¤¨": 1685,
      "à¤¸à¤®à¤¯": 1686,
      "Ġà¤Ĺà¤°à¤®": 1687,
      "Ġà¤ľà¤¨à¤ªà¤¦": 1688,
      "Ġà¤²à¤²": 1689,
      "à¤Īà¤¨": 1690,
      "Ġà¤ķà¤¦": 1691,
      "à¤¼à¥Ģ,": 1692,
      "Ġà¤¨à¥Ľà¤°": 1693,
      "Ġà¤Ĺà¤¢": 1694,
      "à¥ľà¤ķà¤°": 1695,
      "Ġà¤¶à¤®": 1696,
      "Ġà¤¶à¤°à¤¦": 1697,
      "Ġà¤®à¤°à¤¨": 1698,
      "Ġà¤¥à¤°": 1699,
      "à¤ĩà¤¬": 1700,
      "à¤ĩà¤ľà¤°": 1701,
      "à¤®à¤Ĺà¤°": 1702,
      "à¤¬à¤ķ": 1703,
      "Ġà¤¯à¤¶": 1704,
      "Ġà¤ħà¤ªà¤¹à¤°à¤£": 1705,
      "Ġà¤Ĺà¤µà¤°": 1706,
      "à¤Ĺà¤ªà¤¤": 1707,
      "à¥¦à¥¦": 1708,
      "Ġà¤¬à¤¦à¤¨": 1709,
      "à¤ħà¤ĸ": 1710,
      "à¥ĭà¤Ĥà¥¤": 1711,
      "Ġà¤ªà¤°à¤«": 1712,
      "à¤ħà¤¦": 1713,
      "Ġà¤Ĩà¤°à¤ıà¤¸à¤ıà¤¸": 1714,
      "Ġà¤¶à¤¶": 1715,
      "Ġà¤ĸà¤¨à¤¨": 1716,
      "à¤Ĩà¤Īà¤ı": 1717,
      "à¥Ļ": 1718,
      "à¤¼à¥Ĥ": 1719,
      "Ġà¤¸à¤¦à¤°": 1720,
      "à¤¯à¤¥": 1721,
      "à¤¶à¤ķà¤¶": 1722,
      "Ġà¤ħà¤µà¤Ĺà¤¤": 1723,
      "à¥ĩ|": 1724,
      "à¤¯à¤ľà¤²": 1725,
      "Ġà¤ıà¤«à¤Ĩà¤Īà¤Ĩà¤°": 1726,
      "Ġà¤ıà¤¬": 1727,
      "à¤°à¤®à¤¶": 1728,
      "à¥Ģ/": 1729,
      "Ġà¤Ĩà¤Ĺà¤°": 1730,
      "à¤¼à¥ĩà¥¤": 1731,
      "à¤°à¤ł": 1732,
      "Ġà¤Ĩà¤ªà¤¦": 1733,
      "Ġà¤ıà¤ķà¤ľ": 1734,
      "à¤Ĺà¥ľ": 1735,
      "à¤¡à¤ª": 1736,
      "Ġà¤Ĩà¤¸à¤®": 1737,
      "Ġà¥§": 1738,
      "Ġ+": 1739,
      "Ġà¤²à¤¤": 1740,
      "à¤ªà¤¹": 1741,
      "à¤ıà¤®à¤ıà¤¸": 1742,
      "Ġà¤ľà¤ĸ": 1743,
      "Ġà¤¯à¤¥": 1744,
      "à¤ħà¤Ĺà¤²": 1745,
      "Ġà¤īà¥ľ": 1746,
      "à¤Ĩà¤ĸ": 1747,
      "à¤£à¤®": 1748,
      "à¥ª": 1749,
      ":-": 1750,
      "à¥§": 1751,
      "[]": 1752,
      "à¤·à¤§": 1753,
      "Ġà¤°à¤¹à¤¸": 1754,
      "à¤§à¤ª": 1755,
      "à¤®à¤¬": 1756,
      "Ġà¤ľà¤²à¤µ": 1757,
      "Ġà¤ķà¤¹à¤ķà¤°": 1758,
      "Ġà¤ľà¤¶": 1759,
      "Ġà¤ļà¥Ŀ": 1760,
      "à¤ªà¤°à¤¸": 1761,
      "Ġà¤ĩà¤§à¤°": 1762,
      "Ġà¤ĵà¤¡": 1763,
      "à¤ĸà¤µ": 1764,
      "à¤°à¤ļà¤¨": 1765,
      "à¤¨à¤ı": 1766,
      "Ġà¤Ńà¤Ĺà¤¤": 1767,
      "à¥ĩà¥ĩ": 1768,
      "Ġà¤Ĩà¤®à¤¤": 1769,
      "Ġà¤Ĩà¤Īà¤ı": 1770,
      "Ġà¤ľà¤Ĺà¤¦": 1771,
      "Ġà¤īà¤Ńà¤°": 1772,
      "Ġà¤ĩà¤¨à¤¸": 1773,
      "à¤łà¤ķà¤°": 1774,
      "à¤ħà¤®à¤°": 1775,
      "à¤¬à¤ľ": 1776,
      "à¤¦à¤Ń": 1777,
      "Ġà¥©": 1778,
      "Ġà¤¤à¤ķà¤°": 1779,
      "Ġà¤¹à¤¸à¤¨": 1780,
      "à¤łà¤¤": 1781,
      "à¤¼-": 1782,
      "à¤¿à¥¤": 1783,
      "à¥Ĥ)": 1784,
      "Ġà¤łà¤Ĺ": 1785,
      "à¤ĸà¤¡": 1786,
      "Ġà¤ĩà¤µ": 1787,
      "à¤¸à¤Ł": 1788,
      "Ġà¤¸à¤¤à¤°": 1789,
      "à¤ĩà¤®à¤°": 1790,
      "Ġà¤«à¤¤": 1791,
      "à¤īà¤¡à¤°": 1792,
      "Ġà¤®à¤Ľà¤²": 1793,
      "à¤Ĩà¤īà¤Ł": 1794,
      "Ġà¤ĳà¤ª": 1795,
      "Ġà¤īà¤ªà¤ľ": 1796,
      "à¤¸à¤Ĺà¥Ŀ": 1797,
      "Ġà¤ĸà¤²": 1798,
      "Ġà¤ªà¤¹à¤¨à¤¨": 1799,
      "Ġ&": 1800,
      "à¤Ńà¤¦": 1801,
      "à¤§à¤ķà¤°": 1802,
      "à¤¾à¥ĩà¤Ĥ": 1803,
      "Ġ(.": 1804,
      "Ġà¤¸à¤¹à¤ľ": 1805,
      "Ġà¤ļà¤°à¤®": 1806,
      "Ġà¤¸à¤¶à¤ķ": 1807,
      "Ġà¤ĳà¤ķ": 1808,
      "à¥Īà¤Ĥ-": 1809,
      "Ġà¤ķà¤ļà¤°": 1810,
      "Ġà¤¨à¤¹à¤°": 1811,
      "à¤¾à¤Ĥ-": 1812,
      "Ġà¤Ĩà¤¯à¤ķà¤°": 1813,
      "à¤±": 1814,
      "à¤ħà¤ļ": 1815,
      "à¤¸à¤«à¤°": 1816,
      "Ġà¤°à¤£à¤µ": 1817,
      "Ġà¤ħà¤µà¤¤": 1818,
      "à¥ļ": 1819,
      "Ġà¤¤à¤ª": 1820,
      "à¤Ĺà¤¦à¤°": 1821,
      "Ġà¤ĳà¤²": 1822,
      "à¤ıà¤¨à¤¯": 1823,
      "Ġ@": 1824,
      "à¤¡à¤©": 1825,
      "à¤ķà¤Łà¤°": 1826,
      "à¤ĺà¤µ": 1827,
      "Ġà¤īà¤²à¤Ŀ": 1828,
      "Ġà¤ĩà¤ķà¤Ł": 1829,
      "Ġà¤¡à¤¬": 1830,
      "à¤¶à¤¦": 1831,
      "à¤¸à¤ªà¤°": 1832,
      "Ġà¤ķà¤¹à¤²": 1833,
      "à¤Ĥà¥ĩ": 1834,
      "à¤µà¤¡à¤£": 1835,
      "à¤¬à¤¹à¤°à¤¹": 1836,
      "à¤µà¤¸à¤¨": 1837,
      "à¤¹à¤¤à¤ķ": 1838,
      "Ġà¤¬à¤Łà¤¨": 1839,
      "Ġà¤Ŀà¤Ĺà¤¡": 1840,
      "Ġà¤ĵà¤ª": 1841,
      "à¤ĵà¤µ": 1842,
      "Ġà¤ĸà¤ľ": 1843,
      "Ġà¤®à¤®": 1844,
      "Ġ:-": 1845,
      "Ġà¤ªà¤ł": 1846,
      "à¤¤à¤¸à¤°": 1847,
      "à¤Ĺà¤Łà¤¨": 1848,
      "à¤Łà¤¡": 1849,
      "à¤ľà¤¶": 1850,
      "à¤ĸà¤Ń": 1851,
      "à¤ĩà¤Ĺà¤°": 1852,
      "Ġà¤īà¤¬": 1853,
      "à¤«à¤¨": 1854,
      ",,": 1855,
      "à¤¶à¤¹": 1856,
      "Ġà¤ĺà¤¡": 1857,
      "Ġà¤Ķà¤·à¤§": 1858,
      "Ġà¤¨à¤¨": 1859,
      "à¤§à¤¡": 1860,
      "Ġà¤ĺà¤¨": 1861,
      "Ġà¤µà¤ľ": 1862,
      "à¥Ń": 1863,
      "à¤ķà¤ķà¤°": 1864,
      "à¤ıà¤«à¤¸": 1865,
      "Ġà¤ľà¤Ł": 1866,
      "Ġà¤īà¤§à¤°": 1867,
      "Ġà¤ıà¤ļà¤¡": 1868,
      "à¤°à¤¯à¤¤": 1869,
      "à¤§à¤¶": 1870,
      "à¤¹à¤Ĺ": 1871,
      "Ġà¤¬à¤µ": 1872,
      "à¤Ĩà¤²": 1873,
      "Ġà¤¹à¤²à¤ķ": 1874,
      "Ġà¤ıà¤¹à¤¸": 1875,
      "à¤Ĺà¤£à¤¨": 1876,
      "à¤ķà¤¬": 1877,
      "à¤ħà¤¶": 1878,
      "Ġà¤ĺà¤¬à¤°": 1879,
      "à¥ĭ)": 1880,
      "Ġà¤Ķà¤ªà¤ļ": 1881,
      "Ġà¤Ĩà¤Ł": 1882,
      "à¤°à¤¨à¤Ĺà¤°": 1883,
      "Ġà¤īà¤§": 1884,
      "à¤¶à¤¸": 1885,
      "Ġà¤ıà¤ķà¤²": 1886,
      "à¤ıà¤¨à¤¸": 1887,
      "à¥Ī:": 1888,
      "Ġà¤Ĩà¤°à¤¬": 1889,
      "à¥Ĥà¤ģ,": 1890,
      "à¥Ī...": 1891,
      "Ġà¤¨à¤µà¤°": 1892,
      "Ġà¤īà¤¤à¤°à¤¨": 1893,
      "Ġà¤Ĳà¤¶": 1894,
      "à¤ħà¤«": 1895,
      "à¤¼à¥Ģà¥¤": 1896,
      "à¤¶à¤¨à¤°": 1897,
      "Ġà¤ħà¤²à¤°": 1898,
      "Ġà¤ĭà¤¤": 1899,
      "Ġà¤ıà¤ķà¤¡": 1900,
      "Ġà¤¦à¤¶": 1901,
      "Ġà¤¸à¤Ĺ": 1902,
      "Ġà¤Ĩà¤¡": 1903,
      "Ġà¤¨à¤µà¤ľ": 1904,
      "à¤ĸà¤£": 1905,
      "Ġà¤īà¤Ľ": 1906,
      "à¤Ĺà¤¬": 1907,
      "Ġà¤°à¤¹à¤ķà¤°": 1908,
      "Ġà¤Ĺà¤¹à¤¨": 1909,
      "Ġà¤µà¤°à¤¨": 1910,
      "à¥¬": 1911,
      "Ġà¤Ľà¤²": 1912,
      "à¤ĩà¤°": 1913,
      "Ġà¤īà¤®à¤°": 1914,
      "à¥ĩ'": 1915,
      "Ġà¤ªà¤²à¤Ł": 1916,
      "à¤²à¤ªà¤¤": 1917,
      "Ġà¤Ĺà¤®": 1918,
      "Ġà¤¥à¤®": 1919,
      "à¤¾/": 1920,
      "Ġà¤ıà¤¸à¤¸": 1921,
      "à¥ĩà¤Ĥ:": 1922,
      "Ġà¤¦à¤°à¤¬": 1923,
      "Ġà¤Ĩà¤Īà¤¡": 1924,
      "à¥ĩ:": 1925,
      "Ġà¤Ĳà¤ķ": 1926,
      "à¤Ĺà¤¶": 1927,
      "à¤¾à¤ģ,": 1928,
      "à¤Ĩà¤µ": 1929,
      "à¤¤à¤Ĺ": 1930,
      "Ġà¤°à¤ľà¤¨": 1931,
      "Ġà¤ķà¤ªà¥ľ": 1932,
      "Ġà¤°à¤£à¤¬": 1933,
      "Ġà¤ħà¤¸à¤¹": 1934,
      "à¤Īà¤¦": 1935,
      "à¤ıà¤¨à¤ıà¤¸": 1936,
      "Ġà¤ķà¤·": 1937,
      "à¤Ńà¤²": 1938,
      "à¤ľà¤¯à¤ª": 1939,
      "Ġà¤ĩà¤¬": 1940,
      "à¥®": 1941,
      "Ġà¤ħà¤ķà¤¬à¤°": 1942,
      "Ġà¤ħà¤¹à¤¸": 1943,
      "Ġà¤°à¤ľà¤¤": 1944,
      "à¤Ĺà¤µà¤¤": 1945,
      "à¥Ģ!": 1946,
      "Ġà¤ħà¤¨à¤¦": 1947,
      "Ġ://": 1948,
      "à¤µà¤¯à¤¨": 1949,
      "Ġà¤Ĩà¤ķà¤²à¤¨": 1950,
      "Ġà¤ªà¤Łà¤°": 1951,
      "à¤¨à¤ľ": 1952,
      "à¤īà¤ļ": 1953,
      "à¤Ĺà¤łà¤¬": 1954,
      "Ġà¤§à¤¡": 1955,
      "Ġà¤«à¤¡": 1956,
      "Ġà¤ħà¤«à¤µ": 1957,
      "Ġà¤ľà¤¨à¤¸à¤Ń": 1958,
      "Ġ::": 1959,
      "à¤¾..": 1960,
      "à¥ĩà¥į": 1961,
      "Ġà¤Īà¤µ": 1962,
      "Ġà¤ķà¤®à¤²à¤¨": 1963,
      "Ġà¤Ĩà¤ĩà¤ı": 1964,
      "Ġà¤Ĺà¤ľ": 1965,
      "à¤Ĩà¤ĩ": 1966,
      "à¤Īà¤ª": 1967,
      "Ġ.,": 1968,
      "Ġà¤¤à¤²à¤µ": 1969,
      "-)": 1970,
      "Ġà¤ªà¤°à¤¸": 1971,
      "à¤¥à¤Ĺ": 1972,
      "à¤ļà¤¸": 1973,
      "à¤®à¤Ł": 1974,
      "Ġà¤®à¤¦à¤¨": 1975,
      "Ġà¤®à¤¹à¤²": 1976,
      "à¤ıà¤¬": 1977,
      "Ġà¤µà¤ļà¤¨": 1978,
      "à¤Īà¤°": 1979,
      "Ġà¤Ĩà¤°à¤¤": 1980,
      "Ġà¤īà¤ªà¤ķ": 1981,
      "à¤ıà¤ı": 1982,
      "Ġà¤¯à¤ľ": 1983,
      "Ġà¤®à¤¤à¤Ń": 1984,
      "à¤ıà¤¨à¤ľ": 1985,
      "Ġà¤¨à¤Ĺ": 1986,
      "Ġà¤¬à¤ľà¤°": 1987,
      "Ġà¤ªà¤¹à¤²à¤µ": 1988,
      "à¥ģ-": 1989,
      "Ġà¤Ĩà¤¨à¤¨": 1990,
      "à¥¯": 1991,
      "à¤ıà¤¸à¤ıà¤«": 1992,
      "à¤ĳà¤¸": 1993,
      "à¤¤à¤Ń": 1994,
      "Ġà¤¤à¤¡": 1995,
      "Ġà¤Ĺà¤¦": 1996,
      "Ġà¤ħà¤Łà¤ķ": 1997,
      "à¤¼à¥ĩ-": 1998,
      "à¤§à¤¶à¤¤à¤ķ": 1999,
      "Ġà¥¨à¥¦": 2000,
      "à¤Łà¤°à¤ª": 2001,
      "à¤ıà¤¶": 2002,
      "à¤ĩà¤ķà¤²": 2003,
      "à¤īà¤°": 2004,
      "Ġà¤¨à¤«": 2005,
      "Ġà¤ĳà¤¨": 2006,
      "Ġà¤°à¤¥": 2007,
      "à¤¼à¥ĩà¤Ĥ:": 2008,
      "Ġà¤¨à¤µà¤¨": 2009,
      "à¤¼à¥Į": 2010,
      "Ġà¤ļà¤Ł": 2011,
      "Ġà¤ĺà¤Łà¤ķà¤°": 2012,
      "Ġà¤ħà¤¨à¤¶à¤¨": 2013,
      "à¤Ĩà¤¦": 2014,
      "Ġà¤Ńà¤Łà¤ķ": 2015,
      "Ġà¤¬à¥Ŀà¤¨": 2016,
      "Ġà¤°à¤®à¤¨": 2017,
      "à¤®à¤°à¤£": 2018,
      "Ġà¤ªà¤¥": 2019,
      "à¤ĵà¤¸": 2020,
      "à¤¸à¤®à¤¸": 2021,
      "à¤¤à¤¦": 2022,
      "à¤ıà¤¸à¤¬": 2023,
      "Ġà¤¡à¤¬à¤²": 2024,
      "à¤Ĩà¤Īà¤ıà¤®": 2025,
      "à¥ģà¤ĥ": 2026,
      "Ġà¤Ĩà¤¡à¤µ": 2027,
      "à¤Ĩà¤¸": 2028,
      "Ġà¤Ĺà¤£à¤¤": 2029,
      "à¤«à¤¤": 2030,
      "Ġà¤ħà¤ªà¤²": 2031,
      "Ġà¤®à¤¥": 2032,
      "à¤ĵà¤²": 2033,
      "à¤°à¤ķà¤²": 2034,
      "à¤ĩà¤¡à¤°": 2035,
      "à¤¸à¤¡": 2036,
      "à¤¤à¤°à¤ª": 2037,
      "Ġà¤Ĭà¤¨": 2038,
      "Ġà¤Ŀà¤¡": 2039,
      "à¤¸à¤ıà¤ª": 2040,
      "à¤¯à¤ļ": 2041,
      "à¤¹à¤«": 2042,
      "Ġà¤ıà¤¸à¤Ł": 2043,
      "à¥ĩ!": 2044,
      "Ġà¤Ĩà¤łà¤µ": 2045,
      "Ġà¤«à¤Ł": 2046,
      "Ġà¤ľà¤¬à¤°à¤¨": 2047,
      "Ġ*": 2048,
      "à¤¦à¤°à¤¤": 2049,
      "Ġà¤¤à¤¹à¤°": 2050,
      "à¥ģ.": 2051,
      "Ġà¤īà¤²à¤Ł": 2052,
      "Ġà¤Ĩà¤°à¤Ł": 2053,
      "à¤ľà¤¨à¤µà¤°": 2054,
      "à¤¾à¤Ĥà¥ĩ": 2055,
      "à¤Ńà¤Ĺà¤µ": 2056,
      "à¤Ĩà¤¶": 2057,
      "à¤«à¤¬": 2058,
      "à¤Ĺà¤ķ": 2059,
      "Ġà¤ħà¤µà¤ķ": 2060,
      "Ġà¤Ĩà¤ªà¤²": 2061,
      "à¤ıà¤®à¤ĵ": 2062,
      "à¥ĩà¤¼": 2063,
      "Ġà¤ĸà¤¦": 2064,
      "à¤¸à¤¨à¤²": 2065,
      "Ġà¤ıà¤¯à¤°à¤²": 2066,
      "Ġà¤¨à¤¬": 2067,
      "Ġà¤Ńà¤ľà¤¨": 2068,
      "',": 2069,
      "à¤¤à¤¹": 2070,
      "Ġà¤¤à¤°à¤ķ": 2071,
      "à¤ķà¤£": 2072,
      "Ġà¤®à¥Ľ": 2073,
      "Ġà¤ħà¤¸à¤«à¤²": 2074,
      "à¤Ĩà¤°à¤¬": 2075,
      "à¤ľà¤°à¤¨": 2076,
      "Ġà¤ĳà¤¯à¤²": 2077,
      "Ġà¤¤à¤ķà¤²": 2078,
      "****": 2079,
      "à¤¯à¤Ĺ": 2080,
      "à¤¯à¤Ń": 2081,
      "Ġà¤ªà¤¥à¤°": 2082,
      "Ġà¤Ńà¤¦": 2083,
      "Ġà¤īà¤łà¤¨": 2084,
      "à¤¼à¤¾.": 2085,
      "Ġà¤ĵà¤®à¤ª": 2086,
      "à¤ıà¤¸à¤ı": 2087,
      "Ġà¤¸à¤¹à¤¨": 2088,
      "à¤īà¤ľ": 2089,
      "à¤°à¤Ĺà¤°": 2090,
      "__": 2091,
      "Ġà¤¨à¤°à¤¸": 2092,
      "à¤ıà¤¸à¤¡": 2093,
      "Ġà¤ªà¥Ŀà¤¨": 2094,
      "Ġà¥§à¥¯": 2095,
      "Ġà¤¬à¤¬": 2096,
      "Ġà¤°à¤¤à¤¨": 2097,
      "Ġà¤Ĩà¤²à¤®": 2098,
      "à¤¦à¤ķà¤°": 2099,
      "Ġà¤Ŀà¤²à¤ķ": 2100,
      "Ġà¤ıà¤®à¤¬": 2101,
      "à¤¸à¤®à¤Ŀ": 2102,
      "Ġà¤Ĩà¤Īà¤ıà¤ıà¤¸": 2103,
      "à¤¸à¤Ĺ": 2104,
      "Ġà¤ľà¤¨à¤¹": 2105,
      "à¥Ĥ.": 2106,
      "Ġà¤®à¤°à¤®": 2107,
      "à¤°à¤¬à¤²": 2108,
      "à¥Ī..": 2109,
      "Ġà¤īà¤ªà¤¹": 2110,
      "Ġà¤ªà¤ª": 2111,
      "Ġà¤°à¤¶": 2112,
      "Ġà¤µà¤¶": 2113,
      "Ġ$": 2114,
      "à¥ĩà¤Ĥ-": 2115,
      "à¤¨à¤µà¤¤": 2116,
      "à¤ªà¤µ": 2117,
      "Ġà¤ıà¤ķà¤¦": 2118,
      "Ġà¤¹à¤®à¤¸": 2119,
      "Ġà¤®à¤¯": 2120,
      "Ġà¤īà¤ªà¤¦": 2121,
      "à¤¡à¤Ĺ": 2122,
      "à¤²à¤²": 2123,
      "Ġà¥ª": 2124,
      "à¤Ńà¤¯": 2125,
      "Ġà¤²à¤ķà¤¡": 2126,
      "à¤ªà¤¢": 2127,
      "Ġà¤ªà¤°à¤¤": 2128,
      "Ġà¤łà¤ª": 2129,
      "à¤¶à¤ª": 2130,
      "à¤¸à¤ľ": 2131,
      "Ġà¥ļ": 2132,
      "Ġà¤Ĺà¤¹à¤²": 2133,
      "à¤Ļ": 2134,
      "Ġà¤¶à¤¹à¤¦": 2135,
      "à¤¥à¤¤": 2136,
      "Ġà¤¨à¤°à¤®": 2137,
      "à¤¯à¤µà¤°": 2138,
      "Ġà¤«à¤°à¤®": 2139,
      "Ġà¥Ļà¤¬à¤°": 2140,
      "à¥ĭ?": 2141,
      "Ġ=": 2142,
      "Ġà¤²à¤Ĺà¤µ": 2143,
      "Ġà¤¸à¤¨à¤¸à¤¨": 2144,
      "à¤Łà¤°à¤¨à¤²": 2145,
      "à¤°à¤ľà¤¨": 2146,
      "Ġà¤ıà¤®à¤ª": 2147,
      "Ġà¤ĩà¤¸à¤¨": 2148,
      "Ġà¥«": 2149,
      "Ġà¤Ĺà¤£à¤¨": 2150,
      "Ġà¤ħà¤¥": 2151,
      "Ġà¤ľà¤²à¤¨": 2152,
      "à¤¶à¤Ńà¤ķ": 2153,
      "à¤¥à¤¶": 2154,
      "à¤Īà¤®": 2155,
      "Ġà¤Īà¤¦": 2156,
      "à¤ķà¤°à¤¨": 2157,
      "Ġà¤®à¤¹à¤°": 2158,
      "à¤ħà¤Ĺà¤¸": 2159,
      "Ġà¤ĩà¤¤à¤°": 2160,
      "Ġà¤¦à¤ĸà¤²": 2161,
      "à¤ıà¤ļà¤¡": 2162,
      "Ġà¤¬à¤ķà¤°": 2163,
      "Ġà¤µà¤²": 2164,
      "Ġà¤ıà¤¸à¤ıà¤¸à¤ª": 2165,
      "Ġà¤ªà¤¤à¤²": 2166,
      "à¤³à¤µ": 2167,
      "Ġà¤ħà¤®à¤¨": 2168,
      "Ġà¤¦à¤°à¤ķ": 2169,
      "à¤ıà¤µ": 2170,
      "à¥ĭà¤Ĥ.": 2171,
      "à¥Ģ),": 2172,
      "Ġà¤²à¤¦": 2173,
      "!!": 2174,
      "Ġà¤ĸà¤ªà¤¤": 2175,
      "Ġà¤¬à¤²à¤µ": 2176,
      "à¤ľà¤Ĺà¤¹": 2177,
      "Ġà¤īà¤ªà¤µ": 2178,
      "à¤ĵà¤®": 2179,
      "à¤Łà¤ħà¤ª": 2180,
      "à¤ļà¤¢": 2181,
      "Ġà¤ıà¤¨à¤ľ": 2182,
      "Ġ;": 2183,
      "Ġà¤ıà¤¨à¤ķ": 2184,
      "à¤ħà¤ľ": 2185,
      "Ġ//": 2186,
      "Ġà¤¬à¤°à¤¤à¤¨": 2187,
      "à¤Ĩà¤°à¤Ł": 2188,
      "Ġ....": 2189,
      "Ġà¤ħà¤ľà¤®": 2190,
      "à¤¦à¤¹": 2191,
      "à¤ıà¤¨à¤¬": 2192,
      "à¤ĳà¤«": 2193,
      "Ġà¤¸à¤¤à¤¹": 2194,
      "à¤¼à¥ĩ,": 2195,
      "à¤ķà¤ļ": 2196,
      "Ġà¤ħà¤Ńà¤¯": 2197,
      "Ġà¤īà¤¦à¤¯": 2198,
      "à¤®à¤Ī": 2199,
      "Ġà¤°à¤¹à¤®": 2200,
      "Ġà¤¬à¤ĺ": 2201,
      "à¤ĭ": 2202,
      "à¤µà¤ķà¤°": 2203,
      "Ġà¤ķà¤²à¤®": 2204,
      "Ġà¤ıà¤¯à¤°à¤Ł": 2205,
      "Ġà¤Ĩà¤ĩà¤¡": 2206,
      "à¤ªà¥ľ": 2207,
      "Ġà¤Ĩà¤ĩ": 2208,
      "Ġà¤¦à¤®à¤¦": 2209,
      "à¥Ī;": 2210,
      "à¤«à¤²à¤¤": 2211,
      "Ġà¤¹à¤²à¤ļà¤²": 2212,
      "à¥Ģà¤ģ": 2213,
      "à¤ĸà¤¬": 2214,
      "à¤®à¤Ń": 2215,
      "à¤µà¤Ĺ": 2216,
      "à¤¸à¤°à¤¸": 2217,
      "à¤¨à¤¹à¤°": 2218,
      "à¤ªà¤¬": 2219,
      "Ġà¤Ĩà¤®à¤¦à¤¨": 2220,
      "à¤¤à¤°à¤¹": 2221,
      "à¤īà¤¡": 2222,
      "Ġà¤ħà¤µà¤°": 2223,
      "à¤¼à¥ĩà¤Ĥ-": 2224,
      "Ġà¤Ĩà¤Ĺà¤®à¤¨": 2225,
      "Ġà¤¡à¤ķ": 2226,
      "à¤ĩà¤§à¤°": 2227,
      "à¤Īà¤ľ": 2228,
      "à¤Ľà¥ľ": 2229,
      "Ġà¤ıà¤¨à¤°": 2230,
      "Ġà¤Ĺà¤¡à¤ķà¤°": 2231,
      "Ġà¤ļà¤®à¤¤": 2232,
      "à¤¸à¤µà¤°": 2233,
      "Ġà¤¸à¤¹à¤µ": 2234,
      "Ġà¤ħà¤¨à¤ľ": 2235,
      "Ġà¤ĩà¤¨à¤ķà¤®": 2236,
      "à¤łà¤¶": 2237,
      "Ġà¤Īà¤¯à¤°": 2238,
      "Ġà¤¹à¤°à¤¦": 2239,
      "Ġà¤¦à¤¸à¤µ": 2240,
      "Ġà¤ĩà¤Łà¤²": 2241,
      "Ġà¤ĩà¤ľà¤°": 2242,
      "Ġà¤ħà¤«à¤°": 2243,
      "à¥Īà¤Ĥ:": 2244,
      "à¥Ĥà¤ģ.": 2245,
      "à¤ħà¤µ": 2246,
      "Ġà¤Ĩà¤¸à¤¨": 2247,
      "Ġà¤ıà¤²à¤Īà¤¡": 2248,
      "Ġà¤¨à¤¡": 2249,
      "Ġà¤§à¤¨à¤°": 2250,
      "Ġà¤Ĩà¤®à¤¨": 2251,
      "à¤Ĩà¤Īà¤¡": 2252,
      "à¤¿à¤ĥ": 2253,
      "Ġà¤Łà¤®": 2254,
      "à¤¾)à¥¤": 2255,
      "à¤°à¤ļà¤²": 2256,
      "à¤²à¥ľà¤ķ": 2257,
      "Ġà¤ĵà¤µ": 2258,
      "Ġà¤ļà¤¹": 2259,
      "Ġà¤ļà¤²à¤ķà¤°": 2260,
      "à¤ıà¤¨à¤ıà¤²": 2261,
      "Ġà¤°à¤£à¤ľ": 2262,
      "Ġà¤«à¤Łà¤ķ": 2263,
      "à¤£à¤ª": 2264,
      "Ġà¤¸à¤Īà¤¦": 2265,
      "Ġà¤ľà¤¨à¤ķ": 2266,
      "Ġà¤¤à¤¹": 2267,
      "Ġà¤°à¤¬": 2268,
      "à¤ıà¤¯à¤°": 2269,
      "à¤ĩà¤Łà¤°": 2270,
      "à¤ĸà¤Ł": 2271,
      "à¤°à¤£à¤¬": 2272,
      "Ġà¤Ĩà¤ī": 2273,
      "Ġà¤«à¤¡à¤£à¤µ": 2274,
      "à¤·à¤ķà¤°": 2275,
      "à¤°à¤¡": 2276,
      "Ġà¤ķà¤¯": 2277,
      "à¤¼à¤¿à¤Ĥ": 2278,
      "Ġà¤ļà¤¶": 2279,
      "à¤°à¤¹à¤®": 2280,
      "Ġà¤²à¤¹": 2281,
      "Ġà¤®à¤¦à¤¦à¤Ĺ": 2282,
      "Ġà¤¦à¤¹à¤¶à¤¤": 2283,
      "à¤¾;": 2284,
      "à¤ľà¤Ń": 2285,
      "Ġà¤¨à¤²": 2286,
      "Ġà¤¬à¤Ĺà¤²": 2287,
      "à¤¾\"": 2288,
      "à¤°à¤Ńà¤¦": 2289,
      "Ġà¤ľà¤¬à¤²à¤ª": 2290,
      "Ġà¤¸à¤¹à¤Ń": 2291,
      "à¤ľà¤ķà¤°": 2292,
      "à¥Ī)": 2293,
      "Ġà¤¬à¤ľà¤ķà¤°": 2294,
      "à¤Łà¤°à¤Ł": 2295,
      "Ġà¤·à¤¡": 2296,
      "Ġà¤¢à¤ķ": 2297,
      "à¤¼à¥Ģ-": 2298,
      "Ġà¤¤à¤¬à¤ķ": 2299,
      "Ġà¤¨à¤Ĺà¤°à¤ª": 2300,
      "à¤ľà¤¨à¤¤": 2301,
      "Ġ),": 2302,
      "à¤§à¤²": 2303,
      "à¤°à¤¹à¤µ": 2304,
      "Ġà¤ıà¤®à¤ıà¤¸": 2305,
      "à¤ĵà¤µà¤°": 2306,
      "à¤Ľà¤°": 2307,
      "à¥ĩ/": 2308,
      "Ġà¤ıà¤¥à¤²": 2309,
      "à¤«à¤°à¤¨à¤Ĺà¤°": 2310,
      "à¤¬à¤¸à¤ª": 2311,
      "Ġà¤Ĩà¤Īà¤ľ": 2312,
      "Ġà¤¹à¥Ľ": 2313,
      "à¤°à¤µà¤£": 2314,
      "Ġà¤ıà¤¨à¤ª": 2315,
      "====": 2316,
      "Ġà¤¬à¤¹à¤°": 2317,
      "à¤²à¤Ĺà¤Ńà¤Ĺ": 2318,
      "à¤¯à¤«": 2319,
      "Ġà¤ĳà¥ŀ": 2320,
      "Ġà¤Ĩà¤®à¤¦": 2321,
      "à¤Łà¤²à¤°": 2322,
      "Ġà¤¸à¤®à¤²": 2323,
      "Ġà¤ľà¥ľ": 2324,
      "Ġà¤ķà¤¥à¤¨": 2325,
      "Ġà¤ĩà¤«": 2326,
      "Ġà¤¬à¤¢à¤©": 2327,
      "à¤Ĳà¤ª": 2328,
      "Ġà¤ħà¤Ĺà¤µ": 2329,
      "--------": 2330,
      "Ġà¤ıà¤¸à¤¬": 2331,
      "à¤ıà¤Ĩà¤Ī": 2332,
      "à¤¯à¤¤à¤¨": 2333,
      "à¤¯à¤®à¤¨": 2334,
      "Ġà¤ĺà¤Łà¤ķ": 2335,
      "à¤ķà¤µà¤°": 2336,
      "........": 2337,
      "à¤°à¤¤à¤®": 2338,
      "Ġà¤ľà¤ª": 2339,
      "à¤®à¤ķà¤¤": 2340,
      "à¤ħà¤¯": 2341,
      "Ġà¤µà¤Ĺ": 2342,
      "):": 2343,
      "à¤µà¤ķà¤ª": 2344,
      "à¤Ĩà¤Īà¤ľ": 2345,
      "à¤ªà¤°à¤®": 2346,
      "-,": 2347,
      "à¤®à¤ľà¤¦": 2348,
      "Ġà¤¨à¤¸à¤²": 2349,
      "à¤ļà¤°à¤£": 2350,
      "Ġà¤ľà¤¨à¤ª": 2351,
      "à¤¾à¤ĥ": 2352,
      "à¤¦à¤°à¤®": 2353,
      "à¤¡à¤³": 2354,
      "à¥ĩà¤Ĥ)": 2355,
      "Ġà¤¦à¤¶à¤¹à¤°": 2356,
      "Ġà¤²à¥ľà¤¨": 2357,
      "à¤Ńà¤¨": 2358,
      "Ġà¤ľà¤²à¤¸": 2359,
      "à¤Ńà¤ľà¤¨": 2360,
      "à¤¬à¤¹à¤¨": 2361,
      "Ġà¤¯à¤®à¤¨": 2362,
      "à¤ļà¤¡": 2363,
      "à¤«à¤°à¤ª": 2364,
      "à¥ĩà¥ĩà¤Ĥ": 2365,
      "Ġà¤¨à¤«à¤°à¤¤": 2366,
      "Ġà¤ķà¤£": 2367,
      "Ġà¤ĩà¤¸à¤°": 2368,
      "%%%%": 2369,
      "à¤°à¤¨à¤ª": 2370,
      "à¤¯à¤°à¤¨": 2371,
      "Ġà¤ķà¤ªà¤²": 2372,
      "à¤Īà¤ļ": 2373,
      "Ġà¤īà¤¬à¤°": 2374,
      "Ġà¤®à¤ķà¤°": 2375,
      "Ġà¤ªà¤Łà¤µ": 2376,
      "Ġà¤ıà¤®à¤¸": 2377,
      "à¤Ĺà¤Ł": 2378,
      "à¤ľà¤°à¤¤": 2379,
      "à¤µà¤¨à¤¸": 2380,
      "Ġà¤ķà¤¹à¤°": 2381,
      "Ġà¤®à¤¹à¤¬": 2382,
      "Ġà¤¸à¤®à¤Ŀà¤¦": 2383,
      "Ġà¤ľà¤¸à¤µ": 2384,
      "Ġà¤ľà¤¦à¤¯": 2385,
      "à¤Ĩà¤°à¤¡": 2386,
      "à¤¤à¤°à¤«": 2387,
      "à¥Īà¤Ĥ!": 2388,
      "Ġà¤ľà¤Ĺà¤¨": 2389,
      "à¥Ģ..": 2390,
      "à¤ĵà¤Ĺ": 2391,
      "à¤¸à¤¤à¤¨": 2392,
      "Ġà¤ıà¤¨à¤Ĩà¤°à¤¸": 2393,
      "Ġà¤¸à¤®à¤Ĺ": 2394,
      "à¤ıà¤ļà¤ĵ": 2395,
      "Ġà¤ļà¤¹à¤²": 2396,
      "à¤³à¤¤": 2397,
      "à¤¥à¤¡": 2398,
      "à¤°à¤£à¤µ": 2399,
      "à¤ĩà¤¤": 2400,
      "Ġà¤ĺà¤°à¤µ": 2401,
      "à¥īà¤Ĥ": 2402,
      "Ġà¤ªà¤°à¤¦": 2403,
      "à¤½": 2404,
      "Ġà¤īà¤ªà¤ª": 2405,
      "Ġà¤ķà¤¤à¤°": 2406,
      "à¤®à¤ķà¤°": 2407,
      "à¤¥à¤ª": 2408,
      "Ġà¤Ĩà¤°à¤ª": 2409,
      "à¤§à¤®": 2410,
      "Ġà¤®à¤²à¤¬": 2411,
      "à¤³à¤£": 2412,
      "à¤ªà¤°à¤¹": 2413,
      "Ġà¤¬à¤¦à¤²à¤ķà¤°": 2414,
      "à¤¼à¤Ĥ": 2415,
      "à¤¢à¤¨": 2416,
      "à¤«à¤°à¤µà¤°": 2417,
      "à¤¹à¤°à¤²": 2418,
      "à¤¶à¤¨à¤¶": 2419,
      "à¤ĩà¤ļ": 2420,
      "Ġà¤ľà¤¦": 2421,
      "à¤¾à¤¾": 2422,
      "Ġà¥Ľà¤®": 2423,
      "à¤łà¤²": 2424,
      "à¥¥": 2425,
      "à¤¬à¤µ": 2426,
      "à¥ĩà¤Ĥ?": 2427,
      "Ġà¤Ĩà¤ļà¤°à¤£": 2428,
      "à¥Ģà¤ĥ": 2429,
      "à¤Łà¤°à¤®": 2430,
      "Ġà¥¨à¥¦à¥§à¥": 2431,
      "à¤ŀà¤ª": 2432,
      "Ġà¤µà¤°à¤¦": 2433,
      "à¤¬à¤§": 2434,
      "Ġà¤®à¤¦à¤°à¤¸": 2435,
      "à¤¦à¤°à¤Ĺ": 2436,
      "à¤ªà¤£à¤¨": 2437,
      "à¤¸à¤®à¤°": 2438,
      "Ġà¤µà¥ĺ": 2439,
      "à¤·à¤ª": 2440,
      "Ġà¤Ĩà¤Īà¤ıà¤¸": 2441,
      "à¤·à¤¸": 2442,
      "à¤Ĩà¤ªà¤¨": 2443,
      "Ġà¤®à¤¨à¤°": 2444,
      "Ġà¤ħà¤·": 2445,
      "à¤Ĺà¤®à¤¨": 2446,
      "à¤¶à¤ľ": 2447,
      "Ġà¤ªà¤£": 2448,
      "à¤¤à¤¨à¤®": 2449,
      "Ġà¤ĩà¤Ł": 2450,
      "à¤¨à¤Ńà¤°": 2451,
      "à¤¡à¤¤": 2452,
      "Ġà¤ıà¤¨à¤ıà¤ļ": 2453,
      "à¤¢à¤²": 2454,
      "Ġà¤¤à¤²à¤¬": 2455,
      "à¤¯à¤¬à¤°": 2456,
      ").": 2457,
      "Ġà¤¹à¤Łà¤¨": 2458,
      "à¤Ĺà¤¯": 2459,
      "à¤ķà¤¦": 2460,
      "Ġà¤¸à¤ķà¤²": 2461,
      "à¤¾),": 2462,
      "Ġà¤ıà¤®à¤¡": 2463,
      "Ġ!!": 2464,
      "Ġà¤ķà¤¦à¤°": 2465,
      "Ġà¤Ĩà¤¢": 2466,
      "à¤ıà¤¨à¤¡": 2467,
      "à¤®à¤¨à¤Ĺà¤°": 2468,
      "Ġà¤Ĩà¥Ľ": 2469,
      "à¤ķà¤Ĺ": 2470,
      "Ġà¥¬": 2471,
      "à¤§à¤°à¤¨": 2472,
      "à¤Ĺà¤¤à¤¨": 2473,
      "à¤¨à¤¡": 2474,
      "Ġà¤Ĩà¤Īà¤«": 2475,
      "à¤ĸà¤²à¤¨": 2476,
      "à¤¸à¤Ĳà¤ª": 2477,
      "à¤£à¤ªà¤¤": 2478,
      "Ġà¤ħà¤Ľ": 2479,
      "à¥Ģà¤Ĥ?": 2480,
      "Ġà¤Ĩà¤Īà¤ıà¤¸à¤Ĩà¤Ī": 2481,
      "Ġà¤Ĩà¤Īà¤Ĩà¤Īà¤Ł": 2482,
      "à¤µà¤³": 2483,
      "Ġà¤Ĩà¤¹à¤¤": 2484,
      "à¤Ĩà¤ĩà¤ı": 2485,
      "Ġà¤¯à¤¶à¤µ": 2486,
      "à¤Ĩà¤°à¤ıà¤¸": 2487,
      "à¤Ĺà¤¨à¤¬": 2488,
      "Ġà¤Ĩà¤°à¤®": 2489,
      "à¤ĩà¤«à¤²": 2490,
      "à¤ħà¤¹à¤®": 2491,
      "Ġà¤Īà¤¡": 2492,
      "à¤µà¤²à¤ªà¤®": 2493,
      "à¤Ŀà¤ķà¤°": 2494,
      "Ġà¤īà¤¦à¤¯à¤ª": 2495,
      "à¤ıà¤¸à¤¯": 2496,
      "à¤Ĩà¤°à¤Ĩà¤Ī": 2497,
      "Ġà¤¬à¤¹à¤¤": 2498,
      "Ġà¤ħà¤²à¤µ": 2499,
      "à¤¾à¥Ī": 2500,
      "Ġà¤ķà¤¬à¤¡": 2501,
      "Ġà¤ĸà¤£": 2502,
      "à¤¡à¤£": 2503,
      "Ġà¤ĺà¤®": 2504,
      "à¤¬à¤Ĺ": 2505,
      "Ġà¤µà¤§": 2506,
      "à¤²à¤Ł": 2507,
      "à¤¸à¤²à¤°": 2508,
      "à¤µà¤Ĺà¤¨": 2509,
      "Ġà¤īà¤łà¤ķà¤°": 2510,
      "à¤īà¤ķ": 2511,
      "Ġà¤Ĩà¤°à¤ľ": 2512,
      "à¤ľà¤®à¤¹à¤²": 2513,
      "Ġà¤Ļ": 2514,
      "à¤ķà¤²à¤ķà¤°": 2515,
      "Ġà¤īà¤Ńà¤°à¤¤": 2516,
      "à¤ķà¤°à¤¶": 2517,
      "Ġà¤¹à¤¬": 2518,
      "Ġà¤īà¤¨à¤ªà¤°": 2519,
      "Ġà¤Ńà¤°à¤ķà¤°": 2520,
      "à¥ĭ...": 2521,
      "Ġà¤¸à¤µà¤°": 2522,
      "Ġà¤ĵà¤¸": 2523,
      "à¤łà¤µ": 2524,
      "Ġà¤®à¤¹à¤®": 2525,
      "Ġà¤īà¤ĸ": 2526,
      "Ġà¤¬à¤²à¤°": 2527,
      "Ġà¤¸à¤ļà¤®": 2528,
      "Ġà¤ªà¤Łà¤ķ": 2529,
      "à¤°à¤Ł": 2530,
      "Ġà¤ªà¤¹à¤¨à¤ķà¤°": 2531,
      "à¥ĩ..": 2532,
      "Ġà¤īà¤ªà¤Ĺ": 2533,
      "à¥ĭ'": 2534,
      "Ġà¤ľà¤¯à¤°": 2535,
      "à¤°à¤Ĺà¤¢": 2536,
      "Ġà¤Ĩà¤ĩà¤Ł": 2537,
      "Ġà¤Ĺà¤°à¤ľ": 2538,
      "Ġà¤®à¤ª": 2539,
      "à¤¢à¤¤": 2540,
      "à¤Ńà¤ª": 2541,
      "Ġà¤¸à¤¤à¤ª": 2542,
      "Ġà¤ļà¤µ": 2543,
      "Ġà¤ªà¥ľà¤¨": 2544,
      "Ġà¤ħà¤Łà¤ķà¤²": 2545,
      "Ġà¤²à¤¶": 2546,
      "à¤ĳà¤ķ": 2547,
      "Ġà¤ķà¤¤à¤Ī": 2548,
      "à¤¼à¤¾-": 2549,
      "Ġà¤ıà¤¸à¤ıà¤®à¤ıà¤¸": 2550,
      "à¤ıà¤¨à¤ı": 2551,
      "Ġà¤ľà¤¸à¤ª": 2552,
      "Ġà¤Ĩà¤ĺ": 2553,
      "Ġà¤ħà¤®à¤°à¤¨": 2554,
      "à¤Ĭà¤¸": 2555,
      "à¥Ģà¤Ĥ-": 2556,
      "Ġà¤¸à¤¶à¤¸": 2557,
      "à¥ģ:": 2558,
      "à¥°": 2559,
      "Ġà¤¬à¥Ŀà¤ķà¤°": 2560,
      "à¤ıà¤ļà¤¸": 2561,
      "Ġà¤²à¤¹à¤¸": 2562,
      "à¤¿)": 2563,
      "Ġ---": 2564,
      "à¤Īà¤¶": 2565,
      "à¤ķà¤«": 2566,
      "à¤Ĩà¤ľà¤ķà¤²": 2567,
      "Ġà¤ĩà¤°à¤«": 2568,
      "à¤«à¤¡": 2569,
      "??": 2570,
      "Ġà¤¨à¤ľà¤°à¤ħ": 2571,
      "à¥ĩà¤Ĥ...": 2572,
      "Ġà¤Ĺà¤£à¤ªà¤¤": 2573,
      "Ġà¤Ĺà¤£à¤®": 2574,
      "Ġà¤¹à¤°à¤®": 2575,
      "Ġà¤ķà¤Łà¤°": 2576,
      "Ġà¤ĩà¤£": 2577,
      "Ġà¤ªà¤¦à¤¸": 2578,
      "Ġà¤®à¤¤à¤Ĺà¤£à¤¨": 2579,
      "Ġà¤Ķà¤¸à¤¤à¤¨": 2580,
      "à¤Łà¤°à¤«": 2581,
      "à¤ķà¤¯": 2582,
      "Ġà¤Ĺà¤§": 2583,
      "Ġà¤®à¤ł": 2584,
      "Ġà¤ıà¤«à¤¡": 2585,
      "Ġà¤ªà¤°à¤¹": 2586,
      "à¤ĺà¤²": 2587,
      "à¤¹à¤ľà¤¹": 2588,
      "à¤¬à¤Ł": 2589,
      "à¤ĸà¤ª": 2590,
      "à¤ķà¤ķ": 2591,
      "à¤ķà¤Ĩà¤īà¤Ł": 2592,
      "Ġà¤«à¤¹à¤°": 2593,
      "Ġà¤Ĩà¤ĩà¤¯": 2594,
      "à¤®à¤ĺ": 2595,
      "Ġà¤µà¤¡": 2596,
      "Ġà¤ıà¤®à¤ıà¤²": 2597,
      "à¤¥à¤¯": 2598,
      "à¤¦à¤¶à¤¹à¤°": 2599,
      "Ġà¤¨à¤µà¤Ń": 2600,
      "Ġà¤Ĩà¤°à¤¸": 2601,
      "Ġ(,": 2602,
      "à¤¨à¤«": 2603,
      "Ġà¤ħà¤µà¤²": 2604,
      "à¤Ńà¤°à¤¤": 2605,
      "à¤Īà¤Ī": 2606,
      "à¤ĵà¤ª": 2607,
      "à¥Ģ)-": 2608,
      "à¥Ľà¤¨": 2609,
      "Ġà¤ħà¤¸à¤®à¤°": 2610,
      "Ġà¤¤à¤ªà¤¸": 2611,
      "Ġà¤ħà¤ķà¤¸à¤°": 2612,
      "Ġà¤ĩà¤®à¤°à¤ľ": 2613,
      "à¤¸à¤°à¤¤": 2614,
      "Ġà¤²à¤ĸ": 2615,
      "à¤¾à¤¼": 2616,
      "à¤Ĺà¤²à¤ª": 2617,
      "Ġà¤®à¤¶à¤ķ": 2618,
      "à¤ħà¤ªà¤°": 2619,
      "Ġà¥Ļà¤°": 2620,
      "à¤ľà¤¨à¤¯": 2621,
      "à¤¬à¤¦à¤²": 2622,
      "Ġà¤ħà¤¨à¤²": 2623,
      "à¤ĺà¤®": 2624,
      "à¤ıà¤¸à¤ıà¤¨à¤ıà¤²": 2625,
      "Ġ.....": 2626,
      "Ġà¤ªà¤¡à¤²": 2627,
      "Ġà¤¹à¥ľà¤¤": 2628,
      "Ġà¤²à¤¡à¤ķ": 2629,
      "à¤ıà¤®à¤ª": 2630,
      "Ġà¤¡à¤°à¤¤": 2631,
      "à¤²à¤¶": 2632,
      "Ġà¥§à¥¦": 2633,
      "Ġà¤īà¤¤à¤°à¤¤": 2634,
      "Ġà¤ħà¤¨à¤¨": 2635,
      "à¤¼à¥ī": 2636,
      "à¤µà¤¸à¤®": 2637,
      "à¤ħà¤¸à¤®": 2638,
      "Ġà¤īà¤®à¤¡": 2639,
      "Ġà¤īà¤ķà¤¸": 2640,
      "Ġà¤¸à¤®à¤ķà¤ķ": 2641,
      "Ġà¤ħà¤£": 2642,
      "Ġà¤¸à¤¤à¤¤": 2643,
      "Ġà¤ħà¤ľà¤¹à¤°": 2644,
      "à¤¬à¤®": 2645,
      "à¤Ĩà¤ķ": 2646,
      "à¤®à¤°à¤¨": 2647,
      "Ġà¤®à¤¸à¤²à¤¨": 2648,
      "Ġà¤ľà¤¨à¤®": 2649,
      "Ġ]": 2650,
      "Ġà¤ķà¤¸à¤°": 2651,
      "à¤ľà¤¨à¤²": 2652,
      "à¤¯à¤²à¤²": 2653,
      "à¤Ĩà¤Īà¤ıà¤²": 2654,
      "à¥ĩà¤ģ": 2655,
      "à¤°à¤¬à¤¨": 2656,
      "à¤ĩà¤Łà¤²": 2657,
      "Ġà¤ĩà¤ķà¤¬": 2658,
      "Ġà¤ħà¤¬à¤¤à¤ķ": 2659,
      "Ġ://..": 2660,
      "à¤¸à¤°à¤£": 2661,
      "à¥ĭà¤Ĥ?": 2662,
      "Ġà¤ĩà¤¸à¤ªà¤°": 2663,
      "Ġà¤¨à¤®à¤¸": 2664,
      "Ġà¤¦à¤¬à¤¦à¤¬": 2665,
      "à¤¨à¤¸à¤¨": 2666,
      ">>": 2667,
      "à¤ħà¤¡": 2668,
      "Ġà¤ıà¤®à¤ı": 2669,
      "Ġà¤¥à¤ª": 2670,
      "à¤¡à¥ļ": 2671,
      "à¤µà¤ľà¤¹": 2672,
      "Ġà¤ħà¤¦à¤°à¤ķ": 2673,
      "Ġà¤¸à¥ŀ": 2674,
      "à¤ıà¤®à¤ķ": 2675,
      "à¤ľà¤°à¤²": 2676,
      "à¤·à¤Ń": 2677,
      "à¤ķà¤¹à¤¤": 2678,
      "Ġà¤¤à¤ĸ": 2679,
      "à¤¤à¤°à¤ķ": 2680,
      "Ġà¤¨à¤ª": 2681,
      "à¥ĭà¤Ĥà¤Ĥ": 2682,
      "à¤ıà¤ļà¤ª": 2683,
      "Ġà¤¦à¤¹à¤²": 2684,
      "à¤Ńà¤Ĺà¤¤": 2685,
      "Ġà¤Ĩà¤ĵ": 2686,
      "./": 2687,
      "à¤ıà¤Łà¤°": 2688,
      "Ġà¤Ńà¤°à¤®": 2689,
      "Ġà¤Ĺà¥Ŀ": 2690,
      "Ġà¤¬à¤ķà¤µ": 2691,
      "Ġà¤ĩà¤ķà¤²": 2692,
      "à¥ĩà¤Ĥà¤Ĥ": 2693,
      "à¤¯à¤¤à¤ķà¤°": 2694,
      "à¤®à¤®à¤¤": 2695,
      "Ġà¤ĺà¤Łà¤¤": 2696,
      "Ġà¤ļà¤¬": 2697,
      "à¤µà¤°à¤ķ": 2698,
      "Ġà¤Łà¤ļ": 2699,
      "à¤Ŀà¤¨": 2700,
      "Ġà¤®à¤Ł": 2701,
      "Ġà¤¿": 2702,
      "à¤ķà¤¤à¤µà¤°": 2703,
      "Ġà¥Ń": 2704,
      "à¤¯à¤¸à¤µ": 2705,
      "Ġà¤ħà¤¸à¤¦": 2706,
      "à¤ıà¤®à¤¡": 2707,
      "à¤¹à¤®à¤²": 2708,
      "Ġà¤²à¤ª": 2709,
      "à¤¬à¤¢": 2710,
      "à¤ĵà¤ıà¤¸": 2711,
      "Ġà¤¹à¤°à¤Ńà¤ľà¤¨": 2712,
      "à¤ħà¤Ĺ": 2713,
      "Ġà¤«à¤²à¤¸": 2714,
      "Ġà¤Ĩà¤ĩà¤Łà¤®": 2715,
      "Ġà¤Ĺà¤¶": 2716,
      "à¥Ģ(": 2717,
      "Ġà¤ħà¤Ńà¤¦": 2718,
      "Ġà¤®à¤µ": 2719,
      "Ġà¤ħà¤ªà¤µ": 2720,
      "à¤µà¤²à¤ªà¤°": 2721,
      "Ġà¤ħà¤«à¤¸": 2722,
      "à¤¬à¤¬": 2723,
      "à¤łà¤®": 2724,
      "Ġà¤¨à¤Ĺà¤¦": 2725,
      "à¤¦à¤°à¤²": 2726,
      "à¤ħà¤¹à¤®à¤¦": 2727,
      "Ġà¤Ĩà¤¯à¤°à¤¨": 2728,
      "......": 2729,
      "à¥ĭ!": 2730,
      "Ġà¤Ńà¤Ĺà¤µà¤¤": 2731,
      "Ġà¤ķà¤²à¤¶": 2732,
      "à¤ħà¤ľà¤¯": 2733,
      "Ġà¤ħà¤¨à¤¸": 2734,
      "à¤ıà¤®à¤Ī": 2735,
      "à¥Īà¤Ĥ...": 2736,
      "à¤Ľà¤¹": 2737,
      "Ġà¤®à¤¨à¤ª": 2738,
      "Ġà¤Ĺà¥ľ": 2739,
      "à¥Ģ\"": 2740,
      "Ġà¤¦à¤®à¤¨": 2741,
      "Ġà¤®à¤Ĺ": 2742,
      "à¤µà¥ľ": 2743,
      "Ġà¥Ļà¤¤": 2744,
      "Ġà¤ķà¤Ĺ": 2745,
      "Ġà¤¹à¤°à¤¸": 2746,
      "à¤²à¤®à¤ª": 2747,
      "Ġà¤Ĩà¤¯à¤¤": 2748,
      "Ġà¤¶à¤®à¤¶": 2749,
      "à¤¬à¤ľà¤Ł": 2750,
      "à¥Īà¥¤\"": 2751,
      "Ġà¤īà¤¸à¤ªà¤°": 2752,
      "Ġà¤īà¤·": 2753,
      "à¤ĸà¤®": 2754,
      "Ġà¤ĭà¤·à¤Ń": 2755,
      "Ġà¤¶à¤¸": 2756,
      "à¤ıà¤«à¤Ĩà¤Ī": 2757,
      "à¤°à¤ķà¤®": 2758,
      "Ġà¤ıà¤¨à¤Ł": 2759,
      "Ġà¤¬à¤¹à¤²": 2760,
      "à¤ıà¤¸à¤ıà¤²": 2761,
      "Ġà¤²à¤¯": 2762,
      "Ġà¤¬à¤²à¤¬": 2763,
      "Ġà¤ħà¤¨à¤®": 2764,
      "Ġà¤¸à¤§": 2765,
      "Ġà¤ªà¤²à¤Łà¤µ": 2766,
      "à¤ģà¥¤": 2767,
      "à¤ıà¤Ī": 2768,
      "à¤ıà¤®à¤¯": 2769,
      "Ġà¤ıà¤¸à¤Ĩà¤Īà¤Ł": 2770,
      "Ġà¤īà¤ªà¤²à¤ķ": 2771,
      "à¤ªà¤ķà¤°": 2772,
      "Ġà¤Ĥ": 2773,
      "à¤¡à¤«": 2774,
      "à¤°à¤¶à¤¸": 2775,
      "Ġà¤Ĩà¤Īà¤¬": 2776,
      "à¤·à¤°à¤¤": 2777,
      "Ġà¤ħà¤µà¤®": 2778,
      "à¤Ńà¤¤": 2779,
      "à¤¡à¤°à¤°": 2780,
      "à¥Ī'": 2781,
      "à¤¯à¤®à¤¯": 2782,
      "à¤²à¤¬à¤°": 2783,
      "Ġà¤²à¤ļ": 2784,
      "à¤¤à¤¡": 2785,
      "Ġà¤°à¤ĸà¤°à¤ĸ": 2786,
      "Ġà¤Ĩà¤ľà¤¤à¤ķ": 2787,
      "Ġ(-)": 2788,
      "à¤¸à¤Ĭà¤¦": 2789,
      "à¤Īà¤¬": 2790,
      "à¤¨à¤¦à¤¯": 2791,
      "Ġà¤ıà¤®à¤ıà¤®": 2792,
      "à¤Łà¤®à¤°": 2793,
      "Ġà¤ĵà¤Ŀ": 2794,
      "Ġà¤ıà¤µà¤ľ": 2795,
      "Ġà¤ħà¤ĺ": 2796,
      "à¤¸à¤¶": 2797,
      "Ġà¤ļà¤Łà¤ķ": 2798,
      "à¤°à¤ĸà¤£": 2799,
      "Ġà¤Ĺà¤łà¤ľ": 2800,
      "à¤ĵà¤¬": 2801,
      "à¤¨à¤ľà¤¨à¤ķ": 2802,
      "à¤·à¤¨": 2803,
      "à¤ĵà¤¡": 2804,
      "Ġà¤ľà¤¨à¤Ĺà¤£à¤¨": 2805,
      "Ġà¤Ĺà¤Ł": 2806,
      "Ġà¤ķà¤«": 2807,
      "à¤ħà¤«à¤Ĺ": 2808,
      "Ġà¤µà¤¤": 2809,
      "à¤°à¤¸à¤µ": 2810,
      "à¤ıà¤¨à¤Ĩà¤Ī": 2811,
      "Ġà¤Īà¤Ł": 2812,
      "à¥įà¤¼": 2813,
      "Ġà¤ıà¤¸à¤¯": 2814,
      "à¤ģ,": 2815,
      "à¤īà¤ªà¤°": 2816,
      "Ġà¤Ķà¤±": 2817,
      "à¤®à¤¤à¤¦": 2818,
      "à¤¬à¤¯": 2819,
      "Ġà¥®": 2820,
      "à¤¸à¤¨à¤ķ": 2821,
      "Ġà¤¹à¤²à¤«à¤¨": 2822,
      "à¤¶à¤ĸà¤¬à¤°": 2823,
      "Ġà¤§à¤°à¤£": 2824,
      "Ġà¤ıà¤ıà¤¸à¤Ĩà¤Ī": 2825,
      "à¤ļà¤ª": 2826,
      "Ġà¤ªà¤Ľ": 2827,
      "à¤Ĩà¤°à¤ıà¤«": 2828,
      "Ġà¤¸à¤¤à¤¨": 2829,
      "Ġà¤¨à¤Ĺà¤°à¤¸": 2830,
      "Ġà¤ķà¤°à¤¦": 2831,
      "Ġà¤¬à¤²à¤¦": 2832,
      "à¤ıà¤¨à¤ª": 2833,
      "Ġà¤ħà¤²à¤ķ": 2834,
      "à¤ıà¤®à¤ıà¤²": 2835,
      "Ġà¤ĵà¤Ł": 2836,
      "Ġà¤ªà¤¹à¤¨à¤¤": 2837,
      "à¤µà¤¤à¤¨": 2838,
      "à¤Ĩà¤°à¤ķ": 2839,
      "à¤ĳà¤¨à¤²": 2840,
      "Ġà¤ĸà¤¸": 2841,
      "à¥Ľà¤²": 2842,
      "Ġà¤Ĩà¤®à¤ľà¤¨": 2843,
      "à¤Ĩà¤ł": 2844,
      "Ġà¤ªà¤²à¤µà¤²": 2845,
      "Ġà¤¦à¤«à¤¨": 2846,
      "à¤¡à¤°à¤¸à¤¨": 2847,
      "Ġà¤®à¤¹à¤ķà¤®": 2848,
      "à¤ıà¤®à¤ı": 2849,
      "Ġà¤°à¤®à¤ľ": 2850,
      "Ġà¤ľà¤¯à¤²à¤²": 2851,
      "à¥ģà¥į": 2852,
      "Ġà¤ªà¥Ŀà¤¤": 2853,
      "Ġà¤¬à¤¬à¤²": 2854,
      "à¤ľà¤µà¤²": 2855,
      "Ġà¤Łà¤²": 2856,
      "à¥ĭ:": 2857,
      "Ġà¤ªà¤¤à¤¨": 2858,
      "Ġà¤ĺà¤£": 2859,
      "à¥ĩà¤¾": 2860,
      "à¤Ŀà¤ķ": 2861,
      "à¤¼à¥Ģ.": 2862,
      "Ġà¤ĸà¤Łà¤ĸà¤Ł": 2863,
      "Ġà¤¤à¤°à¤¸": 2864,
      "à¤¤à¤¯": 2865,
      "Ġà¤Ńà¥ľà¤ķ": 2866,
      "à¥ĩ;": 2867,
      "Ġà¤Ńà¤¸": 2868,
      "Ġà¤¦à¤°à¤Ĺ": 2869,
      "Ġà¤®à¤Ľ": 2870,
      "à¤ıà¤«à¤ĵ": 2871,
      "Ġà¤ļà¤ļ": 2872,
      "Ġà¤¸à¤®à¤Ŀà¤ķà¤°": 2873,
      "à¤µà¤°à¤ķà¤°": 2874,
      "Ġà¤ªà¤¡à¤¤": 2875,
      "Ġà¤µà¤¨à¤¸": 2876,
      "à¤¬à¤³": 2877,
      ".)": 2878,
      "à¤ªà¤ª": 2879,
      "Ġà¤ıà¤ķà¤¤à¤°à¤«": 2880,
      "Ġà¤«à¤ķ": 2881,
      "Ġà¤ļà¤°à¤®à¤ª": 2882,
      "à¤®à¤µà¤°": 2883,
      "Ġà¤ļà¤¡": 2884,
      "Ġà¤ĵà¤ķ": 2885,
      "Ġà¤ªà¤°à¤ĸ": 2886,
      "Ġà¤ªà¤¢à¤¨": 2887,
      "Ġà¤ħà¤°à¤¸": 2888,
      "Ġà¤Ĩà¤¬à¤ķ": 2889,
      "Ġà¤ķà¤Łà¤¨": 2890,
      "Ġà¤°à¤£à¤¦": 2891,
      "Ġà¤¨à¤®à¤¨": 2892,
      "Ġà¤¸à¤¹à¤°": 2893,
      "Ġà¤īà¤Ľà¤²": 2894,
      "à¤¤à¤°à¤¦": 2895,
      "à¤®à¤¨à¤µ": 2896,
      "à¤³à¤²": 2897,
      "Ġà¤Ĩà¤¶à¤¯": 2898,
      "Ġà¤®à¤¦à¤¤": 2899,
      "Ġà¤¦à¤®à¤ķà¤²": 2900,
      "Ġà¤µà¤¯à¤¸": 2901,
      "Ġà¤¸à¤¨à¤°": 2902,
      "à¤ľà¤ªà¤¤": 2903,
      "à¤°à¤ĺ": 2904,
      "Ġà¤®à¤¨à¤µ": 2905,
      "Ġà¤ħà¤¸à¤£": 2906,
      "Ġà¤ľà¤²à¤¤": 2907,
      "à¤ĵà¤ı": 2908,
      "à¤¤à¤°à¤¤": 2909,
      "Ġà¤¦à¤¹à¤¨": 2910,
      "à¤ķà¤®à¤²": 2911,
      "à¤·à¤¸à¤¹": 2912,
      "Ġà¤¢à¤¹": 2913,
      "Ġà¤®à¤¨à¤¸": 2914,
      "Ġà¤¹à¤µà¤¨": 2915,
      "à¤§à¤¸": 2916,
      "Ġà¤¬à¤¢à¤¤": 2917,
      "à¤Ĥ-": 2918,
      "à¥Ģ;": 2919,
      "Ġà¤ľà¤¨à¤°": 2920,
      "à¤¥à¤³": 2921,
      "à¤¥à¤°à¤¬": 2922,
      "à¤ĺà¤Ł": 2923,
      "Ġà¤ĵà¤ªà¤¨à¤°": 2924,
      "à¤¸à¤¬à¤°": 2925,
      "Ġà¤Ĩà¤¯à¤°à¤²": 2926,
      "à¥ĩà¤Ĥ|": 2927,
      "Ġà¤ľà¤¨à¤¨": 2928,
      "Ġà¤ĩà¤¨à¤µ": 2929,
      "à¤Ĩà¤Ĺà¤°": 2930,
      "Ġà¤®à¤Ŀ": 2931,
      "Ġà¤ħà¤¸à¤¹à¤®à¤¤": 2932,
      "Ġà¤ªà¤¸à¤°": 2933,
      "Ġà¤ıà¤ļà¤ª": 2934,
      "à¤ıà¤®à¤Ł": 2935,
      "Ġà¤¸à¤¹à¤¸": 2936,
      "à¤ľà¤Ńà¤µà¤¨": 2937,
      "à¤Ĺà¤°à¤ª": 2938,
      "à¤Īà¤ıà¤¸": 2939,
      "à¤°à¤¬à¤¦à¤²": 2940,
      "Ġà¤ıà¤µà¤°": 2941,
      "Ġà¤¹à¤®à¤ķ": 2942,
      "à¤ŀà¤¤": 2943,
      "Ġà¤ıà¤¸à¤ķ": 2944,
      "à¤Ĩà¤°à¤ıà¤¸à¤ıà¤¸": 2945,
      "Ġà¤ħà¤²à¤µà¤°": 2946,
      "à¤¿à¥į": 2947,
      "Ġà¤¬à¤¦à¤¹": 2948,
      "Ġà¤ħà¤ªà¤Ĺ": 2949,
      "à¤¢à¤£": 2950,
      "********": 2951,
      "Ġà¤ħà¤ªà¤ķ": 2952,
      "Ġà¤ıà¤¯à¤°à¤µ": 2953,
      "Ġà¤ķà¤¸à¤¨": 2954,
      "à¥ģà¥ģ": 2955,
      "à¤Ĥà¤¾": 2956,
      "Ġà¤ĩà¤¨à¤ª": 2957,
      "Ġà¤ªà¤®": 2958,
      "à¤ªà¤°à¤¨": 2959,
      "à¤ĳà¤°": 2960,
      "à¤¶à¤ķà¤°": 2961,
      "Ġà¤ľà¤Ĺà¤ľ": 2962,
      "Ġà¤¸à¤°à¤Ĺà¤¨": 2963,
      "Ġà¤¡à¤Ł": 2964,
      "à¤ķà¤°à¤¤": 2965,
      "Ġà¤Ĺà¤ľà¤¬": 2966,
      "Ġà¤¹à¤ķà¤¦": 2967,
      "Ġà¤ªà¤²à¤ķ": 2968,
      "Ġà¤īà¤«": 2969,
      "à¤ĩà¤¨à¤¸": 2970,
      "à¤Ĺà¤«": 2971,
      "Ġà¤®à¤°à¤¤": 2972,
      "Ġà¤ľà¤¨à¤µ": 2973,
      "Ġà¤ıà¤²à¤ª": 2974,
      "à¤³à¤Ĺ": 2975,
      "Ġà¤ħà¤¸à¤«à¤²à¤¤": 2976,
      "à¤ĩà¤Ĺ": 2977,
      "Ġà¤ľà¤¯à¤¸": 2978,
      "à¤¨à¤ļà¤°": 2979,
      "Ġà¤¦à¤£": 2980,
      "à¤Łà¤¯": 2981,
      "à¤µà¤¨à¤¶": 2982,
      "à¤ıà¤¸à¤ľ": 2983,
      "Ġà¤Ĩà¤µà¤ķ": 2984,
      "à¤¨à¤¯à¤¨": 2985,
      "à¤°à¤¸à¤°": 2986,
      "Ġà¤®à¤¦à¤°": 2987,
      "à¤®à¤ķà¤¥": 2988,
      "à¤ĩà¤«à¤¸": 2989,
      "à¤Łà¤¸à¤¨": 2990,
      "à¤¨à¤¸à¤°": 2991,
      "Ġ.-": 2992,
      "Ġà¤ıà¤²à¤°": 2993,
      "à¤¥à¤¸": 2994,
      "à¥ĭà¤Ĥ)": 2995,
      "à¤¦à¤°à¤¨à¤Ĺà¤°": 2996,
      "à¤°à¤¦à¤¯": 2997,
      "à¤Ĩà¤®à¤¤": 2998,
      "à¤¿à¤¾": 2999,
      "Ġà¤¬à¤¦à¤¤à¤°": 3000,
      "à¤Īà¤ħà¤¡": 3001,
      "à¤¯à¤ľà¤¨à¤ķ": 3002,
      "à¤Ĩà¤ľà¤®": 3003,
      "à¤¼à¥ĩ.": 3004,
      "Ġà¤ıà¤²à¤ľ": 3005,
      "à¤¯à¤ķà¤µ": 3006,
      "Ġà¤ıà¤«à¤¸": 3007,
      "Ġà¤ªà¤°à¤¶": 3008,
      "à¤īà¤¨à¤¸": 3009,
      "à¤ľà¤¯à¤µà¤°": 3010,
      "à¤ªà¥Ŀ": 3011,
      "à¤Ĩà¤Īà¤ıà¤¸": 3012,
      "Ġà¤ıà¤®à¤ľ": 3013,
      "à¤¤à¤³": 3014,
      "Ġà¤Ĩà¤Ĺà¤ľà¤¨": 3015,
      "à¤¸à¤ĸ": 3016,
      "Ġà¥¯": 3017,
      "Ġà¤¸à¤®à¤¤": 3018,
      "à¥ĩà¤Ĥ!": 3019,
      "Ġà¤¦à¤°à¤®": 3020,
      "Ġà¤Īà¤ª": 3021,
      "à¤Ĺà¤³": 3022,
      "Ġà¤ıà¤£": 3023,
      "Ġà¤ľà¤²à¤ķà¤°": 3024,
      "Ġà¤²à¤ĸà¤¨": 3025,
      "à¤ĳà¤ªà¤°": 3026,
      "à¤¡à¤Ī": 3027,
      "à¤ķà¤°à¤®": 3028,
      "à¤īà¤¦à¤¯à¤ª": 3029,
      "Ġà¥¨à¥¦à¥¦": 3030,
      "à¤¨à¤ĸ": 3031,
      "à¤ļà¤¯à¤¨": 3032,
      "Ġà¤¬à¤¦à¤¬": 3033,
      "Ġà¤Īà¤ķ": 3034,
      "à¤¤à¥Ľ": 3035,
      "à¤ªà¤°à¤ķ": 3036,
      "à¤¦à¤¡": 3037,
      "à¤ĺà¤ķ": 3038,
      "Ġà¤¸à¤¬à¤°": 3039,
      "Ġà¤Ĺà¥ľà¤¬à¥ľ": 3040,
      "à¤ľà¤ķà¤¤": 3041,
      "à¤ıà¤®à¤Ĩà¤Ī": 3042,
      "à¤¤à¤«": 3043,
      "Ġà¤°à¤ĸà¤µ": 3044,
      "Ġà¤ıà¤ķà¤°": 3045,
      "à¤ħà¤°à¤µ": 3046,
      "Ġà¤ªà¤§": 3047,
      "à¤¹à¤¹": 3048,
      "Ġà¤ĺà¤¸": 3049,
      "Ġà¤¤à¤°à¤ľ": 3050,
      "à¤ĩà¤¡à¤²": 3051,
      "à¤ĵà¤ķ": 3052,
      "à¤²à¤ķà¤®": 3053,
      "à¤ľà¤ªà¤ļ": 3054,
      "à¤¾(": 3055,
      "Ġà¤ıà¤ķà¥ľ": 3056,
      "à¤¬à¤ª": 3057,
      "Ġ://./": 3058,
      "à¤¤à¤«à¤°": 3059,
      "à¤µà¤µà¤°": 3060,
      "Ġà¤Ĳà¤¨": 3061,
      "à¤Ĩà¤°à¤ĵ": 3062,
      "Ġà¤ªà¤¹à¤°": 3063,
      "à¤Łà¤ľ": 3064,
      "à¤°à¤¹à¤°": 3065,
      "à¤·à¤Ĺ": 3066,
      "Ġà¤¸à¤¹à¤²": 3067,
      "Ġà¤¨à¤°à¤ķ": 3068,
      "à¤¤à¤°à¤®": 3069,
      "à¤łà¤Ĺ": 3070,
      "Ġà¤¹à¤Łà¤ķà¤°": 3071,
      "Ġà¤Ĺà¤£à¤°": 3072,
      "Ġà¤¸à¤¦à¤®": 3073,
      "Ġà¤¹à¤¨à¤¨": 3074,
      "Ġà¤ıà¤Ĩà¤Ī": 3075,
      "à¤ļà¤²à¤¨": 3076,
      "à¤Ńà¤®": 3077,
      "à¥Ĭ": 3078,
      "à¤ľà¤®à¤°": 3079,
      "Ġà¤ĳà¤²à¤°": 3080,
      "Ġà¤Łà¤ª": 3081,
      "à¤¯à¤°à¤ķ": 3082,
      "à¤¶à¤®à¤¨": 3083,
      "Ġà¤«à¤¨": 3084,
      "Ġà¤ıà¤²à¤¬": 3085,
      "à¤µà¤¯à¤ķ": 3086,
      "à¤°à¤µà¤ļà¤¨": 3087,
      "Ġà¥§à¥«": 3088,
      "à¤¬à¤°à¤¦": 3089,
      "Ġà¥¦": 3090,
      "à¤ľà¤¯à¤¨": 3091,
      "à¤·à¤µà¤°": 3092,
      "Ġà¤²à¤ªà¤ķ": 3093,
      "à¤łà¤°": 3094,
      "Ġà¤¹à¤²à¤µ": 3095,
      "Ġà¤¤à¤°à¤²": 3096,
      "à¤¶à¤²à¤¤": 3097,
      "Ġà¤Ĺà¤Ĺà¤¨": 3098,
      "à¤Ĥà¤Ĥ": 3099,
      "Ġà¤ľà¤®à¤¶": 3100,
      "Ġà¤ıà¤¸à¤ıà¤ļà¤ĵ": 3101,
      "Ġà¤¸à¤ľà¤Ĺ": 3102,
      "à¤Ĺà¤«à¤²": 3103,
      "à¤Łà¤£": 3104,
      "Ġà¤ľà¤£": 3105,
      "Ġà¤«à¤Łà¤¨": 3106,
      "à¤²à¤¨à¤ķ": 3107,
      "Ġà¤Ŀà¤ľ": 3108,
      "à¤®à¤¥": 3109,
      "Ġà¤¢à¤²": 3110,
      "à¥Ĥ'": 3111,
      "à¤ļà¤£": 3112,
      "Ġà¤µà¤«": 3113,
      "Ġà¤«à¤°à¤¹": 3114,
      "Ġà¥§à¥¨": 3115,
      "à¤¸à¤¬à¤ķ": 3116,
      "à¥Īà¤Ĥ)": 3117,
      "à¤¤à¤¶": 3118,
      "Ġà¤īà¤²à¤Ŀà¤¨": 3119,
      "à¤¼à¥ĩà¤Ĥà¥¤": 3120,
      "Ġà¤ıà¤¨à¤Ĩà¤Īà¤ı": 3121,
      "à¥Į.": 3122,
      "Ġà¤ļà¤Łà¤°": 3123,
      "à¤ķà¤Ŀ": 3124,
      "à¤°à¤®à¤¨": 3125,
      "Ġà¤¹à¤ľà¤°à¤¤": 3126,
      "à¤µà¤¬": 3127,
      "à¤Łà¤Ĺ": 3128,
      "à¤²à¤°à¤¶": 3129,
      "Ġà¤¬à¤¦à¤°": 3130,
      "à¤ľà¤¨à¤¸": 3131,
      "à¤ĩà¤¸à¤°": 3132,
      "Ġà¤ĺà¤¡à¤²": 3133,
      "à¤¾à¥ħ.": 3134,
      "à¤Ĩà¤Īà¤Ĩà¤Ī": 3135,
      "Ġà¤ķà¤¸à¤¤": 3136,
      "Ġà¤ķà¤Ľ": 3137,
      "à¤µà¤²à¤ª": 3138,
      "Ġà¤µà¤¨à¤µ": 3139,
      "à¤Ĺà¤¨à¤µ": 3140,
      "à¥Īà¥¤'": 3141,
      "à¥ľà¤Ĺ": 3142,
      "Ġà¤¹à¤°à¤ª": 3143,
      "Ġà¤ĺà¥ľ": 3144,
      "à¤°à¤¸à¤¤": 3145,
      "Ġà¤¸à¤¬à¤¨": 3146,
      "Ġà¤ªà¤¥à¤ķ": 3147,
      "Ġà¤Ĩà¤ĩà¤¸": 3148,
      "à¤¯à¤°à¤§": 3149,
      "à¤ķà¤²à¤µ": 3150,
      "à¤ıà¤°": 3151,
      "Ġà¤ķà¤²à¤ķà¤¤": 3152,
      "à¤ĳà¤²": 3153,
      "à¥ĭà¤Ĥ/": 3154,
      "à¤Łà¤°à¤²": 3155,
      "à¤ĩà¤ªà¤°": 3156,
      "Ġà¤¸à¤¯": 3157,
      "à¤Īà¤«": 3158,
      "Ġà¤ĸà¤®": 3159,
      "à¤Ŀà¤®": 3160,
      "à¥Ĥà¥¤": 3161,
      "à¤¯à¤°à¤¡": 3162,
      "Ġà¤ķà¤²à¤¹": 3163,
      "Ġà¤ļà¤¯à¤¨à¤ķà¤°": 3164,
      "à¤¹à¤°à¤¬": 3165,
      "Ġà¤Ŀà¤Ĺà¥ľ": 3166,
      "à¤īà¤¸à¤®": 3167,
      "Ġà¤ıà¤®à¤Ł": 3168,
      "Ġà¤ķà¤¸à¤®": 3169,
      "à¤ķà¤ł": 3170,
      "à¥Īà¤Ĥ;": 3171,
      "Ġà¤¶à¤¹à¤¨": 3172,
      "à¤ľà¤¹à¤¬": 3173,
      "Ġà¤ħà¤²à¤®": 3174,
      "Ġà¤¤à¤µ": 3175,
      "à¤£à¤Ĺ": 3176,
      "à¤ĩà¤¸à¤¨": 3177,
      "à¤ľà¤¡": 3178,
      "Ġà¤Ĩà¤Īà¤¨": 3179,
      "à¤Ŀà¤¤": 3180,
      "à¤¦à¤ķà¤¤": 3181,
      "à¤«à¤Ł": 3182,
      "à¥Īà¤Ĥ..": 3183,
      "à¤®à¤¤à¤²à¤¬": 3184,
      "Ġà¤®à¤²à¤¯": 3185,
      "à¤Ĩà¤Īà¤µ": 3186,
      "à¤°à¤µà¤ł": 3187,
      "à¤®à¤¬à¤¤": 3188,
      "Ġà¤ľà¤ķ": 3189,
      "Ġà¤¤à¤µà¤ľ": 3190,
      "Ġà¤ľà¤¨à¤®à¤¤": 3191,
      "à¤¤à¤¥": 3192,
      "Ġà¤Ĳà¤¡": 3193,
      "à¤Ĩà¤°à¤ľ": 3194,
      "à¤¹à¤°à¤¤": 3195,
      "&;": 3196,
      "Ġà¤ªà¤²à¤Łà¤¨": 3197,
      "Ġà¤Ĩà¤ķà¤¸": 3198,
      "Ġà¤¥à¤®à¤¨": 3199,
      "Ġà¤§à¤¨à¤¤": 3200,
      "========": 3201,
      "à¤ıà¤²à¤ıà¤«": 3202,
      "Ġà¤§à¤¬": 3203,
      "Ġà¤ĸà¤¯": 3204,
      "Ġà¤¯à¤¶à¤ª": 3205,
      "Ġà¤ıà¤µà¤®": 3206,
      "à¤¯à¤¸à¤®": 3207,
      "à¥ĺà¤°": 3208,
      "à¥ĭà¥ĩ": 3209,
      "Ġà¤¶à¤¹à¤ľ": 3210,
      "Ġ||": 3211,
      "Ġ(-": 3212,
      "à¤®à¤¡": 3213,
      "Ġà¤ªà¤ķà¥ľà¤¨": 3214,
      "à¤īà¤¨à¤®": 3215,
      "Ġà¤ĳà¤¨à¤°": 3216,
      "à¤¿'": 3217,
      "Ġà¤µà¤¹à¤¨": 3218,
      "Ġà¤ĵà¤¹": 3219,
      "à¤·à¤ľà¤¨à¤ķ": 3220,
      "à¤¬à¤ĸ": 3221,
      "Ġà¤ıà¤ķà¤¸": 3222,
      "Ġà¤¸à¤¡à¤ķ": 3223,
      "Ġà¤ªà¤Ĺ": 3224,
      "à¤ħà¤Łà¤²": 3225,
      "Ġà¤Ńà¤°à¤£": 3226,
      "Ġà¤īà¤ªà¤®à¤¹": 3227,
      "Ġà¤¸à¤¬à¤¬": 3228,
      "Ġà¤ªà¤ĸà¤µ": 3229,
      "Ġà¤ıà¤¹à¤¤": 3230,
      "à¤ľà¤¤à¤¨": 3231,
      "Ġà¤ıà¤¡à¤²": 3232,
      "Ġà¤ħà¤ªà¤ĺ": 3233,
      "à¤²à¤Ĺà¤¤": 3234,
      "Ġà¤ķà¤°à¤ª": 3235,
      "Ġà¤Ķà¤ľ": 3236,
      "Ġà¤ķà¤ľ": 3237,
      "à¤ıà¤¨à¤ıà¤¨": 3238,
      "Ġà¤ªà¤Ĺà¤¡": 3239,
      "à¤Ĺà¤²à¤ķ": 3240,
      "Ġà¤¸à¤ķà¤¨": 3241,
      "à¤¸à¤²à¤µ": 3242,
      "Ġà¤¸à¤¹à¤ķà¤°": 3243,
      "Ġà¤¬à¤¹à¤°à¤¹": 3244,
      "Ġà¤ħà¤īà¤°": 3245,
      "Ġà¤²à¤ķà¥ľ": 3246,
      "à¤®à¤Ĺà¤¢": 3247,
      "____": 3248,
      "à¤°à¤ļà¤²à¤¨": 3249,
      "/-": 3250,
      "à¤Ĺà¤ļ": 3251,
      "à¥Ĩ": 3252,
      "Ġà¤¾": 3253,
      "Ġà¤¹à¤®à¤°": 3254,
      "à¤°à¤Ĩà¤¨": 3255,
      "à¤ĺà¤¡": 3256,
      "Ġà¤Ńà¤¯à¤Ń": 3257,
      "à¤ĳà¤Ł": 3258,
      "Ġà¤ľà¤¯à¤ķ": 3259,
      "Ġà¤¤à¤°à¥ŀ": 3260,
      "Ġà¤¶à¤ķà¤¤": 3261,
      "à¤¥à¤²à¤Ĺ": 3262,
      "à¤¹à¤£à¤ľ": 3263,
      "Ġà¤ľà¤¨à¤¸à¤®": 3264,
      "Ġà¤²à¤¸": 3265,
      "Ġà¤ĵà¤¢": 3266,
      "Ġà¤ľà¤¯à¤¶": 3267,
      "Ġà¤ĵà¤²à¤®": 3268,
      "à¤Łà¤Ł": 3269,
      "Ġà¤ĸà¤«": 3270,
      "Ġà¤ĺà¤¨à¤¶": 3271,
      "Ġà¤®à¤ľà¤¹à¤¬": 3272,
      "à¤Łà¤ĸ": 3273,
      "Ġà¤²à¤Ł": 3274,
      "à¤ľà¤£": 3275,
      "à¥ľà¤Ľ": 3276,
      "à¤Łà¤ļ": 3277,
      "à¤¨à¤°à¤²": 3278,
      "à¤ķà¤ĺà¤°": 3279,
      "à¤ľà¤Ńà¤°": 3280,
      "Ġà¤ħà¤§à¤°": 3281,
      "à¤¡à¤¶": 3282,
      "à¤®à¤¨à¤®": 3283,
      "à¤¸à¤£": 3284,
      "à¤¹à¤°à¤¦": 3285,
      "Ġà¤ıà¤¨à¤ıà¤¸à¤¯": 3286,
      "Ġà¤²à¤ľ": 3287,
      "à¤ĩà¤¬à¤²": 3288,
      "::": 3289,
      "Ġà¤°à¤ªà¤Ł": 3290,
      "à¤ķà¤¹à¤¨": 3291,
      "à¤ıà¤ļà¤¯": 3292,
      "à¤Īà¤ıà¤²": 3293,
      "Ġà¤®à¤¹à¤ķ": 3294,
      "à¤¡à¤°à¤²": 3295,
      "Ġà¤®à¤¨à¤ļ": 3296,
      "à¤Ĺà¤³à¤µ": 3297,
      "Ġà¤Ĩà¤²à¤¸": 3298,
      "à¥ĭà¥ĩà¤Ĥ": 3299,
      "Ġà¤ªà¤¡à¤©": 3300,
      "Ġà¤¦à¤°à¤Ń": 3301,
      "Ġà¤Ľà¤Ł": 3302,
      "Ġà¤¹à¤Łà¤µ": 3303,
      "Ġà¤Ńà¤¨à¤ķ": 3304,
      "Ġà¤¸à¤¹à¤®": 3305,
      "]]": 3306,
      "Ġà¤ĩà¤ľà¤¹": 3307,
      "Ġà¤¸à¤°à¤«à¤°": 3308,
      "à¤ľà¤¬à¤²": 3309,
      "à¤Ĩà¤Īà¤¬": 3310,
      "Ġà¤¨à¤°à¤µ": 3311,
      "Ġà¤ħà¤¹à¤²": 3312,
      "à¤¤à¤ķà¤¨": 3313,
      "à¤¾à¤Ĥà¥¤": 3314,
      "Ġà¤Ľà¤®": 3315,
      "Ġà¤ªà¤Łà¤²": 3316,
      "à¤°à¤¥à¤²": 3317,
      "Ġà¤ļà¤®à¤¡": 3318,
      "Ġà¤ĩà¤Ĺ": 3319,
      "Ġà¤Ŀà¤°à¤¨": 3320,
      "Ġà¤ıà¤¯à¤°à¤ķ": 3321,
      "à¤ĭà¤·": 3322,
      "à¥Īà¤ĥ": 3323,
      "Ġà¤Ĩà¤°à¤ıà¤¸": 3324,
      "à¤®à¤ł": 3325,
      "Ġà¤ªà¤°à¤µà¤°": 3326,
      "\",": 3327,
      "Ġà¤ķà¤Łà¤µ": 3328,
      "Ġà¤ĥ": 3329,
      ".:": 3330,
      "Ġà¤¡à¤°à¤¨": 3331,
      "à¤µà¤°à¤¨": 3332,
      "Ġà¤Ńà¤°à¤µ": 3333,
      "à¤¼à¥¤": 3334,
      "à¤ľà¤ľ": 3335,
      "à¤®à¤ļà¤°": 3336,
      "à¤ıà¤«à¤ª": 3337,
      "à¤®à¤ļà¤¨": 3338,
      "Ġ(:": 3339,
      "Ġà¤ıà¤¸à¤ıà¤¸": 3340,
      "à¤¡à¤Ł": 3341,
      "Ġà¤ªà¤¨à¤ª": 3342,
      "à¤Ĭà¤ªà¤°": 3343,
      "Ġà¤ķà¤²à¤ķ": 3344,
      "Ġà¤Ĩà¤«à¤¤": 3345,
      "à¤°à¤ľà¤¨à¤¨": 3346,
      "à¤°à¤«à¤²": 3347,
      "Ġà¤¤à¤Ĺà¤¡": 3348,
      "Ġà¤Ķà¤ļ": 3349,
      "Ġà¤ļà¤®à¤ķà¤¦": 3350,
      ".....": 3351,
      "à¤«à¤¹à¤®": 3352,
      "Ġà¤īà¤ªà¤¨à¤Ĺà¤°": 3353,
      "à¥ľà¤ª": 3354,
      "Ġà¤ľà¤¯à¤¦": 3355,
      "Ġà¤ľà¤ĸà¤®": 3356,
      "à¤¾à¥¤\"": 3357,
      "à¤®à¤ķà¤°à¤£": 3358,
      "Ġà¤ħà¤¯à¤¸": 3359,
      "Ġà¤Īà¤¨": 3360,
      "Ġà¤ĳà¤¬": 3361,
      "à¤¿...": 3362,
      "à¤²à¤£": 3363,
      "Ġà¤®à¤Łà¤°": 3364,
      "Ġà¤ıà¤ıà¤¸à¤ª": 3365,
      "Ġà¤Ĩà¤Īà¤ıà¤ıà¤¨à¤ıà¤¸": 3366,
      "à¤¸à¤ªà¤¨": 3367,
      "à¤ªà¤ķà¤¡": 3368,
      "Ġà¤ıà¤¯à¤°à¤«": 3369,
      "à¤¨à¤ªà¤¤": 3370,
      "à¤ľà¤¨à¤°à¤²": 3371,
      "Ġà¤ıà¤¨à¤¬": 3372,
      "à¥Ī.\"": 3373,
      "Ġà¤ªà¤Łà¤ķà¤¥": 3374,
      "à¤®à¤¸à¤®à¤°": 3375,
      "Ġà¤¡à¤¸": 3376,
      "Ġà¤ħà¤ł": 3377,
      "Ġà¤¸à¤¹à¤ľà¤¤": 3378,
      "Ġà¤ħà¤µà¤¨": 3379,
      "Ġà¤²à¤²à¤ķ": 3380,
      "Ġà¤°à¤£à¤§": 3381,
      "Ġà¤ĸà¤°à¤¬": 3382,
      "Ġà¤«à¤¸": 3383,
      "à¤ıà¤¸à¤ıà¤¸à¤ª": 3384,
      "à¥¤à¥¤": 3385,
      "Ġà¤Ĩà¤īà¤Łà¤²": 3386,
      "à¤ħà¤ĸà¤¬": 3387,
      "à¤Ĩà¤¯à¤¨": 3388,
      "Ġ:,": 3389,
      "Ġà¤Ńà¤Ĺà¤¦": 3390,
      "Ġà¤«à¤²à¤¦": 3391,
      "à¤·à¤¦à¤°": 3392,
      "à¤ĵà¤¯": 3393,
      "Ġà¤Ĩà¥ľ": 3394,
      "à¤īà¤¸à¤¸": 3395,
      "Ġ{": 3396,
      "à¤¨à¤®à¤¸": 3397,
      "Ġà¤ħà¤¨à¤µà¤°": 3398,
      "à¥įà¤¿": 3399,
      "Ġà¤²à¤¬": 3400,
      "à¤²à¤¶à¤¨": 3401,
      "à¥¨à¥¦": 3402,
      "à¤ĸà¤¨à¤¨": 3403,
      "Ġà¥§à¥®": 3404,
      "Ġà¤²à¤¹à¤ľ": 3405,
      "à¤®à¤ĸ": 3406,
      "à¤Ĭà¤°": 3407,
      "à¥įà¤¾": 3408,
      "Ġà¤¸à¤¬à¤®": 3409,
      "à¤§à¤µà¤¨": 3410,
      "à¤Ĩà¤¯à¤ķà¤°": 3411,
      "à¤ħà¤°à¤¬": 3412,
      "Ġà¤¦à¤¯à¤¨": 3413,
      "à¤¨à¤µà¤ľ": 3414,
      "à¤®à¤²à¤¤": 3415,
      "Ġà¤°à¤Īà¤¸": 3416,
      "Ġà¤ıà¤¤": 3417,
      "à¤ªà¤°à¤¤": 3418,
      "Ġà¤²à¤¡à¤©": 3419,
      "à¥ħà¤¾": 3420,
      "à¤¶à¤¶": 3421,
      "Ġà¤¬à¤²à¤ľ": 3422,
      "à¤¨à¤Ńà¤¦": 3423,
      "Ġà¤Ĩà¤ªà¤£": 3424,
      "à¤¬à¤°à¤¸": 3425,
      "à¤¸à¤®à¤¤": 3426,
      "Ġà¤¤à¤ľ": 3427,
      "Ġà¤¸à¤°à¤¹à¤¦": 3428,
      "Ġà¤¸à¤ĺà¤¨": 3429,
      "à¤¾à¤ģ-": 3430,
      "Ġà¤¤à¤¨à¤ĸ": 3431,
      "à¤ªà¤Ĺà¤¢": 3432,
      "Ġà¤ķà¤°à¤®": 3433,
      "Ġà¤°à¤¹à¤²": 3434,
      "à¤®à¤Ĺà¥Ŀ": 3435,
      "à¤¤à¤°à¤¨": 3436,
      "à¤¸à¤¡à¤°": 3437,
      "Ġà¤¬à¤¸à¤¨": 3438,
      "à¤Ĩà¤ı": 3439,
      "Ġà¤¹à¤ľà¤ķ": 3440,
      "Ġà¤²à¤£": 3441,
      "Ġ/-": 3442,
      "Ġà¤ħà¤ľà¤¨": 3443,
      "Ġà¤ħà¤¨à¤Ĺ": 3444,
      "Ġà¤ķà¤¸à¤°à¤¤": 3445,
      "à¤ıà¤®à¤ľ": 3446,
      "à¤ļà¤¤à¤°": 3447,
      "à¥Īà¥¤[]": 3448,
      "Ġà¤Ĩà¤Īà¤ıà¤¸à¤Ĩà¤Īà¤ıà¤¸": 3449,
      "Ġà¤¨à¤¯à¤¨": 3450,
      "Ġà¤¨à¤ķà¤µ": 3451,
      "Ġà¤¬à¤¦à¤¸à¤²": 3452,
      "Ġà¤īà¤¥à¤²": 3453,
      "Ġà¤¨à¤µà¤²": 3454,
      "Ġà¤§à¥ľ": 3455,
      "Ġà¤Ĩà¤Ĭ": 3456,
      "à¤¯à¤°à¤ªà¤°": 3457,
      "Ġà¤īà¤¤à¤°à¤ķà¤°": 3458,
      "à¤µà¤°à¤ª": 3459,
      "Ġà¤ĳà¤«à¤²": 3460,
      "à¤µà¤°à¤¤": 3461,
      "Ġà¤®à¤¹à¤«": 3462,
      "Ġà¤§à¤ľ": 3463,
      "Ġà¤¸à¤°à¤¨": 3464,
      "à¤¦à¤¨à¤Ĺà¤°": 3465,
      "Ġà¤¤à¤¹à¤²à¤ķ": 3466,
      "Ġà¤ªà¤Ľà¤¤": 3467,
      "Ġà¤ıà¤¸à¤ľ": 3468,
      "Ġà¤°à¤¤à¤²": 3469,
      "Ġà¤ıà¤¸à¤Ĩà¤Ī": 3470,
      "Ġà¤ľà¤«à¤°": 3471,
      "Ġà¤ıà¤¹": 3472,
      "à¥Ģ)à¥¤": 3473,
      "à¤Ĩà¤ļ": 3474,
      "Ġà¤®à¤ĸ": 3475,
      "Ġà¤°à¤ķà¤¬": 3476,
      "Ġà¤¸à¤¹à¤Ĺà¤²": 3477,
      "à¥ĭà¤ģ": 3478,
      "Ġà¤ħà¤ļà¤²": 3479,
      "à¤²à¤ķà¤¤": 3480,
      "Ġ......": 3481,
      "Ġà¤ĸà¤°à¤Ĺ": 3482,
      "à¤¦à¤²à¤ª": 3483,
      "à¤Ĺà¤²à¤¤": 3484,
      "à¥Ĥà¤Ĥ?": 3485,
      "à¤Ĥà¥Īà¥¤": 3486,
      "Ġà¤Ŀà¤Ł": 3487,
      "à¥ĩ\"": 3488,
      "Ġà¤ķà¤°à¤¸": 3489,
      "à¤¯à¤«à¤²": 3490,
      "à¥Īà¥į": 3491,
      "Ġà¤§à¤¨à¤¬": 3492,
      "Ġà¤ħà¤¸à¤¹à¤ľ": 3493,
      "Ġà¤¯à¤¤": 3494,
      "à¤ļà¤²à¤¤": 3495,
      "à¤Ĺà¤Ī": 3496,
      "Ġà¤ļà¤Łà¤¨": 3497,
      "à¤²à¤Ńà¤Ĺ": 3498,
      "à¤·à¤§à¤°": 3499,
      "à¤Ĺà¤°à¤®": 3500,
      "Ġà¤¬à¤ł": 3501,
      "Ġ-.": 3502,
      "Ġà¤¬à¤Łà¤²à¤°": 3503,
      "à¤°à¤ķà¤ª": 3504,
      "à¤®à¤¸à¤²à¤¨": 3505,
      "à¤¶à¤°à¤¦": 3506,
      "Ġà¤ıà¤ļà¤Ĩà¤Īà¤µ": 3507,
      "Ġà¤łà¤¹à¤°à¤¨": 3508,
      "Ġà¤¤à¤®à¤¨": 3509,
      "à¤°à¤®à¤ľ": 3510,
      "Ġà¤°à¤Ĺ": 3511,
      "----------------": 3512,
      "à¤¯à¤ķà¤²": 3513,
      "Ġà¤¹à¥ĺ": 3514,
      "à¤¹à¤¯": 3515,
      "à¤®à¤¸à¤¨": 3516,
      "Ġà¤Ńà¤£": 3517,
      "Ġà¤ħà¥ľ": 3518,
      "à¤ľà¤Ĺà¤¢": 3519,
      "Ġà¤¸à¤°à¤²à¤¤": 3520,
      "Ġà¤°à¤¬à¤°": 3521,
      "Ġà¤¬à¤¤à¤²": 3522,
      "à¤°à¤¦à¤¤": 3523,
      "Ġà¤¬à¤¶à¤°": 3524,
      "à¤¾à¤Ĥ)": 3525,
      "à¤Īà¤ķà¤®": 3526,
      "à¥į,": 3527,
      "Ġà¤ªà¤¸à¤¨": 3528,
      "à¤§à¤°à¤£": 3529,
      "Ġà¤ĸà¤²à¤¨": 3530,
      "Ġà¤ļà¤®à¤ķà¤¤": 3531,
      "Ġà¤®à¤Łà¤ķ": 3532,
      "Ġà¤ħà¤ªà¤ķà¤®": 3533,
      "Ġà¤ĸà¤Ĺ": 3534,
      "à¤µà¤°à¤ļ": 3535,
      "Ġà¤¸à¤¡à¥ĺ": 3536,
      "à¤ıà¤®à¤¬": 3537,
      "Ġà¤¡à¤²": 3538,
      "Ġ`": 3539,
      "Ġà¤ķà¤°à¤µà¤Ł": 3540,
      "à¥Ľà¤Ĺ": 3541,
      "à¤ĩà¤ķà¤°": 3542,
      "Ġà¤ħà¤®à¤°à¤ľ": 3543,
      "à¤¸à¤¦à¤¸": 3544,
      "à¤¸à¤°à¤ª": 3545,
      "à¤ļà¤°à¤°": 3546,
      "à¤·à¤µ": 3547,
      "à¤¸à¤§": 3548,
      "Ġà¤ħà¤°à¤®": 3549,
      "à¤®à¤°à¤¸": 3550,
      "à¤ľà¤µà¤³": 3551,
      "Ġà¤ľà¤¯à¤¨": 3552,
      "à¤¦à¤ĸà¤²": 3553,
      "à¤¬à¤°à¤¤": 3554,
      "Ġà¤ªà¤¨à¤¡": 3555,
      "à¤¼à¥ĩà¤Ĥà¤ĥ": 3556,
      "Ġà¤ķà¤¢": 3557,
      "à¤§à¥ľ": 3558,
      "à¥Ī\"": 3559,
      "Ġà¤ªà¤¦à¤Ń": 3560,
      "à¤¹à¤²à¤¤": 3561,
      "Ġ://../": 3562,
      "Ġà¤®à¤ľà¤²": 3563,
      "à¤ıà¤²à¤Ł": 3564,
      "Ġà¤µà¤¤à¤¨": 3565,
      "à¤ıà¤¨à¤Ł": 3566,
      "à¤¸à¤¦à¤¨": 3567,
      "à¤ĸà¤¸": 3568,
      "à¤Ĺà¤¹": 3569,
      "Ġà¤ªà¤°à¤ļà¤®": 3570,
      "Ġà¤ªà¤°à¤®à¤ľ": 3571,
      "à¤°à¤¹à¤²": 3572,
      "Ġà¤®à¤¨à¤ľ": 3573,
      "à¤¢à¤µ": 3574,
      "à¤¾....": 3575,
      "à¤ıà¤®à¤ıà¤®": 3576,
      "à¤¯à¤®à¤¸à¤¨": 3577,
      "Ġà¤ıà¤ķà¤¬": 3578,
      "Ġ_": 3579,
      "Ġà¤ļà¤®à¤ļ": 3580,
      "à¤°à¤¤à¤µ": 3581,
      "%%%%%%%%": 3582,
      "Ġà¤ıà¤¯à¤°à¤¬": 3583,
      "à¤ıà¤¸à¤ķ": 3584,
      "Ġà¥Ĳ": 3585,
      "à¥ĳ": 3586,
      "à¤ĩà¤ªà¤²": 3587,
      "Ġà¥¥": 3588,
      "à¤ªà¤¹à¤ļ": 3589,
      "Ġà¤¨à¤µà¤¦": 3590,
      "à¤Ĩà¤¬": 3591,
      "à¤®à¤«": 3592,
      "Ġà¤Ĩà¤īà¤Łà¤¸": 3593,
      "Ġà¤Ĺà¤ľà¤²": 3594,
      "à¤¶à¤°à¤¥": 3595,
      "à¤²à¤Ńà¤Ĺà¤¢": 3596,
      "Ġà¤İ": 3597,
      "Ġà¤ªà¤¢à¤©": 3598,
      "à¤¾à¤Ĥ.": 3599,
      "à¤ªà¤²à¤µà¤²": 3600,
      "Ġà¤ħà¤µà¤¹": 3601,
      "Ġà¤¸à¤®à¤¯à¤¸": 3602,
      "Ġà¤ıà¤¸à¤ĵ": 3603,
      "]]>": 3604,
      "à¤ıà¤«à¤ıà¤¸": 3605,
      "à¤®à¤°à¤¤": 3606,
      "Ġà¤¦à¤²à¤¬": 3607,
      "Ġà¤¬à¤Ĺà¤¦": 3608,
      "Ġà¤ĵà¤ıà¤¨à¤ľ": 3609,
      "Ġà¤Ĺà¤²à¤¤à¤«à¤¹à¤®": 3610,
      "à¥Ī....": 3611,
      "Ġà¤ħà¥ŀ": 3612,
      "Ġà¤ļà¤°à¤ĸ": 3613,
      "Ġà¤¨à¥Ľ": 3614,
      "Ġà¤°à¤Ĺà¤¡": 3615,
      "à¤ķà¤¦à¤²": 3616,
      "Ġà¥ĺà¤°": 3617,
      ".,": 3618,
      "à¤®à¤¨à¤°": 3619,
      "Ġà¥¤à¥¤": 3620,
      "à¤Īà¤ĵà¤µà¤°": 3621,
      "à¤Ńà¤Ł": 3622,
      "Ġà¤Īà¤ľ": 3623,
      "Ġà¤ªà¤¦à¤¯": 3624,
      "à¤²à¤ĺ": 3625,
      "à¤¡à¤¯": 3626,
      "Ġà¤ĩà¤¯à¤°": 3627,
      "Ġà¤«à¤¤à¤µ": 3628,
      "Ġ,,,": 3629,
      "Ġà¤¦à¤¶à¤®": 3630,
      "à¤¸à¤ķà¤¤": 3631,
      "Ġà¤¹à¤¥à¤ķ": 3632,
      "à¤Ľà¤ł": 3633,
      "à¤ķà¤°à¤µ": 3634,
      "à¤¬à¤ļà¤ªà¤¨": 3635,
      "à¤³à¤ª": 3636,
      "à¤Ĥà¥ģ": 3637,
      "---": 3638,
      "à¤¯à¤µà¤§": 3639,
      "à¤Ńà¤µà¤¨": 3640,
      "à¤¬à¤°à¤¦à¤¸": 3641,
      "Ġà¤Ńà¤°à¤ķà¤®": 3642,
      "à¤¹à¤¨à¤²": 3643,
      "à¤Łà¤¦": 3644,
      "Ġà¤ľà¤ĺà¤¨": 3645,
      "à¤ªà¤Ĺ": 3646,
      "à¤Ĩà¤Īà¤Ĩà¤Īà¤Ł": 3647,
      "Ġà¤ħà¤¶à¤°à¤«": 3648,
      "Ġà¤¤à¤«": 3649,
      "Ġà¤¸à¤°à¤¯": 3650,
      "à¥§à¥¦": 3651,
      "Ġà¤Ńà¤Łà¤ķà¤¤": 3652,
      "à¤¡à¤°à¤µ": 3653,
      "Ġà¤§à¤¨à¤µ": 3654,
      "à¤¤à¤¨à¤ª": 3655,
      "Ġà¥ŀà¤°à¤µà¤°": 3656,
      "à¤ĵà¤°": 3657,
      "Ġà¤īà¤¬à¤°à¤¨": 3658,
      "Ġà¤ľà¤¨à¤¸à¤¤": 3659,
      "à¤ļà¤¬": 3660,
      "Ġ:)": 3661,
      "Ġà¤Ĩà¤ľà¤®à¤Ĺà¤¢": 3662,
      "à¤¹à¥ľ": 3663,
      "Ġà¤°à¤®à¤£": 3664,
      "à¤¯à¤Łà¤°": 3665,
      "à¤ıà¤«à¤Ł": 3666,
      "Ġà¤¸à¤²à¤µ": 3667,
      "Ġà¤Ķà¤ļà¤ķ": 3668,
      "à¤Ĩà¤°à¤ıà¤®": 3669,
      "à¤¡à¤¯à¤¨": 3670,
      "à¤īà¤ªà¤¨": 3671,
      "Ġà¤®à¥Ľà¤¬": 3672,
      "Ġà¤ĩà¤¨à¤«": 3673,
      "Ġà¤¹à¤°à¤®à¤¨à¤ª": 3674,
      "Ġà¤ľà¤Ĺà¤®": 3675,
      "à¤ıà¤¸à¤ĵ": 3676,
      "à¤Ĩà¤¹": 3677,
      "à¤ĩà¥Ľ": 3678,
      "à¤¨à¤ªà¤°": 3679,
      "à¤¬à¤²à¤¡à¤¨": 3680,
      "Ġà¤ľà¤²à¤ª": 3681,
      "Ġà¤Ĩà¤®à¤ļ": 3682,
      "à¤¾à¥¤'": 3683,
      "à¤īà¤£": 3684,
      "à¤īà¤ªà¤Ń": 3685,
      "Ġà¤ħà¤¸à¤°à¤¦": 3686,
      "à¤¤à¤¹à¤¸": 3687,
      "à¤¸à¤¦à¤°": 3688,
      "Ġà¤Īà¤²": 3689,
      "à¤Ĩà¤°à¤ı": 3690,
      "Ġà¤ħà¤¹à¤µ": 3691,
      "Ġà¥ŀà¤°": 3692,
      "à¤Īà¤ı": 3693,
      "Ġà¤¨à¤ľà¤°à¤¬": 3694,
      "Ġà¤ıà¤®à¤ıà¤ıà¤ļ": 3695,
      "\"\"": 3696,
      "à¤µà¤²à¤¦": 3697,
      "Ġà¤ľà¤ķà¤¡": 3698,
      "Ġà¤Ńà¤Łà¤ķà¤¨": 3699,
      "Ġà¤¬à¤¶": 3700,
      "Ġà¤ķà¤ļà¤¹à¤°": 3701,
      "Ġà¤īà¤¬à¤²": 3702,
      "Ġà¤Łà¤Ł": 3703,
      "Ġà¤ļà¤®à¤¨": 3704,
      "Ġà¤¬à¤°à¤ª": 3705,
      "à¤¯à¤¨à¤°": 3706,
      "à¥Ŀà¤¤": 3707,
      "Ġà¤¶à¤²": 3708,
      "à¤µà¤°à¤®": 3709,
      "à¤°à¤¤à¤µà¤°": 3710,
      "à¥§à¥¯": 3711,
      "à¤ļà¥ľ": 3712,
      "Ġà¤¥à¤²": 3713,
      "Ġà¤¸à¤¤à¤¬": 3714,
      "à¤°à¤²à¤¯": 3715,
      "Ġà¤®à¤¡": 3716,
      "Ġà¤¶à¤¤à¤°": 3717,
      "à¤ħà¤¹": 3718,
      "à¤ıà¤«à¤¡": 3719,
      "à¤Ĩà¤°à¤ıà¤²": 3720,
      "à¤ıà¤¦": 3721,
      "Ġà¤®à¤°à¤£": 3722,
      "Ġà¤ıà¤«à¤ıà¤®à¤¸": 3723,
      "Ġà¤¦à¤¶à¤°à¤¥": 3724,
      "à¤Ĩà¤Īà¤ıà¤ıà¤¨à¤ıà¤¸": 3725,
      "Ġà¤µà¤¯": 3726,
      "à¤°à¤¤à¤²": 3727,
      "à¤ķà¤®à¤°": 3728,
      "à¤ªà¤µà¤¨": 3729,
      "Ġà¤²à¤°": 3730,
      "Ġà¤Ľà¤ªà¤°": 3731,
      "Ġà¤ıà¤®à¤ķ": 3732,
      "à¥Ģà¤¼": 3733,
      ")-": 3734,
      "à¤ªà¤ľ": 3735,
      "à¤¬à¤ķà¤°": 3736,
      "Ġà¤¬à¤¹à¤ķ": 3737,
      "à¤°à¤ªà¤¦": 3738,
      "Ġà¤Ľà¤¡": 3739,
      "Ġà¤Ŀà¤ķà¤Ŀ": 3740,
      "Ġà¤«à¤µ": 3741,
      "à¤¹à¤Ń": 3742,
      "à¥ģà¥¤": 3743,
      "Ġà¤ªà¥Ŀà¤ķà¤°": 3744,
      "à¤ļà¤°à¤²": 3745,
      "Ġà¤¬à¤¸à¤²": 3746,
      "Ġà¤Ĭà¤·": 3747,
      "Ġà¤Ķà¤²": 3748,
      "à¤ħà¤Ł": 3749,
      "Ġà¤ħà¤ªà¤¶à¤¬": 3750,
      "Ġà¤¦à¤¨": 3751,
      "à¤¶à¤ļ": 3752,
      "à¤¨à¤®à¤¨": 3753,
      "Ġà¤¸à¤°à¤ļ": 3754,
      "Ġà¤Ĳà¤¤à¤°": 3755,
      "Ġà¤ıà¤ļà¤¸": 3756,
      "à¤°à¤ªà¤°": 3757,
      "Ġà¤Ńà¤°à¤¤à¤ª": 3758,
      "à¤¦à¤£": 3759,
      "Ġà¤łà¤°à¤²": 3760,
      "Ġà¤®à¤¶à¤°": 3761,
      "à¤²à¤¹à¤¨": 3762,
      "Ġà¤Ĺà¤ª": 3763,
      "à¤ıà¤¨à¤ıà¤ļ": 3764,
      "à¥ĭà¤Ĥ'": 3765,
      "Ġà¤ĩà¤¯": 3766,
      "à¥Ģà¤Ĥ!": 3767,
      "Ġà¤ĵà¤µà¤°à¤²": 3768,
      "Ġà¤¨à¤Ł": 3769,
      "à¥ĭ..": 3770,
      "à¤Ķà¤¦": 3771,
      "à¤Łà¤°à¤ķ": 3772,
      "à¤ľà¤¹à¤¦": 3773,
      "à¤¯à¤ľà¤¨": 3774,
      "Ġà¤¸à¤°à¤Ĺ": 3775,
      "Ġà¤ıà¤¥": 3776,
      "Ġà¤²à¤ªà¤Ł": 3777,
      "à¤¯à¤£à¤Ĺà¤¢": 3778,
      "à¤ĸà¤ļ": 3779,
      "à¤Ŀà¤°": 3780,
      "Ġà¤¹à¤°à¤«": 3781,
      "Ġà¥§à¥§": 3782,
      "Ġà¤Ĩà¤ĩà¤¸à¤ķ": 3783,
      "Ġà¤ĸà¤²à¤¬à¤²": 3784,
      "Ġà¤¦à¤²à¤¹à¤¨": 3785,
      "Ġà¤¬à¤°à¤¬": 3786,
      "à¤ıà¤²à¤¬": 3787,
      "à¤¡à¤ļ": 3788,
      "Ġà¤Ĩà¤ĩà¤ķà¤¨": 3789,
      "Ġà¤ķà¤µà¤ļ": 3790,
      "Ġà¤ħà¤¨à¤ļ": 3791,
      "à¤ıà¤®à¤Ĩà¤°": 3792,
      "Ġà¤ħà¤¨à¤¹": 3793,
      "Ġà¤¹à¤°à¤ķ": 3794,
      "à¤īà¤ªà¤®": 3795,
      "Ġà¤ħà¤°à¤¬à¤ªà¤¤": 3796,
      "à¤²à¤ķà¤¨": 3797,
      "à¤ªà¤ł": 3798,
      "à¤ĸà¥ľ": 3799,
      "à¤ĸà¤®à¤°": 3800,
      "à¤¨à¤Ĺà¤¢": 3801,
      "à¤µà¤ĺà¤°": 3802,
      "à¥ľà¤µ": 3803,
      "Ġà¤Ĩà¤®à¤°à¤£": 3804,
      "Ġà¥§à¥ª": 3805,
      "Ġà¤¹à¤°à¤ľ": 3806,
      "à¤ķà¤°à¤¬à¤°": 3807,
      "Ġà¤¹à¥ľà¤ķ": 3808,
      "à¤³à¤ķà¤°": 3809,
      "Ġà¤¦à¤²à¤¦à¤²": 3810,
      "Ġà¤Ĩà¤Īà¤ĵà¤ıà¤¸": 3811,
      "à¤ĭà¤¤": 3812,
      "Ġà¤ħà¤«à¤ľà¤²": 3813,
      "Ġà¤°à¤¡": 3814,
      "Ġà¤Ńà¤Ĺà¤¦à¤¡": 3815,
      "Ġà¤ļà¤°à¤¸": 3816,
      "à¤¯à¤°à¤¬": 3817,
      "Ġà¤Ĩà¤ĩà¤²": 3818,
      "Ġà¥¨à¥«": 3819,
      "Ġà¤ħà¤¨à¤§": 3820,
      "Ġà¤¹à¤¯": 3821,
      "Ġà¤ħà¤ĸà¤°": 3822,
      "à¤¬à¤¦à¤®": 3823,
      "à¥ĺà¤¤": 3824,
      "Ġà¤ıà¤²à¤Ĩà¤Īà¤¸": 3825,
      "à¤¾',": 3826,
      "à¤ļà¥Ŀ": 3827,
      "<>": 3828,
      "à¥¦à¥¦à¥¦": 3829,
      "Ġà¤¬à¤ľà¤¤": 3830,
      "Ġà¤Ľà¤¤à¤°à¤ª": 3831,
      "Ġà¤¨à¤µà¤Ĺ": 3832,
      "Ġà¤İà¤¸": 3833,
      "à¤²à¤¬à¤¤": 3834,
      "Ġà¤¹à¤ł": 3835,
      "à¤²à¤¯à¤¨": 3836,
      "Ġà¤ªà¤ķà¤µ": 3837,
      "Ġà¤ħà¥Ļ": 3838,
      ",,,,": 3839,
      "à¤ıà¤²à¤¸": 3840,
      "à¤ıà¤¨à¤Ĩà¤Īà¤ı": 3841,
      "Ġà¤¨à¤ļ": 3842,
      "à¤¦à¤°à¤ª": 3843,
      "à¤¨à¤Ĺà¤°à¤ª": 3844,
      "Ġà¤ıà¤¤à¤°": 3845,
      "à¤ħà¤ľà¤®": 3846,
      "Ġà¤łà¤£": 3847,
      "Ġà¤·à¤¡à¤¯": 3848,
      "Ġà¤ĭà¤ļ": 3849,
      "à¤¨à¤¦à¤¹": 3850,
      "à¤¤à¤ĸà¤¤": 3851,
      "'à¥¤": 3852,
      "à¥¢": 3853,
      "à¤ıà¤¨à¤ıà¤¸à¤Ī": 3854,
      "Ġà¤ħà¤ľà¤Ĺà¤°": 3855,
      "Ġà¤®à¤²à¤ķ": 3856,
      "à¥įà¤Ĥ": 3857,
      "à¤¿/": 3858,
      "à¤®à¤¹à¤°": 3859,
      "Ġà¤ıà¤²à¤¬à¤®": 3860,
      "à¤¶à¤Ń": 3861,
      "Ġà¥ļà¤²à¤¤": 3862,
      "Ġà¤ĵà¤µà¤²": 3863,
      "à¤®à¤ªà¤¤": 3864,
      "à¤Łà¤Ĩà¤īà¤Ł": 3865,
      "Ġà¤Ķà¤ķ": 3866,
      "à¤¹à¤³": 3867,
      "à¥Į-": 3868,
      "à¤¼)": 3869,
      "à¤¸à¤ĺ": 3870,
      "Ġà¤Ĩà¤°à¤¡": 3871,
      "à¥ĭà¤Ĥ...": 3872,
      "à¤°à¤ľà¤ª": 3873,
      "Ġà¤īà¤¦à¤ĺ": 3874,
      "Ġà¤¬à¤¸à¤¤": 3875,
      "Ġà¤ķà¤®à¥Ľ": 3876,
      "Ġà¥©à¥¦": 3877,
      "Ġà¤¸à¤°à¤µ": 3878,
      "Ġà¤¶à¤¹à¤°à¤µ": 3879,
      "Ġà¤ıà¤ıà¤¨à¤Ĩà¤Ī": 3880,
      "Ġà¤¬à¤ľà¤¨": 3881,
      "Ġà¤¬à¤ª": 3882,
      "Ġà¤²à¤µà¤ķà¤°": 3883,
      "Ġà¤¹à¤µà¤²à¤¦": 3884,
      "Ġà¤Ĺà¤¬": 3885,
      "Ġ)à¥¤": 3886,
      "à¤®à¤¨à¤¸": 3887,
      "à¤ķà¤Łà¤¤à¤®": 3888,
      "à¤ĵà¤Ł": 3889,
      "à¥Īà¥¤...": 3890,
      "à¤²à¤¸à¤°": 3891,
      "à¤Ľà¤µ": 3892,
      "Ġà¤ħà¤ķà¤°à¤®": 3893,
      "à¤Ĥ:": 3894,
      "Ġà¤Łà¤ªà¤ķ": 3895,
      "à¥Ĥ:": 3896,
      "à¤¬à¤¹à¤°": 3897,
      "à¤ķà¤Łà¤µà¤°": 3898,
      "à¤ķà¤§": 3899,
      "Ġà¤ĩà¤ķà¤ł": 3900,
      "à¤°à¤®à¤°": 3901,
      "Ġà¤¹à¤°à¤µ": 3902,
      "à¤°à¤ªà¤Ł": 3903,
      "Ġà¤¬à¤¦à¤¸": 3904,
      "à¤ıà¤ıà¤¸": 3905,
      "Ġà¤ıà¤ıà¤¨": 3906,
      "à¤²à¤Ńà¤°": 3907,
      "Ġà¤ĩà¤¡": 3908,
      "Ġ(..": 3909,
      "Ġà¤ĵà¤¶": 3910,
      "Ġà¤§à¤¨à¤ĸà¤¡": 3911,
      "à¤ıà¤²à¤ª": 3912,
      "à¤ªà¤°à¤«": 3913,
      "à¤ıà¤¨à¤Ĩà¤°à¤¸": 3914,
      "à¤§à¤¬": 3915,
      "Ġ\"\"": 3916,
      "Ġà¥§à¥¬": 3917,
      "à¤į": 3918,
      "Ġ(/": 3919,
      "à¤īà¤ªà¤²à¤¬": 3920,
      "/>": 3921,
      "Ġà¤®à¤°à¤µ": 3922,
      "Ġà¤ıà¤®à¤ĵà¤¯": 3923,
      "à¤¯à¤¨à¤ķ": 3924,
      "Ġà¤ħà¤²à¤¸": 3925,
      "Ġà¤¸à¥Ľ": 3926,
      "Ġà¤¨à¤µà¤µà¤°": 3927,
      "à¤ıà¤¨à¤ıà¤ķ": 3928,
      "à¤¨à¤Īà¤¦": 3929,
      "Ġà¤Ľà¤¨": 3930,
      "Ġà¤īà¤²à¤Łà¤«": 3931,
      "Ġà¤ªà¤¦à¤®": 3932,
      "Ġà¤ªà¤łà¤¨": 3933,
      "Ġà¤ļà¤ªà¤°": 3934,
      "Ġà¤Ĩà¤·": 3935,
      "à¤¹à¤¥": 3936,
      "à¤°à¤¶à¤°": 3937,
      "Ġà¤ľà¤®à¤¨": 3938,
      "Ġà¤Ńà¤Łà¤¨": 3939,
      "à¤¯à¤ķà¤°à¤£": 3940,
      "à¤¼à¥Ģà¤Ĥ": 3941,
      "à¤µà¤°à¤²": 3942,
      "à¤ķà¤®à¤²à¤¨": 3943,
      "à¤¬à¤¤à¤ļ": 3944,
      "à¥Īà¤Ĥà¥¤\"": 3945,
      "Ġà¤¯à¤¶à¤¸": 3946,
      "à¤ľà¤¬à¤²à¤ª": 3947,
      "à¤£à¤¤à¤¯": 3948,
      "Ġà¤®à¤Ĺà¤°à¤®à¤ļ": 3949,
      "///": 3950,
      "à¤µà¤«": 3951,
      "Ġà¤¤à¤Łà¤¸": 3952,
      "Ġà¤Ĩà¤īà¤Łà¤ª": 3953,
      "Ġà¤ħà¤¨à¤¬à¤¨": 3954,
      "Ġà¤īà¤ĸà¤¡": 3955,
      "à¤³à¤ķ": 3956,
      "à¤®à¤²à¤²": 3957,
      "Ġà¤¹à¤°à¤«à¤¨à¤®": 3958,
      "Ġà¤ıà¤¸à¤ıà¤¸à¤¸": 3959,
      "à¤ıà¤²à¤Ĩà¤°": 3960,
      "Ġà¤ıà¤²à¤ĵà¤¸": 3961,
      "Ġà¤Ĩà¤īà¤Łà¤«": 3962,
      "à¤īà¤¸à¤«": 3963,
      "à¤¡à¤°à¤¶": 3964,
      "à¤Łà¤¨à¤°à¤¶": 3965,
      "Ġà¤ıà¤¯à¤°à¤¸": 3966,
      "Ġà¤²à¥ľà¤¤": 3967,
      "à¤®à¤Ŀ": 3968,
      "Ġà¤ıà¤²à¤Ł": 3969,
      "à¤°à¤Ľ": 3970,
      "Ġà¤Ĩà¤ªà¤¬": 3971,
      "à¤¡à¤¡": 3972,
      "à¤Ĩà¤²à¤®": 3973,
      "Ġà¤¶à¤«": 3974,
      "Ġà¤®à¤¨à¤¦": 3975,
      "Ġà¤¸à¤°à¤Ĺà¤°": 3976,
      "Ġà¤¯à¤®à¤°": 3977,
      "Ġà¤ıà¤²à¤¸": 3978,
      "à¤ıà¤¸à¤Ĩà¤°": 3979,
      "à¤°à¤¤à¤Ł": 3980,
      "à¤ıà¤®à¤ıà¤«": 3981,
      "à¥Ľà¤¤": 3982,
      "à¤³à¤ĸ": 3983,
      "à¤Īà¤Ĺ": 3984,
      "Ġà¤ĩà¤¥": 3985,
      "Ġà¤Īà¤¡à¤¨": 3986,
      "à¤°à¤ĸà¤°": 3987,
      "Ġà¤®à¤Ĭ": 3988,
      "Ġà¤Ĩà¤ªà¤®": 3989,
      "à¥ĭ|": 3990,
      "à¤¡à¤°à¤µà¤°": 3991,
      "à¤¼à¤¾à¤Ĥ": 3992,
      "à¤ªà¤Łà¤ķ": 3993,
      "Ġà¤ķà¤Łà¤ĺà¤°": 3994,
      "à¥į.": 3995,
      "Ġà¤¸à¤®à¤°à¤¸à¤¤": 3996,
      "à¤¸à¤°à¤¦": 3997,
      "Ġà¤ľà¤Ĺà¤®à¤Ĺ": 3998,
      "à¤¥à¤°à¤¸": 3999,
      "Ġà¤ĩà¤ķà¤¨": 4000,
      "à¤¦à¤°à¤ľ": 4001,
      "à¤¤à¤Ńà¤°": 4002,
      "à¤°à¤£à¤¯": 4003,
      "Ġà¤§à¤°à¤®": 4004,
      "à¤®à¤¶à¤¹": 4005,
      "Ġà¤«à¤ľ": 4006,
      "à¤ľà¤ĺ": 4007,
      "à¤ļà¤¶": 4008,
      "Ġà¤¶à¤Łà¤°": 4009,
      "à¥Ĥà¥į": 4010,
      "Ġ---,": 4011,
      "à¤ĳà¤¨": 4012,
      "à¤Ĩà¤ĩà¤Ł": 4013,
      "à¤µà¤°à¤«": 4014,
      "à¤īà¤ľà¤°": 4015,
      "à¤¯à¤ļà¤ķ": 4016,
      "Ġà¤łà¤°": 4017,
      "à¤°à¤Ĺà¥Ŀ": 4018,
      "Ġà¤¹à¤µà¤¸": 4019,
      "Ġà¥ļà¥Ľà¤²": 4020,
      "à¤¡à¤ķà¤ª": 4021,
      "Ġ~": 4022,
      "Ġà¤ıà¤ļà¤Ł": 4023,
      "à¤ļà¤²à¤°": 4024,
      "Ġà¤¬à¤°à¤¨": 4025,
      "à¤§à¤°à¤¤": 4026,
      "à¤µà¤¨à¤¦": 4027,
      "Ġà¤¨à¤²à¤ķ": 4028,
      "Ġà¤ħà¤ľà¤¬": 4029,
      "Ġà¤¤à¤¸à¤²": 4030,
      "Ġà¤ħà¤¥à¤ķ": 4031,
      "à¤°à¤Ī": 4032,
      "à¤«à¤ķ": 4033,
      "à¤ľà¤Ĺà¤¤": 4034,
      "Ġà¤Ĩà¤µà¤°": 4035,
      "Ġà¤ªà¤ķà¤¨": 4036,
      "Ġà¤¼": 4037,
      "Ġà¤īà¤ĺ": 4038,
      "à¤¶à¤Ĺ": 4039,
      "à¤Ĺà¤®à¤¤": 4040,
      "Ġà¤ıà¤¡à¤µà¤°": 4041,
      "Ġ!!!": 4042,
      "Ġà¤®à¤¢": 4043,
      "Ġà¤¬à¤¢à¤¨": 4044,
      ".......": 4045,
      "Ġà¤Ĩà¤µà¤°à¤£": 4046,
      "Ġà¤¸à¤°à¤¤": 4047,
      "Ġà¤ħà¤¬à¤ķ": 4048,
      "Ġà¤ľà¤²à¤Ńà¤°": 4049,
      "Ġà¤¹à¤¶": 4050,
      "Ġà¤ķà¤®à¤¬à¤ĸ": 4051,
      "Ġà¤¬à¤°à¤ĸ": 4052,
      "Ġà¤ľà¤¯à¤¤": 4053,
      "à¤ķà¤³": 4054,
      "à¤·à¤¯à¤ķ": 4055,
      "à¤°à¤§à¤¨": 4056,
      "Ġà¤¬à¤¦à¤²à¤µ": 4057,
      "à¤µà¤¦à¤²": 4058,
      "Ġ/,": 4059,
      "Ġà¤Ĩà¤¹à¤Ł": 4060,
      "à¤·à¤¶": 4061,
      "à¤¸à¤Ī": 4062,
      "Ġà¤¡à¤®": 4063,
      "à¥ĩ),": 4064,
      "Ġà¤Ľà¤ªà¤¨": 4065,
      "Ġà¤ħà¤ľà¤¨à¤¬": 4066,
      "Ġà¤ļà¤ĸ": 4067,
      "à¤Ńà¤°à¤ķà¤®": 4068,
      "Ġà¤ħà¤°à¤¶à¤¦": 4069,
      "à¤¸à¥ľà¤ķ": 4070,
      "à¤Ŀà¤Ł": 4071,
      "à¤²à¤ĺà¤°": 4072,
      "Ġà¤°à¤¥à¤¯": 4073,
      "Ġà¤ħà¤¡à¤ļà¤£": 4074,
      "Ġà¤ļà¤ķà¤®": 4075,
      "Ġà¥§à¥©": 4076,
      "à¤¾à¥Ģ": 4077,
      "Ġà¤ªà¤ķà¥ľà¤ķà¤°": 4078,
      "Ġà¤ħà¤Łà¤²à¤ľ": 4079,
      "à¤¸à¤¯": 4080,
      "à¤¦à¤°à¤¬": 4081,
      "à¤ľà¤¨à¤ªà¤¦": 4082,
      "Ġà¤¸à¤ļà¤¦": 4083,
      "à¤¨à¤µà¤®": 4084,
      "à¤§à¤£": 4085,
      ");": 4086,
      "à¤¸à¤¨à¤°": 4087,
      "Ġà¤ħà¤¦à¤¨": 4088,
      "Ġà¤Ĩà¤Īà¤¯": 4089,
      "à¤¯à¤¦à¤°": 4090,
      "à¤£à¤¦": 4091,
      "à¤µà¤§à¤°": 4092,
      "'.": 4093,
      "Ġà¤Ĭà¤¤à¤ķ": 4094,
      "Ġà¤ħà¤¨à¤°": 4095,
      "Ġà¤¸à¤¨à¤ķ": 4096,
      "à¤ħà¤µà¤§": 4097,
      "Ġ@:": 4098,
      "à¤Ĺà¤Ń": 4099,
      "Ġà¤ľà¤¨à¤ķà¤²": 4100,
      "Ġà¤¸à¤°à¤ľà¤®": 4101,
      "à¤®à¤¨à¤ª": 4102,
      "Ġà¤ĩà¤·": 4103,
      "Ġà¤Ĩà¤ĩà¤ª": 4104,
      "Ġà¥ĩ": 4105,
      "Ġà¤Ĩà¤£à¤²": 4106,
      "à¥Īà¤ģ": 4107,
      "à¤µà¤¶à¤ķ": 4108,
      "Ġà¤«à¤¤à¤¹": 4109,
      "à¤¡à¤¹": 4110,
      "à¤ĸà¤ľ": 4111,
      "Ġà¤ħà¤¤à¤°": 4112,
      "Ġà¤ĵà¤ıà¤¸": 4113,
      "à¤Ĳà¤¶": 4114,
      "à¤Ľà¤ª": 4115,
      "Ġà¤¡à¤²à¤µ": 4116,
      "à¤¬à¤Īà¤¤": 4117,
      "Ġà¤ħà¥Ļà¤¬": 4118,
      "à¤Ĥ)": 4119,
      "Ġà¤¤à¤°à¤¬": 4120,
      "Ġà¤§à¤¤": 4121,
      "Ġà¤ľà¤¸à¤¬": 4122,
      "à¤ļà¤µà¤°": 4123,
      "à¥Ī.'": 4124,
      "</>": 4125,
      "Ġà¤Ĩà¤¯à¤¶": 4126,
      "à¤Łà¤°à¤¸à¤¨": 4127,
      "à¤ĵà¤¨": 4128,
      "Ġ-)": 4129,
      "Ġ@.": 4130,
      "à¤¨à¤Ń": 4131,
      "à¤Ĺà¤£à¤¤": 4132,
      "Ġà¤ļà¤¸": 4133,
      "à¤¹à¤¨à¤µ": 4134,
      "Ġà¤Ĺà¤ľà¤°": 4135,
      "Ġà¤®à¤¨à¤ªà¤¸": 4136,
      "Ġà¤ıà¤®à¤ıà¤¸à¤ª": 4137,
      "à¤¬à¤°à¤²": 4138,
      "Ġà¤¬à¤®à¤¬": 4139,
      "Ġà¤ªà¤°à¤ļ": 4140,
      "Ġà¤ıà¤¸à¤µ": 4141,
      "à¤¯à¤Ĺà¤¢": 4142,
      "à¤®à¤¸à¤Ń": 4143,
      "Ġà¤²à¤¥": 4144,
      "à¥Ģà¤Ĥ...": 4145,
      "à¤¾.\"": 4146,
      "Ġà¤ıà¤¨à¤ıà¤¸à¤Ī": 4147,
      "à¤¡à¤°à¤Ĺ": 4148,
      "Ġà¤²à¤¨": 4149,
      "\\\\": 4150,
      "Ġà¤¬à¤¦à¤¤à¤®": 4151,
      "Ġà¤¥à¤ªà¤¥": 4152,
      "à¤¤à¤ĸ": 4153,
      "Ġà¤¬à¤°à¤ķ": 4154,
      "Ġà¤¨à¤¸à¤¬": 4155,
      "-:": 4156,
      "à¤°à¥ŀ": 4157,
      "à¤¹à¤Łà¤²": 4158,
      "Ġà¤¨à¤µà¤¯": 4159,
      "Ġà¤ĩà¤¤à¤ķ": 4160,
      "à¤¡à¤¸à¤¨": 4161,
      "Ġà¤²à¤ĸà¤µ": 4162,
      "Ġà¤Ŀà¤ª": 4163,
      "à¤ªà¤ªà¤¤": 4164,
      "à¤Ĩà¤Īà¤ıà¤¸à¤ıà¤«": 4165,
      "Ġà¤īà¤Ńà¤°à¤¨": 4166,
      "Ġà¤ĵà¤ķà¤°": 4167,
      "Ġà¤ĺà¤ªà¤²": 4168,
      "à¤®à¤ľà¤¨": 4169,
      "à¤Łà¤¹": 4170,
      "Ġà¤ªà¤ĸ": 4171,
      "Ġà¤ħà¤¸à¤²à¤®": 4172,
      "à¤Ĺà¤Ĺ": 4173,
      "Ġà¤¥à¤ªà¤¥à¤ª": 4174,
      "à¥ĩà¤Ĥ..": 4175,
      "à¥Ģà¤Ĥ:": 4176,
      "Ġà¤ĵà¤¨": 4177,
      "Ġà¤Ľà¤¦": 4178,
      "à¤Ĥ?": 4179,
      "à¤¢à¤ķ": 4180,
      "Ġà¤Ĩà¤ĸà¤°": 4181,
      "Ġà¤¤à¥ľà¤ķ": 4182,
      "à¤µà¤¥": 4183,
      "Ġà¤«à¤²à¤ķ": 4184,
      "Ġà¤ĩà¤®à¤²": 4185,
      "à¤ªà¤²à¤Ł": 4186,
      "Ġà¤ĸà¤ļ": 4187,
      "à¤¥à¤ķà¤¤": 4188,
      "Ġà¤Īà¤ıà¤®à¤Ĩà¤Ī": 4189,
      "Ġà¤¤à¤¬à¤¸": 4190,
      "Ġà¤Ĩà¤¨à¤²": 4191,
      "Ġà¤°à¤¨à¤µ": 4192,
      "à¤¸à¤²à¤¨": 4193,
      "à¤¾à¤Ĥ'": 4194,
      "à¤¹à¤¤à¤®": 4195,
      "Ġà¤ħà¤ľà¤µ": 4196,
      "Ġà¤Ĩà¤ķà¤¡": 4197,
      "Ġà¤Ĩà¤īà¤Łà¤¡": 4198,
      "à¤®à¤¦à¤Ĺ": 4199,
      "à¥Ģ',": 4200,
      "à¤«à¤¸à¤²": 4201,
      "à¤ļà¤Ĺ": 4202,
      "à¤¯à¤²à¤¯": 4203,
      "Ġà¤Ĩà¤Īà¤Ĩà¤Īà¤ıà¤®": 4204,
      "Ġà¤ªà¤°à¤Ĺà¤¨": 4205,
      "à¤¸à¤¹à¤µ": 4206,
      "à¤Ĩà¤ĩà¤¯": 4207,
      "Ġà¤Ĩà¤£à¤ĸ": 4208,
      "à¤Ĩà¤°à¤¤": 4209,
      "à¤µà¤¨à¤¡": 4210,
      "Ġà¤Ŀà¤°": 4211,
      "à¤®à¤«à¤²": 4212,
      "Ġà¤ıà¤ļà¤Ĩà¤°": 4213,
      "à¤ľà¤²à¤µ": 4214,
      "à¥ľà¤«": 4215,
      "Ġà¤²à¤µà¤²": 4216,
      "à¤ľà¤ªà¤¥": 4217,
      "Ġà¤²à¤¢": 4218,
      "Ġà¤ıà¤¨à¤ĵà¤¸": 4219,
      "Ġà¤Ľà¤ªà¤µ": 4220,
      "à¤²à¤¹à¤°": 4221,
      "à¤ĳà¤¡": 4222,
      "Ġà¤¤à¤¬à¤¦": 4223,
      "Ġà¤¸à¤°à¤¬à¤ľ": 4224,
      "à¤¾à¥¤[]": 4225,
      "Ġ>>": 4226,
      "à¤°à¤ĸà¤¨": 4227,
      "Ġà¤®à¤¨à¤¨": 4228,
      "Ġà¤¨à¤¸à¤°": 4229,
      "Ġà¤¬à¤°à¤µ": 4230,
      "à¤®à¤¢": 4231,
      "Ġà¤Ĩà¤¯à¤²": 4232,
      "Ġà¤§à¤®à¤¨": 4233,
      "à¤¬à¤°à¤ļ": 4234,
      "à¤°à¤®à¤£à¤ķ": 4235,
      "à¤°à¤ľà¤ķ": 4236,
      "à¤¼:": 4237,
      "Ġà¤²à¤¥à¤ªà¤¥": 4238,
      "Ġà¤ĸà¤ª": 4239,
      "à¤ĸà¤°à¤¨": 4240,
      "à¤Īà¤ķà¤°": 4241,
      "Ġà¥«à¥¦": 4242,
      "à¤Ŀà¤¬": 4243,
      "Ġà¤Ŀà¤®": 4244,
      "à¤µà¤°à¤¹": 4245,
      "à¤ľà¤¨à¤ľ": 4246,
      "à¤ıà¤®à¤Ĩà¤°à¤¸": 4247,
      "Ġà¤¹à¤®à¤¦à¤°": 4248,
      "à¤Łà¤²à¤®": 4249,
      "Ġà¥¨à¥¦à¥§à¥®": 4250,
      "Ġà¥§à¥Ń": 4251,
      "Ġà¤ıà¤®à¤ıà¤¸à¤ıà¤®à¤Ī": 4252,
      "à¤«à¤¸": 4253,
      "à¤°à¤µà¤¶": 4254,
      "Ġà¤ıà¤¨à¤Ĩà¤°à¤Ĩà¤Ī": 4255,
      "Ġà¤ļà¤°à¤®à¤°": 4256,
      "Ġ).": 4257,
      "Ġà¤°à¥ŀ": 4258,
      "à¤ķà¤ļà¤°": 4259,
      "à¤¼.": 4260,
      "à¤ĺà¤¤": 4261,
      "à¤ģ.": 4262,
      "à¤ıà¤®à¤¡à¤¬": 4263,
      "à¤Īà¤µà¤°": 4264,
      "à¤īà¤®à¤°": 4265,
      "à¤¶à¤¨à¤Ĺ": 4266,
      "à¤Ĺà¤µà¤°": 4267,
      "à¤ıà¤¸à¤ıà¤®": 4268,
      "à¤ľà¤Ĺà¤¦": 4269,
      "à¤Ĥà¥Ī": 4270,
      "à¤ľà¤¸à¤®": 4271,
      "Ġà¤¹à¤°à¤Ĺ": 4272,
      "Ġà¤ıà¤®à¤ıà¤²à¤¸": 4273,
      "Ġà¤Ńà¤°à¤²": 4274,
      "Ġà¤ķà¤§": 4275,
      "Ġà¤īà¤Ĺà¤²": 4276,
      "à¥¤\"": 4277,
      "à¤°à¤®à¤§": 4278,
      "Ġà¤Ńà¤Ī": 4279,
      "Ġà¤ıà¤²à¤¡": 4280,
      "Ġà¤ħà¤¡à¤µ": 4281,
      "à¤°à¤µà¤¤": 4282,
      "à¤£à¤°": 4283,
      "Ġà¤Ľà¤¤à¤°": 4284,
      "à¤ıà¤¸à¤¡à¤¬": 4285,
      "à¥Ģ./": 4286,
      "à¤ħà¤¸à¤°": 4287,
      "Ġà¤ıà¤¨à¤ıà¤¸à¤ľ": 4288,
      "à¤ıà¤ıà¤²": 4289,
      "Ġà¤īà¤¶": 4290,
      "à¤®à¤Ĭ": 4291,
      "à¤®à¤¬à¤°": 4292,
      "Ġà¤Ĩà¥Ļ": 4293,
      "à¥ľà¤®": 4294,
      "à¤Ĩà¤ªà¤°": 4295,
      "à¤¥à¤Ĺà¤¨": 4296,
      "à¤¤à¤¨à¤Ĺà¤°": 4297,
      "Ġ():": 4298,
      "Ġà¤²à¤«": 4299,
      "****************": 4300,
      "Ġà¤²à¤ļà¤°": 4301,
      "Ġà¤®à¤¨à¤ļà¤²": 4302,
      "Ġà¤ħà¤ªà¤¶": 4303,
      "à¤¸à¤¹à¤¨": 4304,
      "Ġà¤ħà¤¨à¤Ń": 4305,
      "à¤ľà¤¦à¤¯": 4306,
      "à¥Ģ....": 4307,
      "Ġà¤µà¤¨à¤ª": 4308,
      "à¤Ĺà¤§": 4309,
      "Ġà¤ıà¤¸à¤ı": 4310,
      "à¤¯à¤µà¤¶": 4311,
      "à¤³à¤ļ": 4312,
      "à¤ıà¤²à¤¡": 4313,
      "................": 4314,
      "à¤¬à¤ľà¤°": 4315,
      "Ġà¤¸à¤¹à¤ª": 4316,
      "à¤¿à¥ĩ": 4317,
      "à¤łà¤®à¤²": 4318,
      "Ġ}": 4319,
      "Ġ(..)": 4320,
      "à¤¤à¤°à¤ľ": 4321,
      "à¤µà¤¨à¤ķ": 4322,
      "Ġà¤¶à¤¹à¤¡": 4323,
      "Ġà¤ªà¤¨à¤ªà¤¨": 4324,
      "Ġà¤ķà¤Łà¤ķ": 4325,
      "à¤¦à¤ľ": 4326,
      "Ġà¤ľà¤°à¤¦": 4327,
      "Ġà¤ľà¤¬à¤¤à¤ķ": 4328,
      "à¤¶à¤°à¤£": 4329,
      "à¤ĸà¤ªà¤¤": 4330,
      "à¤ıà¤²à¤ı": 4331,
      "Ġà¤Ĩà¤£à¤£": 4332,
      "à¤¡à¤¹à¤°": 4333,
      "à¥Ĥà¤ģ?": 4334,
      "Ġà¤ľà¤Ĺà¤¦à¤²à¤ª": 4335,
      "Ġà¤Ĺà¤¬à¤¨": 4336,
      "Ġà¤īà¤®à¥ľ": 4337,
      "à¤®à¤°à¤ķ": 4338,
      "Ġà¤¤à¤®à¤Ĺ": 4339,
      "Ġà¤¹à¤®à¤®": 4340,
      "Ġà¤ıà¤¨à¤Ĩà¤Īà¤Ł": 4341,
      "Ġ.-.": 4342,
      "à¤ıà¤¸à¤Ĩà¤Īà¤Ł": 4343,
      "Ġà¤Ĺà¤°à¤¬": 4344,
      "Ġà¤Ĩà¤Īà¤Ĩà¤°à¤¸": 4345,
      "à¤µà¤²à¤¨": 4346,
      "Ġà¤¬à¤³": 4347,
      "Ġà¤ļà¤¤à¤°": 4348,
      "Ġà¤¸à¥ŀà¤°": 4349,
      "à¤¸à¤³": 4350,
      "à¤²à¤ªà¤®": 4351,
      "Ġà¤Ĩà¤ĩà¤¨": 4352,
      "à¤Ńà¤¡": 4353,
      "Ġà¤ıà¤ķà¤¨": 4354,
      "Ġà¤ĵà¤ľ": 4355,
      "Ġà¤¹à¤°à¤¨": 4356,
      "à¤ľà¤¯à¤ķ": 4357,
      "à¤¶à¤Ł": 4358,
      "Ġà¤ľà¤¨à¤ķà¤ª": 4359,
      "à¤ıà¤ķà¤¤": 4360,
      "à¤²à¤¸à¤¨": 4361,
      "à¤ĩà¤¸à¤ľ": 4362,
      "à¥ĩà¥¤\"": 4363,
      "Ġà¤ªà¤Ĺà¤²": 4364,
      "à¤¯à¤Ńà¤°": 4365,
      "Ġà¤ıà¤¸à¤ıà¤«à¤Ĩà¤Ī": 4366,
      "à¤§à¤®à¤ķ": 4367,
      "à¤ĩà¤®à¤²": 4368,
      "à¤Ĺà¤²à¤¸": 4369,
      "à¤Ĺà¤²à¤°": 4370,
      "Ġà¤ªà¤ķà¤¡à¤©": 4371,
      "Ġà¤Ĩà¤¯à¤¨": 4372,
      "à¤ªà¤ķà¤²": 4373,
      "à¤¯à¤¸à¤¨": 4374,
      "à¤¥à¤¨à¤Ĺà¤°": 4375,
      "Ġà¤ħà¤¢": 4376,
      "à¤¹à¤Ĺà¤¢": 4377,
      "Ġà¤¤à¤¨à¤µ": 4378,
      "Ġà¤¸à¤®à¤ľ": 4379,
      "à¤¤à¤®à¤¸": 4380,
      "Ġà¤Ŀà¤²à¤ķà¤¤": 4381,
      "à¤®à¤ľà¤¬": 4382,
      "Ġà¤£": 4383,
      "à¤Ŀà¤ľ": 4384,
      "à¥ĩ....": 4385,
      "à¤µà¤ļà¤¨": 4386,
      "Ġà¤²à¤Łà¤ķà¤¤": 4387,
      "à¤§à¤¨à¤¤": 4388,
      "Ġà¤łà¤¹": 4389,
      "à¤Ĩà¤ĵ": 4390,
      "Ġà¤ķà¤®à¤¤à¤°": 4391,
      "Ġà¤¬à¤¸à¤°": 4392,
      "Ġà¤Ĩà¤ĩà¤ķ": 4393,
      "Ġà¤īà¤¤à¤°à¤µ": 4394,
      "Ġà¥Ŀ": 4395,
      "Ġà¤Ĺà¤ĩà¤²": 4396,
      "à¥Ĥà¥Ĥ": 4397,
      "Ġà¤ıà¤«à¤¬": 4398,
      "à¥ľà¤²": 4399,
      "Ġà¤ıà¤ıà¤®à¤¯": 4400,
      "Ġà¤ıà¤®à¤ıà¤¸à¤¸": 4401,
      "Ġà¤·à¤·": 4402,
      "à¤Ńà¤§": 4403,
      "à¤ľà¤ªà¤ķ": 4404,
      "Ġà¤®à¤¨à¤ķ": 4405,
      "Ġà¤ļà¤ķà¤°": 4406,
      "Ġà¤¹à¤Łà¤¤": 4407,
      "Ġà¤Ľà¤²à¤¨": 4408,
      "à¤°à¤ķà¤¡": 4409,
      "Ġà¤®à¥Ľà¤¦": 4410,
      "à¥¥à¥¥": 4411,
      "à¤ħà¤«à¤¸à¤°": 4412,
      "Ġà¤ķà¤łà¤ª": 4413,
      "Ġà¤Ĩà¤¦à¤°à¤£": 4414,
      "Ġà¤ıà¤¨à¤µ": 4415,
      "à¤ħà¤ķà¤¬à¤°": 4416,
      "à¥įà¥¤": 4417,
      "à¤łà¤ª": 4418,
      "à¤¤à¤§": 4419,
      "à¤Ĩà¤Īà¤ıà¤®à¤Ĩà¤Īà¤ıà¤®": 4420,
      "Ġà¤Ľà¤²à¤ķ": 4421,
      "à¥ĩà¤Ĥ'": 4422,
      "Ġà¤ļà¤°à¤£à¤¬à¤¦": 4423,
      "Ġà¤ĺà¤¨à¤¤": 4424,
      "à¤¹à¤ķà¤°": 4425,
      "à¤£à¤ļ": 4426,
      "à¤°à¤®à¤¸": 4427,
      "à¤¸à¤¨à¤¹": 4428,
      "Ġà¤¨à¤¨à¤¦": 4429,
      "à¤¤à¤ľà¤¨": 4430,
      "à¤ıà¤¸à¤ıà¤¸à¤¸": 4431,
      "Ġ(.)": 4432,
      "à¤¾à¤¿": 4433,
      "Ġà¤Īà¤ĵ": 4434,
      "à¤¾,\"": 4435,
      "Ġà¤¬à¤ļà¤ķà¤°": 4436,
      "à¤°à¤¬à¤°": 4437,
      "à¤¨à¤¬à¤°": 4438,
      "à¤Ĺà¤®à¤Ĺ": 4439,
      "Ġà¤°à¤¨à¤°": 4440,
      "Ġà¤ĵà¤¹à¤¦": 4441,
      "à¤ıà¤«à¤ıà¤²": 4442,
      "à¤ªà¤Ĺà¥Ŀ": 4443,
      "à¤¼à¥ĩà¤Ĥ,": 4444,
      "Ġà¥¨à¥ª": 4445,
      "Ġà¤¯à¤¸": 4446,
      "Ġà¤ªà¤°à¤ĸà¤¨": 4447,
      "à¤īà¤ªà¤ļ": 4448,
      "Ġà¤Ĺà¤Ĺà¤°": 4449,
      "à¤¤à¤²à¤¹à¤°": 4450,
      "à¥ģ)": 4451,
      "Ġà¤ľà¤¬à¤¸": 4452,
      "à¤¤à¤¬à¤°": 4453,
      "Ġà¤ıà¤®à¤µ": 4454,
      "à¤¬à¤°à¤®à¤¤": 4455,
      "à¤ıà¤¯à¤°à¤Ł": 4456,
      "à¤µà¤Łà¤°": 4457,
      "à¤ĩà¤Łà¤¨": 4458,
      "à¤Ĩà¤Ĩ": 4459,
      "à¤Ĺà¥Ľ": 4460,
      "Ġà¤ħà¤¨à¤µà¤°à¤¤": 4461,
      "à¤°à¤ľà¤®": 4462,
      "Ġà¤ıà¤¡à¤ľà¤¸": 4463,
      "Ġà¤Ľà¤łà¤µ": 4464,
      "Ġà¤ĩà¥Ľ": 4465,
      "Ġà¤ıà¤®à¤ıà¤²à¤ı": 4466,
      "Ġà¤®à¤¨à¤®à¤°": 4467,
      "à¤Łà¤ķà¤Ł": 4468,
      "Ġà¤ķà¤¨à¤ķ": 4469,
      "Ġà¤¸à¤¤à¤²": 4470,
      "Ġà¤ľà¤¸à¤²": 4471,
      "Ġà¤īà¤®à¤¸": 4472,
      "Ġà¤Ńà¥ľ": 4473,
      "Ġà¤īà¤¹": 4474,
      "à¤®à¤£à¤µ": 4475,
      "à¥Īà¤Ĥà¥¤'": 4476,
      "Ġà¤īà¤Ĺà¤¤": 4477,
      "-.": 4478,
      "à¥§à¥¨": 4479,
      "-]": 4480,
      "Ġà¥§à¥¦à¥¦": 4481,
      "Ġà¤ķà¤łà¤ĺà¤°": 4482,
      "Ġà¤°à¤Ł": 4483,
      "à¤ıà¤¸à¤ıà¤²à¤µ": 4484,
      "à¤²à¤Ī": 4485,
      "à¤Īà¤Ĩà¤°à¤Ł": 4486,
      "à¤Łà¤¨à¤®": 4487,
      "Ġà¤Ĳà¤°": 4488,
      "à¤µà¤¨à¤Ĺà¤°": 4489,
      "Ġà¤ıà¤ķà¤®à¤¤": 4490,
      "Ġà¤¶à¤Ĺ": 4491,
      "à¥Ģà¤Ĥ|": 4492,
      "à¤¡à¤µà¤°": 4493,
      "à¤¬à¤²à¤°": 4494,
      "à¤°à¤¸à¤ķ": 4495,
      "à¤Ĩà¤¦à¤°": 4496,
      "à¤¯à¤£à¤ª": 4497,
      "Ġà¤Ĩà¤¸à¤°": 4498,
      "Ġà¤¨à¤°à¤Ĺ": 4499,
      "à¤Ĥà¥Ĥ": 4500,
      "à¤ķà¤¬à¤¸": 4501,
      "Ġà¤ħà¤ķà¤²": 4502,
      "à¤¾):": 4503,
      "Ġà¤ľà¤ľà¤ª": 4504,
      "à¤°à¤Ńà¤ķ": 4505,
      "à¤¹à¤²à¤¨": 4506,
      "Ġà¤©": 4507,
      "Ġà¤Ŀà¤ªà¤Ł": 4508,
      ".(": 4509,
      "à¥ģà¤¼": 4510,
      "Ġà¤¡à¤¬à¤µ": 4511,
      "Ġà¤¬à¤¨à¤²": 4512,
      "Ġà¤ªà¤²à¤¡": 4513,
      "à¤Ĩà¤¦à¤®": 4514,
      "à¤¦à¤«": 4515,
      "à¤¬à¤Łà¤¨": 4516,
      "à¤Ŀà¤¡": 4517,
      "à¥ħà¤Ĥ": 4518,
      "à¤Ńà¤ļ": 4519,
      "Ġà¤ľà¤¯à¤µà¤°": 4520,
      "Ġà¤°à¤ļà¤¤": 4521,
      "Ġà¤ħà¤ªà¤¹": 4522,
      "à¤ıà¤«à¤ı": 4523,
      "à¤Ŀà¤²": 4524,
      "Ġà¤Ĩà¤łà¤µà¤¡": 4525,
      "à¤ľà¤¨à¤Ĺà¤°": 4526,
      "à¥©à¥¦": 4527,
      "à¤¦à¤°à¤µ": 4528,
      "Ġà¤ħà¤¸à¤Ń": 4529,
      "Ġà¤ħà¥Ľ": 4530,
      "à¤°à¤®à¤ķ": 4531,
      "à¤ķà¤®à¤ľ": 4532,
      "à¤¼/": 4533,
      "Ġ,-,": 4534,
      "Ġà¤ľà¤Ĺà¤°": 4535,
      "Ġà¤Ńà¤ľ": 4536,
      "Ġà¤¨à¤µà¤µ": 4537,
      "à¤Ĩà¤ªà¤¸": 4538,
      "à¤īà¤¡à¤¸": 4539,
      "à¤Ĭà¤¤": 4540,
      "Ġà¤¤à¤¸à¤µ": 4541,
      "Ġà¤¸à¤®à¤¯à¤¬à¤¦": 4542,
      "Ġà¤ıà¤«à¤ıà¤®": 4543,
      "à¤Ĩà¤¸à¤ª": 4544,
      "Ġà¤ľà¤°à¤¨": 4545,
      "Ġà¤Ĩà¤Īà¤²": 4546,
      "Ġà¤Ĺà¤¹à¤¨à¤¤": 4547,
      "Ġà¤Ĳà¤ľ": 4548,
      "Ġ-:": 4549,
      "à¤Ĩà¤ĩà¤¡": 4550,
      "à¤Łà¤¶": 4551,
      "Ġà¤Ĭà¤¸": 4552,
      "Ġà¤ķà¤°à¤Ĺ": 4553,
      "à¤®à¤¨à¤µà¤®": 4554,
      "à¤¶à¤²à¤®": 4555,
      "Ġà¤µà¤Ł": 4556,
      "Ġà¤²à¤µà¤°": 4557,
      "à¤¬à¤°à¤¨": 4558,
      "à¤ıà¤¯à¤°à¤ª": 4559,
      "Ġà¤ĭà¤Ĺ": 4560,
      "Ġà¤Ńà¤¨": 4561,
      "Ġà¤¡à¤²à¤¹": 4562,
      "à¤ľà¤¯à¤¸": 4563,
      "Ġà¤¡à¤¯": 4564,
      "Ġà¤ıà¤¨à¤ıà¤®": 4565,
      "à¥į&;": 4566,
      "Ġà¤ĩà¤¨à¤¬": 4567,
      "à¤¨à¤®à¤ķ": 4568,
      "Ġà¤Ĩà¤°à¤Ĩà¤°à¤¬": 4569,
      "à¤¦à¤ĸ": 4570,
      "Ġà¤ıà¤®à¤Ĩà¤Ī": 4571,
      "à¤¹à¤¤à¤Ĺ": 4572,
      "à¤µà¤Ńà¤°": 4573,
      "à¤¸à¤®à¤§": 4574,
      "à¥Ī)à¥¤": 4575,
      "à¤ıà¤²à¤ĵ": 4576,
      "Ġà¤ħà¤¦à¤²": 4577,
      "Ġà¤¤à¤°à¤¤": 4578,
      "à¤¸à¤²à¤ķà¤°": 4579,
      "Ġà¤¬à¤¸à¤µ": 4580,
      "||": 4581,
      "Ġà¤®à¤ķà¤¬à¤°": 4582,
      "Ġà¤«à¤£": 4583,
      "Ġà¤ħà¤ľà¤®à¤²": 4584,
      "à¤¨à¤¹à¤Ĺ": 4585,
      "à¤ĵà¤ªà¤¨": 4586,
      "Ġà¤ķà¤²à¤¯": 4587,
      "Ġà¤¦à¤Ĺ": 4588,
      "à¤¾à¤Ĥà¤Ĥ": 4589,
      "Ġà¤ħà¤¸à¤¹à¤¨": 4590,
      "Ġà¤ħà¤¬à¤°": 4591,
      "Ġà¤ľà¤¹à¤¨": 4592,
      "à¤ªà¤°à¤²": 4593,
      ".\"": 4594,
      "à¤¡à¤§": 4595,
      "Ġà¤ķà¤ĩà¤¯": 4596,
      "Ġà¤¤à¤ķà¤¦": 4597,
      "Ġà¥Ģ": 4598,
      "à¤µà¤¨à¤°": 4599,
      "à¤¤à¤ļà¤°": 4600,
      "Ġà¤¸à¤®à¤¤à¤²": 4601,
      "à¤®à¤¦à¤°": 4602,
      "Ġà¤¦à¤¦": 4603,
      "à¤ıà¤¨à¤Ĩà¤°": 4604,
      "à¤ħà¤²à¤¬à¤¤": 4605,
      "Ġà¤ıà¤ļà¤Ĩà¤°à¤Ł": 4606,
      "Ġà¤ıà¤ªà¤²": 4607,
      "à¤Ĺà¤¡à¤ķà¤°": 4608,
      "à¤ľà¤¯à¤¦": 4609,
      "Ġà¤ħà¤ķà¤°": 4610,
      "à¤²à¤ĸà¤£": 4611,
      "à¤¢à¤°à¤ª": 4612,
      "Ġà¤ķà¥ľà¤µ": 4613,
      "à¤°à¤³": 4614,
      "à¤Ĺà¤²à¤ªà¤¨": 4615,
      "+]": 4616,
      "à¤ĺà¤ļ": 4617,
      "Ġà¤¶à¤°à¤®": 4618,
      "à¤¦à¤¨à¤¹": 4619,
      "Ġà¤¦à¤Ĺà¤¡": 4620,
      "à¤Ĩà¤µà¤¶": 4621,
      "Ġà¤į": 4622,
      "à¤īà¤ļà¤°": 4623,
      "à¤«à¥ľ": 4624,
      "Ġà¤«à¤ľà¤²": 4625,
      "à¥įà¥į": 4626,
      "à¤īà¤ªà¤¯": 4627,
      "à¤¸à¤¹à¤ķ": 4628,
      "Ġà¤ħà¤¸à¤®à¤¯": 4629,
      "Ġà¤ħà¤¦à¤Ń": 4630,
      "à¤®à¤¹à¤ľ": 4631,
      "à¤ķà¤°à¤ª": 4632,
      "Ġà¤¸à¤¹à¤°à¤¸": 4633,
      "Ġà¤ħà¤°à¤°": 4634,
      "Ġà¤«à¤¸à¤µ": 4635,
      "à¤°à¤¤à¤¨": 4636,
      "à¤¤à¤µà¤°": 4637,
      "Ġà¤ıà¤¨à¤ıà¤¸à¤ıà¤¸": 4638,
      "Ġà¤ªà¤ľ": 4639,
      "Ġà¤ľà¤¤à¤¨": 4640,
      "à¤ļà¤²à¤ķà¤°": 4641,
      "Ġà¤ķà¤¹à¤¬": 4642,
      "à¥Īà¤Ĥ'": 4643,
      "Ġà¥ļà¤°": 4644,
      "à¤¤à¤Ĺà¤¤": 4645,
      "Ġ[-]": 4646,
      "à¤¯à¤°à¤µ": 4647,
      "à¤°à¤®à¤¦": 4648,
      "à¤¾,'": 4649,
      "Ġ...]": 4650,
      "Ġ[+]": 4651,
      "-'": 4652,
      "à¤²à¤µà¤°": 4653,
      "à¤¡à¤°à¤®": 4654,
      "à¥¤'": 4655,
      "à¤Ĳà¤¤": 4656,
      "à¤¨à¤Ŀ": 4657,
      "à¤łà¤¡": 4658,
      "à¤¤à¤°à¤¬": 4659,
      "Ġà¤¬à¤Łà¤°": 4660,
      "à¤°à¤§à¤°": 4661,
      "Ġà¤ħà¤²à¤¬à¤¤": 4662,
      "Ġà¤¨à¤Īà¤®": 4663,
      "Ġà¤¤à¤¹à¤ķ": 4664,
      "à¤µà¤°à¤¸": 4665,
      "Ġà¤Ĩà¤Īà¤ıà¤¸à¤ıà¤®": 4666,
      "Ġà¤¸à¤ľà¤¨": 4667,
      "Ġà¤ħà¤°à¤¹à¤°": 4668,
      "Ġà¤ªà¤Ĺà¤¬": 4669,
      "à¤µà¤¡à¤°": 4670,
      "à¤¸à¤°à¤²": 4671,
      "à¤ľà¤¯à¤°": 4672,
      "à¤®à¤µà¤¤": 4673,
      "Ġà¥§à¥¯à¥¯": 4674,
      "à¥į-": 4675,
      "================": 4676,
      "à¤¾:-": 4677,
      "à¤¡à¤¦": 4678,
      "Ġà¤Łà¤¨à¤²": 4679,
      "Ġà¤°à¤¹à¤®à¤¤": 4680,
      "Ġà¤Ľà¤ªà¤¤": 4681,
      "à¤°à¤£à¤µà¤¶": 4682,
      "Ġà¤¬à¤Ľà¤¡": 4683,
      "à¥«à¥¦": 4684,
      "à¤®à¤¸à¤®": 4685,
      "Ġà¤ĵà¤µà¤°à¤¸": 4686,
      "à¤²à¤¹à¤¸": 4687,
      "à¤¶à¤ªà¤¥": 4688,
      "à¤ıà¤¡à¤µ": 4689,
      "à¤Ĩà¤¨à¤¨": 4690,
      "Ġà¤Ĺà¤¹à¤®": 4691,
      "à¤Ĳà¤ķ": 4692,
      "à¥§à¥«": 4693,
      "Ġà¤łà¤ķ": 4694,
      "Ġà¤¹à¤Ī": 4695,
      "Ġà¤¸à¤¬à¤²": 4696,
      "Ġà¥ĺà¤¦à¤®": 4697,
      "Ġà¤Ķà¤ªà¤¨": 4698,
      "à¥Ģà¥¤\"": 4699,
      "Ġà¤¤à¤¦": 4700,
      "à¤ķà¤²à¤°": 4701,
      "Ġà¤§à¤¡à¤ķ": 4702,
      "à¤Ŀà¤Ĺà¤¡": 4703,
      "Ġà¤īà¤ĺà¤¡": 4704,
      "à¤Ńà¤²à¤ķà¤°": 4705,
      "++": 4706,
      "à¤ķà¤°à¤¸": 4707,
      "Ġà¤ıà¤²à¤¨": 4708,
      "à¤Ĩà¤¡à¤µ": 4709,
      "Ġà¤ĵà¤µà¤°à¤¬": 4710,
      "à¤ľà¤Ł": 4711,
      "Ġà¤¯à¤°": 4712,
      "Ġà¤Ĳà¤ªà¤²": 4713,
      "Ġà¤Ľà¤Łà¤ªà¤Ł": 4714,
      "à¤¦à¤¶à¤®": 4715,
      "Ġà¤Ĩà¤Īà¤ıà¤¨à¤ıà¤¸": 4716,
      "Ġà¤¦à¤²à¤ľ": 4717,
      "Ġ../": 4718,
      "à¤Łà¤°à¤¬": 4719,
      "Ġà¤Ńà¤°à¤¸à¤ķ": 4720,
      "à¥Īà¤Ĥ.\"": 4721,
      "à¤ķà¤¨à¤Ĺ": 4722,
      "Ġà¤ħà¤¦à¤®": 4723,
      "Ġà¤Ĺà¤³": 4724,
      "à¤ķà¤·": 4725,
      "Ġà¤¦à¤®à¤ĸà¤®": 4726,
      "à¥ŀà¤°": 4727,
      "Ġà¤¹à¤°à¤¬": 4728,
      "à¥Ģà¥°": 4729,
      "Ġà¤ĵà¤³à¤ĸ": 4730,
      "à¤ıà¤Ĩà¤°": 4731,
      "à¥Ģà¤Ĥà¤Ĥ": 4732,
      "Ġà¤¦à¤°à¤ĸ": 4733,
      "à¤¨à¤ĵà¤µà¤°": 4734,
      "à¤¤à¤ķà¤µ": 4735,
      "Ġà¤ħà¤¨à¤ªà¤¢": 4736,
      "à¤Ĩà¤ĩà¤¸": 4737,
      "à¤¥à¤¦": 4738,
      "à¤ıà¤¸à¤µ": 4739,
      "Ġà¤ıà¤ħà¤°": 4740,
      "à¤¨à¤ķà¤²": 4741,
      "Ġà¤Ŀà¥ľ": 4742,
      "Ġà¤ĵà¤°à¤²": 4743,
      "Ġà¤ļà¥Ŀà¤¨": 4744,
      "à¤°à¤ľà¤Ń": 4745,
      "à¤¹à¤¨à¤Ĺà¤°": 4746,
      "à¤°à¤Ĺà¤Ł": 4747,
      "Ġà¤ħà¤²à¤ĸ": 4748,
      "Ġà¤ķà¤²à¤¸": 4749,
      "Ġ(/)": 4750,
      "à¤¸à¤«à¤²à¤¤": 4751,
      "Ġà¤ĸà¤Łà¤ķ": 4752,
      "Ġà¤Ĩà¤ľà¤¸": 4753,
      "à¤ªà¤¤à¤²": 4754,
      "Ġà¤Ľà¤¬": 4755,
      "Ġà¤¨à¤¤à¤®à¤¸": 4756,
      "Ġà¤Ĩà¤²à¤°": 4757,
      "Ġà¤¸à¤¹à¤¨à¤¶": 4758,
      "Ġà¤łà¤¨": 4759,
      "à¤ªà¤¤à¤µ": 4760,
      "Ġà¤ıà¤«à¤ª": 4761,
      "à¤¯à¤¬à¤²": 4762,
      "Ġà¤Ĩà¤«à¤°": 4763,
      "Ġà¤¸à¤¨à¤¸": 4764,
      "Ġà¤Ĩà¤¦à¤®à¤ª": 4765,
      "à¤ªà¤³": 4766,
      "Ġà¤ªà¤¦à¤µ": 4767,
      "Ġ):": 4768,
      "à¤«à¤Ī": 4769,
      "à¤¤à¤®à¤¬": 4770,
      "Ġ(:)": 4771,
      "Ġà¤ĵà¤µà¤°à¤Ł": 4772,
      "à¥īà¤¼": 4773,
      "à¤ľà¤Ī": 4774,
      "Ġà¤ľà¤¯à¤µ": 4775,
      "Ġà¤®à¤°à¤ķ": 4776,
      "Ġà¤ļà¤ªà¤¤": 4777,
      "à¤¢à¤°": 4778,
      "à¥ĭà¤¼": 4779,
      "Ġ://..//": 4780,
      "à¤¼)à¥¤": 4781,
      "Ġà¤Ŀà¤£": 4782,
      "à¥Ģà¥ĩ": 4783,
      "à¥ĭ\"": 4784,
      "à¤¸à¤¨à¤Ĺà¤°": 4785,
      "Ġà¤Ĺà¤«": 4786,
      "Ġà¤ľà¤²à¤®": 4787,
      "à¤µà¤Ī": 4788,
      "Ġà¤¡à¤ļ": 4789,
      "à¥ľà¤ªà¤¤": 4790,
      "Ġà¤ľà¤¨à¤¶à¤ķ": 4791,
      "à¤Ĺà¤¡à¤®": 4792,
      "Ġà¤¬à¤°à¤¸à¤¤": 4793,
      "Ġà¤Ĩà¤¢à¤³": 4794,
      "Ġà¤®à¤Ĺà¤§": 4795,
      "Ġà¤²à¤¡à¥ĺ": 4796,
      "Ġà¤īà¤¥à¤ª": 4797,
      "Ġà¤¸à¤¶": 4798,
      "Ġà¤Ĭà¤¬": 4799,
      "à¤Ĩà¤Ń": 4800,
      "à¤ªà¤¡à¤²": 4801,
      "à¤Ĺà¤²à¤¨": 4802,
      "à¤Ĩà¤«": 4803,
      "à¤ħà¤²à¤µà¤°": 4804,
      "à¥ĩà¤Ĥ\"": 4805,
      "Ġà¤¨à¤Łà¤°": 4806,
      "à¤µà¤¹à¤°": 4807,
      "à¤²à¤¤à¤ª": 4808,
      "à¤ıà¤ıà¤«": 4809,
      "à¤ıà¤ıà¤«à¤ª": 4810,
      "Ġà¤¹à¤¸à¤°à¤¤": 4811,
      "Ġà¤Ĩà¤Īà¤ıà¤®à¤ıà¤«": 4812,
      "Ġà¤ĵà¤¬à¤°": 4813,
      "Ġà¤Ĩà¥Ľà¤®": 4814,
      "à¤®à¤¹à¤¬": 4815,
      "à¤ķà¤ªà¤¡": 4816,
      "Ġà¤ļà¤¹à¤°": 4817,
      "à¤¸à¤Īà¤ıà¤¨": 4818,
      "à¤¡à¤°à¤ª": 4819,
      "Ġà¤¶à¤¬à¤¨à¤®": 4820,
      "Ġà¤ıà¤¨à¤«": 4821,
      "Ġà¤ľà¤¨à¤§à¤¨": 4822,
      "à¥§à¥®": 4823,
      "Ġà¤ķà¤³": 4824,
      "Ġà¤īà¤ªà¤¸à¤Ń": 4825,
      "?=": 4826,
      "Ġà¤°à¤¹à¤µ": 4827,
      "Ġà¥¨à¥¨": 4828,
      "à¤ªà¤µà¤°": 4829,
      "Ġà¤īà¤ªà¤¬": 4830,
      "à¤¸à¤¹à¤°": 4831,
      "à¤¯à¤¶à¤µ": 4832,
      "à¤°à¤Ŀ": 4833,
      "à¤Ĺà¥ľà¤¤": 4834,
      "Ġà¤¨à¤¸à¤¤": 4835,
      "à¤ıà¤®à¤µ": 4836,
      "Ġà¤Łà¤¹à¤²à¤¨": 4837,
      "à¤Ĩà¤¸à¤®": 4838,
      "à¤ıà¤ļà¤ıà¤¸": 4839,
      "Ġà¥¨à¥§": 4840,
      "à¤¾à¤ģà¥¤": 4841,
      "Ġà¤ħà¤¸à¤Ĺà¤°": 4842,
      "à¥Ģà¤Ĥ)": 4843,
      "Ġà¤Ĩà¤Īà¤ķ": 4844,
      "Ġà¤īà¤Ńà¤°à¤ķà¤°": 4845,
      "à¥Ĳ": 4846,
      "à¤¼'": 4847,
      "à¤ıà¤¡à¤®": 4848,
      "Ġà¤ıà¤²à¤ıà¤²à¤¬": 4849,
      "à¤Ĺà¤®à¤°à¤®à¤°": 4850,
      "à¤µà¤°à¤£à¤µ": 4851,
      "Ġà¤¬à¤°à¤®": 4852,
      "à¤Ĭà¤²": 4853,
      "Ġà¤ªà¤°à¤®à¤¹": 4854,
      "Ġà¤¤à¤¦à¤¨": 4855,
      "Ġ%,": 4856,
      "Ġà¤ľà¤¨à¤Ń": 4857,
      "à¤¦à¤³": 4858,
      "à¤¸à¤ıà¤ķ": 4859,
      "Ġà¤¨à¤Ĺà¤²": 4860,
      "à¤Łà¤°à¤ļ": 4861,
      "à¤²à¤¦à¤¸": 4862,
      "Ġà¤¯à¤¶à¤°": 4863,
      "Ġà¤ĩà¤°à¤¶": 4864,
      "à¥Į,": 4865,
      "à¤¹à¤µà¤°": 4866,
      "à¤¯à¤²à¤®": 4867,
      "Ġà¤ĺà¤Ī": 4868,
      "à¤ĩà¤¸à¤ªà¤°": 4869,
      "à¥ĩà¤ĥ": 4870,
      "Ġà¤¤à¤Ĩà¤²": 4871,
      "Ġà¤ĸà¤¸à¤°": 4872,
      "à¤°à¤¤à¤ħ": 4873,
      "Ġà¤ıà¤«à¤Ł": 4874,
      "à¤ķà¤²à¤®": 4875,
      "à¤ĩà¤°à¤«": 4876,
      "Ġà¤ħà¤µà¤¸à¤°à¤µ": 4877,
      "Ġà¤Ĩà¤¯à¤°": 4878,
      "Ġà¥ªà¥¦": 4879,
      "à¤°à¤ĸà¤§": 4880,
      "Ġà¤ªà¤°à¤ķ": 4881,
      "Ġà¤ħà¤µà¤¤à¤°": 4882,
      "Ġà¤®à¤ķà¤¡": 4883,
      "Ġà¤¶à¤°à¤¤": 4884,
      "Ġà¤Ĩà¤Īà¤µ": 4885,
      "Ġà¤ķà¤°à¤¤à¤¬": 4886,
      "à¥ĩà¤Ĥ;": 4887,
      "Ġà¤ļà¥Ŀà¤ķà¤°": 4888,
      "Ġà¤Ĩà¤°à¤Ĩà¤Īà¤ıà¤²": 4889,
      "à¤ķà¤¦à¤°": 4890,
      "Ġà¤¸à¤ªà¤°": 4891,
      "Ġà¤ļà¤£": 4892,
      "à¤Ĺà¤ľà¤¨": 4893,
      "à¤Ĺà¤²à¤¬": 4894,
      "à¤Ĺà¥ľà¤¨": 4895,
      "Ġà¤ľà¤²à¤®à¤Ĺ": 4896,
      "à¤¤à¤°à¤¸": 4897,
      "Ġà¤¬à¤°à¤ķà¤¤": 4898,
      "à¤¯à¤µà¤¤": 4899,
      "Ġà¤¸à¤ķà¤°": 4900,
      "Ġà¤¬à¤°à¤Ĺà¤¦": 4901,
      "à¤³à¤ľ": 4902,
      "Ġ/.": 4903,
      "Ġà¤¬à¤°à¤¤à¤¤": 4904,
      "à¤¸à¤¹à¤¯": 4905,
      "Ġà¤°à¤¸à¤¦": 4906,
      "à¤ķà¤Łà¤¤": 4907,
      "à¤¯à¤ªà¤°": 4908,
      "à¥Īà¥Ī": 4909,
      "Ġà¤īà¥ľà¤¨": 4910,
      "à¤¤à¤²à¤µ": 4911,
      "Ġà¤¨à¤²à¤µ": 4912,
      "Ġà¤łà¤Ĺà¤¨": 4913,
      "à¤¡à¤¸à¤®": 4914,
      "Ġà¤«à¤¸à¤µà¤£": 4915,
      "Ġà¥§à¥¯à¥ª": 4916,
      "Ġà¤°à¤ľà¤ķ": 4917,
      "Ġà¤¯à¤¨": 4918,
      "Ġà¤¸à¤¹à¤¤": 4919,
      "à¤Łà¤°à¤¤": 4920,
      "Ġà¤Ńà¤ĩà¤¯": 4921,
      "à¤ļà¤µà¤¡": 4922,
      "à¤¤à¤¨à¤¤": 4923,
      "Ġà¤Ŀà¤ªà¤ķ": 4924,
      "à¤µà¤²à¤®": 4925,
      "Ġà¤¶à¤ķà¤²": 4926,
      "à¤ĩà¤°à¤¸": 4927,
      "Ġà¤¹à¤ľà¤®": 4928,
      "à¤ıà¤²à¤ľ": 4929,
      "à¤ħà¤¨à¤ľ": 4930,
      "Ġà¤®à¤¦à¤¨à¤²": 4931,
      "Ġà¤ħà¤µà¤¯à¤µ": 4932,
      "à¤ħà¤Ńà¤¯": 4933,
      "Ġà¤Ńà¤Ĺà¤µà¤¨": 4934,
      "Ġ??": 4935,
      "à¤¶à¤¨à¤¸": 4936,
      "Ġà¤ªà¤°à¤Ľ": 4937,
      "à¤ĵà¤¹": 4938,
      "Ġà¤¬à¤Ĺà¤µ": 4939,
      ">>>>": 4940,
      "Ġà¤ķà¤°à¤²": 4941,
      "Ġà¤ıà¤ļà¤ıà¤¸": 4942,
      "à¥ĭ/": 4943,
      "Ġà¤Īà¤¦à¤Ĺ": 4944,
      "à¤Ĩà¤Īà¤ıà¤ıà¤¸": 4945,
      "Ġà¤Łà¤¹à¤²": 4946,
      "Ġà¤ļà¤²à¤µ": 4947,
      "Ġ<": 4948,
      "à¥§à¥§": 4949,
      "à¤°à¤°à¤ķ": 4950,
      "à¤Īà¤Ĩà¤°à¤¸": 4951,
      "Ġà¤ħà¤ľà¤°": 4952,
      "Ġà¤ªà¤°à¤²": 4953,
      "Ġà¤ħà¤¶à¤«": 4954,
      "à¤¸à¤®à¤Ŀà¤ķà¤°": 4955,
      "à¤Ĺà¤²à¤®": 4956,
      "Ġà¤²à¤µà¤ķà¤°à¤ļ": 4957,
      "à¤ľà¤¯à¤¨à¤Ĺà¤°": 4958,
      "\".": 4959,
      "à¤¸à¤®à¤Ŀà¤¨": 4960,
      "à¤°à¤ķà¤¬": 4961,
      "Ġà¤Ŀà¥ľà¤¨": 4962,
      "Ġà¤¶à¤¯à¤¨": 4963,
      "Ġà¤ħà¤¸à¤²à¤¹": 4964,
      "://": 4965,
      "à¤Łà¤ľà¤°à¤²": 4966,
      "Ġà¤¤à¤¬à¤²": 4967,
      "à¤ķà¤¨à¤Ĺà¤°": 4968,
      "Ġà¤Īà¤¬": 4969,
      "Ġ???": 4970,
      "Ġà¤ıà¤ıà¤¸": 4971,
      "à¤¹à¤°à¤¦à¤Ĺ": 4972,
      "Ġà¤ĳà¤ĩà¤²": 4973,
      "à¥ĩà¥¤'": 4974,
      "Ġà¤łà¤°à¤µ": 4975,
      ",.": 4976,
      "Ġà¤®à¤¤à¤ªà¤¤": 4977,
      "Ġà¤ıà¤¸à¤ıà¤¸à¤¬": 4978,
      "à¤¡à¤ľ": 4979,
      "Ġà¤¹à¤ľà¤°": 4980,
      "________": 4981,
      "à¤Īà¤¤": 4982,
      "à¤²à¤µà¤²": 4983,
      "à¤·à¤Ńà¤°": 4984,
      "Ġà¤Ĩà¤°à¤ĵ": 4985,
      "%)": 4986,
      "/.": 4987,
      "Ġà¤īà¤Ľà¤²à¤ķà¤°": 4988,
      "</><>": 4989,
      "à¤¹à¤°à¤¨": 4990,
      "à¤¤à¤¹à¤¤": 4991,
      "Ġà¤Ĩà¤ĩà¤¡à¤²": 4992,
      "à¤¨à¤ķà¤¦": 4993,
      "Ġà¤Ŀà¤²": 4994,
      "Ġà¤Ĩà¤Īà¤Īà¤¡": 4995,
      "à¤ªà¤°à¤ľ": 4996,
      "Ġà¤Ĺà¥Ŀà¤µ": 4997,
      "Ġà¤ķà¤µà¤¯": 4998,
      "à¤®à¤²à¤¬à¤ľ": 4999,
      "à¤ĩà¤¨à¤ª": 5000,
      "à¤¹à¤°à¤ª": 5001,
      "à¤¹à¤¨à¤¤à¤ķà¤¶": 5002,
      "à¤¾''": 5003,
      "Ġà¤¤à¤°à¤²à¤¤": 5004,
      "à¤¹à¤°à¤µ": 5005,
      "à¤µà¤°à¤Ĺ": 5006,
      "à¥Ģ-,": 5007,
      "Ġà¤¤à¤¬à¤°": 5008,
      "à¤Ĩà¤Īà¤ıà¤®à¤ıà¤«": 5009,
      "Ġà¤ĭà¤£à¤¦": 5010,
      "à¤ļà¤¹": 5011,
      "à¤Īà¤ĺà¤°": 5012,
      "à¥ģ'": 5013,
      "Ġà¤ĳà¤Ĺà¤¸": 5014,
      "Ġà¤¸à¤¤à¤µ": 5015,
      "Ġà¥§à¥¯à¥Ń": 5016,
      "Ġ\\": 5017,
      "Ġà¤²à¤ķà¤µ": 5018,
      "à¤¸à¤ħà¤ª": 5019,
      "à¥Ģà¥¤'": 5020,
      "à¤¤à¤ķà¤¬": 5021,
      "à¥Ģà¤Ĥ..": 5022,
      "à¤¯à¤¤à¤¯": 5023,
      "à¤µà¤¤à¤ĸ": 5024,
      "Ġà¤Ĩà¤®à¤²": 5025,
      "Ġà¤Ĺà¤®à¤²": 5026,
      "à¤¼à¥ĭà¤Ĥ,": 5027,
      "Ġà¤īà¤ªà¤ķà¤ª": 5028,
      "Ġà¤¸à¤īà¤¦": 5029,
      "Ġà¤¨à¤¹à¤²": 5030,
      "à¤²à¤Ĺà¤¢": 5031,
      "Ġà¤¬à¤°à¤Ĺà¤²": 5032,
      "à¥§à¥Ń": 5033,
      "à¥ľà¤ĸ": 5034,
      "Ġ:)à¥¤": 5035,
      "Ġà¤ħà¤®à¤¨à¤¦": 5036,
      "Ġà¤¨à¤¥": 5037,
      "à¤¯à¤²à¤°": 5038,
      "à¤¹à¤¸à¤¨": 5039,
      "à¤Ĩà¤Īà¤¯": 5040,
      "Ġà¤ĸà¤°à¤ªà¤¤à¤µ": 5041,
      "\"à¥¤": 5042,
      "Ġà¤§à¤µà¤²": 5043,
      "à¤Ĺà¤°à¤ķ": 5044,
      "Ġà¥ĭ": 5045,
      "Ġà¤ıà¤¸à¤ıà¤¨": 5046,
      "Ġà¤ħà¤Ĺà¤°à¤¬à¤¤": 5047,
      "Ġà¤¤à¤°à¤£": 5048,
      "à¤¡à¤¬à¤²": 5049,
      "à¤¯à¤°à¤¹": 5050,
      "Ġà¤Ĩà¤Īà¤ĵà¤¸": 5051,
      "Ġà¤īà¤ªà¤ķà¤°": 5052,
      "Ġà¤¤à¤³": 5053,
      "à¤¨à¤°à¤µ": 5054,
      "Ġà¤°à¤¬à¤¡": 5055,
      "à¤ķà¤®à¤Ĺà¤¢": 5056,
      "Ġà¤ķà¤®à¤¬": 5057,
      "à¤Īà¤ıà¤¸à¤Ĩà¤°": 5058,
      "à¤¬à¤²à¤¸": 5059,
      "à¤ľà¤ļ": 5060,
      "à¤¶à¤¨à¤ª": 5061,
      "à¤¾.'": 5062,
      "Ġà¤ıà¤®à¤°": 5063,
      "~~": 5064,
      "à¤®à¤¸à¤°": 5065,
      "Ġà¤¤à¤ªà¤¨": 5066,
      "à¤¯à¤°à¤«": 5067,
      "à¤ĸà¤°à¤¤": 5068,
      "Ġà¤ħà¤ļà¤°à¤ľ": 5069,
      "à¤¦à¤ļ": 5070,
      "à¤ıà¤¨à¤ķ": 5071,
      "Ġà¤¸à¤«à¤¦à¤°à¤ľ": 5072,
      "à¤¦à¥ľ": 5073,
      "Ġà¤®à¤°à¤¹à¤®": 5074,
      "à¤¸à¤ĸà¤£": 5075,
      "Ġà¤«à¤²à¤¤": 5076,
      "Ġà¥¨à¥Ń": 5077,
      "Ġà¤¸à¤¨à¤®": 5078,
      "à¤¯à¤¤à¤®": 5079,
      "à¤°à¤µà¤§": 5080,
      "Ġà¤ªà¤¢à¤¤": 5081,
      "à¤®à¤¦à¤²": 5082,
      "à¥§à¥ª": 5083,
      "à¤ĭà¤£": 5084,
      "à¤¹à¤°à¤Ńà¤ľà¤¨": 5085,
      "-/": 5086,
      "à¤ľà¤ĸ": 5087,
      "à¤²à¤®à¤§": 5088,
      "Ġà¤Ĩà¤®à¤¸à¤Ń": 5089,
      "Ġà¤¹à¤°à¤£": 5090,
      "à¤ľà¤°à¤µ": 5091,
      "à¤¸à¤°à¤¶": 5092,
      "Ġà¤¨à¤Īà¤¦": 5093,
      "Ġà¤ĸà¤²à¤²": 5094,
      "à¥ĭ;": 5095,
      "Ġà¤ķà¤²à¤ª": 5096,
      "à¤²à¤ªà¤°": 5097,
      "à¤°à¤£à¤ľ": 5098,
      "Ġ$.": 5099,
      "Ġà¤²à¤ĸà¤¨à¤ª": 5100,
      "à¤¨à¤°à¤¸": 5101,
      "à¤¯à¤Ĺà¥Ŀ": 5102,
      "à¥į...": 5103,
      "à¥Īà¥¤)": 5104,
      "à¤Ĩà¤¡": 5105,
      "Ġà¤Ńà¤Ĺà¤µà¤¦": 5106,
      "à¥Ģà¤Ĥ'": 5107,
      "Ġà¤Ŀà¥ľà¤ª": 5108,
      "à¤Ĩà¤Īà¤ıà¤«": 5109,
      "Ġà¤ĩà¤¶à¤°à¤¤": 5110,
      "à¤Ĩà¤Ľ": 5111,
      "Ġà¤²à¤Ĺà¤ķà¤°": 5112,
      "Ġ.......": 5113,
      "à¤§à¤Ĺà¤¯": 5114,
      "Ġà¤®à¤ľà¤°": 5115,
      "Ġà¤ķà¤ľà¤°": 5116,
      "Ġà¥¨à¥¬": 5117,
      "Ġ://.": 5118,
      "Ġà¥¨à¥©": 5119,
      "Ġà¤Ĺà¤Ĺ": 5120,
      "Ġà¤ħà¤Łà¤ªà¤Ł": 5121,
      "Ġà¤Ĺà¤¦à¤Ĺ": 5122,
      "Ġà¤ıà¤¨à¤Ĩà¤°": 5123,
      "à¤¼à¥ĩà¤Ĥ.": 5124,
      "Ġà¤¡à¤Łà¤ķà¤°": 5125,
      "Ġà¤ªà¤°à¤ľ": 5126,
      "à¤ªà¤®à¤¤": 5127,
      "à¥Īà¤Ĥà¥¤[]": 5128,
      "Ġà¤īà¤ªà¤ĸ": 5129,
      "Ġà¤µà¤ļà¤¨à¤¬à¤¦": 5130,
      "Ġà¤ĵà¤Ľ": 5131,
      "Ġà¤Łà¤¹à¤¨": 5132,
      "à¤Ĺà¤²à¤¸à¤°": 5133,
      "Ġà¤Īà¤¸à¤µ": 5134,
      "à¤ĥ,": 5135,
      "à¤łà¤¤à¤®": 5136,
      "à¤¤à¤ķà¤±": 5137,
      "Ġà¤¤à¤¬à¤¤à¤ķ": 5138,
      "à¤§à¤¯": 5139,
      "Ġà¤īà¤ªà¤²": 5140,
      "Ġà¤Ķà¤«": 5141,
      "Ġà¤¸à¤¶à¤°": 5142,
      "Ġà¤¹à¥ľ": 5143,
      "Ġà¤¬à¤«à¤°": 5144,
      "Ġà¤ķà¤¨à¤µà¤°": 5145,
      "Ġà¤ªà¤¨à¤ªà¤¤": 5146,
      "à¤Ľà¤ķà¤°": 5147,
      "à¥§à¥¬": 5148,
      "à¤Łà¤Ń": 5149,
      "à¤īà¤¨à¤¶": 5150,
      "à¤®à¤¦à¤¨": 5151,
      "à¤µà¤¨à¤¯": 5152,
      "Ġà¤łà¤¹à¤°à¤¤": 5153,
      "Ġà¤ħà¤¸à¤¹à¤¯": 5154,
      "à¤¸à¤Łà¤°": 5155,
      "à¤Ńà¤µà¤¹": 5156,
      "à¤ľà¤®à¤¶": 5157,
      "à¤²à¤¥": 5158,
      "à¤²à¤®à¤¤": 5159,
      "à¤Ĺà¤¹à¤®": 5160,
      "Ġ@_": 5161,
      "Ġà¤ħà¤ªà¤¸": 5162,
      "à¤°à¤¶à¤¨": 5163,
      "Ġà¤¤à¤Łà¤¬": 5164,
      "Ġà¤ħà¤®à¤°à¤ķ": 5165,
      "Ġà¤¹à¤ľà¤°à¤¤à¤Ĺ": 5166,
      "à¤¯à¤®à¤µà¤°": 5167,
      "Ġà¤®à¤¶à¤Ĺ": 5168,
      "à¤ľà¤ªà¤¨": 5169,
      "à¤·à¤°à¤£": 5170,
      "Ġà¤§à¥ľà¤ķà¤¨": 5171,
      "à¤ıà¤ıà¤¸à¤ª": 5172,
      "Ġà¤«à¤°à¤ķ": 5173,
      "Ġà¤¤à¤¹à¤ľ": 5174,
      "à¤¬à¥ľà¤¤": 5175,
      "à¤¼à¥Ĥà¤Ĥ": 5176,
      "à¤Ĺà¤¹à¤²": 5177,
      "à¤ļà¤ķà¤¤": 5178,
      "Ġà¥§à¥¯à¥®": 5179,
      "à¤ĸà¤®à¤¯": 5180,
      "à¤¬à¤ł": 5181,
      "...]": 5182,
      "à¤¾à¥¤...": 5183,
      "Ġà¤ıà¤ıà¤¨à¤ıà¤®": 5184,
      "à¥įà¥Ģ": 5185,
      "Ġà¤ħà¤«à¤ľ": 5186,
      "à¤ļà¤ļ": 5187,
      "à¤¬à¤²à¤¤": 5188,
      "à¤¼à¤¼": 5189,
      "à¤ıà¤ļà¤ıà¤®": 5190,
      "Ġà¤ħà¤¹à¤®à¤¦à¤¨à¤Ĺà¤°": 5191,
      "à¤µà¤¤à¤®": 5192,
      "Ġà¤¨à¤µà¤¸": 5193,
      "Ġ----": 5194,
      "à¤ıà¤¤": 5195,
      "Ġà¤ªà¤£à¤ľ": 5196,
      "Ġà¤īà¤ľà¤¡": 5197,
      "(),": 5198,
      "Ġà¤ħà¤ĸà¤£": 5199,
      "à¤ľà¤Ĺà¥Ŀ": 5200,
      "Ġà¤ĩà¤¹": 5201,
      "Ġà¤ĩà¤¨à¤¡": 5202,
      "Ġ().": 5203,
      "Ġà¤ªà¤°à¤ª": 5204,
      "à¤¤à¤®à¤¯": 5205,
      "Ġà¤¬à¤°à¤¹": 5206,
      "Ġà¤ĵà¤ıà¤¸à¤¡": 5207,
      "Ġà¤¨à¤¨à¤ķ": 5208,
      "Ġà¥§à¥¯à¥¬": 5209,
      "Ġà¤¨à¥ĺ": 5210,
      "Ġà¤¸à¤®à¤ľà¤¤": 5211,
      "à¤¬à¤¦à¤²à¤¤": 5212,
      "à¤·à¤ªà¤¦": 5213,
      "Ġà¤§à¤°à¤ªà¤ķà¤¡": 5214,
      "Ġ,,.": 5215,
      "Ġà¤°à¤ļà¤¯": 5216,
      "Ġà¤ıà¤Łà¤®": 5217,
      "à¤Ńà¤¸": 5218,
      "à¤¤à¤¨à¤µ": 5219,
      "Ġà¤ªà¤°à¤®à¤ª": 5220,
      "à¤ħà¤µà¤¸à¤°": 5221,
      "Ġà¤ĵà¥Ŀ": 5222,
      "à¥ĥ.": 5223,
      "à¥Ľà¤®": 5224,
      "à¤ľà¤ĺà¤°": 5225,
      "à¤¥à¤ľ": 5226,
      "Ġà¤ľà¤¨à¤²": 5227,
      "à¤²à¤ķà¤¶": 5228,
      "Ġà¤ħà¤ªà¤ļ": 5229,
      "à¤ħà¤®à¤°à¤¨": 5230,
      "Ġà¤Ĺà¤¦à¤Ĺà¤¦": 5231,
      "Ġ.)": 5232,
      "Ġà¤ľà¤¶à¤ª": 5233,
      "à¥Ĥà¤ģ..": 5234,
      "à¤Īà¤µà¤¨": 5235,
      "à¤µà¤Ńà¤ķ": 5236,
      "Ġà¤²à¤¬à¤°": 5237,
      "à¤²à¤Ńà¤Ń": 5238,
      "Ġà¤«à¤ĸà¤°": 5239,
      "à¤Īà¤ıà¤®": 5240,
      "Ġà¤¡à¤Ĺà¤®à¤Ĺ": 5241,
      "à¤¨à¤µà¤¨": 5242,
      "Ġà¤¨à¤ĩ": 5243,
      "Ġà¤ĵà¤¤": 5244,
      "Ġà¤ªà¤¡à¤£": 5245,
      "Ġà¤ļà¤Łà¤ªà¤Ł": 5246,
      "Ġà¤§à¤®à¤¤à¤°": 5247,
      "Ġà¤°à¥Ľ": 5248,
      "à¤¦à¤¶à¤¨": 5249,
      "Ġà¤ħà¤¯à¤ª": 5250,
      "à¤µà¤µà¤¤": 5251,
      "Ġà¤Ĺà¤ľà¤¨": 5252,
      "à¤ľà¤¯à¤¶": 5253,
      "Ġà¤ķà¤®à¤¶": 5254,
      "Ġà¤¨à¥Ľà¤¦": 5255,
      "Ġà¤ıà¤¸à¤Ĩà¤°": 5256,
      "à¤ķà¤°à¤ĺ": 5257,
      "Ġà¤¨à¤ľà¤®": 5258,
      "Ġà¤¨à¤Ĺà¤£": 5259,
      "Ġà¤¤à¤ªà¤¤": 5260,
      "Ġà¤Ĩà¤ĩà¤¸à¤²": 5261,
      "à¤ĸà¤¨à¤²": 5262,
      "Ġà¤ªà¤Łà¤ĸà¤¨": 5263,
      "à¤¡à¤°à¤Ł": 5264,
      "à¥ĭà¤Ĥ!": 5265,
      "Ġà¤ıà¤ķà¤²à¤µ": 5266,
      "Ġà¤¢à¤¹à¤¨": 5267,
      "à¤ľà¤¯à¤µ": 5268,
      "à¥Ī/": 5269,
      "à¤ıà¤ıà¤¸à¤Ĩà¤Ī": 5270,
      "à¤ķà¤®à¤¤": 5271,
      "Ġà¤īà¤Ĺà¤¨": 5272,
      "Ġà¤Ĺà¤¦à¤°": 5273,
      "à¤Ĩà¤ªà¤¦": 5274,
      "Ġà¤¡à¤Ĺ": 5275,
      "Ġà¤īà¤¦à¤°": 5276,
      "Ġà¤ľà¤µà¤³à¤ª": 5277,
      "Ġà¤ĸà¤¶": 5278,
      "à¤¨à¤¤à¤³": 5279,
      "Ġà¤ĸà¤°à¤ĸ": 5280,
      "à¥Ģ):": 5281,
      "Ġà¤ªà¤°à¤¬": 5282,
      "Ġà¤īà¤¦à¤¹": 5283,
      "à¤®à¤¦à¤¤": 5284,
      "à¤Ĩà¤°à¤Ĩà¤°": 5285,
      "à¤¢à¤¡": 5286,
      "à¥ĩ.\"": 5287,
      "Ġà¤ıà¤²à¤ıà¤¨à¤ľ": 5288,
      "Ġà¤Īà¤¯": 5289,
      "à¤°à¤ı": 5290,
      "Ġà¤Ĳà¤¡à¤®": 5291,
      "à¤Ķà¤°à¤¤": 5292,
      "Ġà¤ľà¤Ĺà¤¬": 5293,
      "Ġà¤ļà¤ķà¤¨": 5294,
      ",,,": 5295,
      "Ġà¤ıà¤®à¤ıà¤®à¤ıà¤¸": 5296,
      "Ġà¤ķà¤ĩà¤²": 5297,
      "à¤¤à¥ľ": 5298,
      "à¥§à¥©": 5299,
      "Ġà¤«à¤«": 5300,
      "à¤Ĩà¤ªà¤²": 5301,
      "à¤¸à¤ķà¤¨": 5302,
      "à¤ıà¤¬à¤²": 5303,
      "Ġà¤ªà¤³": 5304,
      "à¤ĩà¤¨à¤ķà¤®": 5305,
      "Ġà¤ħà¤ªà¤¹à¤°à¤£à¤ķà¤°": 5306,
      "Ġà¤ĺà¤¨à¤ĺ": 5307,
      "Ġà¤ªà¤¦à¤ļ": 5308,
      "à¤¤à¤¶à¤¤": 5309,
      "à¤ķà¤¶à¤¨": 5310,
      "Ġà¤Łà¤¯": 5311,
      "à¤ļà¤¬à¤°": 5312,
      "#*": 5313,
      "à¤¶à¤«": 5314,
      "Ġà¥¨à¥¯": 5315,
      "à¤Ĥ...": 5316,
      "à¤·à¤ļ": 5317,
      "Ġà¤ķà¤Łà¤¤": 5318,
      "Ġà¤ļà¤®à¤ķà¤¨": 5319,
      "à¤Ĺà¤¦à¤ªà¤¤": 5320,
      "à¤°à¤½": 5321,
      "Ġà¤¸à¥ľ": 5322,
      "Ġà¤ĩà¤ķà¤°": 5323,
      "à¤°à¤ħ": 5324,
      "à¤°à¤¹à¤¨": 5325,
      "à¤°à¤ķà¤¨": 5326,
      "Ġà¥©à¥¨": 5327,
      "!!!": 5328,
      "à¥Ī),": 5329,
      "Ġà¤ªà¤¨à¤µ": 5330,
      "à¤Ĩà¤Ł": 5331,
      "Ġà¤ıà¤¸à¤ıà¤®à¤Ī": 5332,
      "Ġ--::": 5333,
      "Ġà¤«à¤Ĺà¤µ": 5334,
      "Ġà¤¬à¤¡à¤Ĺ": 5335,
      "Ġà¤īà¥ľà¤¤": 5336,
      "à¤¢à¤¸": 5337,
      "+:": 5338,
      "à¤¾à¥į": 5339,
      "à¤Īà¤Ĺà¤°": 5340,
      "à¤¤à¤¨à¤¶": 5341,
      "à¤Ĩà¤ĩà¤Ĩà¤°": 5342,
      "à¤¯à¤£à¤¨": 5343,
      "Ġà¥¨à¥®": 5344,
      "à¤ıà¤ļà¤Īà¤ıà¤²": 5345,
      "à¤ªà¤¨à¤¦": 5346,
      "Ġà¤¹à¤®à¤¸à¤«à¤°": 5347,
      "à¤ĩà¤®à¤¨": 5348,
      "à¤ķà¤°à¤¦": 5349,
      "Ġà¤Ĺà¤Ĭ": 5350,
      "à¥ī,": 5351,
      "Ġà¤¬à¤¤à¤°": 5352,
      "Ġà¤ĸà¤¤à¤®": 5353,
      "Ġà¤Ĩà¤¸à¤ķ": 5354,
      "Ġà¤ıà¤Ĩà¤Īà¤ıà¤¡": 5355,
      "à¤µà¤°à¤µ": 5356,
      "Ġà¤¤à¤¶": 5357,
      "Ġà¤ıà¤ķà¤ļ": 5358,
      "à¤Ĩà¤Īà¤ĵà¤¸": 5359,
      "à¤²à¤¸à¤ļ": 5360,
      "à¤®à¤Ľà¤²": 5361,
      "à¤ħà¤®à¤¨": 5362,
      "à¤Ĩà¤°à¤µ": 5363,
      "à¤ªà¤¨à¤Ĺà¤°": 5364,
      "Ġà¤¤à¥ľà¤ª": 5365,
      "Ġà¤ĵà¤µà¤¨": 5366,
      "Ġà¤°à¤ľà¤µ": 5367,
      "--------------------------------": 5368,
      "à¥Īà¤Ĥà¤Ĥ": 5369,
      "à¤¨à¤¹à¤¸": 5370,
      "à¤¦à¤°à¤¸": 5371,
      "Ġà¤ĩà¤¡à¤²": 5372,
      "Ġà¤®à¤¶à¤µ": 5373,
      "à¤¦à¤ķà¤Ł": 5374,
      "à¤Ĩà¤ľà¤¤à¤ķ": 5375,
      "à¤Ĩà¤ĩà¤ª": 5376,
      "Ġà¤ļà¤°à¤£à¤ľ": 5377,
      ".'": 5378,
      "à¤ļà¤¦": 5379,
      "à¤¹à¤ľà¤¨à¤ķ": 5380,
      "à¥Īà¤Ĥ....": 5381,
      "à¥Īà¥Īà¥¤": 5382,
      "à¤°à¤¡à¤®": 5383,
      "Ġà¤®à¥ľ": 5384,
      "à¤§à¤³": 5385,
      "à¤£à¤²": 5386,
      "à¤¯à¤¯à¤¨à¤°à¤¤": 5387,
      "à¤ıà¤ļà¤Ł": 5388,
      "à¤¹à¤§": 5389,
      "Ġà¤¢à¤²à¤¤": 5390,
      "Ġà¤ĸà¤³": 5391,
      "à¤¸à¤°à¤Ĺ": 5392,
      "à¤°à¤¹à¤¸": 5393,
      "à¥ĩ(": 5394,
      "à¤¸à¤³à¤²": 5395,
      "à¤µà¤¶à¤¤": 5396,
      "à¤ħà¤¦à¤°à¤ķ": 5397,
      "à¤¡à¥ĺà¤°": 5398,
      "à¤®à¤¬à¤²": 5399,
      "Ġà¤ħà¤¦à¤¦": 5400,
      "à¤°à¤®à¤¯": 5401,
      "à¤Īà¤ıà¤ķ": 5402,
      "à¤ıà¤«à¤¬": 5403,
      "Ġà¤ıà¤¨à¤ıà¤ļà¤ıà¤Ĩà¤Ī": 5404,
      "Ġà¤ļà¤°à¤¨": 5405,
      "Ġà¤Īà¤·": 5406,
      "Ġà¤Ĩà¤ľà¤®à¤Ĺà¥Ŀ": 5407,
      "à¤ľà¤¹à¤°": 5408,
      "à¤®à¤¹à¤²": 5409,
      "à¤¹à¤£à¤¤": 5410,
      "Ġà¤ħà¤®à¤ľà¤¦": 5411,
      "à¤ªà¤Łà¤°": 5412,
      "Ġà¤¬à¤ļà¤ķ": 5413,
      "Ġà¤ľà¤²à¤¦": 5414,
      "à¤ķà¤°à¤ķ": 5415,
      "Ġà¤¸à¤¤à¤Ĺ": 5416,
      "Ġà¤Ĩà¤ĩà¤ľ": 5417,
      ":,": 5418,
      "Ġà¤Ńà¤Ĺà¤¤à¤¸": 5419,
      "à¤²à¤ĸà¤°": 5420,
      "à¤°à¤Ĺà¤²": 5421,
      "à¤īà¤Ĺ": 5422,
      "Ġà¤īà¤łà¤µ": 5423,
      "Ġà¤ıà¤Ĩà¤°": 5424,
      "à¤¦à¤°à¤ķ": 5425,
      "Ġà¤ļà¤®à¥ľ": 5426,
      "Ġ(--": 5427,
      "à¤²à¤ľà¤¯": 5428,
      "Ġà¤ķà¤°à¤ķà¤°": 5429,
      "Ġà¤¥à¤ķà¤¤": 5430,
      "Ġà¤ħà¤¥à¤°": 5431,
      "Ġà¤ıà¤ĸ": 5432,
      "à¤§à¤¨à¤¬": 5433,
      "Ġà¤§à¤¨à¤¶": 5434,
      "Ġà¤¹à¤®à¤µà¤¤à¤¨": 5435,
      "à¥Ģ.,": 5436,
      "à¤ļà¤Ł": 5437,
      "Ġà¤¢à¤²à¤¨": 5438,
      "à¤«à¤°à¤²": 5439,
      "Ġ./": 5440,
      "Ġà¤¹à¥Ľà¤°à¤¤": 5441,
      "à¤ķà¤¬à¤¡": 5442,
      "Ġà¤ķà¤¸à¤ķà¤°": 5443,
      "à¤µà¤¨à¤Ńà¤°": 5444,
      "à¤ľà¤¯à¤²à¤²": 5445,
      "à¤¼à¥Ģà¤Ĥà¥¤": 5446,
      "Ġà¤ıà¤µà¤¢": 5447,
      "à¤½à¤½": 5448,
      "Ġà¤®à¤¦à¤¹": 5449,
      "Ġà¤ıà¤Ĩà¤Īà¤ıà¤®à¤Ĩà¤Īà¤ıà¤®": 5450,
      "Ġà¤Ĩà¤Īà¤ıà¤¨à¤ıà¤ķ": 5451,
      "à¤ĩà¤µà¤²": 5452,
      "Ġà¤ħà¤°à¤£": 5453,
      "à¤Ńà¤®à¤¨": 5454,
      "à¥¨à¥«": 5455,
      "à¤ĩà¤¦": 5456,
      "à¤¶à¤§": 5457,
      "à¥Īà¥¤''": 5458,
      "Ġà¤ľà¤¸à¤®": 5459,
      "à¤£à¤ľ": 5460,
      "Ġà¤ªà¤²à¤Łà¤¤": 5461,
      "Ġà¤ĩà¤ª": 5462,
      "à¤ıà¤¯à¤°à¤²": 5463,
      "Ġà¤ĵà¤®à¤ķ": 5464,
      "à¤¸à¤ł": 5465,
      "à¤ĺà¤²à¤¨": 5466,
      "Ġà¤¸à¤¦à¤Ń": 5467,
      "à¤Ńà¤ķà¤°": 5468,
      "à¤ıà¤²à¤Ĩà¤Īà¤¸": 5469,
      "Ġà¤¬à¤«": 5470,
      "à¥Ģ]": 5471,
      "à¤ªà¤ķà¥ľ": 5472,
      "à¤ĵà¤Ĩà¤Ī": 5473,
      "Ġà¤īà¤ªà¤¶": 5474,
      "à¥Ģ+": 5475,
      "à¤ıà¤¸à¤ıà¤ļà¤ĵ": 5476,
      "à¤ľà¤¤à¤°": 5477,
      "Ġà¤ľà¤µà¤³": 5478,
      "Ġà¤µà¥Ľà¤¨": 5479,
      "à¤¬à¤°à¤¶": 5480,
      "Ġà¥Ļà¤¤à¤°": 5481,
      "à¤µà¤ł": 5482,
      "à¤²à¤¨à¤¸": 5483,
      "à¤Ĺà¤¹à¤°": 5484,
      "à¤£à¤§": 5485,
      "Ġà¤īà¤ĺà¤¡à¤ķ": 5486,
      "Ġà¤ļà¤°à¤µ": 5487,
      "Ġà¤ıà¤Ĩà¤Īà¤¸": 5488,
      "à¤ļà¤²à¤ķ": 5489,
      "Ġà¤¢à¤ķà¤¨": 5490,
      "Ġà¤ªà¤¦à¤¨": 5491,
      "Ġà¤ħà¤¨à¤«": 5492,
      "Ġà¤ıà¤¸à¤Ī": 5493,
      "à¤Łà¤®à¤§": 5494,
      "à¤ıà¤ķà¤²": 5495,
      "Ġà¤ĸà¤³à¤¬à¤³": 5496,
      "Ġà¤ļà¥Ŀà¤¤": 5497,
      "à¤ľà¤¨à¤Ńà¤°": 5498,
      "à¤®à¤ªà¤°": 5499,
      "à¤ªà¤ķà¤¤": 5500,
      "Ġà¥¬à¥¦": 5501,
      "Ġà¤ħà¤µà¤ľ": 5502,
      "à¤²à¤¬à¤¹": 5503,
      "à¤Ĳà¤µà¤ľ": 5504,
      "Ġà¤¢à¤°": 5505,
      "à¤īà¤ł": 5506,
      "Ġà¤ªà¤¯": 5507,
      "Ġ///": 5508,
      "à¤Ľà¤ķ": 5509,
      "à¤ıà¤ļà¤Ĩà¤°": 5510,
      "à¤¸à¤®à¤µ": 5511,
      "Ġà¤ĸà¤°à¤¡": 5512,
      "Ġà¤°à¤¸à¤Ĺ": 5513,
      "à¤¨à¤ķà¤ª": 5514,
      "Ġà¤Ĺà¤¹": 5515,
      "Ġà¤ĩà¤¨à¤°": 5516,
      "Ġà¤ľà¤¹à¤®à¤¤": 5517,
      "à¤°à¤µà¤¨": 5518,
      "Ġà¤¹à¤¸à¤¨à¤ª": 5519,
      "à¤¤à¤ķà¤²": 5520,
      "Ġà¤ħà¤ĸà¤²": 5521,
      "Ġà¤¦à¤®à¤¨à¤ķ": 5522,
      "Ġà¤¹à¤ĩ": 5523,
      "à¥Ģ.\"": 5524,
      "à¤²à¤¨à¤¶": 5525,
      "à¤ľà¤ķà¤ª": 5526,
      "Ġà¤°à¤¯": 5527,
      "à¤µà¤¨à¤ª": 5528,
      "à¤īà¤Łà¤°": 5529,
      "Ġà¤¹à¤¤à¤ª": 5530,
      "Ġà¤łà¤°à¤£": 5531,
      "à¤µà¤¸à¤°": 5532,
      "Ġà¤¸à¤¹à¤¦": 5533,
      "Ġà¤¬à¤²à¤ķ": 5534,
      "Ġà¤¨à¤Ĺà¤°à¤ªà¤°": 5535,
      "à¤¦à¤°à¤Ń": 5536,
      "Ġà¤ķà¤īà¤¨": 5537,
      "à¤¦à¤°à¤ĸ": 5538,
      "Ġà¤¦à¥ŀ": 5539,
      "à¤¦à¤¤à¤¨": 5540,
      "à¤Ĺà¤ĩà¤¨": 5541,
      "à¤ļà¤°à¤ĸ": 5542,
      "à¤ķà¤ĵà¤µà¤°": 5543,
      "à¤Ĩà¤łà¤µ": 5544,
      "Ġà¤ıà¤®à¤Ĩà¤°": 5545,
      "à¤¡à¤®à¤§": 5546,
      "à¤§à¤ľ": 5547,
      "à¤¤à¤¨à¤Ń": 5548,
      "à¤¤à¤°à¤µ": 5549,
      "à¤²à¤§": 5550,
      "Ġà¤§à¤°à¤²": 5551,
      "Ġ[...]": 5552,
      "Ġà¤ķà¥Ŀ": 5553,
      "Ġà¤¤à¤Ĺà¥ľ": 5554,
      "à¤¼à¥ĩ:": 5555,
      "à¤¨à¤®à¤§": 5556,
      "à¤²à¤µà¤£": 5557,
      "à¤ľà¤ªà¤²": 5558,
      "Ġà¤īà¤§à¤®": 5559,
      "à¤¹à¤ľà¤ķ": 5560,
      "à¤¡à¤ķà¤°à¤¨à¤Ĺà¤°": 5561,
      "Ġà¤ķà¤Łà¤ĳà¤«": 5562,
      "Ġà¤ħà¤«à¤¸à¤°à¤¶": 5563,
      "Ġà¤¸à¤ľà¤Ĺà¤¤": 5564,
      "Ġà¤ªà¤°à¤®à¤µ": 5565,
      "Ġà¤¶à¤°à¤¬à¤¤": 5566,
      "à¥Ĥ/": 5567,
      "à¤ĥ-": 5568,
      "à¤¬à¤¶": 5569,
      "à¤¼à¥Ģ'": 5570,
      "Ġà¤¬à¤¸à¤¸": 5571,
      "Ġà¤Łà¤¸": 5572,
      "Ġà¤ıà¤ļà¤ıà¤ıà¤²": 5573,
      "à¤Ĩà¤Īà¤«": 5574,
      "Ġà¤²à¤µà¤£": 5575,
      "à¤¹à¤£à¤£": 5576,
      "Ġà¤ħà¥ŀà¤¸": 5577,
      "à¤¹à¤°à¤®": 5578,
      "à¤µà¤ĺ": 5579,
      "à¤ıà¤²à¤ıà¤®": 5580,
      "Ġà¤ħà¤ķà¤¡": 5581,
      "Ġà¤®à¤¹à¥Ľ": 5582,
      "Ġà¥Ľà¤¹à¤°": 5583,
      "Ġà¤Ĩà¤īà¤Łà¤°": 5584,
      "à¤ªà¤°à¤ĸ": 5585,
      "Ġà¤ªà¤¹à¤²à¤Ĺ": 5586,
      "Ġà¤Ĩà¤Īà¤Ĩà¤Ī": 5587,
      "à¥ĭà¤Ĥ:": 5588,
      "à¤·à¤²": 5589,
      "Ġà¥ŀà¤°à¤®": 5590,
      "Ġà¤ĳà¤²à¤Ĩà¤īà¤Ł": 5591,
      "Ġà¤¶à¤ªà¤¥à¤Ĺ": 5592,
      "à¤¹à¤¨à¤ª": 5593,
      "à¤·à¤¯à¤µà¤¸": 5594,
      "à¥Ŀà¤¨": 5595,
      "Ġà¥©à¥«": 5596,
      "à¤¾à¥¤à¥¤": 5597,
      "Ġà¤ıà¤«à¤Ĩà¤ĩà¤Ĩà¤°": 5598,
      "Ġà¤ľà¤¨à¤ªà¤¥": 5599,
      "Ġà¤ĩà¤¦": 5600,
      "à¤ħà¤ķà¤¸à¤°": 5601,
      "à¤«à¤Ĺ": 5602,
      "Ġà¤ªà¤¨à¤¬": 5603,
      "à¤ľà¤¨à¤¶": 5604,
      "à¤¬à¤°à¤µ": 5605,
      "à¤¤à¤²à¤¬": 5606,
      "à¥īà¥¤": 5607,
      "à¥Ī.....": 5608,
      "à¤¾.....": 5609,
      "à¤ħà¤¦à¤¬": 5610,
      "Ġà¤¹à¥ŀ": 5611,
      "à¤²à¤Ĺà¤¨": 5612,
      "à¤°à¤ľà¤°": 5613,
      "à¤ĵà¤®à¤ª": 5614,
      "à¤ıà¤¯": 5615,
      "[][]": 5616,
      "Ġà¥¨à¥¦à¥§à¥ª": 5617,
      "Ġà¤Łà¤¬": 5618,
      "Ġà¤¤à¤«à¤°": 5619,
      "Ġà¤¡à¤¬à¤°": 5620,
      "Ġà¤ªà¤°à¤ĸà¤ļ": 5621,
      "à¤°à¤¦à¤¨": 5622,
      "à¤¯à¤ªà¤¦": 5623,
      "à¤¤à¤ªà¤¤": 5624,
      "Ġà¤ıà¤Łà¤²": 5625,
      "à¤¡à¥ŀ": 5626,
      "à¤°à¤®à¤ª": 5627,
      "à¤®à¤ķà¤²": 5628,
      "Ġà¤ľà¤¬à¤¡": 5629,
      "à¤¹à¤¤à¤ª": 5630,
      "Ġà¤¤à¤°à¤¸à¤¤": 5631,
      "Ġà¤°à¤Ĺà¥ľ": 5632,
      "à¤¸à¤®à¤²": 5633,
      "à¤·à¤£à¤µ": 5634,
      "à¤°à¤µà¤²": 5635,
      "à¤Łà¤ķà¤ķ": 5636,
      "à¤ļà¤¤à¤¤": 5637,
      "Ġà¤ıà¤¨à¤ıà¤¸à¤ı": 5638,
      "à¤Ĩà¤£": 5639,
      "à¤ıà¤®à¤ıà¤ļ": 5640,
      "Ġà¤ħà¤®à¤°à¤ª": 5641,
      "Ġà¤¬à¤²à¤ª": 5642,
      "à¤¯à¥Ľ": 5643,
      "Ġà¤Ĺà¤¸": 5644,
      "à¤ĵà¤ıà¤¨à¤ľ": 5645,
      "à¤¦à¤¸à¤µ": 5646,
      "Ġà¤¦à¤¬à¤ķà¤°": 5647,
      "Ġà¤īà¤ªà¤ĸà¤£": 5648,
      "Ġà¤ľà¤ķà¥ľ": 5649,
      "Ġà¤²à¤¢à¤¤": 5650,
      "à¤¸à¤°à¤ķà¤°": 5651,
      "à¤Ĺà¤¬à¤²": 5652,
      "Ġà¤ľà¤²à¤Ĺ": 5653,
      "à¤Ĺà¤µà¤¡": 5654,
      "Ġà¤®à¤¸à¤°": 5655,
      "Ġà¤¬à¤£": 5656,
      "à¤¥à¤¹": 5657,
      "à¤ľà¤Ĺà¤¨": 5658,
      "Ġà¤¶à¤ªà¤¥à¤ªà¤¤": 5659,
      "Ġà¤Īà¤ıà¤¸à¤Ĩà¤Ī": 5660,
      "Ġà¤Ľà¤¥": 5661,
      "Ġà¤ħà¤ķà¤®à¤²": 5662,
      "à¤Ĩà¤¯à¤¡": 5663,
      "à¤ľà¤ķà¤®à¤²": 5664,
      "à¤²à¤®à¤Ł": 5665,
      "à¤ıà¤®à¤ıà¤²à¤ı": 5666,
      "à¥īà¤ģ": 5667,
      "à¤¡à¤ªà¤®": 5668,
      "Ġà¤¶à¤®à¤¨": 5669,
      "Ġà¥¨à¥¦à¥§à¥Ń": 5670,
      "Ġ**": 5671,
      "à¤ıà¤ıà¤¨": 5672,
      "à¤¿\"": 5673,
      "Ġà¤ıà¤¨à¤ıà¤¸": 5674,
      "à¤ıà¤¸à¤Īà¤¬": 5675,
      "Ġ..,": 5676,
      "à¤Ĩà¤Īà¤ıà¤¸à¤Ĩà¤Ī": 5677,
      "à¥ĩà¤Ĥà¥¤,": 5678,
      "Ġà¤¸à¤¹à¤¸à¤ļ": 5679,
      "Ġà¤ķà¤ªà¤Ł": 5680,
      "à¤īà¤¦à¤¯": 5681,
      ".........": 5682,
      "Ġà¤²à¤²à¤¨": 5683,
      "Ġà¤¦à¤¡": 5684,
      "à¤°à¤¹à¤Ł": 5685,
      "Ġà¤°à¤ªà¤¯": 5686,
      "à¤¨à¤ĺ": 5687,
      "Ġà¤¢à¤ķà¤ķà¤°": 5688,
      "Ġà¤Łà¤ļà¤¸": 5689,
      "Ġà¤ıà¤®à¤ıà¤ļ": 5690,
      "Ġà¤¹à¤®à¤ľ": 5691,
      "Ġà¤ľà¤ľà¤®": 5692,
      "Ġà¤Ĺà¤ļ": 5693,
      "Ġà¤ħà¤²à¤¬": 5694,
      "Ġà¤ļà¤®à¤ļà¤®": 5695,
      "à¤¾]": 5696,
      "à¤¬à¤¹à¤¸": 5697,
      "à¥Īà¥Īà¤Ĥà¥¤": 5698,
      "Ġà¤ħà¤¨à¤ª": 5699,
      "Ġà¤¸à¤Ĺà¤³": 5700,
      "Ġà¤¸à¤°à¤®": 5701,
      "à¤ķà¤ĩ": 5702,
      "à¤¡à¤ħà¤ª": 5703,
      "Ġà¥Ľà¤¬à¤°à¤¦à¤¸": 5704,
      "à¤īà¤ªà¤¨à¤Ĺà¤°": 5705,
      "à¤Ĩà¤Īà¤ĵ": 5706,
      "Ġà¤¸à¤°à¤ľ": 5707,
      "à¤¨à¤µà¤¦": 5708,
      "Ġà¤¹à¤ª": 5709,
      "à¤²à¤¨à¤°à¤¤": 5710,
      "à¤¦à¤µà¤Ī": 5711,
      "à¤¹à¤¨à¤¦": 5712,
      "à¤ªà¤¦à¤°": 5713,
      "à¤ªà¤¤à¤°": 5714,
      "à¤µà¤¦à¤¤": 5715,
      "à¤ħà¤¸à¤¦": 5716,
      "Ġà¤ªà¤¸à¤°à¤²": 5717,
      "Ġà¤Ńà¤Ń": 5718,
      "Ġà¤¡à¤Ĺà¤°": 5719,
      "à¤ıà¤«à¤Ĩà¤Īà¤Ĩà¤°": 5720,
      "à¥Īà¤Ĥà¤Ĥà¥¤": 5721,
      "Ġà¤ªà¤²à¤Łà¤ķà¤°": 5722,
      "à¤ªà¤¯à¤¶": 5723,
      "à¤®à¤¹à¤®": 5724,
      "Ġà¤¦à¤¹à¤¶à¤¤à¤Ĺà¤°": 5725,
      "à¤·à¤°à¤¶": 5726,
      "Ġà¤ĵà¤ĸà¤²": 5727,
      "à¤Ĺà¤Ĺà¤°": 5728,
      "Ġ-----": 5729,
      "à¤ķà¤Łà¤®": 5730,
      "à¤¬à¤°à¤ķ": 5731,
      "à¤ĩà¤¥": 5732,
      "Ġà¤īà¤²à¤Ŀà¤¤": 5733,
      "à¤µà¤¸à¤Ńà¤°": 5734,
      "Ġà¤®à¤¤à¤²": 5735,
      "Ġà¤ħà¤¦à¤¬": 5736,
      "Ġà¤ľà¤¯à¤®": 5737,
      "à¥Ģ.)": 5738,
      "Ġà¤¸à¤¤à¤¯": 5739,
      "à¥Ĥà¤Ĥ-": 5740,
      "à¤Ķà¤·à¤§": 5741,
      "à¤Ĭà¤Ĭ": 5742,
      "Ġà¤¨à¤Ĺà¤®": 5743,
      "à¤¸à¤²à¤Ł": 5744,
      "à¤¾--": 5745,
      "à¤ªà¤£à¤ľ": 5746,
      "Ġà¤®à¤ļà¤¨": 5747,
      "Ġà¤¤à¤Łà¤µà¤°": 5748,
      "Ġà¤ħà¤µà¤¤à¤°à¤£": 5749,
      "Ġà¤«à¥ľ": 5750,
      "à¤ªà¤ļà¤¯": 5751,
      "à¤ĩà¤ľà¤¨": 5752,
      "Ġà¤°à¤ľà¤¬": 5753,
      "à¤¤à¤°à¤ļ": 5754,
      "à¤¶à¤¨à¤ļ": 5755,
      "Ġà¤¨à¤°à¤¬": 5756,
      "Ġà¤ıà¤ħ": 5757,
      "à¤§à¤¨à¤Ĺà¤°": 5758,
      "à¤ķà¤Łà¤Ĺ": 5759,
      "à¤¿!": 5760,
      "à¤ĩà¤Łà¤®": 5761,
      "Ġà¤ıà¤«à¤Ĩà¤Īà¤Ĩà¤Ī": 5762,
      "à¤³à¤µà¤£": 5763,
      "Ġ(+": 5764,
      "à¥ļà¤²": 5765,
      "Ġà¤¬à¤°à¤Ĺ": 5766,
      "Ġà¤ĵà¤¸à¤µ": 5767,
      "Ġà¤ĵà¤¤à¤ª": 5768,
      "à¤¶à¤µà¤°": 5769,
      "à¤Ĩà¤¯à¤°à¤²": 5770,
      "à¥Īà¤Ĥ.'": 5771,
      "à¤¦à¤¯à¤¤": 5772,
      "Ġà¤ıà¤ķà¤¹": 5773,
      "à¤«à¤¦": 5774,
      "à¤¼à¥Ģ:": 5775,
      "Ġà¤¸à¤°à¤¹": 5776,
      "Ġà¤¶à¤°à¤ľ": 5777,
      "Ġà¤ĳà¤«à¤¸": 5778,
      "Ġà¤¤à¤²à¤¹à¤Ł": 5779,
      "))": 5780,
      "Ġà¤¶à¤Łà¤²à¤°": 5781,
      "Ġà¤Ľà¤ľ": 5782,
      "Ġà¤ķà¤°à¤¬": 5783,
      "Ġà¤ķà¤®à¤²à¤ľ": 5784,
      "à¤§à¤ľà¤¨": 5785,
      "Ġà¤Ĳà¤®": 5786,
      "Ġà¤¬à¤¹à¤ķà¤°": 5787,
      "Ġà¤ħà¤µà¤ĺ": 5788,
      "à¤ľà¤¬à¤³": 5789,
      "Ġà¤¯à¤ľà¤®": 5790,
      "à¤ıà¤ļà¤Ī": 5791,
      "à¤ķà¤¤à¤¨": 5792,
      "à¤¤à¤Ī": 5793,
      "Ġà¤ĩà¤¸à¤¬": 5794,
      "Ġà¤®à¤¨à¤Ĺà¤¢": 5795,
      "à¤§à¤¨à¤Ĺ": 5796,
      "Ġà¤ķà¤²à¤¬": 5797,
      "à¤¬à¤°à¤ª": 5798,
      "Ġà¤īà¤¦à¤¯à¤¨à¤°": 5799,
      "à¤Ĥ|": 5800,
      "Ġà¤ļà¤ĸà¤¨": 5801,
      "Ġà¤µà¤¸à¤²": 5802,
      "à¤¨à¤Ĺà¥Ŀ": 5803,
      "Ġà¤Łà¤¹à¤²à¤¤": 5804,
      "à¤¬à¤Ĺà¤¦": 5805,
      "à¥Ī.''": 5806,
      "à¤¸à¤¬à¤²": 5807,
      "à¤¡à¤²à¤°": 5808,
      "à¤¬à¥Ŀ": 5809,
      "à¤ħà¤µà¤¤": 5810,
      "à¤®à¤¤à¤Ĺà¤£à¤¨": 5811,
      "à¤Ĩà¤Īà¤Ĩà¤°à¤¸": 5812,
      "à¤ĸà¤¤à¤°": 5813,
      "Ġà¤ıà¤¸à¤ıà¤®à¤¸": 5814,
      "Ġà¤ıà¤ıà¤®": 5815,
      "à¤²à¤®à¤¨": 5816,
      "à¥ĺà¤¸": 5817,
      "à¤ķà¤²à¤ķ": 5818,
      "à¤īà¤ªà¤¸": 5819,
      "Ġà¤ıà¤¥à¤¨": 5820,
      "Ġà¤²à¤¹à¤²": 5821,
      "à¤ħà¤·": 5822,
      "Ġà¤ķà¤¸à¤¬": 5823,
      "à¥ĺà¤¦à¤®": 5824,
      "Ġà¤¨à¤ľà¤«": 5825,
      "à¤ħà¤ļà¤²": 5826,
      "à¤°à¤£à¤¤": 5827,
      "à¤§à¤°à¤®": 5828,
      "Ġà¤ħà¤¨à¤Ł": 5829,
      "à¤¤à¤Ĺà¤£": 5830,
      "Ġà¤Ľà¤Ĺà¤¨": 5831,
      "Ġà¤¦à¤²à¤¬à¤¦à¤²": 5832,
      "Ġà¤ħà¤°à¤¨": 5833,
      "à¤Ńà¤£": 5834,
      "Ġà¤¤à¤Łà¤°à¤ķ": 5835,
      "à¤°à¤¸à¤²": 5836,
      "Ġà¤¬à¤°à¤¬à¤¸": 5837,
      "à¤īà¤§": 5838,
      "à¤¹à¤°à¤¸": 5839,
      "Ġà¤ĵà¤Ĺ": 5840,
      "Ġà¤Ńà¤Īà¤¯": 5841,
      "Ġà¤ĵà¤ľà¤¸": 5842,
      "à¤²à¤ĸà¤¤": 5843,
      "Ġà¤®à¤Łà¤¨": 5844,
      "à¤¹à¤²à¤ķ": 5845,
      "à¤°à¤ľà¤µ": 5846,
      "à¥Ĥà¤ģ|": 5847,
      "à¤²à¤ĸà¤¨": 5848,
      "Ġà¤Ĩà¤Īà¤ıà¤¸à¤ĵ": 5849,
      "Ġà¤®à¤Ĺà¤¨": 5850,
      "Ġà¤ķà¤Īà¤¯": 5851,
      "à¤²à¤®à¤°": 5852,
      "à¤¦à¤®à¤ķà¤²": 5853,
      "à¤Ĩà¤°à¤Ĩà¤Īà¤ıà¤²": 5854,
      "à¤§à¤Ĺ": 5855,
      "à¤ĸà¤°à¤£": 5856,
      "à¤¤à¤¨à¤¯": 5857,
      "à¤¾()": 5858,
      "à¤¯à¤¸à¤°": 5859,
      "à¤ķà¤°à¤²": 5860,
      "Ġà¤ħà¤¤à¤ıà¤µ": 5861,
      "à¤¶à¤¹à¤¦": 5862,
      "Ġà¤ľà¤ļ": 5863,
      "Ġà¤Ľà¤°": 5864,
      "à¤ªà¤ĸ": 5865,
      "à¤«à¤°à¤¹": 5866,
      "à¤ıà¤¸à¤Ĩà¤Īà¤Ĩà¤°": 5867,
      "à¤¬à¤Ĺà¤²": 5868,
      "à¤ľà¤¨à¤ª": 5869,
      "????": 5870,
      "à¤µà¤¬à¤°": 5871,
      "Ġà¤łà¤°à¤¤": 5872,
      "à¤ľà¤ªà¤®à¤§": 5873,
      "Ġà¤²à¤Łà¤ķà¤¨": 5874,
      "à¤§à¤µà¤°": 5875,
      "Ġà¤¨à¤µà¤Ĺà¤ł": 5876,
      "à¤¸à¤Łà¤¨": 5877,
      "à¤ıà¤²à¤ĵà¤¸": 5878,
      "Ġà¤¨à¤Ĺà¤°à¤µ": 5879,
      "Ġà¤®à¤°à¤ľ": 5880,
      "à¤°à¤«à¤¤": 5881,
      "Ġà¤ħà¤ķà¤¸": 5882,
      "à¤ıà¤«à¤ıà¤®à¤¸": 5883,
      "à¤ħà¤ªà¤¹à¤°à¤£": 5884,
      "à¤¡à¤ıà¤«à¤ıà¤¸": 5885,
      "Ġà¤¹à¤°à¤¤": 5886,
      "Ġà¤ıà¤ļà¤¬": 5887,
      "Ġà¤Ĩà¤°à¤ıà¤²à¤¡": 5888,
      "à¤Ĺà¤µà¤¶": 5889,
      "Ġ.%,": 5890,
      "Ġà¤Ĩà¤°à¤µ": 5891,
      "à¤ľà¥ľ": 5892,
      "Ġà¤ħà¤ªà¤¯à¤¶": 5893,
      "à¤£à¤ªà¤£": 5894,
      "à¤Łà¥ŀ": 5895,
      "Ġà¤ľà¤¯à¤Ńà¤Ĺà¤µ": 5896,
      "@:": 5897,
      "à¤ıà¤²à¤Ĳ": 5898,
      "Ġà¤¶à¤¹à¤¬": 5899,
      "Ġà¤¦à¤°à¤°": 5900,
      "Ġà¤Ķà¤¨": 5901,
      "Ġà¤¦à¤¬à¤¨": 5902,
      "à¤ķà¤ªà¤Ł": 5903,
      "à¤°à¤£à¤¨": 5904,
      "Ġà¤ļà¤¯": 5905,
      "à¤ªà¤ķà¤¨": 5906,
      "Ġà¤¯à¤²": 5907,
      ").(": 5908,
      "Ġà¤ĵà¤Ŀà¤²": 5909,
      "à¤¸à¤ĳà¤°": 5910,
      "Ġà¤ħà¤¸à¤¨": 5911,
      "Ġà¤ķà¤Łà¤ķà¤°": 5912,
      "Ġà¤Ĩà¤°à¤¡à¤¬": 5913,
      "à¤Ŀà¤ªà¤°": 5914,
      "Ġà¤ľà¤²à¤ķ": 5915,
      "Ġà¤®à¤ľà¤¨": 5916,
      "à¤Łà¤°à¤¶": 5917,
      "à¤¦à¤®à¤¯": 5918,
      "Ġà¥į": 5919,
      "Ġà¤Īà¤¶à¤¨": 5920,
      "à¤ľà¤¸à¤ª": 5921,
      "à¤Ĭà¤ľ": 5922,
      "à¤ıà¤¨à¤ıà¤¸à¤¯": 5923,
      "à¤¹à¤ļ": 5924,
      "à¤®à¤²à¤µ": 5925,
      "Ġà¤Ĩà¤¢à¤³à¤²": 5926,
      "Ġà¤¬à¤¸à¤£": 5927,
      "Ġà¤§à¤¨à¤Ĺà¤°": 5928,
      "Ġ-(": 5929,
      "Ġà¤¥à¤²à¤¸": 5930,
      "Ġà¤ħà¤¶à¤ķ": 5931,
      "Ġà¥ĺà¤¬": 5932,
      "Ġà¤Ĺà¤®à¤¨": 5933,
      "Ġà¤¹à¤¥à¤ķà¤°à¤ĺ": 5934,
      "à¥įà¥ģ": 5935,
      "Ġà¤¤à¤¹à¤ĸ": 5936,
      "Ġà¤ĸà¤°à¤¸": 5937,
      "à¥Ĥà¤ģ...": 5938,
      "à¥Ģ''": 5939,
      "à¤®à¥Ŀ": 5940,
      "à¤Ĩà¤¦à¤°à¤£": 5941,
      "à¥¨à¥¦à¥¦": 5942,
      "Ġà¤ĵà¤µà¤°à¤ĳà¤²": 5943,
      "Ġà¤ıà¤¸à¤ĵà¤ľ": 5944,
      "à¤²à¤¹à¤µ": 5945,
      "à¤Ĩà¤Īà¤Ĩà¤Īà¤ıà¤®": 5946,
      "à¥¤,": 5947,
      "à¤¡à¤¬à¤°": 5948,
      "à¤¸à¤ļà¤°": 5949,
      "Ġà¤ıà¤®à¤ıà¤«": 5950,
      "à¤Ĺà¤£à¤ķ": 5951,
      "Ġà¤¸à¤®à¤°à¤¸": 5952,
      "à¤īà¤¬": 5953,
      "Ġà¤Ĺà¤²à¤¨": 5954,
      "Ġà¤¡à¤°à¤ķà¤°": 5955,
      ".)à¥¤": 5956,
      "Ġ-%": 5957,
      ".-": 5958,
      "à¤²à¤ı": 5959,
      "à¤µà¤¢": 5960,
      "à¤Ĩà¤Īà¤ıà¤ļ": 5961,
      "à¤¯à¤²à¤ķ": 5962,
      "Ġà¤Ĺà¤Ĺà¤¨à¤¦": 5963,
      "Ġà¤¨à¤Ĭ": 5964,
      "à¤¶à¤ĸ": 5965,
      "à¤Ĺà¤£à¤ªà¤¤": 5966,
      "à¤Ĩà¤ľà¤®à¤Ĺà¤¢": 5967,
      "Ġà¤ıà¤¸à¤ıà¤®": 5968,
      "à¥Ĥà¤Ĥ:": 5969,
      "Ġà¤Ĩà¤°à¤Ĩà¤°": 5970,
      "Ġà¤ľà¤µà¤¨": 5971,
      "Ġà¤ħà¤°à¤¹": 5972,
      "à¥Ī:-": 5973,
      "Ġà¤ĳà¤¥": 5974,
      "Ġà¤ľà¤¯à¤¹": 5975,
      "Ġà¤°à¤¤à¤¨à¤²": 5976,
      "Ġà¤¸à¤®à¤Ń": 5977,
      "à¤¦à¤¶à¤ķ": 5978,
      "à¤¾à¤Ĥ!": 5979,
      "Ġà¤®à¤«": 5980,
      "Ġà¤¸à¤®à¤µ": 5981,
      "à¤ıà¤¹": 5982,
      "Ġà¤¹à¤¸à¤¬": 5983,
      "à¥Īà¤Ĥà¥¤...": 5984,
      "à¤Ĥ!": 5985,
      "à¤¥à¤¬": 5986,
      "à¤ľà¤¨à¤¨": 5987,
      "à¤¸à¤ķà¤²": 5988,
      "Ġà¤²à¤ĸà¤ªà¤¤": 5989,
      "Ġà¤Ĺà¤®à¤Ĺ": 5990,
      "Ġà¤¬à¤¦à¤¹à¤µ": 5991,
      "à¤¸à¤ľà¤¨": 5992,
      "à¤Łà¤§": 5993,
      "Ġà¤¹à¤Ĺ": 5994,
      "à¤°à¤ļà¤£": 5995,
      "Ġà¤ħà¤¹à¤°": 5996,
      "à¤ĩà¤ĳà¤ķ": 5997,
      "à¤ıà¤«à¤ıà¤«": 5998,
      "à¥Īà¤¼": 5999,
      "Ġà¤®à¤²à¤µ": 6000,
      "à¤ĵà¤ľ": 6001,
      "Ġ&;": 6002,
      "à¤ķà¤¨à¤°": 6003,
      "à¤ľà¤ªà¤°": 6004,
      "à¤«à¤¡à¤£à¤µ": 6005,
      "à¤ľà¤¨à¤µ": 6006,
      "à¤¹à¤®à¤¤": 6007,
      "à¤ıà¤ıà¤®": 6008,
      "à¤®à¤Ľ": 6009,
      "Ġà¤ĵà¤°à¤Ľ": 6010,
      "Ġà¤Ĩà¤¹à¤µ": 6011,
      "à¤Ĩà¤Īà¤ĵà¤ıà¤¸": 6012,
      "à¤¤à¤¹à¤°": 6013,
      "Ġà¤²à¤¹à¤²à¤¹": 6014,
      "Ġà¤¹à¤¡à¤ķ": 6015,
      "Ġà¤ķà¤¨à¤ªà¤Ł": 6016,
      "à¤ĩà¤«à¤Ł": 6017,
      "à¤µà¤¦à¤°": 6018,
      "Ġà¤¨à¤ĸà¤°": 6019,
      "Ġà¤®à¤ĸà¤®à¤²": 6020,
      "à¤ķà¤ı": 6021,
      "Ġà¥§à¥¯à¥«": 6022,
      "Ġà¤¤à¤ķà¤«": 6023,
      "Ġ.+": 6024,
      "Ġà¤«à¤Ĺ": 6025,
      "Ġà¤ķà¤µà¤¨": 6026,
      "Ġà¤µà¤¨à¤®": 6027,
      "Ġà¤īà¥ľà¤¦": 6028,
      "à¤¦à¤®à¤¤": 6029,
      "Ġà¤«à¤³": 6030,
      "à¤Łà¤°à¤¹": 6031,
      "Ġà¤ĵà¤µà¤°à¤¡": 6032,
      "à¤¹à¤®à¤£": 6033,
      "Ġà¥Ńà¥¦": 6034,
      "Ġà¤Łà¤ĸà¤¨": 6035,
      "à¤¾à¤Ĥ?": 6036,
      "Ġà¤µà¥Ľ": 6037,
      "à¤¨à¤°à¤®": 6038,
      "à¤¹à¤°à¤ķ": 6039,
      "Ġà¤®à¤¹à¤¦": 6040,
      "Ġà¤ħà¤¶à¤°": 6041,
      "à¤ĭà¤·à¤Ń": 6042,
      "à¤ıà¤²à¤ıà¤¡": 6043,
      "à¥¨à¥Ń": 6044,
      "à¥Ľà¤¬": 6045,
      "à¤°à¤ªà¤£": 6046,
      "Ġà¤²à¤¢à¤µ": 6047,
      "à¤Ĩà¤°à¤Ĩà¤°à¤¬": 6048,
      "Ġà¤ªà¤²à¤¨": 6049,
      "à¤ĺà¤µà¤¨": 6050,
      "Ġà¤Ŀà¤ªà¤ķà¤¤": 6051,
      "à¤µà¤ļà¤°à¤£": 6052,
      "Ġà¤ħà¥ľà¤ļà¤¨": 6053,
      "Ġà¤ıà¤ļà¤¯": 6054,
      "Ġà¤ľà¤²à¤§": 6055,
      "Ġà¤Ĩà¤Īà¤ıà¤®à¤ı": 6056,
      "Ġà¤¶à¤Łà¤²": 6057,
      "Ġà¤ħà¤ķà¤¬à¤°à¤ª": 6058,
      "Ġà¤¸à¤Ĺà¤°": 6059,
      "à¤£à¤ķà¤°": 6060,
      "à¤²à¤¨à¤¹": 6061,
      "Ġà¤Ĺà¤®à¤Ľ": 6062,
      "à¤¤à¤Ł": 6063,
      "Ġà¤¸à¤¦à¤Ĺ": 6064,
      "à¤ĵà¤ĵ": 6065,
      "à¤ħà¤«à¤°": 6066,
      "à¤µà¤ªà¤²": 6067,
      "Ġà¤ªà¤¸à¤²": 6068,
      "à¤Ľà¤ªà¤°": 6069,
      "à¤¼à¥ħ": 6070,
      "Ġ.(": 6071,
      "Ġà¤¬à¤°à¤¸à¤¨": 6072,
      "à¤¤à¤ªà¤£": 6073,
      "à¥ĭà¤Ĥ\"": 6074,
      "Ġà¤ĺà¤Ĺ": 6075,
      "Ġà¤®à¤ļà¤²": 6076,
      "à¤ıà¤ıà¤®à¤¯": 6077,
      "à¤ıà¤®à¤ıà¤ļà¤ĵ": 6078,
      "à¤īà¤µ": 6079,
      "à¥Ĥà¤ģ!": 6080,
      "à¤Īà¤ķà¤²": 6081,
      ")|": 6082,
      "Ġà¤ĳà¤ķà¤²": 6083,
      "Ġà¤ħà¤®à¤°à¤¤": 6084,
      "Ġà¤īà¤§à¤®à¤ª": 6085,
      "à¤°à¤Łà¤°": 6086,
      "à¤¸à¤²à¤¤": 6087,
      "à¤ªà¤¸à¤¨": 6088,
      "à¥¨à¥©": 6089,
      "à¤Łà¤¤à¤®": 6090,
      "Ġà¤īà¤¨à¤¹": 6091,
      "à¤ıà¤ıà¤¨à¤Ĩà¤Ī": 6092,
      "Ġà¤ıà¤²à¤Ĳ": 6093,
      "à¤£à¤ķà¤Ł": 6094,
      "à¤ĸà¤¯": 6095,
      "à¤¤à¤®à¤ª": 6096,
      "Ġà¤īà¤ĩà¤ķ": 6097,
      "Ġà¤ħà¤ī": 6098,
      "Ġà¤ľà¤Ī": 6099,
      "à¤ħà¤¨à¤¨": 6100,
      "Ġà¤ķà¤¥à¤ķ": 6101,
      "Ġà¤§à¤µ": 6102,
      "à¤ĥà¥¤": 6103,
      "à¤°à¤ľà¤¤": 6104,
      "Ġà¤ļà¤®à¤Ĺ": 6105,
      "à¤ĸà¤¨à¤Ĺà¤°": 6106,
      "Ġ:.": 6107,
      "(){": 6108,
      "à¤ľà¤¨à¤°": 6109,
      "à¤ĺà¤£": 6110,
      "à¤°à¤ļà¤°à¤£": 6111,
      "Ġà¥¤\"": 6112,
      "Ġà¤Ĩà¤°à¤ıà¤¨": 6113,
      "Ġà¤ıà¤®à¤«": 6114,
      "à¤¤à¤µà¤£": 6115,
      "Ġà¤Ĺà¤łà¤¬à¤¨": 6116,
      "à¥Ĥ...": 6117,
      "Ġà¤Ĩà¤ĩà¤ıà¤ıà¤¸": 6118,
      "Ġà¤¦à¤ĸ": 6119,
      "Ġà¤¨à¤µà¤ª": 6120,
      "à¤Ĥ'": 6121,
      "Ġà¤Ńà¤ľà¤¨à¤²": 6122,
      "à¤¶à¤¤à¤ķ": 6123,
      "à¤ĳà¤¨à¤°": 6124,
      "à¤ĩà¤¯à¤¤": 6125,
      "à¤²à¤°à¤¸à¤¨": 6126,
      "à¥ĭà¤ĥ": 6127,
      "à¤®à¥ľ": 6128,
      "Ġà¤µà¤¹à¤¶": 6129,
      "à¤¼à¤¾)": 6130,
      "Ġà¤ıà¤¨à¤ıà¤®à¤¡": 6131,
      "Ġà¤ıà¤ķà¤Ł": 6132,
      "à¤°à¤¤à¤ª": 6133,
      "à¤¬à¤ķà¤®": 6134,
      "à¤¾à¤Ĥ:": 6135,
      "Ġà¤Łà¤µ": 6136,
      "à¤²à¤ķà¤Ł": 6137,
      "à¤ķà¤¸à¤°": 6138,
      "à¤¿à¤Ĥà¤Ĥ": 6139,
      "à¤ħà¤ľà¤¹à¤°": 6140,
      "Ġà¥©à¥§": 6141,
      "à¤¸à¤«à¤²": 6142,
      "à¤³à¤µà¤²": 6143,
      "Ġà¤¯à¤®à¤²": 6144,
      "à¤¾).": 6145,
      "Ġ...........": 6146,
      "à¤¥à¤Łà¤¬": 6147,
      "Ġà¤ªà¤ļà¤¨": 6148,
      "à¤ļà¤®à¤ķ": 6149,
      "à¥Ģà¤Ĥ;": 6150,
      "Ġà¤ıà¤®à¤ıà¤²à¤¡": 6151,
      "à¤łà¤£": 6152,
      "à¤¸à¤¹à¤®à¤¤": 6153,
      "Ġà¥ĺà¤¤": 6154,
      "Ġà¤Ĺà¤ľà¤Ł": 6155,
      "à¤ªà¤²à¤¬": 6156,
      "à¤ıà¤ļà¤ķ": 6157,
      "Ġà¤ıà¤¨à¤Ī": 6158,
      "Ġà¤Ĭà¤§": 6159,
      "à¤łà¤µà¤£": 6160,
      "à¥¨à¥ª": 6161,
      "Ġà¤ħà¤µà¤ļ": 6162,
      "Ġà¤®à¤¹à¤¨": 6163,
      "Ġà¤īà¤ľà¤²": 6164,
      "Ġà¤ªà¤ķà¥ľà¤¤": 6165,
      "à¥Ħ": 6166,
      "Ġà¤ķà¤¡à¤ķ": 6167,
      "////": 6168,
      "à¥ĩ',": 6169,
      "à¤¡à¤ĸ": 6170,
      "Ġà¤«à¤¹": 6171,
      "Ġà¤¬à¤¢à¤ķà¤°": 6172,
      "à¤¬à¤²à¤µ": 6173,
      "à¤Ĳà¤Ĺ": 6174,
      "à¤³à¤¶": 6175,
      "Ġà¥©à¥ª": 6176,
      "à¤Īà¤ıà¤®à¤¯": 6177,
      "à¤Ĩà¤¬à¤ķ": 6178,
      "Ġà¥®à¥¦": 6179,
      "à¤Ŀà¤ªà¤¨": 6180,
      "à¤ľà¤¸à¤µ": 6181,
      "Ġà¤¤à¤¯à¤¶": 6182,
      "Ġà¤²à¤ł": 6183,
      "à¤¯à¤ķà¤¶": 6184,
      "Ġ=>": 6185,
      "à¥Ģ,,": 6186,
      "Ġà¤¶à¤²à¤Ń": 6187,
      "à¤¶à¤¨à¤Ń": 6188,
      "Ġà¤ıà¤«à¤Ĩà¤°à¤ª": 6189,
      "Ġà¤®à¤ľà¤®": 6190,
      "Ġà¤Ĩà¤°à¤ıà¤²": 6191,
      "Ġà¤ľà¤¸à¤°": 6192,
      "à¤®à¤ķà¤¶": 6193,
      "à¤ıà¤²à¤Īà¤¡": 6194,
      "Ġà¥ªà¥«": 6195,
      "Ġà¤ıà¤Ī": 6196,
      "à¤¶à¤ļà¤¨": 6197,
      "à¤¦à¤Ĺà¤¢": 6198,
      ",...": 6199,
      "Ġà¤¬à¤°à¤¦": 6200,
      "à¤ķà¤ķà¤²": 6201,
      "Ġ(--)": 6202,
      "à¤¯à¤£à¤¸": 6203,
      "à¤ĵà¤ıà¤®": 6204,
      "à¤¹à¤¦à¤°": 6205,
      "##": 6206,
      "à¤¹à¤¤à¤²": 6207,
      "à¤Ĳà¤²": 6208,
      "Ġà¤ħà¤¨à¤ķ": 6209,
      "à¤°à¤¤à¤ķ": 6210,
      "Ġà¤§à¤¨à¤ķ": 6211,
      "Ġ',": 6212,
      "à¤ıà¤¨à¤µ": 6213,
      "à¤¯à¤Ĺà¤¡": 6214,
      "à¤®à¤¨à¤¦": 6215,
      "Ġ%%%%%%%%%": 6216,
      "à¤§à¤¨à¤ķ": 6217,
      "Ġà¤ħà¤µà¤Ĺ": 6218,
      "Ġà¤ķà¤²à¤Ī": 6219,
      "Ġà¤ħà¤²à¤Ĺà¤ħà¤²à¤Ĺ": 6220,
      "Ġà¤ħà¤§à¤®à¤°": 6221,
      "à¤²à¤ķà¤¡": 6222,
      "à¤¼à¥ĭ,": 6223,
      "Ġà¤īà¤ªà¤®à¤£": 6224,
      "Ġà¤¨à¤Łà¤µà¤°": 6225,
      "Ġà¤¹à¤ķà¤²": 6226,
      "Ġà¤ħà¤¨à¤µ": 6227,
      "Ġà¤¨à¤¦à¤µ": 6228,
      "Ġà¤Ńà¤°à¤Ńà¤°": 6229,
      "à¤ľà¤Ĺà¤¦à¤²à¤ª": 6230,
      "à¥Ģ:-": 6231,
      "Ġà¤īà¤¨à¤²": 6232,
      "Ġà¤ħà¤ªà¤¦à¤¸": 6233,
      "à¥¨à¥¨": 6234,
      "Ġà¤Ŀà¤¨": 6235,
      "Ġà¤Ĩà¤¸à¤¨à¤¸": 6236,
      "à¤Łà¤ļà¤°": 6237,
      "Ġà¤¸à¤®à¤ľà¤²": 6238,
      "Ġà¤ĳà¤¨à¤¸": 6239,
      "à¤Łà¤²à¤¤": 6240,
      "à¤§à¤¦": 6241,
      "Ġà¤ıà¤¯": 6242,
      "Ġà¤¸à¤°à¤«": 6243,
      "Ġ++": 6244,
      "Ġà¤¹à¤łà¤§à¤°": 6245,
      "Ġà¤ªà¤¡à¤¨": 6246,
      "Ġà¤ķà¤¤à¤°à¤¨": 6247,
      "à¤ľà¤¬à¤°": 6248,
      "Ġà¤ħà¤¨à¤ķà¤¹": 6249,
      "à¤£à¤ķà¤µà¤²": 6250,
      "à¤ıà¤¸à¤ıà¤«à¤Ĩà¤Ī": 6251,
      "à¤ľà¤¯à¤¦à¤¶à¤®": 6252,
      "à¤¨à¤§": 6253,
      "à¤¾à¤Ĥ...": 6254,
      "à¤Ĺà¤²à¤®à¤¯": 6255,
      "Ġà¤ħà¤Ĺà¤°à¤¤à¤²": 6256,
      "à¤ĳà¤ª": 6257,
      "Ġà¤ķà¤ķà¤°": 6258,
      "à¤¾à¥¤''": 6259,
      "à¤ľà¤¨à¤¹": 6260,
      "à¤ªà¤¥à¤°": 6261,
      "à¤ħà¤®à¤²": 6262,
      "à¤°à¤£à¤¦": 6263,
      "à¤·à¤Ĺà¤¢": 6264,
      "à¤®à¤ľà¤¸": 6265,
      "à¤¬à¤¸à¤°": 6266,
      "Ġà¤ĸà¤¡à¤¸": 6267,
      "à¤ĺà¤°à¤µ": 6268,
      "Ġ#,": 6269,
      "Ġà¤¤à¥ĺà¤°": 6270,
      "Ġà¤¸à¤®à¤§": 6271,
      "Ġà¤ľà¤ķà¤°à¤¬à¤°": 6272,
      "Ġà¤ıà¤¸à¤Ĩà¤Īà¤ª": 6273,
      "Ġà¤ħà¤Ĺà¤¡": 6274,
      "à¤®à¤¦à¤¦": 6275,
      "à¥Ģ()": 6276,
      "Ġà¤Ľà¥ľ": 6277,
      "à¤¬à¤¤à¤ª": 6278,
      "Ġà¤¶à¤¬à¤°": 6279,
      "à¤Ľà¤®": 6280,
      "à¤Ĩà¤ªà¤¤": 6281,
      "Ġà¤īà¤ªà¤¸à¤®": 6282,
      "à¤¬à¤²à¤ª": 6283,
      "Ġà¤Ĩà¤³": 6284,
      "à¤·à¤¬": 6285,
      "Ġà¤«à¤²à¤¨": 6286,
      "à¤¾à¤ģ.": 6287,
      "à¤¤à¤²à¤¤": 6288,
      "à¤¬à¥Ŀà¤¤": 6289,
      "à¥Īà¤Ĥ\"": 6290,
      "à¤ħà¤²à¤ķ": 6291,
      "à¤ıà¤ļà¤¬": 6292,
      "à¤¡à¤¸à¤ĩ": 6293,
      "Ġà¤Ŀà¤Łà¤ªà¤Ł": 6294,
      "Ġà¤¨à¥ŀ": 6295,
      "Ġà¤ľà¤¨à¤¸à¤®à¤°": 6296,
      "Ġà¤Īà¤ıà¤¸à¤ª": 6297,
      "Ġà¤ķà¤¸à¤ķ": 6298,
      "à¥ĥà¥ĥ": 6299,
      "Ġà¤ĵà¤³": 6300,
      "Ġà¤ķà¤ı": 6301,
      "à¤ķà¤Łà¤¨": 6302,
      "Ġà¤ħà¤®à¤°à¤¦": 6303,
      "Ġà¤ľà¤®à¤¤": 6304,
      "à¤¾,,": 6305,
      "Ġà¤Ĩà¤¹à¤²": 6306,
      "à¥ŀà¤¤": 6307,
      "à¤¬à¤£": 6308,
      "à¤¸à¤²à¤ª": 6309,
      "à¥Īà¥¤à¥¤": 6310,
      "à¤Ĩà¤ĩà¤ľ": 6311,
      "à¤¿),": 6312,
      "à¤¸à¤®à¤¨": 6313,
      "à¤ıà¤¨à¤ıà¤¸à¤ľ": 6314,
      "à¤²à¤°à¤®": 6315,
      "à¥ĩà¤Ĥ),": 6316,
      "à¤¾à¥ħà¤Ĥ": 6317,
      "à¥ĩ.'": 6318,
      "à¥Ģ-)": 6319,
      "à¤¶à¤¨à¤§": 6320,
      "à¤ªà¤Łà¤µ": 6321,
      "à¤¡à¤µà¤¤": 6322,
      "Ġà¤¬à¤¦à¤°à¤ª": 6323,
      "à¤Ĺà¤ľà¤¬": 6324,
      "Ġà¤Ĩà¤°à¤ıà¤®": 6325,
      "à¤¿?": 6326,
      "Ġà¤¦à¤°à¤µà¤°": 6327,
      "Ġà¤ĸà¤Ĺà¤¡": 6328,
      "Ġà¤Ľà¤Ľà¤°": 6329,
      "Ġà¤ıà¤«à¤ıà¤¸à¤ıà¤²": 6330,
      "Ġà¤¹à¤³": 6331,
      "à¤ħà¤¥": 6332,
      "Ġà¤¹à¤²à¤ĩ": 6333,
      "Ġà¥©à¥¬": 6334,
      "Ġà¤ıà¤®à¤Ĩà¤°à¤Ĩà¤Ī": 6335,
      "à¤ķà¤²à¤¹": 6336,
      "-..": 6337,
      "://..": 6338,
      "à¤µà¤°à¤¦": 6339,
      "Ġà¤ľà¤¯à¤ĺ": 6340,
      "à¥ĩ.....": 6341,
      "à¤¶à¤¨à¤Ĺà¤¢": 6342,
      "à¤ķà¤ļà¤¹à¤°": 6343,
      "Ġà¥¨à¥¦à¥§à¥¬": 6344,
      "à¤ıà¤¨à¤ıà¤®": 6345,
      "Ġà¤®à¤ķà¤¬": 6346,
      "à¥Īà¤ģà¥¤": 6347,
      "à¤ĩà¤¹": 6348,
      "Ġà¤¦à¤²à¤µ": 6349,
      "Ġà¤ĸà¤¬à¤°à¤¦": 6350,
      "Ġà¤Ĳà¤µà¤ľ": 6351,
      "à¤Ńà¤°à¤®": 6352,
      "à¤ĩà¤Łà¤ķ": 6353,
      "à¤®à¤Ńà¤ķ": 6354,
      "à¤ıà¤¨à¤ıà¤¸à¤¸": 6355,
      "Ġ(,)": 6356,
      "à¤µà¤¯à¤®": 6357,
      "à¤ĩà¤ªà¤°à¤Ł": 6358,
      "Ġà¤ħà¤¨à¤¬": 6359,
      "à¤Ĩà¤Īà¤ıà¤¸à¤ıà¤²": 6360,
      "Ġà¤¸à¤®à¤¦": 6361,
      "à¤ľà¤¨à¤®": 6362,
      "Ġà¤ıà¥ľ": 6363,
      "à¤²à¤Ĺà¤ª": 6364,
      "à¤¸à¤¬à¤Ĺ": 6365,
      "Ġ\".": 6366,
      "Ġà¤ıà¤¯à¤°à¤¬à¤¸": 6367,
      "à¤ķà¤°à¤ļ": 6368,
      "à¤µà¤Łà¤ļ": 6369,
      "à¤łà¤¸": 6370,
      "Ġà¤¬à¥ľà¤µ": 6371,
      "Ġà¤īà¤Ł": 6372,
      "Ġà¤ıà¤®à¤¨": 6373,
      "à¤¤à¤µà¤¨": 6374,
      "Ġà¤²à¤ĸà¤®": 6375,
      "Ġ,)": 6376,
      "à¤µà¤²à¤°": 6377,
      "Ġà¤Ĩà¤°à¤ıà¤«": 6378,
      "Ġà¤ĵà¤¨à¤°": 6379,
      "à¤²à¤Ĩà¤īà¤Ł": 6380,
      "à¤ªà¤°à¤¦": 6381,
      "Ġà¤ıà¤ķà¤ªà¤ķ": 6382,
      "Ġà¤¸à¤¬à¤®à¤°": 6383,
      "à¤¯à¤®à¤¶": 6384,
      "Ġà¤¬à¤Ľ": 6385,
      "Ġà¤¬à¤¦à¤ķ": 6386,
      "à¤Ĥ/": 6387,
      "à¥Īà¥Īà¤Ĥ": 6388,
      "à¤¬à¤¨à¤°": 6389,
      "Ġà¥«à¥¦à¥¦": 6390,
      "Ġà¤®à¥Ľà¤¹à¤¬": 6391,
      "Ġà¤¸à¤£": 6392,
      "Ġà¤ĭà¤¦": 6393,
      "Ġà¤ħà¤¹à¤¹": 6394,
      "à¤ĸà¤µà¤²": 6395,
      "à¤®à¤®à¤¨": 6396,
      "Ġà¤ıà¤ıà¤«à¤ª": 6397,
      "Ġà¤ªà¤Ĺà¥ľ": 6398,
      "à¤¦à¤°à¤°": 6399,
      "à¤ıà¤¨à¤ıà¤¸à¤ıà¤¸": 6400,
      "Ġ://...": 6401,
      "à¤·à¤°à¤§": 6402,
      "à¤Łà¤°à¤Ĺ": 6403,
      "à¤®à¤¦à¤°à¤¸": 6404,
      "Ġà¤īà¤¤à¤°à¤²": 6405,
      "Ġà¤īà¤Ĺà¤²à¤¤": 6406,
      "à¤īà¤ªà¤µ": 6407,
      "à¤¾......": 6408,
      "Ġà¤Ĩà¤Īà¤ĵà¤ı": 6409,
      "Ġà¤®à¤¨à¤¹": 6410,
      "à¤ľà¤¬à¤°à¤¦à¤¸": 6411,
      "à¤¾'à¥¤": 6412,
      "Ġà¤Ńà¤Ĺà¤¦à¥ľ": 6413,
      "à¤¿à¥ĭà¤Ĥ": 6414,
      "Ġà¤Ĩà¤ĩà¤ıà¤¸": 6415,
      "à¤Ĩà¤¯à¤¤": 6416,
      "&&": 6417,
      "à¥įà¥Ĥ": 6418,
      "à¤Īà¤ľà¤°": 6419,
      "Ġà¤ĸà¤¤à¤¨": 6420,
      "Ġà¤Ĩà¤Īà¤ıà¤¸à¤ıà¤¸": 6421,
      "Ġà¤Ĩà¤łà¤µà¤²": 6422,
      "(.)": 6423,
      "à¤¦à¤¹à¤µ": 6424,
      "à¤¥à¤Īà¤¸": 6425,
      "à¤ĩà¤Łà¤¸": 6426,
      "à¤łà¤µà¤²": 6427,
      "à¤¨à¤¹à¤Ł": 6428,
      "à¤ļà¤¹à¤²": 6429,
      "à¤ªà¤Łà¤¤": 6430,
      "à¤ªà¤Łà¤²": 6431,
      "à¤ıà¤¥": 6432,
      "à¥ĭ)à¥¤": 6433,
      "à¤Īà¤ªà¤°": 6434,
      "à¤²à¤¡à¤ª": 6435,
      "à¤¨à¥ľ": 6436,
      "à¤£à¤¬": 6437,
      "Ġà¤ħà¤¡à¤¥à¤³": 6438,
      "à¤¸à¤¤à¤°": 6439,
      "à¤ľà¤ľà¤ª": 6440,
      "Ġà¤¦à¤§": 6441,
      "à¤łà¤¯à¤ķ": 6442,
      "Ġà¤ļà¤¢à¤©": 6443,
      "Ġà¤ıà¤ķà¤¸à¤®": 6444,
      "à¤¾-'": 6445,
      "Ġà¤ıà¤¨à¤ıà¤ļà¤ª": 6446,
      "à¥Ĥ),": 6447,
      "à¤ıà¤Ĩà¤Īà¤ıà¤®à¤Ĩà¤Īà¤ıà¤®": 6448,
      "Ġ........": 6449,
      "à¤ĩà¤ķà¤®": 6450,
      "à¥ªà¥¦": 6451,
      "à¤¡à¤°à¤¸": 6452,
      "à¤µà¤¨à¤®": 6453,
      "Ġà¤¡à¤°à¤ª": 6454,
      "à¤¸à¤²à¤Ĺ": 6455,
      "Ġ(*": 6456,
      "Ġà¤¥à¤®à¤¤": 6457,
      "Ġà¥Ľà¤¬": 6458,
      "à¤Ĥà¥Ī,": 6459,
      "Ġà¤¤à¤²à¤ķ": 6460,
      "à¤Īà¤Īà¤Īà¤Ī": 6461,
      "à¤īà¤·": 6462,
      "à¤ªà¤°à¤£": 6463,
      "à¤ıà¤®à¤ıà¤¸à¤ª": 6464,
      "à¤³à¤¸": 6465,
      "Ġà¤¸à¤²à¤Ĺ": 6466,
      "Ġà¤ķà¥ľà¤ķ": 6467,
      "Ġà¤Ńà¤ĩà¤²": 6468,
      "à¤ķà¤²à¤¶": 6469,
      "Ġà¤ļà¤¹à¤²à¤ķ": 6470,
      "à¤ķà¤®à¤§": 6471,
      "à¤įà¤«": 6472,
      "à¤¹à¤¶": 6473,
      "à¤Ĩà¤Īà¤ıà¤®à¤ı": 6474,
      "Ġà¥¨à¥¦à¥§à¥¯": 6475,
      "Ġà¤¸à¤°à¤µà¤°": 6476,
      "à¤¦à¤¨à¤ķà¤°": 6477,
      ":)": 6478,
      "à¤²à¤Ĺà¤ĩà¤¨": 6479,
      "à¥Ĥà¤Ĥ...": 6480,
      "à¤īà¥ľ": 6481,
      "Ġà¤ıà¤¨à¤Ĩà¤Īà¤¸": 6482,
      "Ġà¤ħà¤¨à¤ªà¥Ŀ": 6483,
      "Ġà¥¨à¥¦à¥§à¥§": 6484,
      "à¤·à¤£à¤®": 6485,
      "Ġà¤¬à¤¥": 6486,
      "à¤°à¤¤à¤Ĺà¤¢": 6487,
      "à¤²à¤¨à¤Ĺà¤°": 6488,
      "Ġà¤¨à¤µà¤²à¤ĸ": 6489,
      "Ġà¤§à¤¸": 6490,
      "à¤ľà¤§à¤°": 6491,
      "Ġà¥Ļà¤¯": 6492,
      "_.": 6493,
      ":\"": 6494,
      "à¤Īà¤ıà¤«": 6495,
      "à¤ªà¤°à¤¬": 6496,
      "à¤²à¤Ĺà¤°": 6497,
      "Ġà¤¹à¤°à¤¯": 6498,
      "Ġà¤īà¤¦à¤¯à¤¨": 6499,
      "Ġà¤Łà¤ªà¤ķà¤¤": 6500,
      "à¤¤à¤¨à¤ķ": 6501,
      "Ġà¤ķà¤Łà¤¹à¤²": 6502,
      "@.": 6503,
      "à¤ľà¤¶à¤¬": 6504,
      "Ġà¤Ĳà¤²à¤¨": 6505,
      "à¤°à¤ľà¤®à¤²": 6506,
      "à¤®à¤¬à¤¨": 6507,
      "à¥ĩà¤Ĥ/": 6508,
      "Ġà¤ħà¤¡à¤ķà¤²": 6509,
      "à¤Łà¤°à¤°": 6510,
      "Ġ(://": 6511,
      "à¤²à¤Łà¤¨": 6512,
      "à¤¯à¤Ńà¤Ł": 6513,
      "à¤°à¤ľà¤¹": 6514,
      "Ġà¤ªà¤ŀ": 6515,
      "à¤¨à¤§à¤¨": 6516,
      "Ġà¤Īà¤ıà¤¸": 6517,
      "à¤¡à¤ıà¤®": 6518,
      "à¤¾-,": 6519,
      "à¤ĳà¤¯à¤²": 6520,
      "à¤¨à¤Ĭ": 6521,
      "à¤ħà¤£": 6522,
      "Ġà¤ĩà¤¨à¤ªà¤°": 6523,
      "à¤¸à¤¤à¤ª": 6524,
      "à¥Ģ.....": 6525,
      "Ġà¥©à¥Ń": 6526,
      "Ġà¤µà¤°à¤£": 6527,
      "Ġà¤ħà¤¨à¤Ľ": 6528,
      "Ġà¤īà¤¬à¤²à¤¨": 6529,
      "à¤®à¤Ńà¤°": 6530,
      "à¤¬à¤¦à¤°": 6531,
      "Ġà¤Ĩà¤µà¤¤": 6532,
      "à¤¨à¤µà¤¸": 6533,
      "à¤ıà¤®à¤ıà¤¸à¤ıà¤®à¤Ī": 6534,
      "Ġà¤Ĺà¤Łà¤°": 6535,
      "Ġà¤®à¤¸à¤ľ": 6536,
      "à¤ıà¤¨à¤ıà¤«": 6537,
      "Ġà¤¹à¤ı": 6538,
      "Ġà¤ªà¤¤à¤°à¤¸": 6539,
      "?)": 6540,
      "à¤¤à¤£": 6541,
      "à¥Ľà¤°à¤¤": 6542,
      "à¤®à¤«à¤°": 6543,
      "Ġ.:": 6544,
      "à¤²à¤µà¤²à¤ķà¤°": 6545,
      "à¤ķà¤®à¤¨": 6546,
      "à¤Ĩà¤®à¤¦": 6547,
      "à¤¯à¤®à¤¤": 6548,
      "Ġà¤īà¤ļà¤ķ": 6549,
      "à¤²à¤Ŀà¤¨": 6550,
      "Ġà¤¹à¥ľà¤ª": 6551,
      "à¤Łà¤°à¤¡": 6552,
      "à¤°à¤¦à¤°à¤¹": 6553,
      "à¤¸à¤°à¤¨": 6554,
      "à¥Ľà¤¨à¤¸": 6555,
      "à¤®à¤¤à¤®": 6556,
      "Ġà¤²à¤¡à¤¨": 6557,
      "à¤ªà¤¶à¤ª": 6558,
      "Ġà¤¹à¤°à¤¦à¤®": 6559,
      "Ġà¤Łà¤«": 6560,
      "à¤īà¤«": 6561,
      "Ġà¤¬à¤Łà¤µ": 6562,
      "Ġà¤µà¤£": 6563,
      "à¤¨à¤µà¤µ": 6564,
      "à¥ģà¥ģà¤Ĥ": 6565,
      "à¤¸à¤°à¤«à¤°": 6566,
      "Ġà¤¤à¤£": 6567,
      "Ġà¤®à¤¤à¤µ": 6568,
      "à¥į)": 6569,
      "à¤ªà¤µà¤¯": 6570,
      "à¤¦à¤°à¤ļ": 6571,
      "à¤¾*": 6572,
      "Ġà¤ľà¤«": 6573,
      "à¤Ĺà¤¤à¤¤": 6574,
      "Ġà¤ļà¤Łà¤ĸ": 6575,
      "à¤ľà¤¨à¤¸à¤Ń": 6576,
      "Ġà¤µà¤·": 6577,
      "à¥ĩà¤Ĥ:-": 6578,
      "à¥Ŀà¤ķ": 6579,
      "à¤Ĺà¤£à¤µ": 6580,
      "à¤°à¤®à¤¬à¤¦": 6581,
      "à¥ģà¤¾": 6582,
      "à¥ĥ-": 6583,
      "Ġà¤¸à¤°à¤ªà¤°à¤¸": 6584,
      "à¥Ļà¤¬à¤°": 6585,
      "Ġ(.%)": 6586,
      "à¥ľà¤Ĺà¥Ŀ": 6587,
      "Ġ\",": 6588,
      "Ġà¤Ĩà¤¦à¤®à¤ĸ": 6589,
      "à¤Ńà¤°à¤¤à¤ª": 6590,
      "Ġà¤¦à¤®à¤ķ": 6591,
      "à¥Ī?\"": 6592,
      "à¤¨à¥Ľà¤°": 6593,
      "Ġà¤Ĳà¤ļ": 6594,
      "à¤²à¤¢": 6595,
      "à¤ļà¤µà¤Ł": 6596,
      "à¥Ī''": 6597,
      "à¤Ńà¤²à¤¨": 6598,
      "à¤°à¤®à¤²": 6599,
      "à¤¼à¥Ģ)": 6600,
      "Ġà¤ħà¤ªà¤¤": 6601,
      "à¤ıà¤²à¤ıà¤¸": 6602,
      "à¤Ĩà¤ķà¤°": 6603,
      "Ġà¤ļà¤¹à¤²à¤ķà¤¦à¤®": 6604,
      "Ġà¤ķà¤°à¤¹": 6605,
      "Ġà¤īà¤ªà¤¤à¤¹à¤¸": 6606,
      "à¤¹à¤¨à¤ľ": 6607,
      "Ġà¤ķà¤°à¤£à¤µ": 6608,
      "à¥ĭ),": 6609,
      "à¥¤...": 6610,
      "%%%%%%": 6611,
      "à¤ħà¤¬à¤ķ": 6612,
      "Ġà¤¹à¤°à¤®à¤¨": 6613,
      "à¤®à¤¯à¤¤": 6614,
      "Ġà¥¨à¥¦à¥§à¥«": 6615,
      "Ġ,,,,": 6616,
      "Ġà¤ķà¤³à¤µ": 6617,
      "à¤²à¤µà¤ķ": 6618,
      "à¥¨à¥¬": 6619,
      "Ġà¤Ĩà¤¹à¤°à¤£": 6620,
      "à¤Ĩà¥Ľ": 6621,
      "à¥ĩ''": 6622,
      "à¤¸à¤Īà¤¦": 6623,
      "à¤Ĩà¤ĺ": 6624,
      "à¤°à¤²à¤¤": 6625,
      "Ġà¤®à¥ĺ": 6626,
      "à¤¯à¤®à¤¸": 6627,
      "Ġà¤ªà¤ķà¤¡à¤²": 6628,
      "Ġà¤§à¤¨à¤²": 6629,
      "à¤īà¤²à¤Ł": 6630,
      "Ġà¤°à¤®à¤¨à¤¦": 6631,
      "à¤µà¤¨à¤µ": 6632,
      "#:": 6633,
      "Ġà¤°à¤ĸà¤¡à¤²": 6634,
      "Ġà¤µà¤¦": 6635,
      "à¤«à¤µ": 6636,
      "Ġà¤ĸà¤Łà¤²": 6637,
      "à¤ªà¤¦à¤£": 6638,
      "à¤ķà¤®à¤Ĺà¥Ŀ": 6639,
      "à¤®à¤¦à¤¯": 6640,
      "à¤¯à¤¦à¤¨": 6641,
      "Ġà¤ıà¤ı": 6642,
      "à¤Ĺà¤°à¤¹": 6643,
      "à¤°à¤¸à¤°à¤ķ": 6644,
      "à¤¹à¤¨à¤ļ": 6645,
      "Ġà¤Ĭà¤®": 6646,
      "Ġ)-": 6647,
      "à¤ªà¤«": 6648,
      "à¥ĩ)à¥¤": 6649,
      "à¤°à¤Īà¤¸": 6650,
      "Ġà¤°à¤£à¤Ń": 6651,
      "à¥¨à¥®": 6652,
      "à¥ĭ....": 6653,
      "à¤¤à¤¨à¤°": 6654,
      "à¤°à¤§à¤°à¤ª": 6655,
      "Ġà¤Ĺà¤Ĺà¤¨à¤ļ": 6656,
      "à¤¼à¥ĩà¤ĥ": 6657,
      "à¤įà¥ŀ": 6658,
      "à¤ķà¤¹à¤®": 6659,
      "Ġà¤Īà¤ĵà¤¡à¤¬": 6660,
      "Ġà¤¦à¤²à¤Ĺà¤¤": 6661,
      "à¤¼à¥ĩà¤Ĥ:-": 6662,
      "à¤®à¤§à¤¨": 6663,
      "Ġà¤ıà¤Łà¤ķ": 6664,
      "Ġà¤ıà¤¨à¤ıà¤¸à¤¸": 6665,
      "à¤°à¤®à¤¤": 6666,
      "Ġà¤¸à¤«à¤²à¤¤à¤®": 6667,
      "à¤¸à¤¹à¤¸": 6668,
      "à¤īà¤ªà¤¦": 6669,
      "Ġà¤ıà¤¨à¤²": 6670,
      "Ġà¤®à¤²à¤ĸ": 6671,
      "Ġà¤Ĺà¤£à¤µ": 6672,
      "Ġà¤ıà¤²à¤ı": 6673,
      "à¥įà¥ĩ": 6674,
      "à¤¦à¤¨à¤ķ": 6675,
      "à¤ªà¥ľà¤¤": 6676,
      "Ġà¤ħà¤ªà¤Ń": 6677,
      "Ġà¤ĩà¤¦à¤²": 6678,
      "à¤Ĳà¤¨": 6679,
      "Ġà¤¬à¤²à¤Ĺà¤®": 6680,
      ":à¥¤": 6681,
      "Ġà¤¸à¤°à¤¸à¤°": 6682,
      "Ġà¤¡à¤ķà¤µà¤°": 6683,
      "Ġà¤¯à¥ĺ": 6684,
      "à¥ģ...": 6685,
      "Ġ('": 6686,
      "Ġà¤Ĺà¤ªà¤¶à¤ª": 6687,
      "Ġà¤¶à¤®à¤¸": 6688,
      "Ġà¤ķà¤ĩ": 6689,
      "Ġà¤«à¤¬": 6690,
      "Ġà¤īà¤Ľà¤²à¤¤": 6691,
      "à¥Ĥ!": 6692,
      "Ġà¤¤à¤²à¤¨": 6693,
      "Ġà¤īà¤ªà¤ħà¤§": 6694,
      "à¤¬à¤Īà¤ķà¤°": 6695,
      "à¤Ĺà¤¨à¤²": 6696,
      "à¤¬à¤ľà¤²": 6697,
      "à¥©à¥«": 6698,
      "Ġà¤Ĭà¤¹": 6699,
      "Ġà¤Ĺà¤Łà¤¨": 6700,
      "Ġà¤ĩà¤¤à¤µ": 6701,
      "Ġà¤Īà¤µà¤¨": 6702,
      "Ġà¤ĵà¤µà¤°à¤«": 6703,
      "à¤²à¥Ľ": 6704,
      "Ġà¤®à¤°à¤¹": 6705,
      "Ġà¤ķà¤«à¤¨": 6706,
      "à¤¡à¤ĩà¤¨": 6707,
      "à¤ħà¤«à¤¸": 6708,
      "Ġ--::+:": 6709,
      "Ġà¤¸à¤Ī": 6710,
      "Ġà¤®à¤°à¤¦": 6711,
      "********************************": 6712,
      "à¤²à¤¨à¤ª": 6713,
      "(.": 6714,
      "à¤¤à¤°à¤ĺ": 6715,
      "Ġà¤ķà¤¨à¤µ": 6716,
      "Ġà¤ķà¤ķà¤¡": 6717,
      "Ġà¤ĩà¤¨à¤²": 6718,
      "Ġà¤²à¤²à¤ļ": 6719,
      "Ġà¤ĵà¤¯": 6720,
      "Ġà¤Łà¤ķà¤Łà¤ķ": 6721,
      "Ġ(\"": 6722,
      "Ġà¤īà¤ªà¤¸à¤°à¤ª": 6723,
      "à¤¾à¤ģ!": 6724,
      "à¤Ľà¤¤à¤°à¤ª": 6725,
      "à¤ħà¤µà¤¸": 6726,
      "à¤Ĩà¤¦à¤¤": 6727,
      "Ġà¤ªà¤¤à¤°": 6728,
      "Ġà¤īà¤ĩà¤Ĺà¤°": 6729,
      "Ġà¤®à¤¨à¤Ń": 6730,
      "à¥Ĥà¤Ĥ'": 6731,
      "Ġà¤¤à¤²à¤¤": 6732,
      "Ġà¤ĺà¤¡à¤µ": 6733,
      "Ġà¤Ĩà¤Īà¤ıà¤«à¤ıà¤¸": 6734,
      "à¤¶à¤®à¤¶": 6735,
      "à¥Ĥà¤Ĥ|": 6736,
      "à¤ĩà¤Łà¤µ": 6737,
      "Ġà¤ľà¤²à¤ĺà¤°": 6738,
      "à¥ģà¥ħ": 6739,
      "à¤°à¤Ĺà¤£": 6740,
      "Ġà¤ľà¤¨à¤¸à¤®à¤¸": 6741,
      "Ġ://..///": 6742,
      "Ġà¤«à¤°à¤¸": 6743,
      "Ġà¤ıà¤«à¤ıà¤Ł": 6744,
      "à¤¨à¤ķà¤µ": 6745,
      "Ġà¤ļà¤²à¤ļ": 6746,
      "à¥¨à¥§": 6747,
      "à¤°à¤µà¤¡": 6748,
      "Ġà¤¸à¤ŀ": 6749,
      "à¥ĩà¤Ĥ)à¥¤": 6750,
      "à¥į?": 6751,
      "à¤¡à¤°à¤¤": 6752,
      "Ġà¤ĩà¤ĸ": 6753,
      "();": 6754,
      "Ġà¤¤à¤°à¤¨": 6755,
      "à¤Łà¤¨à¤Ĺà¤°": 6756,
      "Ġà¥Ļà¤¤à¤®": 6757,
      "Ġà¤ĩà¤µà¤¨": 6758,
      "à¤ĩà¤¸à¤¬": 6759,
      "Ġà¥ģ": 6760,
      "à¤ıà¤¸à¤ıà¤¸à¤ıà¤Ĩà¤Ī": 6761,
      "Ġà¤īà¤Ĺà¤²à¤¨": 6762,
      "Ġà¤¥à¤²à¤Ĺ": 6763,
      "Ġà¤Ĭà¤Ł": 6764,
      "Ġà¤µà¤Ĺà¤³à¤¤": 6765,
      "Ġà¤ļà¤ķà¤¤": 6766,
      "à¥īà¥°": 6767,
      "à¥įà¤Ĥà¤¿": 6768,
      "à¥Ģ.'": 6769,
      "à¥ĭà¥¤\"": 6770,
      "Ġà¥©à¥©": 6771,
      "Ġ(-),": 6772,
      "à¤¶à¤¹à¤¨": 6773,
      "à¤ıà¤«à¤ıà¤ķ": 6774,
      "Ġà¤Ĩà¤ľà¤¹": 6775,
      "à¤¨à¤µà¤£": 6776,
      "à¤ıà¤¸à¤Īà¤ıà¤¸": 6777,
      "Ġà¤ķà¤¹à¤²à¤µ": 6778,
      "à¥Ĥà¤¼": 6779,
      "à¥Ī'.": 6780,
      "Ġà¤ıà¤ļà¤ıà¤¸à¤¬": 6781,
      "Ġà¤ıà¤®à¤ıà¤¸à¤ķ": 6782,
      "Ġà¥¯à¥¦": 6783,
      "à¤ķà¤Łà¤ķ": 6784,
      "à¤ıà¤¥à¤²": 6785,
      "à¤²à¤ĩ": 6786,
      "à¤®à¤¨à¤¨": 6787,
      "à¤ĩà¤ķà¤¬": 6788,
      "Ġà¤Ĺà¤¡à¤¬à¤¡": 6789,
      "Ġ://../?=": 6790,
      "à¤°à¤®à¤µ": 6791,
      "à¤Ĩà¤Īà¤ıà¤®à¤¡": 6792,
      "à¤ķà¤²à¤ķà¤¤": 6793,
      "Ġà¤ķà¤®à¤¸": 6794,
      "à¤²à¥ľ": 6795,
      "à¤Łà¤°à¤ľ": 6796,
      "Ġà¤ľà¤²à¤ľà¤®": 6797,
      "Ġà¤Ĳà¤¹à¤¤": 6798,
      "Ġà¤¥à¤ķà¤¬": 6799,
      "Ġà¤ħà¤°à¤¦": 6800,
      "à¤¥à¤²à¤Ĺà¤¡": 6801,
      "à¤²à¤ļà¤¨": 6802,
      "à¤¶à¤¨à¤¦": 6803,
      "Ġà¤¡à¤®à¤°": 6804,
      "à¥Ĥà¤Ĥà¥¤\"": 6805,
      "Ġà¤ıà¤¨à¤ıà¤ļà¤ıà¤®": 6806,
      "à¤ıà¤²à¤¯": 6807,
      "Ġà¤ļà¤ķà¤²": 6808,
      "Ġà¤ıà¤¸à¤Īà¤ĵ": 6809,
      "Ġà¤ķà¤¦à¤®à¤¤": 6810,
      "}}": 6811,
      "Ġà¤¬à¤¦à¤²à¤²": 6812,
      "Ġà¤īà¤¬à¤²à¤¤": 6813,
      "à¥ĩà¤¾à¤Ĥ": 6814,
      "Ġà¤®à¤ķà¤¸": 6815,
      "à¤«à¤«": 6816,
      "Ġà¤¹à¤Łà¤ķ": 6817,
      "Ġà¤ľà¤Ĺà¤ª": 6818,
      "Ġà¤ķà¤°à¤¯": 6819,
      "à¤Ńà¤ľ": 6820,
      "Ġà¤Ĩà¤¦à¤¤à¤¨": 6821,
      "à¤¹à¤²à¤µ": 6822,
      "Ġà¤ĵà¤µà¤°à¤¹": 6823,
      "Ġ?\"": 6824,
      "à¥ĭà¤¾": 6825,
      "Ġà¤µà¤°à¤®": 6826,
      "à¤ħà¤ªà¤ĺ": 6827,
      "Ġà¤Ĺà¤°à¤¦à¤¨": 6828,
      "Ġà¤¸à¤°à¤£": 6829,
      "à¤ĩà¤®à¤°à¤ľ": 6830,
      "à¥ľà¤¯": 6831,
      "Ġà¤ıà¤®à¤Ĩà¤¯à¤¡": 6832,
      "Ġà¤¨à¤ĸ": 6833,
      "à¤Īà¤Ĩà¤°": 6834,
      "à¤Łà¤ķà¤¨": 6835,
      "Ġà¤Ĩà¤ĩà¤¬": 6836,
      "à¤°à¤Ńà¤°": 6837,
      "Ġà¤Ķà¤Ł": 6838,
      "à¤Ĺà¤²à¤¯": 6839,
      "Ġà¤ªà¤¢à¤ķà¤°": 6840,
      "à¤¡à¤²à¤µ": 6841,
      "à¥ģà¤¿": 6842,
      "Ġà¤°à¤¤à¤¨à¤ª": 6843,
      "à¤ľà¤¸à¤¤": 6844,
      "à¤Łà¤¬à¤¨": 6845,
      "Ġ[[": 6846,
      "à¤¦à¤Ī": 6847,
      "à¤§à¤ªà¤¤": 6848,
      "Ġà¤¦à¤¶à¤®à¤²à¤µ": 6849,
      "à¤ıà¤¨à¤ıà¤ļà¤ıà¤Ĩà¤Ī": 6850,
      "Ġà¤Ĭà¤īà¤®": 6851,
      "Ġà¤ıà¤®à¤Ĩà¤°à¤ª": 6852,
      "Ġà¤¤à¤°à¤¨à¤¤": 6853,
      "à¤®à¤¶à¤°à¤£": 6854,
      "à¥Ģà¤¾": 6855,
      "Ġà¤ıà¤ľà¤¬": 6856,
      "Ġà¤Ĺà¤łà¤°": 6857,
      "Ġà¤īà¤ļà¤²": 6858,
      "Ġà¤ľà¤¯à¤ļ": 6859,
      "à¤Ĩà¤°à¤¯": 6860,
      "à¥Īà¤Ĥ)à¥¤": 6861,
      "Ġà¤ļà¤ķà¤¬": 6862,
      "Ġà¤¨à¤Ĺà¤°à¤¨": 6863,
      "Ġà¤¹à¥ľà¤¬à¥ľ": 6864,
      "à¤²à¤ķà¤²": 6865,
      "Ġà¤¸à¤¨à¤¦": 6866,
      "à¥Ĥ)à¥¤": 6867,
      "Ġà¤®à¤²à¤ª": 6868,
      "à¤Ńà¤Ĺà¤µà¤¤": 6869,
      "Ġà¤ıà¤¡à¤¸": 6870,
      "à¥Ĥ?": 6871,
      "Ġà¤¥à¤°à¤¥à¤°": 6872,
      "à¤°à¤¬à¤ļà¤¨": 6873,
      "à¤²à¤µà¤¨": 6874,
      "à¤ħà¤«à¤µ": 6875,
      "Ġà¤Ĺà¤¨à¤°": 6876,
      "Ġà¤Ĩà¤Īà¤Ĩà¤°": 6877,
      "à¤ļà¤²à¤®": 6878,
      "Ġà¤Ĩà¤£à¤µ": 6879,
      "à¤¹à¤µà¤¨": 6880,
      "à¥Īà¤Ĥ:-": 6881,
      "Ġà¤ĳà¤«à¤¶": 6882,
      "Ġ,/-": 6883,
      "à¤Ĥà¥į": 6884,
      "Ġà¤¹à¤¥à¤ķà¤¡": 6885,
      "!!!!": 6886,
      "à¤¡à¤°à¤¬": 6887,
      "à¥Įà¥¤": 6888,
      "à¤ķà¤°à¤°": 6889,
      "à¤ľà¤¬à¤¬": 6890,
      "à¤®à¤°à¤ľ": 6891,
      "à¤ĸà¤³": 6892,
      "à¤¯à¤µà¤ķ": 6893,
      "à¤µà¤²à¤ľ": 6894,
      "Ġà¤¦à¤ĸà¤²à¤ħ": 6895,
      "à¤¡à¤ķà¤°à¤µ": 6896,
      "à¥ĭà¤Ĥà¥ĩ": 6897,
      "à¥Ģà¥Ĭ": 6898,
      "Ġà¤ĩà¤¨à¤¦": 6899,
      "à¤ªà¤°à¤ª": 6900,
      "Ġà¤īà¤ªà¤µà¤¨": 6901,
      "à¤«à¤²à¤¸": 6902,
      "Ġà¤Łà¤ķà¤¸": 6903,
      "à¤ĺà¤¸": 6904,
      "Ġà¤ĵà¤®à¤¨": 6905,
      "à¤®à¤¶à¤¤": 6906,
      "Ġà¤²à¤Ĺà¤¯": 6907,
      "Ġà¤¤à¤¦à¤°": 6908,
      "Ġ:(": 6909,
      "Ġà¤¸à¤«à¤¦à¤°": 6910,
      "Ġà¤®à¤°à¤²": 6911,
      "à¤¦à¤®à¤¨": 6912,
      "à¤¸à¤²à¤¬": 6913,
      "Ġà¤¹à¤°à¤²": 6914,
      "à¥Ģ).": 6915,
      "à¤¼),": 6916,
      "à¤ªà¤²à¤ķ": 6917,
      "à¤ľà¤°à¤ª": 6918,
      "à¤²à¤ļà¤°": 6919,
      "à¤¬à¤¦à¤¨": 6920,
      "Ġà¤īà¤°à¤²": 6921,
      "à¤ķà¤¸à¤¨": 6922,
      "Ġà¤Ĩà¤ĩà¤¶": 6923,
      "à¤Īà¤¹": 6924,
      "à¤¸à¤¹à¤ľ": 6925,
      "Ġà¤Ńà¤Łà¤ķà¤²": 6926,
      "Ġà¤¨à¥ĺà¤²": 6927,
      "à¤®à¤²à¤ķ": 6928,
      "Ġà¥ł": 6929,
      "à¤¨à¤µà¤Ĺ": 6930,
      "Ġà¤ľà¤¯à¤¸à¤µ": 6931,
      "Ġ\\\\": 6932,
      "Ġà¤ĩà¥ŀ": 6933,
      "Ġà¤µà¤²à¤¸": 6934,
      "à¤¨à¤µà¤°à¤¹": 6935,
      "à¥Ľà¤«": 6936,
      "Ġ()à¥¤": 6937,
      "à¤µà¤ªà¤ķ": 6938,
      "à¤Ĩà¤·": 6939,
      "Ġà¤ľà¤¨à¤¶": 6940,
      "à¤®à¤¦à¤ª": 6941,
      "Ġà¤ľà¤Ĺà¤¤à¤ª": 6942,
      "à¤Ĺà¤Ŀ": 6943,
      "à¤µà¤°à¤ľ": 6944,
      "Ġà¤Ĩà¤¥": 6945,
      "Ġà¤¹à¤®à¤¶à¤ķ": 6946,
      "Ġà¥¨à¥¦à¥§à¥¦": 6947,
      "à¤³à¤µà¤³": 6948,
      "???": 6949,
      "Ġà¤Ĩà¤Īà¤ıà¤¸à¤¬": 6950,
      "à¤ľà¤ªà¤ķà¤¡": 6951,
      "Ġà¤¨à¤µà¤°à¤¤": 6952,
      "Ġà¥¨à¥¦à¥¦à¥¯": 6953,
      "Ġà¤ľà¥Ľ": 6954,
      "Ġà¤²à¤ķà¤®à¤²": 6955,
      "à¤¬à¤²à¤¦": 6956,
      "à¤¯à¤·": 6957,
      "à¤®à¤Łà¤¤": 6958,
      "Ġà¤ªà¤²à¤¤": 6959,
      "à¤®à¤¤à¤¤": 6960,
      "Ġ(+)": 6961,
      "à¤¯à¤°à¤¨à¤®": 6962,
      "à¤ıà¤Łà¤²": 6963,
      "à¤°à¤¤à¤°": 6964,
      "à¤¾'.": 6965,
      "à¤¦à¤µà¤ª": 6966,
      "Ġà¤®à¤ķà¤²": 6967,
      "Ġà¤¶à¤ķà¤°": 6968,
      "Ġà¤ĺà¤¡à¤¤": 6969,
      "à¤¸à¤³à¤§": 6970,
      "Ġà¤Ķà¤¯": 6971,
      "à¤²à¤ķà¤°à¤¤": 6972,
      "Ġà¤ıà¤Ĩà¤°à¤Ł": 6973,
      "à¤Ĭà¤¨à¤¹": 6974,
      "à¤ªà¤ķà¤ª": 6975,
      "Ġà¤¹à¤²à¤¬": 6976,
      "Ġà¤ľà¤Ĺà¤¨à¤®": 6977,
      "à¤Ĩà¤¸à¤¨": 6978,
      "à¤ľà¤¬à¤¹": 6979,
      "à¥ĩ:-": 6980,
      "à¥įà¤¿à¤¾": 6981,
      "Ġà¤¨à¥Ľà¤°à¤ħ": 6982,
      "Ġà¤Ĵ": 6983,
      "Ġà¤¬à¤¨à¤ķ": 6984,
      "à¤°à¤Ĩà¤¤": 6985,
      "Ġà¤®à¤²à¤¤": 6986,
      "à¤ıà¤²à¤ıà¤Ł": 6987,
      "à¤ıà¤¸à¤ıà¤¸à¤¬": 6988,
      "/,": 6989,
      "à¤²à¤¤à¤®": 6990,
      "Ġà¤¸à¤ľà¤¦": 6991,
      "à¤¯à¤¨à¤Ĺà¤°": 6992,
      "Ġà¤īà¤µ": 6993,
      "Ġà¤Łà¤°à¤ķ": 6994,
      "Ġ-\"": 6995,
      "Ġà¤ķà¤¨à¤«": 6996,
      "à¤µà¤²à¤¨à¤¶": 6997,
      "à¤Ĥà¥Ģ": 6998,
      "Ġà¤Ńà¤¡à¤ķ": 6999,
      "à¤Ĺà¤ı": 7000,
      "à¤Ĩà¤Īà¤ıà¤¨": 7001,
      "Ġà¤®à¥Ŀ": 7002,
      "Ġà¤Ĩà¤Ĩ": 7003,
      "Ġà¤¶à¤¹à¤°à¤¯": 7004,
      "à¤¶à¤¨à¤Ĺà¤°": 7005,
      "***": 7006,
      "Ġà¥¨à¥¦à¥§à¥©": 7007,
      "Ġà¤Łà¤°à¤¬": 7008,
      "à¥Ģ--": 7009,
      "à¤§à¤ķà¤¤": 7010,
      "à¤Ĩà¤¯à¤Ł": 7011,
      "Ġà¤®à¤²à¤®": 7012,
      "Ġà¤¬à¤¦à¤²à¤£": 7013,
      "à¤µà¤¹à¤¤": 7014,
      "à¤¾à¥¢": 7015,
      "à¤°à¤µà¤ª": 7016,
      "à¥įà¤¾à¤¾": 7017,
      "Ġà¤ľà¤¨à¤ļ": 7018,
      "à¤ªà¤¸à¤®": 7019,
      "à¤¬à¤¹à¤²": 7020,
      "à¤īà¥Ľà¤°": 7021,
      "Ġà¤ħà¤ĩà¤¸à¤¨": 7022,
      "Ġà¤Ĩà¤µà¤¦": 7023,
      "Ġà¤Ĩà¤¬à¤°": 7024,
      "Ġà¤¶à¤µà¤¯": 7025,
      "à¥Ģà¥¤...": 7026,
      "|à¥Ģ": 7027,
      "Ġ.........": 7028,
      "Ġà¤ķà¤²à¤µ": 7029,
      "Ġà¤¬à¤²à¤®": 7030,
      "à¤ļà¤ľà¤¨": 7031,
      "Ġà¤ıà¤ļà¤Ĩà¤°à¤¡": 7032,
      "Ġà¤Ĺà¤¨à¤®": 7033,
      "Ġà¤Łà¤ªà¤°": 7034,
      "à¤¸à¤ļà¤®": 7035,
      "à¥ĩà¥Ģ": 7036,
      "Ġà¤ĸà¤°à¤ķ": 7037,
      "à¤Īà¤ıà¤®à¤ıà¤¸": 7038,
      "Ġ($": 7039,
      "Ġà¤Ŀà¤ķ": 7040,
      "à¤ĩà¤£": 7041,
      "à¥ĩ......": 7042,
      "à¥ĩà¤Ĥ....": 7043,
      "Ġà¤Ĭà¤ļ": 7044,
      "à¤¬à¤Īà¤ļ": 7045,
      "Ġà¤¯à¤®à¤¦": 7046,
      "Ġà¤¡à¤°à¤¬à¤¨": 7047,
      "Ġà¤Ĩà¤ĵà¤Ĺ": 7048,
      "à¤¸à¤°à¤µ": 7049,
      "à¤¿..": 7050,
      "à¥©à¥ª": 7051,
      "à¤°à¤£à¤ķà¤°": 7052,
      "Ġà¤ħà¤²à¤ķà¤¨": 7053,
      "Ġà¤ĩà¤¦à¤°": 7054,
      "à¤¸à¤°à¤¬": 7055,
      "à¤Ĺà¤°à¤²": 7056,
      "Ġà¤§à¤¨à¤¬à¤²": 7057,
      "à¤ıà¤®à¤ĵà¤¯": 7058,
      "Ġà¤ªà¤Łà¤ķà¤¨": 7059,
      "Ġà¤¸à¤°à¤ªà¤Ł": 7060,
      "à¤ĭà¤ļ": 7061,
      "à¤Łà¤Ĺà¤°": 7062,
      "Ġà¤§à¤¨à¤ªà¤¤": 7063,
      "à¤§à¤®à¤¤à¤°": 7064,
      "Ġà¤¸à¤µà¤²à¤¤": 7065,
      "à¤ıà¤ķà¤¦": 7066,
      "Ġà¤īà¤²à¤®": 7067,
      "à¤¯à¤®à¤°": 7068,
      "à¤ıà¤¸à¤ıà¤¨à¤¬": 7069,
      "Ġà¤ĵà¥ľ": 7070,
      "à¤īà¤¨à¤¹": 7071,
      "à¤¦à¤¨à¤µ": 7072,
      "Ġà¤Īà¤Ī": 7073,
      "Ġà¤ıà¤®à¤°à¤ľ": 7074,
      "à¥Ļà¤²": 7075,
      "à¤ķà¤Ĺà¤£": 7076,
      "à¤°à¤¸à¤®": 7077,
      "à¤ķà¤ĸ": 7078,
      "à¤¤à¤ķà¤£": 7079,
      "à¤Īà¤Īà¤Ī": 7080,
      "à¤ıà¤ĵ": 7081,
      "Ġà¤¡à¤¹": 7082,
      "Ġà¤Īà¤¡à¤¬": 7083,
      "à¤¾à¥¥": 7084,
      "à¤²à¤§à¤¨": 7085,
      "à¤¸à¤¨à¤¦": 7086,
      "à¤²à¤¤à¤°": 7087,
      "à¤®à¤¶à¤µ": 7088,
      "Ġà¤¹à¤®à¤¦": 7089,
      "Ġà¤īà¤¦à¤¯à¤Ń": 7090,
      "à¤īà¤¬à¤°": 7091,
      "Ġà¤²à¤µà¤ķ": 7092,
      "-\"": 7093,
      "à¤¬à¤µà¤²": 7094,
      "Ġà¤ıà¤®à¤Ĩà¤Īà¤ıà¤²": 7095,
      "à¥ļà¤®": 7096,
      "à¤¸à¤¥": 7097,
      "à¤¨à¤µà¤Ń": 7098,
      "à¤¸à¤ķà¤¡": 7099,
      "à¤Ĭà¤¥": 7100,
      "à¤²à¤ªà¤ķ": 7101,
      "à¤ĩà¤²à¤¸": 7102,
      "à¥ĩà¥¤à¥¤": 7103,
      "Ġà¤ľà¤²à¤¯": 7104,
      "à¤¯à¤®à¤²": 7105,
      "Ġà¤¬à¥ľà¤ķ": 7106,
      "Ġà¤¬à¤Ľà¥ľ": 7107,
      "à¤ķà¤°à¤Ĺ": 7108,
      "à¤¸à¥ľ": 7109,
      "à¤ħà¤²à¤°": 7110,
      "Ġà¤¦à¤®à¤¦à¤®": 7111,
      "à¤µà¤ªà¤¤": 7112,
      "à¤°à¤ªà¤¡": 7113,
      "Ġà¤ħà¤Łà¤µ": 7114,
      "Ġà¤Ĩà¤¡à¤®": 7115,
      "Ġà¤Ĩà¤ķà¥ľ": 7116,
      "Ġà¤Ĩà¤Ĺà¤®": 7117,
      "à¤Łà¤°à¤µà¤²": 7118,
      "à¥©à¥¬": 7119,
      "Ġà¤§à¥ľà¤²": 7120,
      "à¤ıà¤ļà¤ľ": 7121,
      "Ġà¤°à¤¨à¤°à¤ħà¤ª": 7122,
      "Ġ<>": 7123,
      "à¤®à¤ļà¤°à¤£": 7124,
      "à¤ĸà¤°à¤Ĺ": 7125,
      "à¤ĺà¥ľ": 7126,
      "Ġà¤ħà¤®à¤°à¤¸": 7127,
      "Ġà¤¬à¤ľà¤¹": 7128,
      "à¥¨à¥¯": 7129,
      "Ġà¤Ĭà¤§à¤®": 7130,
      "Ġ_....": 7131,
      "à¤īà¤¤à¤°": 7132,
      "à¤®à¤²à¤¯": 7133,
      "à¤ĺà¤¬à¤°": 7134,
      "Ġà¤ħà¤²à¤¹à¤¦": 7135,
      "Ġà¤¨à¤Ń": 7136,
      "Ġà¤®à¤ķà¤Ī": 7137,
      "à¥ľà¤ļ": 7138,
      "à¤¿(": 7139,
      "Ġà¤īà¤ªà¤§": 7140,
      "Ġà¤ıà¤¨à¤ıà¤¨": 7141,
      "Ġà¤ķà¤£à¤ķà¤µà¤²": 7142,
      "à¤¿à¥Ģ": 7143,
      "à¤°à¤Ńà¤ľ": 7144,
      "Ġà¤ıà¤¸à¤Ĩà¤ĩà¤Ł": 7145,
      "à¤¿;": 7146,
      "Ġà¤ıà¤²à¤ķ": 7147,
      "à¤¹à¤¤à¤°à¤®": 7148,
      "]à¥¤": 7149,
      "à¤¾à¥ĭà¤Ĥ": 7150,
      "à¤°à¤¹à¤¤": 7151,
      "à¤Ŀà¤Łà¤ķ": 7152,
      "Ġà¤ĩà¤°à¥ŀ": 7153,
      "Ġà¥¨à¥¦à¥¦à¥®": 7154,
      "Ġà¤Ĩà¤°à¤Īà¤¸": 7155,
      "Ġà¤¢à¤µà¤³": 7156,
      "Ġà¤ħà¤¬à¤²": 7157,
      "à¤ľà¤µà¤°": 7158,
      "Ġà¤ķà¤¶à¤®à¤ķà¤¶": 7159,
      "à¤ľà¤¨à¤¸à¤¤": 7160,
      "à¤°à¤µà¤¸": 7161,
      "Ġà¤īà¤¬à¤Łà¤¨": 7162,
      "Ġà¤¸à¤ľà¤²": 7163,
      "Ġà¤ħà¤¡à¤²": 7164,
      "à¤ıà¤ķà¤®": 7165,
      "à¤Ĭà¤Ł": 7166,
      "Ġà¤²à¤¢à¤£": 7167,
      "à¤¹à¤°à¤®à¤¨à¤ª": 7168,
      "à¥Ĥà¤Ĥ!": 7169,
      "Ġà¤Ĩà¤Īà¤ıà¤®à¤Ł": 7170,
      "à¤¸à¤®à¤ķ": 7171,
      "Ġà¤Ńà¤Ĺà¤¨": 7172,
      "Ġà¥§à¥§à¥": 7173,
      "Ġà¤ķà¤¬à¤°": 7174,
      "Ġà¤¦à¤®à¤ķà¤²à¤ķà¤°": 7175,
      "à¤īà¤łà¤¨": 7176,
      "à¤ĺà¤Łà¤ķ": 7177,
      "à¤¹à¤®à¤¦": 7178,
      "à¤²à¤µà¤¤": 7179,
      "Ġà¤ľà¤³": 7180,
      "à¤ıà¤¨à¤ıà¤²à¤¡": 7181,
      "Ġà¥¨à¥¦à¥§à¥¨": 7182,
      "à¤°à¤¹à¤ķà¤°": 7183,
      "à¤°à¤¸à¤ª": 7184,
      "à¤ĩà¤²à¤°": 7185,
      "Ġà¤ĩà¤®à¤°à¤¤": 7186,
      "Ġà¤«à¤ĸ": 7187,
      "Ġà¤µà¤¸à¤Ī": 7188,
      "Ġà¤²à¥ľà¤ĸà¥ľ": 7189,
      "à¤µà¤ªà¤¨": 7190,
      "Ġà¤ħà¤¸à¤°à¤ķ": 7191,
      "à¤¬à¤µà¤£": 7192,
      "...à¥¤": 7193,
      "Ġà¤µà¤¨à¤ķ": 7194,
      "Ġà¤Ĺà¥Ľà¤²": 7195,
      "à¤Ĩà¤®à¤ļ": 7196,
      "à¤ħà¤¥à¤µ": 7197,
      "à¤¯à¤°à¤Ł": 7198,
      "à¥©à¥Ń": 7199,
      "Ġà¤ľà¤¯à¤¨à¤Ĺà¤°": 7200,
      "Ġà¤ıà¤ħà¤°à¤ª": 7201,
      "à¥Ģà¥¤à¥¤": 7202,
      "Ġ@..": 7203,
      "à¤°à¤¬à¤ķ": 7204,
      "Ġà¤¹à¤¡à¤¤": 7205,
      "Ġà¤ªà¤µà¤Ī": 7206,
      "Ġà¤¸à¤°à¤µà¤¨": 7207,
      "à¤ĩà¤ĵ": 7208,
      "Ġ.à¥¤": 7209,
      "Ġà¥ľ": 7210,
      "Ġà¤Łà¤ªà¤ķà¤¨": 7211,
      "à¤ıà¤¨à¤Ĩà¤Īà¤Ł": 7212,
      "Ġà¤ĩà¤«à¤ķ": 7213,
      "Ġà¤®à¤²à¤¨": 7214,
      "Ġà¤ļà¤³à¤µà¤³": 7215,
      "Ġà¤Ĩà¤Īà¤ıà¤«": 7216,
      "à¤ĩà¤ıà¤Ĺ": 7217,
      "à¤ıà¤ļà¤ıà¤²": 7218,
      "à¤¤à¤¤à¤®": 7219,
      "à¥Īà¤Ĥ),": 7220,
      "?\"": 7221,
      "à¤ļà¤°à¤¨": 7222,
      "à¤Ĺà¤¡à¤©": 7223,
      "Ġà¤īà¤ľà¤¨": 7224,
      "à¤Ĺà¤¨à¤°": 7225,
      "à¤®à¤°à¤¨à¤ľ": 7226,
      "Ġà¤¨à¤Łà¤ĸà¤Ł": 7227,
      "Ġà¤Ĩà¤Īà¤Ĩà¤Īà¤ª": 7228,
      "Ġà¤ªà¤ļà¤¡": 7229,
      "Ġ=\"": 7230,
      "Ġà¤Ĩà¤Īà¤¶": 7231,
      "à¤§à¤¨à¤µ": 7232,
      "Ġà¤ıà¤¸à¤Īà¤¸": 7233,
      "Ġà¤²à¤ĩà¤ķ": 7234,
      "Ġà¤ľà¤®à¤ĺà¤Ł": 7235,
      "================================": 7236,
      "à¤¬à¤¬à¤²": 7237,
      "à¤¬à¤°à¤¹": 7238,
      "Ġà¤¬à¤²à¤¶": 7239,
      "à¤ħà¤¨à¤¶à¤¨": 7240,
      "Ġà¤ļà¤°à¤ķ": 7241,
      "à¤Ĩà¤Īà¤ıà¤®à¤ıà¤¸": 7242,
      "Ġà¤Ńà¤¯à¤®": 7243,
      "Ġà¤¬à¤²à¤µà¤¤": 7244,
      "à¤«à¤Ĺà¤µ": 7245,
      "Ġà¤Īà¤¯à¤°à¤«": 7246,
      "à¤°à¤ªà¤¤à¤¨": 7247,
      "à¤£à¤ĺ": 7248,
      "à¤¾$": 7249,
      "Ġà¤¯à¤µà¤¤à¤®": 7250,
      "Ġà¤ħà¤¦à¤°": 7251,
      "Ġà¤Ĥà¤¿": 7252,
      "à¤¨à¤·": 7253,
      "Ġà¤ľà¤°à¤¨à¤²": 7254,
      "à¥Ĥà¤Ĥà¥¤'": 7255,
      "Ġà¤ķà¤Łà¤²": 7256,
      "Ġà¤ªà¤°à¤µà¤°à¤¦": 7257,
      "Ġà¤¨à¥ŀà¤°à¤¤": 7258,
      "à¤°à¤¸à¤¹": 7259,
      "Ġà¤ıà¤¡à¤µà¤°à¤Ł": 7260,
      "à¤®à¤Łà¤¨": 7261,
      "à¤µà¤¤à¤°": 7262,
      "à¤¤à¤®à¤¨": 7263,
      "-----": 7264,
      "Ġà¤Ĩà¤ĩà¤Ĩà¤ĩà¤Ł": 7265,
      "à¤ĵà¤Ĩà¤°": 7266,
      "à¤ĸà¤°à¤¡": 7267,
      "à¤ıà¤¸à¤¨": 7268,
      "Ġà¤°à¤ķà¤¬à¤°": 7269,
      "Ġà¤²à¤·": 7270,
      "Ġà¤¨à¤ĩà¤ĸ": 7271,
      "à¤ªà¤°à¤Ł": 7272,
      "Ġà¤ıà¤ļà¤ıà¤®à¤Ł": 7273,
      "/)": 7274,
      "à¤ªà¤°à¤¶": 7275,
      "à¥¬à¥¦": 7276,
      "Ġà¤ĵà¤³à¤ĸà¤²": 7277,
      "à¤ĸà¤¤à¤°à¤¨": 7278,
      "à¤ĩà¤Łà¤²à¤°": 7279,
      "à¤®à¤¨à¤ľ": 7280,
      "Ġà¤¸à¤°à¤ķà¤°": 7281,
      "à¤¾)-": 7282,
      "à¤¬à¤µà¤¤": 7283,
      "à¤²à¤®à¤¡": 7284,
      "à¤¬à¤ļà¤¤": 7285,
      "à¥ĥà¥į": 7286,
      "Ġà¤¬à¤¢à¥ĺà¤°": 7287,
      "Ġà¤®à¤¤à¤®": 7288,
      "à¤ªà¤²à¤°": 7289,
      "Ġà¤ļà¤ªà¤Ł": 7290,
      "à¤¾!!": 7291,
      "à¤¾_": 7292,
      "à¥Ģ_": 7293,
      "Ġà¤¤à¤Ĺ": 7294,
      "à¥ĩà¥¤[]": 7295,
      "Ġà¤ķà¤¡à¤µ": 7296,
      "à¤¯à¤²à¤¸": 7297,
      "Ġà¤Ńà¤·": 7298,
      "Ġà¤Ľà¤Ĺ": 7299,
      "Ġà¤ıà¤¯à¤°à¤¹": 7300,
      "%),": 7301,
      "Ġà¤¸à¤¹à¤ľà¤¨": 7302,
      "à¤Ĺà¤®à¤ª": 7303,
      "à¤¾à¥ĭ": 7304,
      "à¤ĩà¤¨à¤µ": 7305,
      "Ġà¤ļà¤°à¤£à¤¦": 7306,
      "Ġà¤ļà¤µà¤¨": 7307,
      "Ġà¤Ĩà¤ĵà¤°": 7308,
      "Ġà¤īà¤«à¤¨à¤¤": 7309,
      "Ġà¤ķà¤²à¤°à¤«": 7310,
      "................................": 7311,
      "à¤¨à¤°à¤ķ": 7312,
      "à¤¹à¤Ĺà¥Ŀ": 7313,
      "Ġà¤ĸà¤¬": 7314,
      "Ġà¤Ĩà¤Īà¤Ĩà¤°à¤ıà¤¸": 7315,
      "à¥®à¥¦": 7316,
      "à¤²à¤°à¤¹": 7317,
      "à¤Īà¤ıà¤®à¤¸": 7318,
      "Ġà¤ĳà¤µà¤°": 7319,
      "à¤¿à¤¼à¤Ĥ": 7320,
      "à¤łà¤ľ": 7321,
      "Ġà¤Ĩà¤Īà¤Ĩà¤°à¤¡": 7322,
      "(,": 7323,
      "à¥ĭà¤Ĥ..": 7324,
      "à¤ľà¤²à¤¸": 7325,
      "à¤¨à¤µà¤²": 7326,
      "Ġà¤°à¤£à¤ķ": 7327,
      "à¤®à¥Ľ": 7328,
      "Ġà¤°à¤²": 7329,
      "à¤ıà¤ļà¤ı": 7330,
      "à¤¾?\"": 7331,
      "à¥Ľà¤µ": 7332,
      "à¤İ": 7333,
      "Ġà¤¤à¥ľ": 7334,
      "Ġà¤ħà¤§à¤ľà¤²": 7335,
      "à¤Ĩà¤Īà¤ĵà¤ı": 7336,
      "Ġ--.": 7337,
      "Ġà¤Ĩà¤µà¤·": 7338,
      "à¤µà¤£à¤ķ": 7339,
      "Ġà¤¹à¤¸à¤®": 7340,
      "à¤®à¤¥à¤¨": 7341,
      "à¤ıà¤ļà¤ıà¤«à¤ıà¤²": 7342,
      "Ġ:-)": 7343,
      ".()": 7344,
      "Ġà¤¸à¤ĺ": 7345,
      "à¤ıà¤ļà¤ıà¤«": 7346,
      "Ġà¤§à¤¨à¤¸": 7347,
      "Ġà¤Ĩà¤°à¤ı": 7348,
      "à¤¬à¤ĺ": 7349,
      "à¤Ķà¤¸à¤¤": 7350,
      "à¤µà¤Łà¤²": 7351,
      "à¤¶à¤¹à¤ľ": 7352,
      "à¤²à¤ļà¤ķ": 7353,
      "à¤Ńà¤°à¤£": 7354,
      "à¤ĩà¤Łà¤¹": 7355,
      "à¥Īà¤¾": 7356,
      "à¤Ĺà¤Ĺà¤¨": 7357,
      "à¤Ńà¤ķà¤°à¤£": 7358,
      "à¤Ĩà¤¢": 7359,
      "Ġà¤¦à¤®à¤£": 7360,
      "Ġà¥§à¥¯à¥ªà¥Ń": 7361,
      "à¤ĸà¤°à¤¬": 7362,
      "à¤ĩà¤ķà¤¨": 7363,
      "à¤°à¤ķà¤µ": 7364,
      "à¤¯à¤¨à¤®": 7365,
      "à¤ľà¤²à¤ª": 7366,
      "à¤ıà¤Ĩà¤Īà¤¸": 7367,
      "à¤¹à¤®à¤¸": 7368,
      "à¤ªà¤ħà¤ª": 7369,
      "Ġà¤Ĩà¤ĩà¤«": 7370,
      "Ġ.),": 7371,
      "à¤Łà¤°à¤¨à¤°": 7372,
      "Ġ[*": 7373,
      "à¤ªà¤¹à¤¸": 7374,
      "à¤ľà¤¨à¤¸à¤®": 7375,
      "Ġ__": 7376,
      "à¤Ĺà¤²à¤ĸ": 7377,
      "Ġà¤īà¤Ľà¤²à¤¨": 7378,
      "à¤¼à¥ĭà¤Ĥ-": 7379,
      "Ġà¤®à¤¦à¤¨à¤ª": 7380,
      "à¤®à¤°à¤¤à¤¨": 7381,
      "Ġ]]": 7382,
      "à¤¸à¤¹à¤®": 7383,
      "à¤Īà¤¨à¤²": 7384,
      "à¤Łà¤°à¤µà¤°": 7385,
      "Ġà¤Ĩà¤Īà¤ıà¤®": 7386,
      "Ġà¤ĩà¤ķà¤¤": 7387,
      "à¤ħà¤ł": 7388,
      "à¤Ĺà¤®à¤¯": 7389,
      "Ġà¤īà¤°à¤Ī": 7390,
      "Ġà¤ªà¤Ļ": 7391,
      "à¤¾.''": 7392,
      "Ġà¤ľà¤¨à¤ªà¤ķ": 7393,
      "Ġà¤²à¤Łà¤ķà¤ķà¤°": 7394,
      "à¤ĵà¤ªà¤¨à¤°": 7395,
      "à¤ķà¤°à¤ľ": 7396,
      "Ġà¤ĺà¤°à¤ķ": 7397,
      "à¤ľà¤¨à¤ķà¤°": 7398,
      "à¤ªà¤Ń": 7399,
      "Ġà¤µà¤¨à¤ķà¤°": 7400,
      "à¥¤[]": 7401,
      "à¤¤à¤¬à¤¦": 7402,
      "Ġà¤µà¤¹à¤®": 7403,
      "===": 7404,
      "à¤łà¤¯": 7405,
      "à¤¼à¥Ĥ,": 7406,
      "++++": 7407,
      "à¤Ĺà¤¹à¤¨": 7408,
      "à¤Ĺà¤¤à¤ª": 7409,
      "Ġà¤ħà¤°à¤µà¤²": 7410,
      "Ġà¤ľà¤ªà¤¨": 7411,
      "Ġà¤ľà¤Ĺà¤µ": 7412,
      ",,,,,,,,": 7413,
      "à¤ķà¤«à¤°": 7414,
      "Ġà¤Ĩà¤Ĩà¤Ĩ": 7415,
      "à¤®à¤²à¤¬": 7416,
      "à¤ķà¤ķà¤¥": 7417,
      "à¥«à¥Ń": 7418,
      "à¤ľà¤¬à¤¸": 7419,
      "à¥Ī).": 7420,
      "Ġ->": 7421,
      "à¤ıà¤²à¤ıà¤²": 7422,
      "à¤²à¤®à¤£": 7423,
      "Ġà¤¨à¤ľà¤«à¤Ĺà¤¢": 7424,
      "à¥Įà¥Ī": 7425,
      "à¤ħà¤¨à¤¸": 7426,
      "Ġà¤ļà¤¦": 7427,
      "à¤°à¤ķà¤£": 7428,
      "Ġà¤ľà¤Ĺà¤¦à¤®": 7429,
      "Ġà¤Ĭà¤īà¤¨": 7430,
      "à¤§à¤Ń": 7431,
      "à¤ıà¤ķà¤¦à¤®": 7432,
      "à¥Ī]": 7433,
      "Ġà¤¬à¤Ļ": 7434,
      "Ġà¤Ŀà¤ªà¤Łà¤®": 7435,
      "à¥Ģà¥¤[]": 7436,
      "Ġ-/": 7437,
      "à¥Ĥà¥ħ": 7438,
      "à¤§à¤ļ": 7439,
      "à¤Ĩà¤¯à¤¶": 7440,
      "Ġà¤Īà¤Ĺà¤²": 7441,
      "à¤¢à¤ķà¤°": 7442,
      "à¤®à¤¤à¤µ": 7443,
      "à¥Ī'à¥¤": 7444,
      "Ġà¤Ĺà¤Łà¤ķ": 7445,
      "Ġà¤ıà¤¸à¤ıà¤®à¤ĵ": 7446,
      "-(": 7447,
      "Ġà¤¸à¤°à¤¦à¤°": 7448,
      "Ġà¤¦à¤Ĺà¤¡à¤«": 7449,
      "à¤¸à¤¬à¤¨": 7450,
      "à¤īà¤°à¤ķ": 7451,
      "Ġà¤ªà¤°à¤Ńà¤£": 7452,
      "Ġà¤ķà¤°à¤ľà¤Ī": 7453,
      "à¤µà¤¨à¤²": 7454,
      "Ġà¤ıà¤²à¤ıà¤²à¤ıà¤®": 7455,
      "Ġ.\"": 7456,
      "Ġà¤ĺà¤°à¤«": 7457,
      "Ġà¤¤à¤°à¤«à¤¦": 7458,
      "Ġ!\"": 7459,
      "à¤¸à¤ıà¤²": 7460,
      "à¤¿à¤ģ": 7461,
      "à¤¿à¤Ĥà¥į": 7462,
      "Ġà¤¡à¤¡": 7463,
      "Ġà¤ħà¤ªà¤¹à¤°": 7464,
      "à¤Ľà¤²à¤Ĺ": 7465,
      "à¤ĸà¤Ĺ": 7466,
      "à¤¡à¤µà¤£": 7467,
      "à¤²à¤¨à¤ķà¤°": 7468,
      "à¤¸à¤ı": 7469,
      "à¥ªà¥Ń": 7470,
      "à¤¾=": 7471,
      "à¥ļà¤°": 7472,
      "Ġà¤ľà¤ªà¤¤": 7473,
      "_à¤¾": 7474,
      "à¤¯à¤¡à¤°": 7475,
      "Ġà¤Ĺà¤£à¤Ĺ": 7476,
      "à¤¶à¤Ĺà¤µ": 7477,
      "Ġà¤Ĳà¤¬": 7478,
      "Ġà¤ıà¤®à¤ıà¤¨à¤ıà¤¸": 7479,
      "à¤Ńà¤Ĺà¤µà¤¦": 7480,
      "à¤īà¤¤à¤¨": 7481,
      "Ġà¤ªà¤°à¤°": 7482,
      "Ġà¥©à¥¯": 7483,
      "Ġà¤ħà¤²à¤¹": 7484,
      "Ġà¤īà¤ĸà¥ľ": 7485,
      "à¥©à¥¨": 7486,
      "Ġà¤¹à¤°à¤¦à¤¯": 7487,
      "à¤Ĩà¤ľà¤®à¤Ĺà¥Ŀ": 7488,
      "à¤¿à¥°": 7489,
      "Ġà¤ļà¤¹à¤ķ": 7490,
      "à¤ľà¤¨à¤Ĺà¤£à¤¨": 7491,
      "à¤Ĺà¤§à¤°": 7492,
      "à¤·à¤£à¤ķ": 7493,
      "à¤Ĺà¤¨à¤Ĩà¤°": 7494,
      "à¤ıà¤ļà¤Ĩà¤°à¤Ł": 7495,
      "à¤³à¤ķà¤¤": 7496,
      "à¤ħà¤¬à¤¤à¤ķ": 7497,
      "à¤Ĩà¤ªà¤£": 7498,
      "Ġà¤īà¤¦à¤¯à¤µ": 7499,
      "Ġà¤ıà¤ıà¤®à¤¸": 7500,
      "à¤²à¤¨à¤µ": 7501,
      "à¥ģà¤Ĥà¤Ĥ": 7502,
      "à¤¡à¤µà¤²": 7503,
      "Ġà¤ĵà¤ĸ": 7504,
      "à¤¹à¤®à¤®": 7505,
      "Ġ)'": 7506,
      "à¤«à¤³": 7507,
      "à¥Ī,\"": 7508,
      "à¤¨à¤¥": 7509,
      "Ġà¤¦à¤®à¤ķà¤¤": 7510,
      "Ġ:;": 7511,
      "Ġà¤¬à¤¨à¤¸": 7512,
      "Ġà¤ĸà¤²à¤¤": 7513,
      "Ġà¤ĩà¤¨à¤¹": 7514,
      "Ġà¤®à¤¤à¤ª": 7515,
      "à¤ħà¤°à¤°": 7516,
      "*-": 7517,
      "à¤µà¤¸à¤¹": 7518,
      "à¥©à¥§": 7519,
      "Ġà¤«à¥ľà¤¨à¤µ": 7520,
      "à¥Īà¤Ĥà¥¤)": 7521,
      "à¤īà¤ªà¤ľ": 7522,
      "à¥Ī!!": 7523,
      "à¤¸à¤¹à¤°à¤¸": 7524,
      "à¤¤à¤Ĺà¤¢": 7525,
      "à¤ªà¤¹à¤²à¤µ": 7526,
      "Ġ>>>>>": 7527,
      "Ġà¤¶à¥Ļ": 7528,
      "Ġà¤ħà¤µà¤¦": 7529,
      ":.": 7530,
      "Ġà¤®à¤ĺ": 7531,
      "Ġà¤®à¤¡à¤Ĺ": 7532,
      "Ġà¤ıà¤¨à¤ı": 7533,
      "Ġ,-": 7534,
      "Ġà¤ıà¤¸à¤ıà¤²à¤Ĩà¤°": 7535,
      "Ġà¤µà¤³à¤£": 7536,
      "à¤µà¤°à¤¬": 7537,
      "à¤¿:-": 7538,
      "Ġà¤ķà¤µà¤ķ": 7539,
      "Ġà¤¸à¤°à¤¬à¤¤": 7540,
      "à¤¹à¤¨à¤¸": 7541,
      "à¤Łà¤°à¤ķà¤¨": 7542,
      "à¤ĩà¤²à¤Ł": 7543,
      "à¤¸à¥ŀ": 7544,
      "à¤³à¤®": 7545,
      "à¥¤''": 7546,
      "à¥Ģ......": 7547,
      "à¤ıà¤¨à¤Ī": 7548,
      "à¤¦à¤¯à¤°": 7549,
      "Ġà¤ķà¤°à¤®à¤ļ": 7550,
      "Ġà¤µà¤°à¤µà¤°": 7551,
      "à¤¨à¤¤à¤²": 7552,
      "à¤¹à¥ľà¤¤": 7553,
      "Ġà¤µà¤¡à¤Ĺ": 7554,
      "Ġà¤ħà¤¹à¤¹à¤¹": 7555,
      "à¥Ģ*": 7556,
      "Ġà¤¶à¤¯": 7557,
      "Ġà¤īà¤¬à¤°à¤¤": 7558,
      "Ġà¤¶à¤Ĺà¤²": 7559,
      "Ġ(%)": 7560,
      "à¤ĵà¤¶": 7561,
      "à¤Ńà¤µà¤¤à¤¯": 7562,
      "à¤¯à¤ĺ": 7563,
      "Ġà¤ĵà¤¨à¤²": 7564,
      "à¤¹à¤ľà¤°à¤¤": 7565,
      "à¥ģ!": 7566,
      "Ġà¤¡à¤µà¤²à¤ªà¤®": 7567,
      "Ġà¤łà¤¸à¤ķ": 7568,
      "à¤¸à¤ĳà¤«": 7569,
      "à¤ľà¤¶à¤ª": 7570,
      "Ġà¤°à¤ļà¤ķà¤°": 7571,
      "à¤ıà¤¨à¤°": 7572,
      "à¤²à¤½": 7573,
      "Ġà¤¶à¤¹à¤¤": 7574,
      "à¤ķà¤¨à¤ª": 7575,
      "Ġà¤°à¤Ĺà¥ľà¤¨": 7576,
      "Ġà¤ªà¤ªà¤°": 7577,
      "à¤Łà¤ªà¤°": 7578,
      "Ġà¥©à¥¦à¥¦": 7579,
      "à¤ħà¤ªà¤®": 7580,
      "Ġà¤¬à¤¸à¤ļ": 7581,
      "Ġà¤¬à¤¹à¤¨à¤ľ": 7582,
      "Ġ()-": 7583,
      "à¤¥à¤®à¤ª": 7584,
      "Ġà¤¬à¤ĩ": 7585,
      "Ġà¤Ĺà¤Ĺà¤²": 7586,
      "à¤¹à¤®à¤ķ": 7587,
      "Ġà¤ªà¤ķà¤¤": 7588,
      "à¤ĺà¤ķà¤°": 7589,
      "Ġà¤łà¤¸": 7590,
      "Ġà¤ĩà¤¨à¤ļ": 7591,
      "Ġà¤Ĩà¤¨à¤°": 7592,
      "à¤ľà¤²à¤ķ": 7593,
      "Ġà¤¹à¥ľà¤ªà¤¨": 7594,
      "Ġà¤¬à¤¬à¤¨": 7595,
      "à¤ļà¤ªà¤¤": 7596,
      "à¤Ĺà¤°à¤ľ": 7597,
      "Ġà¤ľà¤²à¤ľ": 7598,
      "à¤¸à¤¤à¤¦": 7599,
      "Ġà¤ħà¤¨à¤®à¤¨": 7600,
      "Ġà¤ıà¤«à¤Ĩà¤Īà¤ıà¤ļ": 7601,
      "Ġà¤Ĺà¥Ŀà¤¨": 7602,
      "à¥ĩà¥ĩ.": 7603,
      "Ġà¤Łà¤²à¤¨": 7604,
      "à¤¼à¤¾?": 7605,
      "Ġà¤®à¤¦à¤®à¤¸": 7606,
      "à¤¾\"à¥¤": 7607,
      "à¤¤à¤µà¤²": 7608,
      "à¤Ĩà¤Īà¤ıà¤¸à¤Ĩà¤Īà¤ıà¤¸": 7609,
      "à¤¨à¤Ĺà¤¨": 7610,
      "à¤ĩà¤¯à¤¨": 7611,
      "à¥ĩà¤Ĥà¥¤\"": 7612,
      "Ġà¤Ĩà¤²à¤®à¤Ĺ": 7613,
      "Ġà¤Ĩà¤łà¤µà¤£": 7614,
      "Ġà¤ľà¤³à¤Ĺ": 7615,
      "Ġà¤Ĩà¤Īà¤Ĩà¤°à¤¬": 7616,
      "à¤¶à¤£": 7617,
      "Ġà¤ıà¤®à¤ıà¤®à¤Ł": 7618,
      "Ġà¤¨à¤µà¤ķ": 7619,
      "à¤ıà¤¨à¤ıà¤¸à¤ı": 7620,
      "à¤¯à¤¸à¤²": 7621,
      "Ġà¤ªà¤ļà¤¤": 7622,
      "Ġà¤¶à¤Łà¤¡": 7623,
      "à¤¯à¤ªà¤°à¤ķ": 7624,
      "à¤¨à¤¦à¤¸": 7625,
      "à¤«à¤ľà¤Ī": 7626,
      "Ġà¤¬à¤°à¥ĺà¤°": 7627,
      "à¤¡à¤¬à¤µ": 7628,
      "..,": 7629,
      ">>>": 7630,
      "Ġà¤Ĺà¤³à¤«": 7631,
      "Ġà¤µà¤§à¤µ": 7632,
      "à¥Īà¤Ĥ]": 7633,
      "Ġà¤®à¤Łà¤®": 7634,
      "Ġà¤ľà¤®à¤²": 7635,
      "Ġà¤ħà¤¹à¤¦": 7636,
      "à¤Ĺà¤¤à¤¯": 7637,
      "Ġà¤ĵà¤ªà¤°": 7638,
      "à¤ıà¤¸à¤Ĩà¤Īà¤¡": 7639,
      "à¤ķà¤Ľ": 7640,
      "à¤ıà¤¸à¤ıà¤®à¤ıà¤¸": 7641,
      "à¤°à¤¶à¤ķ": 7642,
      "Ġà¤¬à¤Ĺà¤¹": 7643,
      "Ġà¤¤à¤®à¤¸": 7644,
      "à¤°à¤¦à¤ķ": 7645,
      "Ġà¤Ĩà¤Īà¤Ĩà¤°à¤ľ": 7646,
      "Ġà¤ıà¤¨à¤ıà¤¸à¤¡": 7647,
      "à¤µà¤Łà¤ĸ": 7648,
      "Ġà¤¦à¤°à¤¦à¤°": 7649,
      "à¥ĺà¤¬": 7650,
      "Ġà¤ħà¤¬à¤¦": 7651,
      "Ġà¤Ĩà¤ļà¤®à¤¨": 7652,
      "Ġà¤®à¤«à¤²à¤°": 7653,
      "Ġà¤¸à¤¨à¤¤": 7654,
      "Ġà¤¨à¤¹à¤¸": 7655,
      "Ġ-'": 7656,
      "à¤Ĺà¤°à¤®à¤Ĭ": 7657,
      "à¤ľà¤¯à¤²à¤ķ": 7658,
      "Ġà¥Ĥ": 7659,
      "à¤°à¤¤à¤°à¤¤": 7660,
      "à¤ıà¤«à¤Ĩà¤Īà¤Ĩà¤Ī": 7661,
      "Ġà¤Ĩà¤ľà¤ļ": 7662,
      "à¥Ģ-/": 7663,
      "Ġà¤īà¤ļà¤²à¤²": 7664,
      "Ġà¤Ĩà¤Īà¤ıà¤¸à¤ıà¤¸à¤ıà¤«": 7665,
      "){": 7666,
      "Ġà¤ķà¤Łà¤ª": 7667,
      "Ġà¤īà¤¡à¤©": 7668,
      "Ġà¤®à¤Ĺà¤¹à¤°": 7669,
      "à¤¨à¤£": 7670,
      "Ġà¤Ńà¤°à¤¤à¤¨": 7671,
      "à¤¯à¤Ĺà¤£": 7672,
      "Ġà¤īà¤ķà¤²": 7673,
      "Ġà¤Ĩà¤Īà¤ıà¤²à¤Ĳ": 7674,
      ")}": 7675,
      "Ġ(,,": 7676,
      "à¤®à¤ļà¤²": 7677,
      "Ġà¤µà¤Łà¤µ": 7678,
      "à¤Īà¤¬à¤°": 7679,
      "Ġà¤ħà¤Łà¤²à¤¬": 7680,
      "à¥Ī',": 7681,
      "Ġà¤¨à¤°à¤¹à¤°": 7682,
      "Ġà¤ıà¤¨à¤Ĩà¤°à¤ıà¤ļà¤ıà¤®": 7683,
      "à¤ħà¤²à¤®": 7684,
      "à¤ªà¤°à¤°": 7685,
      "Ġà¤ĵà¤ıà¤®à¤Ĩà¤°": 7686,
      "à¤¸à¤®à¤Ĺ": 7687,
      "Ġà¤¬à¥ļ": 7688,
      "à¤ħà¤µà¤¨": 7689,
      "à¤ĸà¤°à¤ĸ": 7690,
      "à¤¤à¤²à¤¨": 7691,
      "à¤²à¤¦à¤¹": 7692,
      ",\"": 7693,
      "Ġà¤ħà¥ŀà¤¸à¤°": 7694,
      "à¤¨à¤¸à¤®": 7695,
      "Ġà¤§à¤¨à¤ª": 7696,
      "Ġà¤ĵà¤µà¤°à¤Ĩà¤²": 7697,
      "à¤³à¤¨": 7698,
      "à¥ĩà¥ĩà¥¤": 7699,
      "Ġà¤®à¤¹à¤ķà¤¤": 7700,
      "à¤¼à¤¾à¤ģ": 7701,
      "Ġà¤µà¤¨à¤°à¤ķ": 7702,
      "à¥Ĥ\"": 7703,
      "Ġà¤ªà¤°à¤¸à¤°": 7704,
      "Ġà¤ªà¤°à¤¬à¤¤": 7705,
      "à¤Ĩà¤¯à¤°à¤¨": 7706,
      "Ġà¤¹à¤°à¤ļ": 7707,
      "Ġà¤ħà¤¸à¤¹à¤ľà¤¤": 7708,
      "à¤®à¤¹à¤¸": 7709,
      "Ġà¤Ĩà¤¯à¤¶à¤°": 7710,
      "à¤®à¤Łà¤ķà¤°": 7711,
      "Ġà¤Īà¤§à¤¨": 7712,
      "Ġà¤«à¤°à¤ľ": 7713,
      "à¤ķà¤¥à¤¨": 7714,
      "à¥ĭà¤Ĥ(": 7715,
      "Ġà¤¸à¤®à¤·": 7716,
      "à¤®à¤¨à¤Ĺ": 7717,
      "------": 7718,
      "à¤Ĳà¤¬": 7719,
      "Ġ'.": 7720,
      "Ġà¤Ĩà¤ļà¤°": 7721,
      "Ġà¤Ńà¤°à¤¦": 7722,
      "Ġà¤ĸà¤°à¤µ": 7723,
      "à¤¢à¤ļ": 7724,
      "à¥Ī......": 7725,
      "à¤¦à¤°à¤¬à¤¨": 7726,
      "Ġ]]>": 7727,
      "à¤ľà¤Ĺà¤ľ": 7728,
      "..........": 7729,
      "à¤Ĺà¤°à¤¨": 7730,
      "Ġà¤Ĺà¤³à¤¤": 7731,
      "à¤µà¤Ľà¤¤": 7732,
      "à¤¯à¤ķà¤®": 7733,
      "à¤ľà¤ķà¤²": 7734,
      "à¤Īà¤ĸ": 7735,
      "Ġà¤Ĳà¤Ł": 7736,
      "Ġà¤Ĩà¤µà¤Ńà¤Ĺà¤¤": 7737,
      "Ġà¥§à¥¦à¥¦à¥¦": 7738,
      "&=": 7739,
      "à¤Ĺà¤°à¤Ĺà¤¢": 7740,
      "Ġ()'": 7741,
      "Ġ#:": 7742,
      "à¤īà¤Ĩ": 7743,
      "à¤¯à¤ĸ": 7744,
      "à¤Ĺà¤łà¤ķ": 7745,
      "à¤°à¤µà¤®à¤¯": 7746,
      "à¤µà¤ĸ": 7747,
      "à¤¼à¥ĭà¥¤": 7748,
      "à¤ħà¤°à¤¶": 7749,
      "à¤¤à¤ķà¤¤": 7750,
      "à¤Ĺà¤µà¤²": 7751,
      "à¤°à¤¬à¤¦": 7752,
      "à¥Ģ'à¥¤": 7753,
      "à¤ĺà¤¦": 7754,
      "à¤§à¤°à¤ķà¤°": 7755,
      "à¤Ĺà¤ľà¤Ĺà¤¤": 7756,
      "Ġ,\"": 7757,
      "à¥©à¥®": 7758,
      "à¥įà¥ĭ": 7759,
      "à¤Ľà¤¦": 7760,
      "Ġà¤īà¤¦à¤¦": 7761,
      "à¥Īà¤Ĥà¤ĥ": 7762,
      "à¤¸à¤°à¤¯": 7763,
      "à¤ħà¤ªà¤¡": 7764,
      "à¤¸à¤¶à¤¸": 7765,
      "Ġà¤ħà¤ĸà¤¨": 7766,
      "Ġà¤ıà¤®à¤Ī": 7767,
      "Ġ*]": 7768,
      "à¤ĭà¤Ĺ": 7769,
      "Ġà¤Ĩà¤Ĭà¤Ł": 7770,
      "à¤µà¤¸à¤ķà¤°": 7771,
      "Ġà¤²à¥ľà¤ķà¤°": 7772,
      "à¤īà¤ªà¤ķà¤°à¤£": 7773,
      "à¥Ĵ": 7774,
      "!\"": 7775,
      "Ġà¥«à¥«": 7776,
      "à¤ľà¤ľà¤¨": 7777,
      "à¤ķà¤ªà¤²": 7778,
      "Ġà¤ĵà¤«": 7779,
      "à¤¯à¤®à¤Ĺ": 7780,
      "à¥Ĥà¤Ĥ..": 7781,
      "à¤ħà¤«à¤ľ": 7782,
      "à¤®à¤Łà¤°": 7783,
      "Ġà¤¶à¤¯à¤¨à¤ķ": 7784,
      "à¤²à¤¸à¤®": 7785,
      "Ġà¤ıà¤ķà¤Łà¤ķ": 7786,
      "à¥Įà¤Ĥà¥¤": 7787,
      "à¤ıà¤«à¤ıà¤Ł": 7788,
      "à¤ĩà¤¨à¤¬": 7789,
      "Ġà¤Ĭà¤ĸ": 7790,
      "Ġà¤ıà¤¸à¤ıà¤²": 7791,
      "à¤Ĩà¤µà¥Ľ": 7792,
      "à¥ĩà¥¤...": 7793,
      "à¤¤à¤¨à¤§": 7794,
      "à¤Ĩà¤°à¤Ī": 7795,
      "Ġà¤ħà¤łà¤ĸ": 7796,
      "Ġà¤ħà¤²à¤ľ": 7797,
      "Ġ---------": 7798,
      "à¤²à¤Ĺà¥Ŀ": 7799,
      "Ġà¤Ĺà¤¤à¤µà¤°": 7800,
      "à¤Ĩà¤ĩà¤ıà¤¸": 7801,
      "Ġà¤¤à¥ľà¤ªà¤¤": 7802,
      "à¤Ĩà¤Īà¤ıà¤¸à¤ıà¤¸": 7803,
      "Ġà¤¸à¤ľà¤¤": 7804,
      "Ġà¤Ĭà¤§à¤®à¤¸": 7805,
      "à¤®à¤ħà¤ª": 7806,
      "à¤¬à¤¨à¤µ": 7807,
      "à¤°à¤Ĺà¤®à¤¨": 7808,
      "Ġà¤¦à¤¹à¤¶à¤¤à¤µ": 7809,
      "Ġà¤®à¤°à¤ķà¤°": 7810,
      "Ġà¤ļà¤¹à¤ļà¤¹": 7811,
      "à¤¾\",": 7812,
      "à¤Ĭà¤§": 7813,
      "Ġà¤¶à¤ķà¤°à¤ķ": 7814,
      "Ġà¤Ĺà¤Īà¤²": 7815,
      "à¤ĺà¤ª": 7816,
      "Ġà¤®à¥ĺà¤¸à¤¦": 7817,
      "Ġà¤ħà¤²à¤¬à¤®": 7818,
      "Ġà¤²à¤ĸà¤¨à¤ī": 7819,
      "Ġà¤ĺà¤Łà¤²": 7820,
      "Ġà¤Ĩà¤®à¤°": 7821,
      "Ġà¤ľà¤µà¤³à¤ļ": 7822,
      "Ġà¤ıà¤ļà¤ĵà¤¡": 7823,
      "Ġà¤¤à¤Łà¤ķà¤°": 7824,
      "Ġà¤ıà¤«à¤ıà¤ķ": 7825,
      "à¤¶à¤¨à¤ĸ": 7826,
      "Ġà¤ĳà¤¥à¤°": 7827,
      "Ġà¤®à¤¦à¤¨à¤®": 7828,
      "Ġà¤Ĩà¤°à¤ıà¤²à¤ıà¤¸à¤ª": 7829,
      "Ġ(*)": 7830,
      "à¤ģ?": 7831,
      "à¤²à¤ķà¤µ": 7832,
      "Ġà¤ĺà¤²": 7833,
      "Ġà¤¬à¤²à¤Ńà¤¦": 7834,
      "Ġà¤«à¤²à¤Łà¤£": 7835,
      "Ġà¤µà¤¸à¤¨": 7836,
      "Ġà¤ļà¤®à¤°": 7837,
      "à¥ĭà¥ħ": 7838,
      "à¤µà¤ķà¤²": 7839,
      "à¤«à¤®": 7840,
      "Ġà¤®à¤·": 7841,
      "à¤²à¤«à¤¤": 7842,
      "Ġ:-)à¥¤": 7843,
      "à¤ıà¤µà¤¢": 7844,
      "à¥Ī(": 7845,
      "Ġà¤Ĺà¤«à¤²à¤¤": 7846,
      "Ġà¤Ĵà¤°": 7847,
      "à¤£à¤ªà¤ķ": 7848,
      "Ġà¤ıà¤°à¤°": 7849,
      "Ġà¤īà¤¬à¤°à¤ķà¤°": 7850,
      "à¤ļà¤¯à¤¨à¤ķà¤°": 7851,
      "à¤ªà¤°à¤Ĺ": 7852,
      "Ġà¤ªà¤²à¥ľ": 7853,
      "Ġ$,": 7854,
      "Ġà¤¸à¤¥": 7855,
      "à¤®à¤ħà¤µà¤¤": 7856,
      "Ġà¤ħà¤ªà¤¨à¤¤": 7857,
      "à¤Īà¤²à¤µà¤°": 7858,
      "Ġà¤Ĩà¤ĩà¤°": 7859,
      "à¤¨à¤®à¤°": 7860,
      "à¤¨à¤¨à¤Ĺà¤°": 7861,
      "Ġ/)": 7862,
      "Ġà¥¨à¥¦à¥¦à¥¦": 7863,
      "Ġà¥©à¥®": 7864,
      "Ġà¤Ĩà¤¬à¤¨": 7865,
      "à¤¨à¤ĺà¤°": 7866,
      "à¤¯à¤°à¤ª": 7867,
      "Ġà¤īà¤ªà¤¸à¤ļ": 7868,
      "Ġà¤µà¤¸à¤¤": 7869,
      "à¥ªà¥«": 7870,
      "à¤ıà¤ļà¤ıà¤ıà¤²": 7871,
      "Ġà¤¿à¤Ĥ": 7872,
      "à¤¦à¤µà¤²": 7873,
      "à¤¶à¤ªà¤¤": 7874,
      "Ġà¤ªà¤ķà¤¡à¤¨": 7875,
      "à¤ªà¤Łà¤ķà¤°": 7876,
      "à¤¿|": 7877,
      "à¤Ĺà¤²à¤Ĺ": 7878,
      "à¤µà¤īà¤łà¤¨": 7879,
      "Ġà¤Ĩà¤¤à¤¤": 7880,
      "#.": 7881,
      "Ġà¤¥à¤¨": 7882,
      "à¥ĩà¥¤''": 7883,
      "Ġà¥§à¥«à¥¦": 7884,
      "à¤®à¤¶à¤°": 7885,
      "à¤Ľà¤Ł": 7886,
      "à¤ħà¤²à¤¸": 7887,
      "à¥ĩà¤Ĥà¥ĩ": 7888,
      "à¤Īà¤ªà¤²": 7889,
      "à¤¢à¤¦": 7890,
      "Ġà¤ĸà¤µ": 7891,
      "à¤ľà¤®à¤§": 7892,
      "Ġà¤Ĺà¤ľà¤ªà¤¤": 7893,
      "à¤ĩà¤¸à¤µ": 7894,
      "à¤¡à¤Ľ": 7895,
      "à¥į'": 7896,
      "Ġà¤ıà¤ķà¤Ľà¤¤": 7897,
      "Ġà¤¶à¤¤à¤ª": 7898,
      "à¤¼à¥Ģà¤Ĥ,": 7899,
      "Ġà¤¬à¤¤à¤ĸ": 7900,
      "Ġà¤Īà¤Ĺ": 7901,
      "Ġà¤¸à¤¨à¤Ĺ": 7902,
      "à¤¦à¤Ĺà¤²": 7903,
      "à¤¯à¤¨à¤²": 7904,
      "à¥©à¥¯": 7905,
      "à¤ıà¤®à¤¨": 7906,
      "à¤¦à¤Ĺà¤¡": 7907,
      "Ġà¤ıà¤ıà¤«à¤¸": 7908,
      "à¤¦à¤®à¤ķ": 7909,
      "Ġà¤®à¤ľà¤¹à¤°": 7910,
      "à¤ķà¤®à¤£": 7911,
      "à¤¾,.": 7912,
      "à¤ħà¤¦à¤¨": 7913,
      "à¤Ĩà¤Īà¤ķ": 7914,
      "à¤¯à¤ħà¤¤": 7915,
      "Ġà¤²à¤ı": 7916,
      "Ġà¤¨à¤µà¤īà¤¦": 7917,
      "~~~~": 7918,
      "à¤ļà¤°à¤¸": 7919,
      "Ġà¤ļà¤ªà¤²": 7920,
      "à¤¾à¤ģ?": 7921,
      "à¥Ĥà¤ģ-": 7922,
      "à¤¨à¤ľà¤¦": 7923,
      "à¤ļà¥Ŀà¤ķà¤°": 7924,
      "Ġà¤Īà¤ļ": 7925,
      "Ġà¤ıà¤«à¤ıà¤¸": 7926,
      "à¤°à¤¥à¤®à¤ļ": 7927,
      "Ġà¤ħà¤ªà¤¤à¤Ł": 7928,
      "Ġà¤ªà¤«": 7929,
      "à¤¶à¤¹à¤¡": 7930,
      "à¤§à¤ĺ": 7931,
      "Ġà¤¶à¤µà¤µ": 7932,
      "à¥ĩà¤¿": 7933,
      "Ġà¤ªà¤¤à¤Ŀà¤¡": 7934,
      "Ġà¤§à¤°à¤®à¤ª": 7935,
      "Ġà¤ħà¤Ĺà¤¦": 7936,
      "Ġà¤®à¥ľà¤Ī": 7937,
      "à¤¼...": 7938,
      "Ġà¤°à¤µà¤¨": 7939,
      "Ġà¤¶à¤Ł": 7940,
      "Ġà¤ĸà¤°à¤¨": 7941,
      "à¤°à¤ªà¤°à¤ķ": 7942,
      "à¤¤à¤ĵ": 7943,
      "Ġà¤®à¤ĩà¤¯": 7944,
      "à¤ħà¤¨à¤®": 7945,
      "Ġà¤ľà¤¯à¤Ĺ": 7946,
      "Ġà¤ıà¤ļà¤Ĩà¤°à¤ı": 7947,
      "Ġà¤ıà¤¬à¤Ł": 7948,
      "à¤Ĥà¤¿": 7949,
      "Ġà¤«à¤Łà¤¤": 7950,
      "Ġà¤ªà¤¦à¤ķà¤§": 7951,
      "((": 7952,
      "à¤Łà¤ĵà¤µà¤°": 7953,
      "à¤µà¤ľà¤µ": 7954,
      "à¥Ĩà¤Ĥ": 7955,
      "à¤ķà¤¸à¤®": 7956,
      "à¤µà¤¦à¤¯": 7957,
      "Ġà¤ªà¤¥à¤Ń": 7958,
      "Ġà¤¸à¤°à¤Ĺà¤®": 7959,
      "à¥ĭ(": 7960,
      "à¤Łà¤ķà¤²": 7961,
      "//.": 7962,
      "à¤ıà¤¨à¤ıà¤¨à¤ıà¤ķ": 7963,
      "à¤ıà¤ªà¤²": 7964,
      "Ġà¤«à¤²à¤¸à¤«": 7965,
      "à¤®à¤®à¤§": 7966,
      "à¤ĸà¤¸à¤¤": 7967,
      "Ġà¤Łà¤¨à¤ķà¤ª": 7968,
      "à¤Ŀà¤µ": 7969,
      "Ġà¤Ĺà¤°à¤²": 7970,
      "à¥ĭà¥¤'": 7971,
      "Ġà¥¨à¥¦à¥¦à¥Ń": 7972,
      "à¤ļà¤ªà¤°": 7973,
      "à¤·à¤£à¤Ń": 7974,
      "Ġà¤¸à¤°à¤§à¤¨": 7975,
      "à¥ĩà¤Ĥà¤ĥ": 7976,
      "à¤ıà¤µà¤°": 7977,
      "Ġà¤īà¤ķà¤¤": 7978,
      "à¤ĸà¤µà¤¤": 7979,
      "à¤®à¤¬à¤¹": 7980,
      "Ġà¤¥à¤¡": 7981,
      "Ġà¤Ĺà¤ľà¤ķ": 7982,
      "à¤Ĺà¤¤à¤µà¤°": 7983,
      "Ġ=\"\"": 7984,
      "Ġà¤¶à¤¯à¤¨à¤ķà¤ķ": 7985,
      "Ġà¤Ĺà¤µà¤²": 7986,
      "Ġà¤¡à¤¨": 7987,
      "à¤µà¤¶à¤¯à¤¨": 7988,
      "Ġà¤ıà¤ļà¤ıà¤¨": 7989,
      "à¤ķà¤¢": 7990,
      "Ġà¤¦à¤¸à¤°": 7991,
      "à¤°à¤¨à¤µ": 7992,
      "à¤¬à¤§à¤¬": 7993,
      "à¤¦à¤¯à¤µ": 7994,
      "à¤¸à¤Ńà¤°": 7995,
      "à¤ıà¤«à¤ıà¤¸à¤ıà¤²": 7996,
      "à¥ĩà¥ĩà¥ĩ": 7997,
      "Ġà¤ľà¤²à¤°": 7998,
      "à¤¸à¤ıà¤¨à¤ıà¤¨à¤ıà¤ķ": 7999,
      "à¤¦à¤Ńà¤°": 8000,
      "Ġà¤ıà¤Ĺà¤°": 8001,
      "à¤¾,''": 8002,
      "à¤ĩà¤¨à¤«": 8003,
      "Ġ#_": 8004,
      "Ġà¤ĩà¤ļà¤²à¤ķà¤°": 8005,
      "Ġà¤Ľà¤Ī": 8006,
      "Ġà¤ħà¤°à¤ķ": 8007,
      "Ġà¤ĸà¤Łà¤ªà¤Ł": 8008,
      "Ġà¥Ńà¥«": 8009,
      "Ġ****": 8010,
      "à¤ħà¤ªà¤ķ": 8011,
      "à¤¬à¤°à¤ĸ": 8012,
      "Ġà¤¹à¤¥à¤Ĺ": 8013,
      "Ġà¤§à¥ľà¤ķ": 8014,
      "Ġà¤¸à¤®à¤¯à¤ª": 8015,
      "Ġà¤ıà¤¸à¤Īà¤ľ": 8016,
      "Ġà¤®à¤¹à¥ŀ": 8017,
      "Ġà¤ľà¤¨à¤Ĩ": 8018,
      "à¤łà¤¦": 8019,
      "à¤¼à¤¾:": 8020,
      "à¤·à¤§à¤°à¤¤": 8021,
      "à¥©à¥©": 8022,
      "Ġà¤¸à¤ķà¤ªà¤ķ": 8023,
      "Ġà¤ķà¤¸à¤²": 8024,
      "à¤¯à¤ľà¤°": 8025,
      "Ġà¤Ĺà¤ĩ": 8026,
      "________________": 8027,
      "à¤°à¤¹à¤°à¤£": 8028,
      "à¤µà¤Ĺà¤£": 8029,
      "Ġà¤ıà¤®à¤ĵ": 8030,
      "Ġà¤ªà¤ķà¤¡à¤£": 8031,
      "Ġà¥¬à¥«": 8032,
      "Ġ^": 8033,
      "à¤ªà¤¶à¤¨": 8034,
      "Ġà¥¤)": 8035,
      "à¤Łà¤ł": 8036,
      "Ġà¤¦à¤³à¤µ": 8037,
      "Ġà¤¢à¤Ĺ": 8038,
      "Ġà¤¬à¤ªà¤¤": 8039,
      "à¤Ĺà¤²à¤¦": 8040,
      "à¤¡à¤²à¤¸": 8041,
      "Ġà¤ľà¤ĩà¤¸": 8042,
      "à¤¼à¤ĥ": 8043,
      "à¤Ľà¤°à¤¦": 8044,
      "Ġà¤ĵà¤Ĩà¤Īà¤¸": 8045,
      "à¤Łà¤Ĺà¤¨": 8046,
      "à¤Ŀà¤ªà¤Ł": 8047,
      "Ġà¤Ĩà¤°à¤¹": 8048,
      "à¤¯à¤¶à¤ª": 8049,
      "Ġà¤¹à¤°à¤¡": 8050,
      "à¤¹à¤¨à¤¨": 8051,
      "à¤²à¤°à¤µ": 8052,
      "{}": 8053,
      "Ġà¤±": 8054,
      "à¤¨à¤®à¤¤": 8055,
      "à¤Ľà¤Ľà¤°": 8056,
      "à¤µà¤²à¤ķà¤°": 8057,
      "à¤µà¤§à¤¨": 8058,
      "à¤·à¤®à¤£": 8059,
      "à¤ħà¤µà¤ķ": 8060,
      "Ġà¤ıà¤®à¤Ĩà¤Īà¤Ł": 8061,
      "à¤Łà¤®à¤ª": 8062,
      "à¤ıà¤¨à¤Ĩà¤Īà¤¸": 8063,
      "Ġà¤¸à¤®à¤°à¤µ": 8064,
      "à¤Ĩà¤Ĺà¤ľà¤¨": 8065,
      "Ġà¤·à¥ľà¤¯": 8066,
      "Ġà¤¸à¤Ĩà¤¦à¤¤": 8067,
      "à¤¤à¤ĺ": 8068,
      "Ġà¤«à¤¯": 8069,
      "à¤ıà¤¨à¤ıà¤ļà¤Ĩà¤°à¤¸": 8070,
      "Ġ---.": 8071,
      "à¤ħà¤¸à¤¹": 8072,
      "à¥ĩà¤¼à¤Ĥ": 8073,
      "Ġà¤²à¤ªà¤ķà¤¨": 8074,
      "à¤£à¤¶": 8075,
      "à¤¡à¤²à¤¹": 8076,
      "Ġà¤ħà¤¤à¤¹à¤°": 8077,
      "à¤īà¤¦à¤¯à¤¨à¤°": 8078,
      "à¤¾à¥¤)": 8079,
      "Ġà¤īà¤©": 8080,
      "à¤«à¤ľ": 8081,
      "à¤®à¤²à¤ĸà¤¨": 8082,
      "Ġà¤¤à¤¨à¤¹": 8083,
      "à¤ĩà¤ĩ": 8084,
      "à¤¯à¤ªà¤¤": 8085,
      "à¤µà¤¯à¤¸": 8086,
      "Ġà¤īà¤¨à¤ķà¤°": 8087,
      "Ġà¤¬à¤¹à¤¸à¤¬": 8088,
      "Ġà¤¹à¤®à¤īà¤®": 8089,
      "Ġà¥Ī": 8090,
      "à¥Īà¤Ĥ/": 8091,
      "Ġà¤īà¤¦à¤Ĺ": 8092,
      "à¤²à¤¡à¤ķ": 8093,
      "à¤Ĺà¤ĸ": 8094,
      "à¤¾-/": 8095,
      "Ġà¤¦à¤²à¤¬à¤²": 8096,
      "à¥ģ/": 8097,
      "Ġà¤ķà¤°à¤ľ": 8098,
      "à¤ĵà¤ıà¤²à¤Ł": 8099,
      "Ġà¤¨à¤°à¤µà¤°": 8100,
      "Ġà¤Ĺà¤Ĺà¤¨à¤¯": 8101,
      "à¤¦à¤§": 8102,
      "à¤ªà¤°à¤ļ": 8103,
      "Ġà¤¶à¤µà¤¦": 8104,
      "à¤®à¤¶à¤¹à¤°": 8105,
      "Ġà¤ĸà¤Łà¤ķà¤¤": 8106,
      "Ġà¤Ĩà¤ľà¤ķ": 8107,
      "à¤®à¤Ĺà¤²": 8108,
      "Ġà¤¬à¤Ĺà¤°": 8109,
      "Ġà¤ĸà¤¨à¤ķ": 8110,
      "à¤ĩà¤¤à¤ķ": 8111,
      "à¥Ńà¥«": 8112,
      "à¤ĸà¤°à¤¸": 8113,
      "à¥ĩà¤Ĥ).": 8114,
      "Ġà¤īà¤¨à¤¨": 8115,
      "à¤¢à¤µà¤£": 8116,
      "à¤ªà¤§": 8117,
      "Ġà¤Ĩà¤Ĺà¤¯": 8118,
      "Ġà¤ıà¤Ĩà¤Īà¤¬": 8119,
      "à¤Ĩà¤Īà¤Ĩà¤Īà¤ª": 8120,
      "Ġà¤Ľà¤°à¤¹à¤°": 8121,
      "à¤Ĳà¤ªà¤²": 8122,
      "à¥ĩ]": 8123,
      "Ġà¤®à¤¯à¤ª": 8124,
      "Ġà¤®à¤ķà¤µ": 8125,
      "à¤°à¤ĵ": 8126,
      "à¤¹à¤ļà¤²": 8127,
      "à¤§à¤Ńà¤ķ": 8128,
      "Ġà¤¸à¤¸à¤®": 8129,
      "à¤łà¤ļ": 8130,
      "Ġà¤§à¤¬à¤§à¤¬": 8131,
      "à¤²à¤¨à¤Ł": 8132,
      "à¤¬à¤²à¤¬": 8133,
      "Ġà¤¨à¤°à¤ªà¤¤": 8134,
      "à¤ªà¤¨à¤µ": 8135,
      "à¤¯à¤®à¤ļ": 8136,
      "à¤ĩà¤ªà¤°à¤²": 8137,
      "à¤¶à¤²à¤ķ": 8138,
      "à¤Ŀà¤ķà¤¤": 8139,
      "Ġà¤¦à¤²à¤ªà¤¤": 8140,
      "Ġà¤ªà¤·": 8141,
      "à¤¤à¤°à¤ĸ": 8142,
      "à¤Ĺà¤¸à¤°à¤ķà¤°": 8143,
      "à¤Ńà¤µà¤¶": 8144,
      "Ġà¤Ĩà¤Ĺà¤¬à¤¬": 8145,
      "à¤¿)à¥¤": 8146,
      "à¤®à¤łà¤¤": 8147,
      "Ġà¤įà¤ª": 8148,
      "Ġà¤¦à¤¦à¤²": 8149,
      "à¤¶à¤¯à¤²": 8150,
      "à¤ĺà¤²à¤¤": 8151,
      "à¤§à¤µà¤ª": 8152,
      "Ġà¤¸à¤¨à¤¬à¤°": 8153,
      "à¤¤à¤²à¤ķ": 8154,
      "à¤¡à¤²à¤ķ": 8155,
      "à¤ħà¤ĺ": 8156,
      "à¤¶à¤°à¤®": 8157,
      "à¥Ńà¥¦": 8158,
      "Ġà¥ªà¥¯": 8159,
      "à¤µà¤Ĺà¤¢": 8160,
      "Ġà¤ħà¤®à¤ļ": 8161,
      "à¤łà¤¬": 8162,
      "Ġà¤ıà¤ļà¤ľ": 8163,
      "Ġà¥Ļà¤¤à¤°à¤¨": 8164,
      "à¤ıà¤¯à¤°à¤¸": 8165,
      "Ġ,,/-": 8166,
      "Ġà¤Ĺà¤¢à¤µ": 8167,
      "à¤¨à¤ľà¤®": 8168,
      "Ġà¤¹à¤¹": 8169,
      "à¥¤)": 8170,
      "Ġà¤ħà¤ªà¤¶à¤ķ": 8171,
      "à¥Ī?'": 8172,
      "Ġà¤°à¤¤à¤¨à¤Ĺà¤¢": 8173,
      "à¤¸à¤°à¤¬à¤ľ": 8174,
      "Ġà¤Ĩà¤²à¤®à¤¬": 8175,
      "Ġà¤Ĩà¤Īà¤ıà¤¸à¤ıà¤²": 8176,
      "à¥ĩà¥ħ": 8177,
      "Ġà¤īà¤Ŀ": 8178,
[...]
