<unk>	0
<s>	0
</s>	0
▁क	-0
▁स	-1
▁ह	-2
▁म	-3
▁प	-4
ें	-5
ार	-6
▁के	-7
ने	-8
्र	-9
▁ब	-10
▁है	-11
या	-12
▁ज	-13
▁द	-14
▁अ	-15
▁में	-16
▁व	-17
▁ल	-18
▁र	-19
ों	-20
▁की	-21
▁न	-22
▁आ	-23
▁को	-24
र्	-25
ता	-26
▁ग	-27
ान	-28
▁त	-29
▁से	-30
▁उ	-31
▁कि	-32
▁इ	-33
▁का	-34
▁कर	-35
▁भ	-36
ना	-37
्य	-38
िक	-39
▁औ	-40
▁और	-41
ाल	-42
▁पर	-43
▁ने	-44
▁प्र	-45
▁श	-46
▁ए	-47
स्	-48
िल	-49
▁च	-50
ही	-51
क्	-52
▁इस	-53
▁हो	-54
ड़	-55
▁य	-56
हा	-57
▁हैं	-58
▁थ	-59
ित	-60
ते	-61
िया	-62
▁जा	-63
▁ख	-64
▁फ	-65
ाम	-66
▁भी	-67
िए	-68
िय	-69
ंग	-70
के	-71
वा	-72
न्	-73
ती	-74
▁स्	-75
ला	-76
▁बा	-77
ेश	-78
्या	-79
▁वि	-80
हीं	-81
त्र	-82
ले	-83
▁एक	-84
री	-85
से	-86
नी	-87
ति	-88
रा	-89
▁लिए	-90
▁सा	-91
▁सम	-92
▁नहीं	-93
▁रा	-94
सी	-95
▁अप	-96
▁ट	-97
कर	-98
▁सं	-99
िन	-100
का	-101
▁ही	-102
ारी	-103
गा	-104
▁हु	-105
▁मु	-106
▁ले	-107
त्	-108
▁दे	-109
ोग	-110
ली	-111
िस	-112
ुर	-113
क्ष	-114
▁ड	-115
▁रह	-116
▁1	-117
ां	-118
्ट	-119
▁किया	-120
▁2	-121
की	-122
▁तो	-123
ाय	-124
▁था	-125
वार	-126
▁यह	-127
ंद	-128
▁पह	-129
कार	-130
▁कार	-131
▁नि	-132
▁आप	-133
ियों	-134
▁गया	-135
ुल	-136
▁घ	-137
ास	-138
▁कहा	-139
्म	-140
न्ह	-141
▁करने	-142
▁उन	-143
दी	-144
..	-145
रे	-146
▁उस	-147
सा	-148
▁या	-149
मा	-150
िला	-151
ंड	-152
▁हम	-153
▁सि	-154
▁वाल	-155
▁अध	-156
कि	-157
▁उन्ह	-158
▁साथ	-159
▁कु	-160
ल्	-161
ाह	-162
▁सक	-163
भा	-164
्री	-165
▁सु	-166
िर	-167
▁छ	-168
गी	-169
्रे	-170
▁अन	-171
ढ़	-172
ंत्र	-173
ंच	-174
▁रहे	-175
▁बाद	-176
▁पू	-177
▁(	-178
टी	-179
▁सर	-180
देश	-181
▁राज	-182
▁ध	-183
▁जो	-184
▁लोग	-185
▁दो	-186
▁तक	-187
दा	-188
गे	-189
▁थी	-190
▁अपने	-191
भी	-192
च्	-193
▁भार	-194
ैं	-195
▁दिया	-196
जी	-197
वी	-198
▁मे	-199
वि	-200
श्	-201
▁हुए	-202
तर	-203
▁सी	-204
द्	-205
▁चु	-206
▁ला	-207
ानी	-208
▁मह	-209
बा	-210
▁पा	-211
पी	-212
ोज	-213
ौर	-214
गर	-215
टर	-216
▁बी	-217
ेल	-218
▁मा	-219
ओं	-220
जा	-221
पा	-222
▁20	-223
▁रहा	-224
▁ऐ	-225
्ष	-226
ोंने	-227
▁रही	-228
को	-229
▁बता	-230
▁थे	-231
किन	-232
में	-233
▁दी	-234
ूर	-235
ाना	-236
▁गई	-237
▁मिल	-238
िव	-239
ेट	-240
▁बना	-241
▁बार	-242
था	-243
स्ट	-244
▁जी	-245
▁तर	-246
ष्ट	-247
ार्	-248
▁कम	-249
▁लेकिन	-250
प्	-251
बर	-252
▁भा	-253
▁जिस	-254
▁सरकार	-255
ड़ा	-256
▁उन्होंने	-257
▁अधिक	-258
▁सब	-259
▁कुछ	-260
ये	-261
▁मो	-262
▁वह	-263
ंत्री	-264
▁जब	-265
▁बात	-266
खा	-267
नों	-268
▁लगा	-269
रो	-270
ड़ी	-271
स्त	-272
द्र	-273
ंध	-274
शन	-275
▁बह	-276
▁सो	-277
र्म	-278
▁अब	-279
▁जाए	-280
▁मौ	-281
ीन	-282
▁पहले	-283
▁होने	-284
▁वर्	-285
▁वाले	-286
▁ये	-287
वर	-288
▁स्थ	-289
▁पी	-290
िंग	-291
▁इन	-292
▁आज	-293
▁पुल	-294
▁दिन	-295
▁कार्य	-296
ंह	-297
▁कह	-298
▁भारत	-299
▁देश	-300
ड़े	-301
▁उप	-302
वे	-303
▁चाह	-304
ुत	-305
▁लोगों	-306
▁टी	-307
▁बे	-308
ोट	-309
▁कोई	-310
▁पुलिस	-311
▁3	-312
▁वे	-313
▁अनु	-314
▁जान	-315
▁करते	-316
िल्	-317
हर	-318
हां	-319
▁किसी	-320
धान	-321
च्च	-322
कों	-323
ंप	-324
▁हि	-325
▁201	-326
▁साल	-327
▁‘	-328
▁अपनी	-329
ूप	-330
▁तरह	-331
▁इसके	-332
▁ओ	-333
▁सिंह	-334
चार	-335
र्ट	-336
▁द्	-337
▁उत्	-338
ुप	-339
िश	-340
00	-341
्स	-342
▁गए	-343
▁समय	-344
▁काम	-345
▁मैं	-346
▁साम	-347
ोल	-348
ैसे	-349
▁बि	-350
क्र	-351
ारा	-352
ोक	-353
▁प्रति	-354
क्षा	-355
...	-356
ूस	-357
ज़	-358
▁हर	-359
्ल	-360
कारी	-361
▁देख	-362
▁उनके	-363
चा	-364
▁दु	-365
▁हुआ	-366
र्व	-367
वारा	-368
्रेस	-369
▁माम	-370
िम	-371
ून	-372
▁अं	-373
▁ऑ	-374
जे	-375
बी	-376
ाइ	-377
▁नाम	-378
▁लग	-379
▁बढ़	-380
क्त	-381
▁पार	-382
मान	-383
in	-384
ेंगे	-385
िट	-386
ूल	-387
▁व्य	-388
▁फिल	-389
वं	-390
▁द्वारा	-391
▁होता	-392
▁कई	-393
डी	-394
▁हा	-395
▁हुई	-396
▁बताया	-397
▁बहुत	-398
▁पि	-399
▁मै	-400
्यों	-401
मंत्री	-402
▁स्ट	-403
द्ध	-404
▁निर्	-405
▁जन	-406
▁क्ष	-407
▁विक	-408
्त	-409
्टी	-410
▁मुख	-411
▁गु	-412
िका	-413
▁पहु	-414
▁अम	-415
▁परि	-416
▁बै	-417
वाल	-418
▁शुर	-419
▁ना	-420
▁लेकर	-421
ष्	-422
▁आय	-423
तीय	-424
ारे	-425
स्ता	-426
स्थ	-427
▁रख	-428
बंध	-429
▁फिर	-430
▁उन्हें	-431
▁रूप	-432
ंस	-433
एस	-434
▁शिक	-435
▁.	-436
▁रुप	-437
▁5	-438
▁दौर	-439
▁झ	-440
क्स	-441
▁फिल्म	-442
▁जाता	-443
च्छ	-444
▁खिला	-445
मार	-446
▁लि	-447
▁सू	-448
▁जाने	-449
▁प्रदेश	-450
▁सभी	-451
▁खु	-452
▁वो	-453
▁मान	-454
▁सकते	-455
▁सकता	-456
▁ता	-457
ोर	-458
▁चल	-459
▁चुना	-460
ंट	-461
वन	-462
▁दि	-463
ेंद्र	-464
▁कांग	-465
दि	-466
▁।	-467
▁प्रा	-468
▁सबसे	-469
दे	-470
शी	-471
▁गां	-472
्यू	-473
म्	-474
जन	-475
पुर	-476
▁आई	-477
▁हाल	-478
▁पहुंच	-479
मी	-480
जार	-481
▁वा	-482
▁करना	-483
हत	-484
▁'	-485
▁घर	-486
ेत्र	-487
▁लिया	-488
▁ग्र	-489
ोड़	-490
▁बन	-491
▁रि	-492
▁कांग्रेस	-493
धी	-494
▁दिल्	-495
▁ठ	-496
दार	-497
ीड	-498
ाने	-499
▁क्या	-500
धार	-501
फी	-502
ब्	-503
ोन	-504
▁4	-505
▁एवं	-506
्यक्ष	-507
▁भारतीय	-508
▁जु	-509
▁यु	-510
▁मुख्य	-511
▁-	-512
ेर	-513
सार	-514
▁दूस	-515
▁बच्च	-516
▁सह	-517
र्थ	-518
▁टीम	-519
▁पास	-520
ैन	-521
्यादा	-522
▁दौरान	-523
▁क्षेत्र	-524
▁वर्ष	-525
▁दिल्ली	-526
▁बु	-527
ियां	-528
एम	-529
▁दर्	-530
▁आरो	-531
ंत	-532
▁स्व	-533
जू	-534
ज्	-535
▁कारण	-536
▁निक	-537
क्ट	-538
▁कै	-539
▁आपको	-540
नि	-541
▁जर	-542
▁कंप	-543
▁चुनाव	-544
▁पु	-545
▁शाम	-546
▁समा	-547
एं	-548
णा	-549
▁तथा	-550
▁अभ	-551
▁राज्य	-552
जर	-553
▁|	-554
▁उनकी	-555
ाई	-556
▁उसके	-557
▁होगा	-558
र्स	-559
ंक	-560
▁अगर	-561
▁शुरू	-562
आई	-563
वाद	-564
▁ज्यादा	-565
▁ई	-566
▁क्र	-567
▁मामले	-568
मु	-569
सर	-570
र्ण	-571
पर	-572
लय	-573
्रीय	-574
क्ति	-575
▁विश्	-576
▁बीच	-577
िये	-578
an	-579
▁6	-580
▁बद	-581
▁महिला	-582
▁क्यों	-583
यर	-584
▁अग	-585
▁उसे	-586
▁नी	-587
▁वाली	-588
▁चाहिए	-589
ar	-590
योग	-591
▁दोनों	-592
▁डॉ	-593
▁बारे	-594
▁अव	-595
▁पै	-596
▁पार्टी	-597
टना	-598
प्र	-599
▁अन्य	-600
▁फै	-601
▁सुर	-602
▁राष्ट	-603
सान	-604
▁करें	-605
दान	-606
ृत	-607
्मी	-608
दर्	-609
▁रो	-610
▁ऐसे	-611
▁देने	-612
▁अपना	-613
▁अच्छ	-614
▁होती	-615
ंब	-616
▁एस	-617
▁चौ	-618
▁बो	-619
्ड	-620
ध्य	-621
ोजना	-622
प्त	-623
▁मोदी	-624
ूम	-625
ेज	-626
न्न	-627
टा	-628
्‍	-629
▁19	-630
▁श्री	-631
▁खिलाफ	-632
▁पद	-633
▁बैठ	-634
चे	-635
ुक	-636
▁डि	-637
वाई	-638
▁अल	-639
▁याद	-640
▁वहीं	-641
लों	-642
▁किए	-643
▁जानकारी	-644
er	-645
▁छा	-646
▁मन	-647
▁ट्र	-648
▁अध्यक्ष	-649
भाग	-650
▁लाख	-651
▁उम	-652
▁राम	-653
भाव	-654
ाली	-655
▁जि	-656
निया	-657
र्ड	-658
▁स्थित	-659
at	-660
पो	-661
चना	-662
▁शा	-663
ताओं	-664
▁पूर्व	-665
▁लड़	-666
▁इससे	-667
▁:	-668
वास	-669
▁उठ	-670
पू	-671
ियो	-672
ूं	-673
▁गो	-674
▁ऐसा	-675
▁तीन	-676
्यालय	-677
▁जारी	-678
वल	-679
ज्ञ	-680
ताब	-681
त्व	-682
▁टे	-683
▁आरोप	-684
▁मंत्री	-685
ीस	-686
वान	-687
सभा	-688
▁तै	-689
▁इसी	-690
झे	-691
ाला	-692
▁ओर	-693
▁कॉ	-694
त्या	-695
▁शामिल	-696
▁शिक्ष	-697
on	-698
▁मांग	-699
▁,	-700
द्य	-701
▁पिछ	-702
▁विश	-703
▁काफी	-704
ोष	-705
▁करी	-706
त्रा	-707
▁स्क	-708
जपा	-709
▁10	-710
▁आर	-711
▁करता	-712
ची	-713
▁जैसे	-714
▁जग	-715
▁प्रधान	-716
▁H	-717
ेंद	-718
▁नई	-719
di	-720
दन	-721
ुरु	-722
ेड	-723
▁शु	-724
▁समझ	-725
▁मार्	-726
▁मुख्यमंत्री	-727
or	-728
▁7	-729
▁जै	-730
▁अधिकार	-731
लो	-732
ेत	-733
पाल	-734
▁गा	-735
स्तान	-736
▁रुपये	-737
▁अनुसार	-738
त्म	-739
क्रम	-740
▁इसे	-741
▁बैं	-742
▁लोक	-743
स्प	-744
▁गिर	-745
हार	-746
▁अस	-747
▁इस्	-748
▁दा	-749
▁पत्र	-750
▁योजना	-751
यी	-752
▁S	-753
▁महा	-754
▁भाजपा	-755
ामी	-756
▁करोड़	-757
ोध	-758
ेशन	-759
्रा	-760
▁विभाग	-761
▁विश्व	-762
र्फ	-763
▁आम	-764
▁इं	-765
▁ली	-766
▁संग	-767
▁सकती	-768
▁सामने	-769
▁ऊ	-770
स्था	-771
▁पड़	-772
▁विकास	-773
इन	-774
रण	-775
ंबर	-776
जूद	-777
तों	-778
लिए	-779
▁इंड	-780
▁कुमार	-781
▁अभी	-782
▁बल्	-783
▁जाएगा	-784
▁संबंध	-785
▁पढ़	-786
▁जांच	-787
तार	-788
िता	-789
ियम	-790
▁दर	-791
▁आने	-792
गत	-793
▁पानी	-794
▁यहां	-795
▁8	-796
▁आए	-797
▁करीब	-798
▁होते	-799
es	-800
धा	-801
शा	-802
ैंड	-803
▁खेल	-804
▁उसने	-805
▁जाती	-806
ेम	-807
तिक	-808
▁पां	-809
▁कंपनी	-810
ेष	-811
कर्	-812
चित	-813
▁घटना	-814
▁जिला	-815
▁मुझे	-816
▁होगी	-817
▁जम	-818
▁सफ	-819
क्टर	-820
▁इला	-821
▁आपके	-822
▁बड़ी	-823
▁P	-824
ंगे	-825
▁हों	-826
▁गांव	-827
आर	-828
णी	-829
▁जिन	-830
▁जबकि	-831
▁करे	-832
▁तैय	-833
▁इसमें	-834
ष्ठ	-835
▁मैच	-836
पोर्ट	-837
धिक	-838
न्द	-839
▁क्योंकि	-840
जय	-841
ूट	-842
▁चि	-843
▁तब	-844
▁मत	-845
▁सच	-846
▁प्रश	-847
▁पिछले	-848
▁बनाने	-849
हम	-850
▁कभी	-851
▁इसका	-852
▁अधिकारी	-853
▁N	-854
फ्त	-855
बाद	-856
▁पो	-857
▁आया	-858
ीडिया	-859
▁उनका	-860
▁उत्तर	-861
▁12	-862
▁सद	-863
▁हाथ	-864
▁आधार	-865
▁वाला	-866
▁स्थान	-867
▁दुनिया	-868
जह	-869
स्क	-870
्ला	-871
▁कप	-872
▁जहां	-873
▁पाकि	-874
▁हमारे	-875
▁मीडिया	-876
र्य	-877
वेश	-878
▁डी	-879
▁मौत	-880
▁A	-881
▁खा	-882
मेंट	-883
▁आगे	-884
▁चार	-885
▁बंद	-886
▁"	-887
मुख	-888
ायत	-889
▁तु	-890
▁दिए	-891
▁कर्म	-892
▁बैंक	-893
सल	-894
हे	-895
ंगल	-896
स्‍	-897
ेंट	-898
▁फ़	-899
▁मि	-900
▁यू	-901
▁चला	-902
▁बेह	-903
▁आयोज	-904
▁दूसरे	-905
▁व्यक्ति	-906
हन	-907
▁पता	-908
▁पूरी	-909
▁इसलिए	-910
al	-911
इट	-912
▁जगह	-913
▁स्वा	-914
▁I	-915
▁ऑफ	-916
▁भर	-917
▁परी	-918
▁विध	-919
▁गांधी	-920
▁जिसमें	-921
बू	-922
▁फैस	-923
▁सर्	-924
▁समाज	-925
शत	-926
▁9	-927
करण	-928
▁अलग	-929
▁वजह	-930
▁उसकी	-931
▁परिवार	-932
▁प्रधानमंत्री	-933
रि	-934
▁M	-935
▁मद	-936
▁दिव	-937
▁अला	-938
▁नेता	-939
▁सम्म	-940
▁मुताब	-941
ायर	-942
ियर	-943
▁अर	-944
▁इत	-945
▁वै	-946
प्ता	-947
▁माल	-948
▁बड़े	-949
▁मिला	-950
en	-951
िले	-952
▁ज़	-953
▁नौ	-954
▁राह	-955
दर्शन	-956
▁मुताबिक	-957
क्षण	-958
▁मही	-959
▁कहना	-960
▁दर्ज	-961
ंज	-962
माल	-963
▁करा	-964
▁जीत	-965
▁शहर	-966
▁विशेष	-967
ांकि	-968
▁लाल	-969
▁2018	-970
▁जीवन	-971
▁दिनों	-972
▁सिर्फ	-973
डे	-974
▁ढ	-975
▁बॉ	-976
▁खुद	-977
▁तहत	-978
▁दिखा	-979
▁बाहर	-980
▁अलावा	-981
▁किसान	-982
▁करेंगे	-983
▁हालांकि	-984
्व	-985
▁15	-986
▁सुन	-987
▁जाते	-988
▁रहने	-989
▁सुरक्षा	-990
ंगा	-991
▁रात	-992
▁न्या	-993
▁हजार	-994
ीय	-995
ुट	-996
वर्	-997
▁ब्र	-998
▁योग	-999
st	-1000
शि	-1001
ंदर	-1002
ूरत	-1003
▁आस	-1004
▁डे	-1005
र्मा	-1006
स्या	-1007
▁कोश	-1008
▁करती	-1009
▁देते	-1010
it	-1011
▁–	-1012
▁कल	-1013
▁मज	-1014
पूर्ण	-1015
▁व्या	-1016
▁पाकिस्तान	-1017
ृति	-1018
ेंस	-1019
▁रे	-1020
▁दें	-1021
▁फीस	-1022
▁कोर्ट	-1023
तन	-1024
मे	-1025
ल्ड	-1026
ासन	-1027
▁दिल	-1028
▁मिले	-1029
▁प्राप्त	-1030
20	-1031
▁नर	-1032
▁पे	-1033
▁शे	-1034
ार्थ	-1035
्मीद	-1036
▁आदि	-1037
▁यादव	-1038
▁रुपए	-1039
om	-1040
▁ची	-1041
▁घोष	-1042
▁मां	-1043
▁स्प	-1044
▁पूरा	-1045
▁छात्र	-1046
▁केंद्र	-1047
फ़	-1048
ंका	-1049
▁पं	-1050
ख्या	-1051
▁तौर	-1052
▁ट्रे	-1053
▁उम्मीद	-1054
पन	-1055
षण	-1056
▁C	-1057
▁आग	-1058
▁चे	-1059
▁पत्	-1060
▁लिख	-1061
▁सदस	-1062
▁लिये	-1063
▁शिक्षा	-1064
▁सरकारी	-1065
बे	-1066
▁दूर	-1067
▁पुर	-1068
▁मंद	-1069
▁लगे	-1070
▁पांच	-1071
▁हमें	-1072
▁राष्ट्र	-1073
काश	-1074
▁बस	-1075
▁रन	-1076
▁वी	-1077
▁खबर	-1078
▁यदि	-1079
▁हूं	-1080
▁पहली	-1081
▁वहां	-1082
माण	-1083
▁ऐसी	-1084
▁वित	-1085
▁शिव	-1086
▁प्रो	-1087
▁जिससे	-1088
▁कार्यक्रम	-1089
▁राष्ट्रीय	-1090
श्य	-1091
▁आद	-1092
▁एन	-1093
▁सौ	-1094
जेपी	-1095
▁पेश	-1096
▁रंग	-1097
▁साह	-1098
▁व्यव	-1099
▁तैयार	-1100
▁प्रतिशत	-1101
ूँ	-1102
चान	-1103
त्य	-1104
▁जल	-1105
्यान	-1106
▁खास	-1107
▁डाल	-1108
▁नजर	-1109
▁विधान	-1110
▁स्कूल	-1111
▁अधिकारियों	-1112
मत	-1113
वरी	-1114
▁आत	-1115
▁संघ	-1116
▁अमेर	-1117
▁जाना	-1118
▁हिस्	-1119
▁बाजार	-1120
▁प्रमुख	-1121
▁बच्चों	-1122
बह	-1123
▁“	-1124
ियन	-1125
▁कान	-1126
▁मार	-1127
▁कैसे	-1128
▁कोशिश	-1129
टे	-1130
ताल	-1131
दों	-1132
▁दल	-1133
न्द्र	-1134
▁शादी	-1135
द्यालय	-1136
▁मंत्र	-1137
▁बीजेपी	-1138
ैल	-1139
यान	-1140
वीर	-1141
▁रेल	-1142
▁मिली	-1143
▁समस्या	-1144
तु	-1145
▁T	-1146
पति	-1147
ालय	-1148
▁गेंद	-1149
▁बड़ा	-1150
ित्र	-1151
▁खान	-1152
तेमाल	-1153
स्थान	-1154
▁जनता	-1155
▁मेरे	-1156
▁मंदिर	-1157
▁गिरफ्त	-1158
▁परीक्षा	-1159
ठी	-1160
▁ते	-1161
वासी	-1162
ुक्त	-1163
▁केवल	-1164
एन	-1165
ग्	-1166
लर	-1167
ुआ	-1168
▁कौ	-1169
▁तरफ	-1170
▁पूछ	-1171
▁फोन	-1172
▁बाल	-1173
▁होना	-1174
▁मैंने	-1175
ायक	-1176
▁ख़	-1177
त्री	-1178
▁उठा	-1179
▁रोज	-1180
▁वीड	-1181
▁प्रकार	-1182
▁रिपोर्ट	-1183
▁प्रदर्शन	-1184
▁R	-1185
काल	-1186
जों	-1187
▁अद	-1188
▁कुल	-1189
▁बजे	-1190
▁गुरु	-1191
▁जिसके	-1192
▁महीने	-1193
▁हत्या	-1194
मो	-1195
ंडी	-1196
केट	-1197
बार	-1198
यास	-1199
राज	-1200
▁सके	-1201
▁करके	-1202
▁छोड़	-1203
▁सवाल	-1204
▁जाएगी	-1205
▁शर्मा	-1206
▁इंडिया	-1207
-1	-1208
डा	-1209
बल	-1210
▁B	-1211
ंबई	-1212
हाँ	-1213
▁बेट	-1214
▁ब्ल	-1215
▁लेने	-1216
▁स्तर	-1217
▁मौजूद	-1218
▁राजनी	-1219
▁लगाया	-1220
ल्प	-1221
दारी	-1222
र्चा	-1223
▁फीसदी	-1224
▁बल्कि	-1225
▁वीडियो	-1226
▁इस्तेमाल	-1227
ic	-1228
लब	-1229
▁200	-1230
▁भाग	-1231
▁चुकी	-1232
▁धर्म	-1233
▁पिता	-1234
▁सेवा	-1235
एल	-1236
लि	-1237
हरा	-1238
▁11	-1239
▁कृ	-1240
लिया	-1241
▁रोक	-1242
▁सीट	-1243
▁उसका	-1244
▁बढ़ा	-1245
▁विरो	-1246
▁स्थिति	-1247
भव	-1248
शल	-1249
र्क	-1250
िने	-1251
▁डा	-1252
िकेट	-1253
▁लाभ	-1254
▁लगता	-1255
कल	-1256
न्‍	-1257
▁अफ	-1258
▁मदद	-1259
▁शरी	-1260
▁बैठक	-1261
▁मेरी	-1262
▁सुबह	-1263
तम	-1264
लाई	-1265
▁जल्	-1266
▁अंतर	-1267
▁राहुल	-1268
▁विदेश	-1269
फा	-1270
षा	-1271
ंदी	-1272
गढ़	-1273
ग्र	-1274
िति	-1275
▁धन	-1276
▁गयी	-1277
▁भूम	-1278
ज्ञान	-1279
▁चुके	-1280
▁सर्व	-1281
▁प्रभाव	-1282
भि	-1283
▁गै	-1284
▁बर	-1285
ण्या	-1286
▁यही	-1287
▁जिले	-1288
▁बयान	-1289
▁बिना	-1290
▁युवा	-1291
▁उत्पा	-1292
▁विचार	-1293
▁व्याप	-1294
ad	-1295
le	-1296
धि	-1297
राब	-1298
र्ज	-1299
▁नए	-1300
▁दिख	-1301
▁सड़	-1302
▁सूचना	-1303
▁शिकायत	-1304
▁विधानसभा	-1305
मन	-1306
ing	-1307
▁सै	-1308
▁खरी	-1309
▁जवा	-1310
▁युव	-1311
▁मंगल	-1312
▁अच्छा	-1313
▁उपयोग	-1314
▁महत्व	-1315
पु	-1316
▁D	-1317
नाथ	-1318
र्च	-1319
िकी	-1320
▁18	-1321
त्ता	-1322
▁शाह	-1323
▁सोम	-1324
▁न्यू	-1325
▁पक्ष	-1326
▁मुंबई	-1327
ंख	-1328
ोह	-1329
000	-1330
▁जे	-1331
▁इसकी	-1332
▁सम्मान	-1333
गल	-1334
टक	-1335
नल	-1336
भग	-1337
ूब	-1338
▁s	-1339
▁t	-1340
गार	-1341
▁एज	-1342
▁शो	-1343
▁निय	-1344
▁बचा	-1345
▁ध्यान	-1346
▁संख्या	-1347
इल	-1348
ठन	-1349
ूरी	-1350
▁गल	-1351
▁भू	-1352
ध्यम	-1353
▁छोट	-1354
▁संप	-1355
▁सफल	-1356
▁लिखा	-1357
यन	-1358
सि	-1359
ूर्	-1360
indi	-1361
▁...	-1362
▁श्र	-1363
▁सम्	-1364
द्योग	-1365
ुड	-1366
▁एम	-1367
▁बज	-1368
्रीम	-1369
▁पंच	-1370
▁रखा	-1371
▁उच्च	-1372
▁दूसरी	-1373
▁बनाया	-1374
▁समर्थ	-1375
ed	-1376
ion	-1377
▁13	-1378
▁25	-1379
▁जन्	-1380
▁तरी	-1381
▁बने	-1382
▁बिज	-1383
▁परेश	-1384
▁रखने	-1385
▁चाहते	-1386
▁होंगे	-1387
▁नरेंद्र	-1388
▁निर्देश	-1389
ew	-1390
ात	-1391
▁K	-1392
्‍य	-1393
▁अख	-1394
▁हे	-1395
▁कित	-1396
▁देखा	-1397
▁शरीर	-1398
▁अच्छी	-1399
▁बच्चे	-1400
▁मामला	-1401
ुन	-1402
ंदा	-1403
करी	-1404
▁तेज	-1405
▁माह	-1406
▁रवि	-1407
▁रिक	-1408
▁वाप	-1409
▁शब्	-1410
▁मौके	-1411
▁लगभग	-1412
▁बोर्ड	-1413
विद्यालय	-1414
ंगी	-1415
व्य	-1416
▁अति	-1417
▁कार्र	-1418
▁#	-1419
रात	-1420
रिक	-1421
▁30	-1422
▁चा	-1423
▁पस	-1424
▁आहे	-1425
▁उपल	-1426
▁जाये	-1427
▁विभि	-1428
▁सदस्य	-1429
तरा	-1430
▁गं	-1431
▁थीं	-1432
▁मना	-1433
▁कंपन	-1434
▁पूरे	-1435
▁मध्य	-1436
▁लक्ष	-1437
▁सचिव	-1438
▁निवेश	-1439
▁माध्यम	-1440
▁लगातार	-1441
▁कार्रवाई	-1442
पे	-1443
वत	-1444
ंटे	-1445
िली	-1446
बाइल	-1447
ांति	-1448
ित्य	-1449
▁लगी	-1450
▁आतंक	-1451
▁शेयर	-1452
▁सांस	-1453
▁टेस्ट	-1454
▁प्रयास	-1455
▁यात्रा	-1456
▁क्रिकेट	-1457
क़	-1458
कान	-1459
लाह	-1460
वाह	-1461
ेंड	-1462
्ले	-1463
▁आख	-1464
वादी	-1465
▁कमी	-1466
▁नगर	-1467
▁बदल	-1468
▁वाह	-1469
▁आदेश	-1470
▁एक्स	-1471
▁हरिया	-1472
टन	-1473
क्‍	-1474
र्ष	-1475
▁16	-1476
▁ति	-1477
क्षि	-1478
▁मूल	-1479
▁सही	-1480
▁सित	-1481
▁सोच	-1482
▁हूँ	-1483
▁निकल	-1484
▁फैसला	-1485
▁सामान	-1486
▁किसानों	-1487
▁विभिन्न	-1488
▁कार्यकर्	-1489
▁गिरफ्तार	-1490
चर	-1491
यं	-1492
ण्ड	-1493
▁लौ	-1494
च्या	-1495
बंधन	-1496
वेदन	-1497
▁जून	-1498
▁पीछ	-1499
▁अस्प	-1500
▁राशि	-1501
▁सहित	-1502
▁उपलब्	-1503
▁विकेट	-1504
▁विरोध	-1505
▁शुक्र	-1506
▁सोमवार	-1507
एफ	-1508
तृ	-1509
थम	-1510
दम	-1511
ीक	-1512
ॉक	-1513
ॉप	-1514
▁!	-1515
▁c	-1516
▁p	-1517
्वी	-1518
▁17	-1519
▁नही	-1520
▁भाव	-1521
▁हास	-1522
▁कहते	-1523
▁जवाब	-1524
▁देखने	-1525
▁दोस्त	-1526
▁आयोजित	-1527
▁प्रकाश	-1528
कत	-1529
टल	-1530
सम	-1531
ीत	-1532
भीर	-1533
▁खे	-1534
▁गि	-1535
ंद्र	-1536
▁शनि	-1537
▁चुका	-1538
▁ताकि	-1539
▁पड़ा	-1540
▁वक्त	-1541
▁चर्चा	-1542
▁पत्नी	-1543
▁मिलने	-1544
re	-1545
▁b	-1546
भार	-1547
हाल	-1548
▁टै	-1549
▁पक	-1550
▁अंग	-1551
▁नोट	-1552
▁पेट	-1553
▁चलते	-1554
▁मुद्	-1555
▁देशों	-1556
▁शुरुआ	-1557
▁महिलाओं	-1558
िशा	-1559
ेशा	-1560
▁तम	-1561
▁शि	-1562
त्ति	-1563
▁अदाल	-1564
▁देता	-1565
▁सेना	-1566
▁मोबाइल	-1567
▁अमेरिका	-1568
▁मंगलवार	-1569
▁हरियाणा	-1570
is	-1571
कट	-1572
धन	-1573
किल	-1574
सिक	-1575
ायल	-1576
ोरी	-1577
▁आव	-1578
▁वन	-1579
क्शन	-1580
▁गये	-1581
▁गौर	-1582
▁सुप	-1583
▁कीमत	-1584
▁जन्म	-1585
▁पसंद	-1586
▁हासिल	-1587
जि	-1588
काब	-1589
ल्स	-1590
वीं	-1591
वें	-1592
ांत	-1593
▁14	-1594
▁पट	-1595
रिया	-1596
ानीय	-1597
ामीण	-1598
▁चीन	-1599
▁राय	-1600
▁वरि	-1601
▁विष	-1602
▁वोट	-1603
▁स्‍	-1604
स्थ्य	-1605
▁अप्र	-1606
▁माना	-1607
▁आरोपी	-1608
▁दक्षि	-1609
▁अस्पताल	-1610
▁शुक्रवार	-1611
कु	-1612
खन	-1613
धे	-1614
िज	-1615
ॉल	-1616
दीप	-1617
हाय	-1618
र्जी	-1619
ार्ड	-1620
ार्म	-1621
▁ठीक	-1622
▁पर्	-1623
▁सात	-1624
▁कहीं	-1625
▁Hindi	-1626
▁जरूरत	-1627
▁महारा	-1628
▁हिस्सा	-1629
▁पत्रकार	-1630
am	-1631
इस	-1632
गू	-1633
चल	-1634
नर	-1635
ेस	-1636
▁m	-1637
मता	-1638
वुड	-1639
▁50	-1640
▁ज्	-1641
▁भग	-1642
त्मक	-1643
लाइन	-1644
श्मी	-1645
▁उद्	-1646
▁देर	-1647
▁पाए	-1648
▁सड़क	-1649
▁स्था	-1650
▁पहचान	-1651
▁प्रेम	-1652
▁हमेशा	-1653
▁स्वास्थ्य	-1654
ha	-1655
सं	-1656
चाल	-1657
▁तय	-1658
▁दौ	-1659
▁भे	-1660
▁मश	-1661
▁आवा	-1662
▁किस	-1663
▁तुम	-1664
▁फोट	-1665
▁बनाए	-1666
▁सोशल	-1667
▁मार्ग	-1668
▁मुकाब	-1669
▁ग्रामीण	-1670
▁महत्वपूर्ण	-1671
खी	-1672
जल	-1673
रों	-1674
श्च	-1675
ाले	-1676
▁मी	-1677
▁रण	-1678
ड़ों	-1679
श्यक	-1680
▁अंत	-1681
▁अहम	-1682
▁जिम	-1683
▁बोल	-1684
तंत्र	-1685
▁एक्ट	-1686
▁पंजा	-1687
▁अदालत	-1688
▁अभिया	-1689
▁ट्रेन	-1690
▁लोकसभा	-1691
▁वरिष्ठ	-1692
▁प्रशासन	-1693
▁मंत्रालय	-1694
▁विश्वविद्यालय	-1695
गम	-1696
पण	-1697
यू	-1698
रु	-1699
ुद	-1700
▁0	-1701
▁L	-1702
▁ऋ	-1703
ंता	-1704
तान	-1705
तिम	-1706
▁धो	-1707
▁फर	-1708
तिहा	-1709
▁तीस	-1710
▁बाव	-1711
▁अंदर	-1712
▁करवा	-1713
▁नीचे	-1714
▁पहला	-1715
▁बदला	-1716
▁बेहद	-1717
▁मुला	-1718
▁सीमा	-1719
▁घोषणा	-1720
▁समिति	-1721
▁कार्यालय	-1722
▁राष्ट्रपति	-1723
फे	-1724
and	-1725
ews	-1726
जिक	-1727
पास	-1728
बाज	-1729
ष्य	-1730
▁कट	-1731
▁थो	-1732
बाजी	-1733
विधा	-1734
▁कौन	-1735
▁ड्र	-1736
▁तेल	-1737
▁फाय	-1738
▁भ्र	-1739
▁मृत	-1740
लीवुड	-1741
▁आयोग	-1742
▁जल्द	-1743
▁पीछे	-1744
▁गंभीर	-1745
▁पोस्ट	-1746
▁उपलब्ध	-1747
▁निर्माण	-1748
▁सुप्रीम	-1749
▁स्थानीय	-1750
ूक	-1751
नीय	-1752
न्स	-1753
पित	-1754
रीज	-1755
▁उद	-1756
▁‘‘	-1757
▁उल्	-1758
▁ऊपर	-1759
▁गति	-1760
▁गुज	-1761
▁फाइ	-1762
▁भाई	-1763
तियों	-1764
र्थिक	-1765
▁अवसर	-1766
▁रहते	-1767
▁विषय	-1768
▁कार्ड	-1769
▁बावजूद	-1770
▁शनिवार	-1771
),	-1772
डल	-1773
ृह	-1774
तरी	-1775
ूबर	-1776
▁छो	-1777
▁बल	-1778
िकों	-1779
िक्ष	-1780
▁नया	-1781
▁संस	-1782
▁हाई	-1783
▁अगले	-1784
▁बेटी	-1785
▁मजबू	-1786
▁कहानी	-1787
▁जिन्ह	-1788
▁बेहतर	-1789
▁आवश्यक	-1790
▁निवासी	-1791
▁प्रयोग	-1792
ंभ	-1793
ेक	-1794
▁a	-1795
्मे	-1796
▁in	-1797
▁घा	-1798
▁जय	-1799
▁ती	-1800
कर्म	-1801
द्धि	-1802
▁कदम	-1803
▁चैन	-1804
▁तस्	-1805
▁त्र	-1806
▁दीप	-1807
▁बुध	-1808
▁वेब	-1809
▁मेरा	-1810
▁वर्ग	-1811
▁समेत	-1812
▁अगस्त	-1813
▁बिहार	-1814
▁वालों	-1815
▁विवाद	-1816
▁आर्थिक	-1817
▁न्याया	-1818
▁उम्मीदवार	-1819
lo	-1820
▁U	-1821
िटी	-1822
▁खो	-1823
▁अर्	-1824
▁उसी	-1825
▁गाँ	-1826
▁कारो	-1827
▁जमीन	-1828
▁जिसे	-1829
▁लेते	-1830
क्रिया	-1831
स्ट्रे	-1832
▁आयोजन	-1833
▁पंजाब	-1834
▁संगठन	-1835
ou	-1836
भर	-1837
ूह	-1838
सों	-1839
ांड	-1840
▁26	-1841
▁दू	-1842
▁फी	-1843
▁लो	-1844
किंग	-1845
▁साइ	-1846
▁आपकी	-1847
▁खत्म	-1848
▁घंटे	-1849
▁पड़े	-1850
▁पीएम	-1851
▁यहाँ	-1852
▁अभियान	-1853
▁विधायक	-1854
सू	-1855
राव	-1856
ामा	-1857
ुल्	-1858
▁रु	-1859
ग्री	-1860
स्ती	-1861
ेंसी	-1862
▁खूब	-1863
स्त्र	-1864
▁अर्थ	-1865
▁इंटर	-1866
▁इतना	-1867
▁किलो	-1868
▁देना	-1869
▁जाएंगे	-1870
▁दक्षिण	-1871
▁पहुंचे	-1872
▁कंपनियों	-1873
▁व्यवस्था	-1874
ri	-1875
फ्	-1876
ोप	-1877
▁/	-1878
ंडल	-1879
णाम	-1880
फ्ट	-1881
रान	-1882
लिम	-1883
लेज	-1884
ष्ण	-1885
▁ऑन	-1886
▁मं	-1887
▁रै	-1888
▁वृ	-1889
साइट	-1890
▁कला	-1891
▁भेज	-1892
श्मीर	-1893
▁2017	-1894
▁आदमी	-1895
▁उम्र	-1896
▁जैसी	-1897
▁दिवस	-1898
▁नियम	-1899
▁प्रभ	-1900
▁लागू	-1901
ध्यक्ष	-1902
▁अंतिम	-1903
▁कराने	-1904
▁जुड़े	-1905
▁देखते	-1906
▁रेलवे	-1907
▁हमारी	-1908
तक	-1909
ूत	-1910
खनऊ	-1911
जीत	-1912
पना	-1913
बोध	-1914
ांस	-1915
ाइम	-1916
्यु	-1917
▁मई	-1918
▁मॉ	-1919
▁सल	-1920
पक्ष	-1921
्रोल	-1922
▁असर	-1923
▁कर्	-1924
▁चाल	-1925
▁जमा	-1926
▁जेल	-1927
▁पाठ	-1928
▁संय	-1929
स्ताव	-1930
▁त्या	-1931
▁रहता	-1932
▁रिश्	-1933
▁आवेदन	-1934
ष्ट्रीय	-1935
स्ट्रेलिया	-1936
▁प्रक्रिया	-1937
il	-1938
ot	-1939
अल	-1940
धर	-1941
रल	-1942
ोस	-1943
▁f	-1944
ब्ल	-1945
रीब	-1946
▁28	-1947
▁बच	-1948
▁शी	-1949
सीना	-1950
▁ओवर	-1951
▁ज्ञ	-1952
▁मिन	-1953
क्षित	-1954
▁अपरा	-1955
▁छोटे	-1956
▁दिला	-1957
▁प्ले	-1958
▁लखनऊ	-1959
▁होकर	-1960
▁कानून	-1961
▁जनवरी	-1962
▁न्याय	-1963
▁मार्च	-1964
ेंद्रीय	-1965
▁अप्रैल	-1966
▁बुधवार	-1967
▁समर्थन	-1968
▁सितंबर	-1969
▁सुविधा	-1970
▁प्रस्ताव	-1971
नो	-1972
सत	-1973
ील	-1974
ट्र	-1975
शनल	-1976
स्व	-1977
हरी	-1978
▁छह	-1979
▁हल	-1980
▁हॉ	-1981
ित्व	-1982
▁आते	-1983
▁नुक	-1984
▁पाल	-1985
▁बनी	-1986
▁बिल	-1987
▁यून	-1988
▁लाइ	-1989
मार्ट	-1990
स्थित	-1991
▁News	-1992
▁खरीद	-1993
▁निजी	-1994
▁बेटे	-1995
▁भारी	-1996
▁वापस	-1997
▁हमने	-1998
▁फैसले	-1999
▁बिजली	-2000
▁गुजरात	-2001
▁तस्वीर	-2002
▁प्रदान	-2003
▁रविवार	-2004
▁केंद्रीय	-2005
िप	-2006
ंसा	-2007
िकल	-2008
्यो	-2009
,000	-2010
त्मा	-2011
िक्स	-2012
▁आती	-2013
▁हल्	-2014
ष्ट्र	-2015
▁2019	-2016
▁टीवी	-2017
▁नंबर	-2018
▁नागर	-2019
▁मौका	-2020
▁यूपी	-2021
▁सहाय	-2022
▁सारे	-2023
▁तरीके	-2024
▁नौकरी	-2025
▁बल्ले	-2026
▁लड़की	-2027
▁स्वयं	-2028
▁नेताओं	-2029
▁बॉलीवुड	-2030
▁प्रभावित	-2031
▁G	-2032
▁W	-2033
ent	-2034
खंड	-2035
ुओं	-2036
▁24	-2037
▁In	-2038
▁गण	-2039
▁भु	-2040
....	-2041
ायरे	-2042
▁आता	-2043
▁देव	-2044
▁भर्	-2045
▁माँ	-2046
▁साब	-2047
श्चित	-2048
स्कार	-2049
▁दिशा	-2050
▁फोटो	-2051
▁ग्राम	-2052
▁निकाल	-2053
▁पसीना	-2054
▁जिम्मे	-2055
▁परिणाम	-2056
▁परेशान	-2057
▁भूमिका	-2058
▁व्यक्त	-2059
▁गुरुवार	-2060
▁व्यापार	-2061
ay	-2062
he	-2063
झा	-2064
थि	-2065
पट	-2066
हण	-2067
ैक	-2068
ॉय	-2069
▁?	-2070
कुल	-2071
देव	-2072
फोन	-2073
▁ठा	-2074
न्ना	-2075
बीआई	-2076
ष्टि	-2077
▁निश	-2078
▁सभा	-2079
धिकार	-2080
▁आपका	-2081
▁पीड़	-2082
▁बाबा	-2083
▁हमला	-2084
▁कप्ता	-2085
▁जानते	-2086
▁जैकेट	-2087
▁निर्ण	-2088
▁नुकसान	-2089
▁शुरुआत	-2090
▁खिलाड़ी	-2091
▁राजस्थान	-2092
.5	-2093
खे	-2094
मि	-2095
ॉन	-2096
जरी	-2097
लेख	-2098
हान	-2099
▁अश	-2100
▁आन	-2101
दर्श	-2102
शिया	-2103
▁इंग	-2104
▁गर्	-2105
▁चले	-2106
▁चिक	-2107
▁तला	-2108
▁वही	-2109
तृत्व	-2110
▁अक्ष	-2111
▁खर्च	-2112
▁रिली	-2113
▁विजय	-2114
▁संजय	-2115
▁स्वी	-2116
▁अभिने	-2117
▁बदलाव	-2118
▁संचाल	-2119
▁सांसद	-2120
▁सूत्र	-2121
ेद	-2122
ौल	-2123
’’	-2124
▁n	-2125
असल	-2126
तौर	-2127
यों	-2128
साय	-2129
िप्	-2130
्वर	-2131
▁लॉ	-2132
▁शव	-2133
कृति	-2134
चारी	-2135
िकता	-2136
▁अरब	-2137
▁कवि	-2138
▁खुश	-2139
▁पति	-2140
▁बंग	-2141
▁बिक	-2142
▁किये	-2143
▁लड़क	-2144
▁समार	-2145
▁हिंद	-2146
▁जरूरी	-2147
▁सहयोग	-2148
▁छात्रों	-2149
▁राजनीति	-2150
▁वेबसाइट	-2151
ूड	-2152
▁w	-2153
साथ	-2154
साद	-2155
▁22	-2156
▁एड	-2157
ष्टा	-2158
स्ते	-2159
ुरुष	-2160
्यार	-2161
▁इंत	-2162
▁कैम	-2163
▁गृह	-2164
▁मगर	-2165
▁मिश	-2166
▁मेड	-2167
▁इलाज	-2168
▁डॉलर	-2169
▁दुर्	-2170
▁पैसा	-2171
▁राहत	-2172
▁विरा	-2173
▁वैसे	-2174
▁सलाह	-2175
▁इंग्ल	-2176
▁चिंता	-2177
▁पुरुष	-2178
▁भगवान	-2179
▁संभाव	-2180
▁प्रवेश	-2181
▁समारोह	-2182
ol	-2183
एच	-2184
दू	-2185
लू	-2186
▁V	-2187
ंटी	-2188
▁21	-2189
▁कब	-2190
▁गठ	-2191
▁नव	-2192
ड़ने	-2193
न्दी	-2194
स्टर	-2195
्यता	-2196
▁चुन	-2197
▁टिक	-2198
▁बजट	-2199
▁साफ	-2200
▁सैन	-2201
▁अग्र	-2202
▁तारी	-2203
▁वायर	-2204
▁सामा	-2205
▁करेगा	-2206
▁दरअसल	-2207
▁शक्ति	-2208
▁सिद्ध	-2209
▁संस्था	-2210
▁नेतृत्व	-2211
▁मुकाबले	-2212
▁संबंधित	-2213
षि	-2214
हरे	-2215
ाये	-2216
िटल	-2217
ैया	-2218
▁40	-2219
▁आश	-2220
▁क्	-2221
क्ता	-2222
मीटर	-2223
स्तव	-2224
▁आयु	-2225
▁कही	-2226
▁कैं	-2227
▁गलत	-2228
▁बर्	-2229
▁लें	-2230
स्लिम	-2231
▁इन्ह	-2232
▁उनसे	-2233
▁घायल	-2234
▁तेजी	-2235
▁दावा	-2236
▁परिव	-2237
▁पूजा	-2238
▁भाषा	-2239
▁मुश्	-2240
▁यानी	-2241
▁शब्द	-2242
▁अपराध	-2243
▁पर्या	-2244
▁मैदान	-2245
▁संस्क	-2246
चारियों	-2247
▁ऑनलाइन	-2248
▁सामाजिक	-2249
▁राजनीतिक	-2250
▁क्षेत्रों	-2251
उस	-2252
घा	-2253
▁F	-2254
जाम	-2255
वरण	-2256
ियल	-2257
िरी	-2258
▁इम	-2259
▁मस	-2260
चिका	-2261
वंबर	-2262
्वीट	-2263
▁100	-2264
▁कमा	-2265
▁क्ल	-2266
▁रोड	-2267
▁लेख	-2268
▁जरूर	-2269
▁जाकर	-2270
▁युवक	-2271
▁श्रे	-2272
▁मजबूत	-2273
▁वित्त	-2274
▁साबित	-2275
ष्टाचार	-2276
▁विदेशी	-2277
▁सुनवाई	-2278
▁मुश्किल	-2279
▁संस्थान	-2280
▁साहित्य	-2281
▁कर्मचारी	-2282
ac	-2283
as	-2284
em	-2285
et	-2286
im	-2287
नु	-2288
ाब	-2289
ंची	-2290
ड्ड	-2291
नेस	-2292
हली	-2293
ायद	-2294
ियत	-2295
्टर	-2296
▁23	-2297
▁टा	-2298
देशक	-2299
मारी	-2300
ॉर्ड	-2301
्रीन	-2302
▁अंक	-2303
▁आंक	-2304
▁जित	-2305
▁तत्	-2306
▁दाख	-2307
▁फ्र	-2308
▁हार	-2309
▁इच्छ	-2310
▁उनको	-2311
▁तकनी	-2312
▁पदों	-2313
▁पाया	-2314
▁बनने	-2315
▁हमले	-2316
▁ट्वीट	-2317
▁नवंबर	-2318
▁पूर्ण	-2319
▁लगाने	-2320
▁शांति	-2321
▁सुधार	-2322
▁हमारा	-2323
▁उद्योग	-2324
▁डॉक्टर	-2325
▁निर्णय	-2326
▁याचिका	-2327
▁कार्यों	-2328
उट	-2329
गो	-2330
सु	-2331
ंनी	-2332
त्त	-2333
भाल	-2334
म्ह	-2335
साइ	-2336
हित	-2337
ोलन	-2338
▁आह	-2339
▁कठ	-2340
▁दृ	-2341
क्सी	-2342
धानी	-2343
वाही	-2344
▁इंस	-2345
▁जाय	-2346
▁सजा	-2347
▁पाने	-2348
▁पुरा	-2349
▁पैसे	-2350
▁बाकी	-2351
▁रहती	-2352
▁करेगी	-2353
▁घोषित	-2354
▁जुलाई	-2355
▁भर्ती	-2356
▁एजेंसी	-2357
▁कप्तान	-2358
▁सामान्य	-2359
ंव	-2360
कम	-2361
फर	-2362
▁O	-2363
▁[	-2364
▁k	-2365
▁१	-2366
ंडा	-2367
चीत	-2368
ानि	-2369
▁एच	-2370
▁एफ	-2371
▁मर	-2372
द्रा	-2373
िल्‍	-2374
▁कोल	-2375
▁दबा	-2376
▁दिस	-2377
▁सें	-2378
▁अखिल	-2379
▁खड़ा	-2380
▁गंगा	-2381
▁गर्म	-2382
▁चैनल	-2383
▁निगम	-2384
▁लड़ा	-2385
▁सारी	-2386
▁अच्छे	-2387
▁एक्सप	-2388
▁कराया	-2389
▁युद्ध	-2390
▁विद्य	-2391
▁सीरीज	-2392
▁उद्देश	-2393
▁कश्मीर	-2394
▁प्राथम	-2395
▁स्टेशन	-2396
▁मुस्लिम	-2397
▁विज्ञान	-2398
▁महाराष्ट्र	-2399
▁कर्मचारियों	-2400
)।	-2401
चन	-2402
जु	-2403
ठा	-2404
केत	-2405
विध	-2406
शील	-2407
▁क़	-2408
▁मल	-2409
कारा	-2410
ल्या	-2411
ुल्क	-2412
्याण	-2413
▁एयर	-2414
▁दवा	-2415
ation	-2416
प्ताह	-2417
बोधित	-2418
ेश्वर	-2419
▁उससे	-2420
▁थाना	-2421
▁पैदा	-2422
क्टूबर	-2423
धिकारी	-2424
▁किताब	-2425
▁प्रिय	-2426
▁प्रेर	-2427
▁विस्त	-2428
▁सफलता	-2429
▁हिंदी	-2430
▁उल्लेख	-2431
▁रोजगार	-2432
▁आतंकवाद	-2433
▁कारोबार	-2434
▁चुनावों	-2435
▁दोस्तों	-2436
▁किलोमीटर	-2437
▁भ्रष्टाचार	-2438
ut	-2439
उन	-2440
टो	-2441
▁J	-2442
201	-2443
ंतर	-2444
कात	-2445
द्द	-2446
मति	-2447
मित	-2448
र्न	-2449
लाल	-2450
्रम	-2451
▁उत	-2452
▁गौ	-2453
▁धी	-2454
क्कर	-2455
▁इन्	-2456
▁केस	-2457
▁कोच	-2458
▁जोर	-2459
▁मुह	-2460
▁लौट	-2461
▁वार	-2462
▁सिर	-2463
ूर्ति	-2464
▁2014	-2465
▁खाने	-2466
▁देकर	-2467
▁निभा	-2468
▁प्रत	-2469
▁शराब	-2470
▁शायद	-2471
▁सुना	-2472
▁कॉलेज	-2473
▁दिखाई	-2474
▁दुकान	-2475
▁दूसरा	-2476
▁प्यार	-2477
▁सत्ता	-2478
▁सामना	-2479
▁पंचायत	-2480
▁फिलहाल	-2481
▁बढ़ाने	-2482
▁बातचीत	-2483
▁स्पष्ट	-2484
▁अक्टूबर	-2485
▁उत्पादन	-2486
▁इंग्लैंड	-2487
.1	-2488
ठे	-2489
दर	-2490
फल	-2491
ंकी	-2492
कृत	-2493
केश	-2494
तलब	-2495
रीन	-2496
▁29	-2497
▁आइ	-2498
▁पॉ	-2499
▁भो	-2500
चानक	-2501
ार्व	-2502
▁अली	-2503
▁एंड	-2504
▁तभी	-2505
श्चिम	-2506
▁आखिर	-2507
▁इनके	-2508
▁तमाम	-2509
▁दर्द	-2510
▁परिष	-2511
▁पूछा	-2512
▁बनाई	-2513
▁मिनट	-2514
▁समुद	-2515
▁सीएम	-2516
▁कोहली	-2517
▁पुत्र	-2518
▁मिलता	-2519
▁सेक्स	-2520
▁अंग्रे	-2521
▁प्रचार	-2522
▁प्रसाद	-2523
▁हिन्दी	-2524
id	-2525
oo	-2526
अप	-2527
ंबा	-2528
कुर	-2529
जोर	-2530
म्प	-2531
राह	-2532
▁चर	-2533
▁दस	-2534
▁वॉ	-2535
▁हथ	-2536
न्तु	-2537
वधान	-2538
ियार	-2539
▁इंद	-2540
▁शान	-2541
▁संत	-2542
▁समी	-2543
▁हाद	-2544
तिहास	-2545
▁तोड़	-2546
▁प्रव	-2547
▁भीतर	-2548
▁मतलब	-2549
▁रैली	-2550
▁सूची	-2551
ड़ियों	-2552
▁आसानी	-2553
▁इंसान	-2554
▁इनमें	-2555
▁इलाके	-2556
▁ज्ञान	-2557
▁रहेगा	-2558
▁सालों	-2559
▁स्टार	-2560
▁इतिहास	-2561
▁गौरतलब	-2562
▁पश्चिम	-2563
▁लक्ष्य	-2564
▁नियंत्र	-2565
▁मुलाकात	-2566
▁न्यायालय	-2567
50	-2568
hi	-2569
ro	-2570
ंबे	-2571
तील	-2572
वां	-2573
ाइल	-2574
ोजन	-2575
▁27	-2576
▁ठे	-2577
▁धर	-2578
▁पल	-2579
▁रस	-2580
▁हट	-2581
जनों	-2582
जूदा	-2583
ध्या	-2584
न्‍ह	-2585
▁अन्	-2586
▁गुण	-2587
▁ज़र	-2588
▁तुल	-2589
▁नार	-2590
▁फ्ल	-2591
▁बहु	-2592
▁रोग	-2593
▁संर	-2594
▁सां	-2595
▁सुख	-2596
▁कपूर	-2597
▁गोली	-2598
▁जाति	-2599
▁पहुँ	-2600
▁बुला	-2601
▁संसद	-2602
▁समूह	-2603
▁अचानक	-2604
▁चिकित	-2605
▁जिसका	-2606
▁तुम्ह	-2607
▁मतदान	-2608
▁अतिरिक	-2609
▁कल्याण	-2610
▁मात्रा	-2611
▁मेडिकल	-2612
▁सप्ताह	-2613
▁पेट्रोल	-2614
▁स्मार्ट	-2615
▁प्रकाशित	-2616
▁ऑस्ट्रेलिया	-2617
-2	-2618
.3	-2619
मक	-2620
ज़ा	-2621
निस	-2622
र्ग	-2623
सूस	-2624
ांक	-2625
ूरो	-2626
▁कथ	-2627
▁मू	-2628
ंदगी	-2629
र्जा	-2630
वाला	-2631
्रेड	-2632
▁अने	-2633
▁उपा	-2634
▁खोल	-2635
▁चढ़	-2636
▁2016	-2637
▁अपील	-2638
▁आईपी	-2639
▁आत्म	-2640
▁आसान	-2641
▁इतनी	-2642
▁खड़े	-2643
▁पर्य	-2644
▁देखकर	-2645
▁पढ़ें	-2646
▁बच्ची	-2647
▁मात्र	-2648
▁रिलीज	-2649
▁विराट	-2650
▁क्षमता	-2651
▁मौजूदा	-2652
▁संभावना	-2653
▁सूत्रों	-2654
ve	-2655
कू	-2656
गण	-2657
ळे	-2658
ेन	-2659
उंड	-2660
ढ़ी	-2661
धरी	-2662
श्व	-2663
स्म	-2664
▁घु	-2665
क्षक	-2666
त्ती	-2667
म्बर	-2668
ियाँ	-2669
ियोग	-2670
्याज	-2671
▁199	-2672
▁आंद	-2673
▁गाय	-2674
▁जता	-2675
▁नदी	-2676
▁मोह	-2677
▁अमित	-2678
▁कड़ी	-2679
▁जम्म	-2680
▁जागर	-2681
▁टिकट	-2682
▁देती	-2683
▁पारी	-2684
▁बांग	-2685
▁बिल्	-2686
▁मौसम	-2687
▁लगाए	-2688
▁वाहन	-2689
▁संभव	-2690
▁सुनी	-2691
▁उनमें	-2692
▁जिसकी	-2693
▁बातें	-2694
▁महसूस	-2695
▁रक्षा	-2696
▁अनुमान	-2697
▁तैयारी	-2698
▁दिसंबर	-2699
▁पहुंचा	-2700
▁मुद्दे	-2701
▁वर्षीय	-2702
▁वृद्धि	-2703
▁प्रत्या	-2704
▁प्रभारी	-2705
▁प्रशिक्ष	-2706
ur	-2707
चु	-2708
शु	-2709
शे	-2710
ैर	-2711
्ब	-2712
ome	-2713
ज़र	-2714
त्‍	-2715
नात	-2716
वित	-2717
ौती	-2718
्रह	-2719
▁अथ	-2720
▁एल	-2721
▁टन	-2722
वरूप	-2723
▁आजा	-2724
▁गैर	-2725
▁छुट	-2726
▁तुर	-2727
▁प्ल	-2728
▁भवि	-2729
▁रेड	-2730
▁हित	-2731
चार्य	-2732
िल्‍म	-2733
▁करनी	-2734
▁क्रम	-2735
▁खुला	-2736
▁जवान	-2737
▁जैसा	-2738
▁बेहत	-2739
▁भूमि	-2740
▁मशीन	-2741
▁योगी	-2742
▁लगाई	-2743
▁शासन	-2744
▁स्थल	-2745
▁अनुभव	-2746
▁ग्रुप	-2747
▁बंगाल	-2748
▁बताते	-2749
▁बारिश	-2750
▁सलमान	-2751
▁प्रतिक	-2752
▁प्रत्य	-2753
▁प्रबंधन	-2754
▁संयुक्त	-2755
▁स्थानों	-2756
▁अतिरिक्त	-2757
ir	-2758
un	-2759
us	-2760
तः	-2761
पल	-2762
बत	-2763
यम	-2764
ट्स	-2765
ेड़	-2766
▁आठ	-2767
▁खि	-2768
▁गी	-2769
▁झा	-2770
▁डर	-2771
▁फॉ	-2772
▁लै	-2773
ेंशन	-2774
्यास	-2775
▁आंख	-2776
▁खुल	-2777
▁गोल	-2778
▁दोप	-2779
▁बहा	-2780
▁बिग	-2781
▁सीख	-2782
▁2015	-2783
▁कृषि	-2784
▁दलों	-2785
▁मॉडल	-2786
▁लगने	-2787
▁उन्‍ह	-2788
▁एशिया	-2789
▁कितना	-2790
▁चाहती	-2791
▁जम्मू	-2792
▁पड़ता	-2793
▁परिषद	-2794
▁भावना	-2795
▁सार्व	-2796
▁उत्पाद	-2797
▁जायेगा	-2798
▁निदेशक	-2799
▁निर्वा	-2800
▁उपस्थित	-2801
▁प्रकृति	-2802
▁राजधानी	-2803
▁रिकॉर्ड	-2804
▁सदस्यों	-2805
▁कार्यकर्ताओं	-2806
.2	-2807
एँ	-2808
गु	-2809
छा	-2810
शक	-2811
सन	-2812
▁g	-2813
▁h	-2814
ंकर	-2815
काम	-2816
कोर	-2817
टका	-2818
नाम	-2819
राम	-2820
र्श	-2821
▁35	-2822
▁चै	-2823
▁सन	-2824
प्ति	-2825
बारी	-2826
वाना	-2827
▁अभि	-2828
▁आये	-2829
▁घरे	-2830
▁बजा	-2831
▁भले	-2832
▁शुभ	-2833
▁हिस	-2834
वस्था	-2835
▁अनेक	-2836
▁आवाज	-2837
▁गाँव	-2838
▁चाहे	-2839
▁ट्रै	-2840
▁धारा	-2841
▁पटना	-2842
▁परिय	-2843
▁मानव	-2844
▁रखते	-2845
▁रखना	-2846
▁सकें	-2847
▁साथी	-2848
▁आसपास	-2849
▁ग्राह	-2850
▁तीसरे	-2851
▁वायरल	-2852
▁हिन्द	-2853
▁आंदोलन	-2854
▁पहुंची	-2855
▁प्रस्त	-2856
▁भविष्य	-2857
▁मिलेगा	-2858
▁मुद्रा	-2859
▁रहेंगे	-2860
▁संघर्ष	-2861
▁समाचार	-2862
▁बेहतरीन	-2863
▁नियंत्रण	-2864
▁पुरस्कार	-2865
▁संस्कृति	-2866
ow	-2867
णे	-2868
▁>	-2869
▁—	-2870
ber	-2871
ंधे	-2872
ट्ट	-2873
यात	-2874
▁60	-2875
▁घट	-2876
▁तह	-2877
▁पौ	-2878
▁रू	-2879
▁शै	-2880
जनिक	-2881
ानों	-2882
ार्क	-2883
्‍या	-2884
▁काल	-2885
▁किर	-2886
▁खंड	-2887
▁दोष	-2888
▁परम	-2889
▁पोल	-2890
▁भवन	-2891
▁वाय	-2892
▁साध	-2893
▁अध्य	-2894
▁आनंद	-2895
▁तलाश	-2896
▁पूर्	-2897
▁बैठे	-2898
▁मंजू	-2899
▁महान	-2900
▁माता	-2901
▁लंबे	-2902
▁समझा	-2903
▁हालत	-2904
▁होटल	-2905
▁ठाकुर	-2906
▁तारीख	-2907
▁दोपहर	-2908
▁प्रार	-2909
▁सीटों	-2910
▁जिनमें	-2911
▁समुदाय	-2912
▁स्वागत	-2913
▁निर्धार	-2914
▁फिल्मों	-2915
▁बांग्ला	-2916
▁संपत्ति	-2917
▁स्थापित	-2918
▁उद्देश्य	-2919
▁परियोजना	-2920
▁लड़कियों	-2921
▁एक्सप्रेस	-2922
▁सार्वजनिक	-2923
▁कार्यकर्ता	-2924
.4	-2925
ak	-2926
ct	-2927
दु	-2928
वै	-2929
▁E	-2930
▁o	-2931
ंदन	-2932
अलग	-2933
दूर	-2934
श्न	-2935
िक्	-2936
ेलन	-2937
▁नै	-2938
▁नो	-2939
काता	-2940
क्का	-2941
ज़ार	-2942
पुरा	-2943
लैंड	-2944
ांसी	-2945
▁उतर	-2946
▁करो	-2947
▁चरण	-2948
▁जैन	-2949
▁नाग	-2950
▁पाई	-2951
▁स्म	-2952
▁हरा	-2953
विधान	-2954
्रिया	-2955
▁अमरी	-2956
▁आवास	-2957
▁उपाय	-2958
▁कर्ज	-2959
▁खराब	-2960
▁छोटी	-2961
▁जमकर	-2962
▁जरिए	-2963
▁टाइम	-2964
▁बीते	-2965
▁मुसल	-2966
▁रहें	-2967
▁सुपर	-2968
▁आखिरी	-2969
▁चौधरी	-2970
▁देंगे	-2971
▁पूछता	-2972
▁प्रता	-2973
▁बनाकर	-2974
▁वर्मा	-2975
▁विमान	-2976
▁संदेश	-2977
▁संवाद	-2978
▁सूर्य	-2979
▁अंतररा	-2980
▁आधारित	-2981
▁इंतजार	-2982
▁फिल्‍म	-2983
▁मामलों	-2984
▁विकल्प	-2985
▁विपक्ष	-2986
▁हिस्से	-2987
▁अग्रवाल	-2988
▁अमेरिकी	-2989
▁राज्यों	-2990
▁विश्वास	-2991
▁संबोधित	-2992
▁प्रत्येक	-2993
▁स्वतंत्र	-2994
▁बांग्लादेश	-2995
.8	-2996
इड	-2997
जो	-2998
णि	-2999
थी	-3000
िग	-3001
ॉम	-3002
▁d	-3003
नाक	-3004
फ्र	-3005
बन्	-3006
बीर	-3007
र्द	-3008
ायी	-3009
▁उल	-3010
▁फे	-3011
भारत	-3012
साठी	-3013
ुनिक	-3014
्रिय	-3015
▁अके	-3016
▁किश	-3017
▁गईं	-3018
▁गीत	-3019
▁चली	-3020
▁दूध	-3021
▁पहल	-3022
▁मंच	-3023
▁शोध	-3024
▁हवा	-3025
ण्यात	-3026
▁अंदा	-3027
▁अशोक	-3028
▁पटेल	-3029
▁प्ला	-3030
▁भीड़	-3031
▁लगती	-3032
▁लाइफ	-3033
▁लेना	-3034
▁वार्	-3035
▁समान	-3036
▁सेवन	-3037
▁आतंकी	-3038
▁इच्छा	-3039
▁कक्षा	-3040
▁कमजोर	-3041
▁दर्शन	-3042
▁नेशनल	-3043
▁फाइनल	-3044
▁ब्लॉक	-3045
▁सर्वे	-3046
▁अनुमति	-3047
▁उत्तरा	-3048
▁गठबंधन	-3049
▁गेंदों	-3050
▁तत्काल	-3051
▁शब्दों	-3052
▁सीबीआई	-3053
▁प्रतिनि	-3054
ch	-3055
नम	-3056
यु	-3057
हस	-3058
▁२	-3059
dia	-3060
est	-3061
उंट	-3062
दिन	-3063
देन	-3064
नाव	-3065
पाद	-3066
बाल	-3067
ब्र	-3068
वेट	-3069
ांच	-3070
िसर	-3071
▁अक	-3072
▁सॉ	-3073
▁हज	-3074
तमान	-3075
न्दर	-3076
रावट	-3077
लंका	-3078
विंद	-3079
िलों	-3080
▁and	-3081
▁घोट	-3082
▁चयन	-3083
▁डिज	-3084
▁निर	-3085
▁सिल	-3086
त्कार	-3087
▁अवधि	-3088
▁बीएस	-3089
▁सारा	-3090
▁सीधे	-3091
▁सोना	-3092
▁सोने	-3093
▁अफ्री	-3094
▁इस्ती	-3095
▁कर्ना	-3096
▁गाड़ी	-3097
▁देखें	-3098
▁फरवरी	-3099
▁भोपाल	-3100
▁मित्र	-3101
▁रोकने	-3102
▁लड़ाई	-3103
▁सुंदर	-3104
▁हादसे	-3105
▁अखिलेश	-3106
▁इलाकों	-3107
▁परिवर्	-3108
▁रास्ते	-3109
▁वास्तव	-3110
▁शानदार	-3111
▁सक्रिय	-3112
▁स्कूलों	-3113
▁आवश्यकता	-3114
▁प्रतिबंध	-3115
▁अंतरराष्ट्रीय	-3116
.7	-3117
ंघ	-3118
कृ	-3119
मर	-3120
यक	-3121
़ा	-3122
▁l	-3123
ate	-3124
ost	-3125
त्स	-3126
नगर	-3127
नेट	-3128
म्ब	-3129
सित	-3130
्रो	-3131
▁31	-3132
▁तथ	-3133
एंगे	-3134
एसटी	-3135
क्के	-3136
क्सर	-3137
ज्ञा	-3138
पन्न	-3139
वाली	-3140
स्‍ट	-3141
्राम	-3142
▁कमल	-3143
▁खोज	-3144
▁गुल	-3145
▁गोर	-3146
▁चीज	-3147
▁छूट	-3148
▁जबर	-3149
▁टुक	-3150
▁दाम	-3151
▁बेच	-3152
▁मिट	-3153
त्तीस	-3154
▁टिप्	-3155
▁दबाव	-3156
▁दलित	-3157
▁ब्रे	-3158
▁लाइन	-3159
▁लोगो	-3160
▁सच्च	-3161
ार्मिक	-3162
▁उसमें	-3163
▁घरेलू	-3164
▁चित्र	-3165
▁न्यूज	-3166
▁पार्ट	-3167
▁लगाकर	-3168
▁शीर्ष	-3169
▁संगीत	-3170
▁हाथों	-3171
▁अध्ययन	-3172
▁गिरावट	-3173
▁पुराने	-3174
▁बिक्री	-3175
▁संबंधी	-3176
▁कोलकाता	-3177
▁धार्मिक	-3178
▁परेशानी	-3179
▁मुसलमान	-3180
▁संविधान	-3181
ap	-3182
th	-3183
ईओ	-3184
एक	-3185
ग़	-3186
जब	-3187
▁»	-3188
ंजी	-3189
ंना	-3190
परी	-3191
लेट	-3192
शोध	-3193
ायण	-3194
▁Re	-3195
▁आध	-3196
▁खी	-3197
▁शौ	-3198
गतान	-3199
वाने	-3200
वाले	-3201
सेना	-3202
ाहरण	-3203
ेक्ट	-3204
▁198	-3205
▁अका	-3206
▁अजय	-3207
▁इले	-3208
▁उड़	-3209
▁कमे	-3210
▁काट	-3211
▁जंग	-3212
▁नती	-3213
▁नेट	-3214
▁पदक	-3215
▁फंड	-3216
▁मेह	-3217
▁लिम	-3218
▁शास	-3219
▁हटा	-3220
▁हड़	-3221
ंच्या	-3222
कोर्ट	-3223
▁Home	-3224
▁अनिल	-3225
▁आयात	-3226
▁इतने	-3227
▁ईमान	-3228
▁ईरान	-3229
▁जाएं	-3230
▁थाने	-3231
▁दरवा	-3232
▁नीति	-3233
▁बोली	-3234
▁भेजा	-3235
▁मैने	-3236
▁संकट	-3237
▁हिमा	-3238
स्ट्री	-3239
▁आशंका	-3240
▁चाहता	-3241
▁चौहान	-3242
▁तुरंत	-3243
▁दाखिल	-3244
▁बचाने	-3245
▁मिलकर	-3246
▁मिलती	-3247
▁शुल्क	-3248
▁संकेत	-3249
▁हिसाब	-3250
वासियों	-3251
▁इंडियन	-3252
▁इन्हें	-3253
▁उदाहरण	-3254
▁गुप्ता	-3255
▁डिग्री	-3256
▁दिवाली	-3257
▁पीड़ित	-3258
▁पूछताछ	-3259
▁बिजनेस	-3260
▁बीमारी	-3261
▁मंजूरी	-3262
▁मिलेगी	-3263
▁शिक्षक	-3264
▁समाप्त	-3265
▁वर्तमान	-3266
▁सम्मेलन	-3267
▁श्रीलंका	-3268
▁विद्यार्थ	-3269
▁उम्मीदवारों	-3270
▁प्रतिक्रिया	-3271
.6	-3272
ab	-3273
el	-3274
खर	-3275
डि	-3276
थे	-3277
दल	-3278
रत	-3279
ौन	-3280
्न	-3281
ter	-3282
कीय	-3283
कील	-3284
फिक	-3285
मैं	-3286
मैन	-3287
रेट	-3288
ामद	-3289
▁70	-3290
▁of	-3291
▁अय	-3292
▁छि	-3293
▁जू	-3294
▁झू	-3295
▁धम	-3296
▁फा	-3297
ment	-3298
पत्र	-3299
फ्ते	-3300
र्गत	-3301
लामी	-3302
शाला	-3303
हम्म	-3304
▁धार	-3305
▁बंध	-3306
▁भरो	-3307
▁वीर	-3308
क्रमण	-3309
प्रिय	-3310
▁उतार	-3311
▁कथित	-3312
▁खाना	-3313
▁घरों	-3314
▁देवी	-3315
▁पड़ी	-3316
▁प्रण	-3317
▁रखें	-3318
▁रहना	-3319
▁लाने	-3320
▁वित्	-3321
▁वेतन	-3322
▁समझौ	-3323
▁सिटी	-3324
▁हवाई	-3325
▁हाउस	-3326
प्रदेश	-3327
▁अंजाम	-3328
▁जीतने	-3329
▁टैक्स	-3330
▁फायदे	-3331
▁मानना	-3332
▁मालिक	-3333
▁रहेगी	-3334
▁विधाय	-3335
▁शिकार	-3336
▁संभाल	-3337
▁स्टूड	-3338
▁हफ्ते	-3339
▁हिंसा	-3340
▁जिंदगी	-3341
▁प्रसार	-3342
▁भुगतान	-3343
▁मानसिक	-3344
▁वर्षों	-3345
▁स्वर्ण	-3346
▁हथियार	-3347
कारात्मक	-3348
▁कर्नाटक	-3349
▁प्रस्तुत	-3350
▁राज्यपाल	-3351
.0	-3352
__	-3353
गज	-3354
गन	-3355
चक	-3356
पत	-3357
भू	-3358
यल	-3359
ीर	-3360
▁v	-3361
तीश	-3362
पान	-3363
पूर	-3364
मती	-3365
माश	-3366
वेद	-3367
शाह	-3368
श्म	-3369
िरा	-3370
ुरा	-3371
▁St	-3372
▁तू	-3373
▁दम	-3374
▁पव	-3375
▁पृ	-3376
▁फल	-3377
▁बढ	-3378
▁बू	-3379
▁सत	-3380
बन्ध	-3381
शकों	-3382
स्सी	-3383
हसास	-3384
ार्ज	-3385
िमला	-3386
्याम	-3387
▁आशा	-3388
▁गुर	-3389
▁घूम	-3390
▁चंद	-3391
▁पुन	-3392
▁मंज	-3393
▁मास	-3394
▁लूट	-3395
▁सका	-3396
स्कृत	-3397
िवर्स	-3398
▁2012	-3399
▁अथवा	-3400
▁आपने	-3401
▁एससी	-3402
▁खाते	-3403
▁चलता	-3404
▁ताजा	-3405
▁दुष्	-3406
▁धीरे	-3407
▁नज़र	-3408
▁पकड़	-3409
▁पालन	-3410
▁बेटा	-3411
▁मोटर	-3412
▁राजी	-3413
▁लालू	-3414
▁लिहा	-3415
▁लेता	-3416
▁वर्ण	-3417
▁विभा	-3418
▁अक्सर	-3419
▁उठाया	-3420
▁कमेटी	-3421
▁खेलने	-3422
▁चंद्र	-3423
▁जुड़ी	-3424
▁तुलना	-3425
▁तैनात	-3426
▁नोटिस	-3427
▁प्रती	-3428
▁प्राइ	-3429
▁प्रेस	-3430
▁फायदा	-3431
▁बढ़ने	-3432
▁लड़के	-3433
▁स्टेट	-3434
▁गतिविध	-3435
▁छोड़कर	-3436
▁संपर्क	-3437
▁समाधान	-3438
व्यवस्था	-3439
▁परिजनों	-3440
▁मार्केट	-3441
▁समीक्षा	-3442
▁स्थापना	-3443
▁स्वीकार	-3444
▁विशेषज्ञ	-3445
▁शिक्षकों	-3446
▁सुरक्षित	-3447
▁ग्रामीणों	-3448
▁जिन्होंने	-3449
▁निर्धारित	-3450
▁प्रत्याशी	-3451
जत	-3452
पद	-3453
लम	-3454
हो	-3455
har	-3456
ख्स	-3457
ग्ध	-3458
वीन	-3459
▁घे	-3460
▁चम	-3461
▁लु	-3462
▁शर	-3463
वानी	-3464
सूरत	-3465
िटेड	-3466
िवार	-3467
्यून	-3468
▁अल्	-3469
▁आउट	-3470
▁आलो	-3471
▁खेत	-3472
▁डिप	-3473
▁पंड	-3474
▁पहन	-3475
▁फिट	-3476
▁फूल	-3477
▁बहन	-3478
▁मनी	-3479
▁रखे	-3480
▁रिज	-3481
▁लोन	-3482
▁सन्	-3483
कारों	-3484
पूर्व	-3485
हम्मद	-3486
▁अत्य	-3487
▁अर्ज	-3488
▁आकर्	-3489
▁इनका	-3490
▁इनकी	-3491
▁उसको	-3492
▁एसपी	-3493
▁कहने	-3494
▁गरीब	-3495
▁चीनी	-3496
▁ज्यो	-3497
▁ताकत	-3498
▁त्रि	-3499
▁भोजन	-3500
▁रणनी	-3501
▁लागत	-3502
▁सत्र	-3503
▁साहब	-3504
▁कितनी	-3505
▁कृष्ण	-3506
▁डायरे	-3507
▁पेंशन	-3508
▁बदमाश	-3509
▁बीमार	-3510
▁ब्रिट	-3511
▁मुक्त	-3512
▁सहायक	-3513
▁हालात	-3514
▁हिंदू	-3515
रेन्द्र	-3516
▁आधुनिक	-3517
▁छत्तीस	-3518
▁नागरिक	-3519
▁प्रमाण	-3520
▁रिश्ते	-3521
▁विकसित	-3522
▁सहायता	-3523
▁स्वच्छ	-3524
▁हिमाचल	-3525
▁अभिनेता	-3526
▁जिन्हें	-3527
▁वैज्ञान	-3528
▁एक्ट्रेस	-3529
▁ज्यादातर	-3530
▁परिवर्तन	-3531
▁प्रवक्ता	-3532
▁प्रियंका	-3533
▁विद्यालय	-3534
▁उपाध्यक्ष	-3535
99	-3536
eb	-3537
ep	-3538
ex	-3539
दो	-3540
बो	-3541
ुण	-3542
्प	-3543
ंचा	-3544
गंज	-3545
जनक	-3546
जित	-3547
तें	-3548
दीन	-3549
दुल	-3550
लील	-3551
वती	-3552
वली	-3553
साई	-3554
हीन	-3555
िनी	-3556
‍या	-3557
▁(1	-3558
▁34	-3559
▁PM	-3560
▁भि	-3561
▁मछ	-3562
▁रम	-3563
ंचाई	-3564
वारी	-3565
▁अंब	-3566
▁अमर	-3567
▁ऑफर	-3568
▁काउ	-3569
▁गेम	-3570
▁गैस	-3571
▁जाम	-3572
▁जाह	-3573
▁मनो	-3574
▁रिल	-3575
श्वास	-3576
स्ट्र	-3577
▁अनुर	-3578
▁कमाई	-3579
▁खुशी	-3580
▁खेले	-3581
▁छोटा	-3582
▁जिल्	-3583
▁दीपक	-3584
▁बांध	-3585
▁मंडल	-3586
▁मंडी	-3587
▁राजा	-3588
ेन्द्र	-3589
▁अध्या	-3590
▁करियर	-3591
▁कैमरे	-3592
▁टक्कर	-3593
▁ड्राइ	-3594
▁पोर्ट	-3595
▁बताने	-3596
▁बरामद	-3597
▁मांगी	-3598
▁माहौल	-3599
▁मूल्य	-3600
▁विशाल	-3601
त्रियों	-3602
धिकारिक	-3603
▁किरदार	-3604
▁कोरिया	-3605
▁चुनावी	-3606
▁पर्यटन	-3607
▁पुरानी	-3608
▁चिकित्स	-3609
▁निश्चित	-3610
▁महात्मा	-3611
▁महिलाएं	-3612
▁वित्तीय	-3613
▁आरोपियों	-3614
▁प्रावधान	-3615
▁बल्लेबाज	-3616
▁लोकप्रिय	-3617
▁विधायकों	-3618
▁समस्याओं	-3619
▁सम्मानित	-3620
▁हाईकोर्ट	-3621
▁उन्‍होंने	-3622
▁छत्तीसगढ़	-3623
▁जिम्मेदार	-3624
▁प्रशिक्षण	-3625
▁अर्थव्यवस्था	-3626
-0	-3627
ag	-3628
कद	-3629
डर	-3630
डु	-3631
बु	-3632
यह	-3633
सच	-3634
सो	-3635
▁)	-3636
-20	-3637
com	-3638
ंतु	-3639
कीन	-3640
ख्त	-3641
गाह	-3642
जीव	-3643
धीश	-3644
फान	-3645
राग	-3646
लोड	-3647
वेज	-3648
शिप	-3649
▁नम	-3650
कल्प	-3651
गांव	-3652
टीवी	-3653
पुरी	-3654
माने	-3655
श्वर	-3656
सीसी	-3657
स्तर	-3658
▁अवै	-3659
▁कब्	-3660
▁किन	-3661
▁कॉल	-3662
▁खार	-3663
▁चोट	-3664
▁फेस	-3665
▁भड़	-3666
▁भूल	-3667
▁रखी	-3668
▁रिट	-3669
▁लंड	-3670
▁शही	-3671
▁सपा	-3672
राबाद	-3673
िनियम	-3674
िवारी	-3675
▁आराम	-3676
▁उत्स	-3677
▁कठिन	-3678
▁चलने	-3679
▁जबरद	-3680
▁जोड़	-3681
▁धोनी	-3682
▁बुरा	-3683
▁बोले	-3684
▁रचना	-3685
▁लॉन्	-3686
▁वकील	-3687
▁शख्स	-3688
▁सत्य	-3689
▁सब्स	-3690
▁सुनि	-3691
▁होनी	-3692
▁अनुसू	-3693
▁जल्दी	-3694
▁निर्म	-3695
▁प्रथम	-3696
▁प्रसि	-3697
▁बनाना	-3698
▁बातों	-3699
▁मजदूर	-3700
▁राजीव	-3701
▁शिविर	-3702
▁सुनील	-3703
▁आदित्य	-3704
▁जागरूक	-3705
▁टुकड़े	-3706
▁डिजिटल	-3707
▁पड़ेगा	-3708
▁मृत्यु	-3709
▁युवाओं	-3710
▁श्रेणी	-3711
▁सकेंगे	-3712
▁स्वस्थ	-3713
▁पहुंचने	-3714
▁लिमिटेड	-3715
▁विस्तार	-3716
▁ग्राहकों	-3717
▁पर्याप्त	-3718
▁प्रतियोग	-3719
▁अध्यक्षता	-3720
,,	-3721
se	-3722
um	-3723
ख़	-3724
ess	-3725
ore	-3726
ंजन	-3727
गीय	-3728
ज़ी	-3729
टरी	-3730
नान	-3731
नेश	-3732
बुक	-3733
लाब	-3734
ल्ल	-3735
सीम	-3736
ेंज	-3737
ेतु	-3738
ोषण	-3739
▁1,	-3740
▁ग्	-3741
▁टू	-3742
▁नज	-3743
▁फो	-3744
▁व्	-3745
डीएम	-3746
न्नई	-3747
न्हा	-3748
बादी	-3749
मतों	-3750
स्टी	-3751
स्तक	-3752
िल्म	-3753
ैनिक	-3754
▁अंड	-3755
▁गढ़	-3756
▁गले	-3757
▁चाय	-3758
▁टाइ	-3759
▁डेट	-3760
▁ब्य	-3761
▁मनु	-3762
▁महि	-3763
▁माइ	-3764
▁रैं	-3765
▁हनु	-3766
▁हरी	-3767
क्ट्र	-3768
ेंट्स	-3769
▁अगली	-3770
▁अवैध	-3771
▁अहमद	-3772
▁आहेत	-3773
▁दिये	-3774
▁निरा	-3775
▁प्रि	-3776
▁प्रौ	-3777
▁भाषण	-3778
▁मारे	-3779
▁मेहन	-3780
▁लंदन	-3781
▁सफेद	-3782
▁सवार	-3783
जरीवाल	-3784
पणियां	-3785
▁अक्षय	-3786
▁आत्मा	-3787
▁कविता	-3788
▁जानने	-3789
▁जिलों	-3790
▁तकनीक	-3791
▁तीनों	-3792
▁थोड़ी	-3793
▁पढ़ाई	-3794
▁पहुँच	-3795
▁प्रमो	-3796
▁फार्म	-3797
▁मिश्र	-3798
▁लाखों	-3799
▁लिस्ट	-3800
▁वापसी	-3801
▁वितरण	-3802
▁वेस्ट	-3803
▁शिमला	-3804
▁संपाद	-3805
▁सर्वा	-3806
▁स्कोर	-3807
▁छात्रा	-3808
▁दीपिका	-3809
▁निर्मा	-3810
▁निशाना	-3811
▁प्रश्न	-3812
▁वर्ल्ड	-3813
▁वार्ता	-3814
▁श्रद्ध	-3815
▁अफ्रीका	-3816
▁गेंदबाज	-3817
▁पीड़िता	-3818
▁बिल्कुल	-3819
▁योजनाओं	-3820
▁आधिकारिक	-3821
▁केजरीवाल	-3822
▁गिरफ्तारी	-3823
▁स्मार्टफोन	-3824
ख्	-3825
दय	-3826
पि	-3827
हि	-3828
art	-3829
log	-3830
ंटर	-3831
दीय	-3832
दुर	-3833
देह	-3834
पात	-3835
लोग	-3836
वाय	-3837
हूर	-3838
▁45	-3839
▁ऋण	-3840
▁गू	-3841
▁बौ	-3842
▁मध	-3843
दाता	-3844
बंदी	-3845
बद्ध	-3846
माही	-3847
रानी	-3848
िक्र	-3849
▁अफग	-3850
▁उधर	-3851
▁ऑटो	-3852
▁कां	-3853
▁चुप	-3854
▁चौक	-3855
▁पदा	-3856
▁बरा	-3857
▁बाइ	-3858
▁मचा	-3859
▁मदर	-3860
▁मुठ	-3861
▁रिस	-3862
▁रूस	-3863
▁सब्	-3864
▁2013	-3865
▁कॉन्	-3866
▁खाली	-3867
▁खुले	-3868
▁गुजर	-3869
▁टेली	-3870
▁ट्रक	-3871
▁तिथि	-3872
▁दायर	-3873
▁नारे	-3874
▁पीने	-3875
▁प्री	-3876
▁बाढ़	-3877
▁वनडे	-3878
▁सोचा	-3879
▁हुये	-3880
▁हेतु	-3881
दराबाद	-3882
स्त्री	-3883
▁India	-3884
▁खारिज	-3885
▁चलाने	-3886
▁जुड़ा	-3887
▁दायरे	-3888
▁नेपाल	-3889
▁प्लेट	-3890
▁बढ़कर	-3891
▁मानते	-3892
▁मुकेश	-3893
▁रस्सी	-3894
▁संशोध	-3895
तिहासिक	-3896
▁अकाउंट	-3897
▁आलोचना	-3898
▁कीमतों	-3899
▁दृष्टि	-3900
▁बैंकों	-3901
▁ब्रांड	-3902
▁मिट्टी	-3903
▁रिजर्व	-3904
▁विश्ले	-3905
▁संग्रह	-3906
▁हनुमान	-3907
द्योगिकी	-3908
▁इस्तीफा	-3909
▁व्यवसाय	-3910
▁संरक्षण	-3911
▁स्क्रीन	-3912
▁निवेशकों	-3913
▁परमेश्वर	-3914
▁यूनिवर्स	-3915
▁राजेंद्र	-3916
▁सुनिश्चित	-3917
▁जिम्मेदारी	-3918
-3	-3919
op	-3920
ra	-3921
चि	-3922
थर	-3923
रक	-3924
हल	-3925
’,	-3926
han	-3927
कंप	-3928
टके	-3929
दास	-3930
दिक	-3931
बूर	-3932
रेज	-3933
लान	-3934
लेस	-3935
वंत	-3936
वाज	-3937
ांश	-3938
▁(2	-3939
▁(3	-3940
▁UP	-3941
▁to	-3942
▁डो	-3943
▁धा	-3944
▁फू	-3945
▁हद	-3946
ंख्य	-3947
डब्ल	-3948
त्रि	-3949
नियर	-3950
न्या	-3951
मुळे	-3952
मोहन	-3953
िनेट	-3954
▁197	-3955
▁500	-3956
▁आकर	-3957
▁इरा	-3958
▁गेट	-3959
▁घाट	-3960
▁झार	-3961
▁दान	-3962
▁दुख	-3963
▁मिस	-3964
▁मुझ	-3965
▁यौन	-3966
▁वाक	-3967
▁विल	-3968
▁शतक	-3969
▁सदन	-3970
दारों	-3971
दियों	-3972
ेक्षा	-3973
▁उचित	-3974
▁कमरे	-3975
▁काला	-3976
▁केरल	-3977
▁खतरा	-3978
▁गलती	-3979
▁गाने	-3980
▁चेयर	-3981
▁चोरी	-3982
▁डीजल	-3983
▁दिलच	-3984
▁देगा	-3985
▁नष्ट	-3986
▁निष्	-3987
▁बताई	-3988
▁ममता	-3989
▁मिशन	-3990
▁मुंह	-3991
▁मुठभ	-3992
▁लिखी	-3993
▁संस्	-3994
▁सचिन	-3995
▁सपना	-3996
▁सफाई	-3997
▁सौंप	-3998
▁इंदौर	-3999
▁उठाने	-4000
▁गाँधी	-4001
▁ग्वाल	-4002
▁जितना	-4003
▁जिनके	-4004
▁परमाण	-4005
▁प्रभा	-4006
▁फर्जी	-4007
▁ब्याज	-4008
▁मशहूर	-4009
▁मिलते	-4010
▁मेट्र	-4011
▁मैचों	-4012
▁लगाते	-4013
▁शहरों	-4014
▁सकेगा	-4015
▁सीमित	-4016
स्कृतिक	-4017
▁आरक्षण	-4018
▁खुलासा	-4019
▁घोटाले	-4020
▁चेन्नई	-4021
▁ज्योति	-4022
▁ट्रांस	-4023
▁तिवारी	-4024
▁दिखाया	-4025
▁पाएंगे	-4026
▁प्रताप	-4027
▁महीनों	-4028
▁विज्ञा	-4029
▁सेक्टर	-4030
▁पुरुषों	-4031
▁प्रदर्श	-4032
▁प्रारंभ	-4033
▁मोहम्मद	-4034
▁व्यवहार	-4035
▁अंग्रेजी	-4036
▁निर्वाचन	-4037
▁हैदराबाद	-4038
▁उल्लेखनीय	-4039
▁खिलाड़ियों	-4040
▁सांस्कृतिक	-4041
,1	-4042
ig	-4043
up	-4044
कस	-4045
डू	-4046
नै	-4047
पं	-4048
पक	-4049
ॉग	-4050
ust	-4051
ंचे	-4052
ऊदी	-4053
चंद	-4054
च्‍	-4055
ढ़े	-4056
दाय	-4057
दूस	-4058
न्त	-4059
पेट	-4060
प्ट	-4061
मेल	-4062
लीन	-4063
लोक	-4064
ल्‍	-4065
ॉजी	-4066
▁80	-4067
▁st	-4068
▁गे	-4069
▁चू	-4070
▁टो	-4071
▁तट	-4072
▁नग	-4073
▁वर	-4074
▁शक	-4075
क्षम	-4076
घाटन	-4077
डिया	-4078
ध्ये	-4079
भाषा	-4080
मंडल	-4081
मार्	-4082
व्यू	-4083
िताभ	-4084
▁अद्	-4085
▁अब्	-4086
▁उन्	-4087
▁एका	-4088
▁औसत	-4089
▁कौर	-4090
▁चां	-4091
▁चिट	-4092
▁छाप	-4093
▁टूट	-4094
▁पहा	-4095
▁बाय	-4096
▁मरी	-4097
▁मुआ	-4098
▁मेल	-4099
▁रुक	-4100
▁रॉय	-4101
▁रोम	-4102
▁शूट	-4103
▁समु	-4104
▁सोन	-4105
▁हां	-4106
कड़ों	-4107
वाड़ा	-4108
▁अभिय	-4109
▁एनडी	-4110
▁कहान	-4111
▁काले	-4112
▁कुर्	-4113
▁चालक	-4114
▁ठेके	-4115
▁निरी	-4116
▁मकान	-4117
▁रनों	-4118
▁वस्त	-4119
▁शहीद	-4120
▁श्रृ	-4121
▁संदि	-4122
▁संसा	-4123
▁साइट	-4124
▁सागर	-4125
स्थिति	-4126
▁अकेले	-4127
▁अक्षर	-4128
▁अतिथि	-4129
▁आंखों	-4130
▁आजादी	-4131
▁आबादी	-4132
▁उपचार	-4133
▁गार्ड	-4134
▁ग्रहण	-4135
▁जाहिर	-4136
▁जिक्र	-4137
▁ट्रंप	-4138
▁थोड़ा	-4139
▁दैनिक	-4140
▁परिसर	-4141
▁प्लान	-4142
▁मजबूर	-4143
▁मेहनत	-4144
▁योग्य	-4145
▁लक्षण	-4146
▁लड़ने	-4147
▁लॉन्च	-4148
▁सीटें	-4149
▁होंगी	-4150
▁चुनौती	-4151
▁जीएसटी	-4152
▁तिमाही	-4153
▁नेटवर्	-4154
▁परन्तु	-4155
▁परमाणु	-4156
▁पवित्र	-4157
▁पूर्वी	-4158
▁बढ़ावा	-4159
▁मिश्रा	-4160
▁मोर्चा	-4161
▁वाहनों	-4162
▁संसदीय	-4163
▁सड़कों	-4164
कर्मियों	-4165
ानिस्तान	-4166
▁उत्पन्न	-4167
▁खूबसूरत	-4168
▁शास्त्र	-4169
▁शुरुआती	-4170
▁सामग्री	-4171
▁अनुसूचित	-4172
▁इलेक्ट्र	-4173
▁ग्वालियर	-4174
▁पर्यावरण	-4175
▁मुख्यालय	-4176
्राष्ट्रीय	-4177
▁डायरेक्टर	-4178
▁गतिविधियों	-4179
▁प्रतियोगिता	-4180
▁प्रौद्योगिकी	-4181
ST	-4182
ul	-4183
उथ	-4184
खल	-4185
डो	-4186
ड्	-4187
िफ	-4188
।”	-4189
▁ं	-4190
ast	-4191
ear	-4192
ers	-4193
ite	-4194
काई	-4195
क्न	-4196
गोल	-4197
टीन	-4198
रुख	-4199
लाम	-4200
श्त	-4201
सिन	-4202
सैन	-4203
हाई	-4204
्मण	-4205
्मा	-4206
▁th	-4207
▁यश	-4208
▁शह	-4209
किया	-4210
क्षर	-4211
क्षी	-4212
घटना	-4213
डिंग	-4214
ड्डा	-4215
वर्ष	-4216
सचिव	-4217
सिंह	-4218
स्कर	-4219
स्वी	-4220
▁for	-4221
▁अना	-4222
▁अवि	-4223
▁अश्	-4224
▁असम	-4225
▁खिल	-4226
▁ग्ल	-4227
▁टॉप	-4228
▁नित	-4229
▁पैर	-4230
▁बें	-4231
▁रजि	-4232
▁सौं	-4233
दाबाद	-4234
दूसरे	-4235
फ्तार	-4236
बिनेट	-4237
रुद्ध	-4238
ूर्ना	-4239
्यूटर	-4240
▁अल्प	-4241
▁असली	-4242
▁करार	-4243
▁कहती	-4244
▁क्यू	-4245
▁गुणव	-4246
▁गूगल	-4247
▁ग्रे	-4248
▁चौके	-4249
▁जरुर	-4250
▁जोशी	-4251
▁ठहरा	-4252
▁डिजा	-4253
▁तत्व	-4254
▁तथ्य	-4255
▁तमिल	-4256
▁तर्क	-4257
▁दावे	-4258
▁धमकी	-4259
▁नारा	-4260
▁फरार	-4261
▁फैला	-4262
▁बदले	-4263
▁भट्ट	-4264
▁माने	-4265
▁माया	-4266
▁मृतक	-4267
▁यकीन	-4268
▁यानि	-4269
▁रद्द	-4270
▁रावत	-4271
▁लगते	-4272
▁लाया	-4273
▁लिंग	-4274
▁वायु	-4275
▁संगठ	-4276
▁सऊदी	-4277
▁स्टी	-4278
्रेडिट	-4279
▁अखबार	-4280
▁आमतौर	-4281
▁कमांड	-4282
▁कैमरा	-4283
▁खबरों	-4284
▁खेलों	-4285
▁गोल्ड	-4286
▁जरिये	-4287
▁जिसने	-4288
▁तरीका	-4289
▁दिनेश	-4290
▁पंडित	-4291
▁पाठ्य	-4292
▁प्रोज	-4293
▁मनाया	-4294
▁मारने	-4295
▁विवाह	-4296
▁व्यंग	-4297
▁संसार	-4298
▁सक्षम	-4299
▁समझने	-4300
▁सहारा	-4301
▁सेंटर	-4302
▁हिंदु	-4303
▁अमिताभ	-4304
▁आयुक्त	-4305
▁गांवों	-4306
▁टूर्ना	-4307
▁तकनीकी	-4308
▁न्यूज़	-4309
▁प्रबंध	-4310
▁फ़िल्म	-4311
▁महाराज	-4312
▁मुद्दा	-4313
▁रास्ता	-4314
▁विरोधी	-4315
▁संचालन	-4316
▁स्त्री	-4317
▁स्मृति	-4318
▁स्वरूप	-4319
▁अंतर्गत	-4320
▁उद्घाटन	-4321
▁केन्द्र	-4322
▁क्रेडिट	-4323
▁ज़्यादा	-4324
▁नियुक्त	-4325
▁परीक्षण	-4326
▁प्रतिभा	-4327
▁प्रेरित	-4328
▁मुठभेड़	-4329
▁रिकार्ड	-4330
▁विरुद्ध	-4331
▁संदिग्ध	-4332
▁सैनिकों	-4333
▁ऐतिहासिक	-4334
▁नरेन्द्र	-4335
▁नागरिकों	-4336
▁प्रतिनिध	-4337
▁प्राइवेट	-4338
▁उत्तराखंड	-4339
▁पत्रकारों	-4340
▁वैज्ञानिक	-4341
▁टूर्नामेंट	-4342
▁मध्यप्रदेश	-4343
▁यूनिवर्सिटी	-4344
os	-4345
ov	-4346
pp	-4347
ya	-4348
ंश	-4349
ळी	-4350
वश	-4351
षक	-4352
ाफ	-4353
ेय	-4354
ैट	-4355
ोश	-4356
।'	-4357
ard	-4358
gle	-4359
ive	-4360
ंबी	-4361
पणी	-4362
माग	-4363
यां	-4364
रीय	-4365
रोज	-4366
र्त	-4367
वीय	-4368
स्य	-4369
िके	-4370
ूनी	-4371
ैंस	-4372
्वि	-4373
▁36	-4374
▁37	-4375
▁75	-4376
▁90	-4377
▁कू	-4378
▁तृ	-4379
▁नॉ	-4380
▁फं	-4381
▁री	-4382
▁लल	-4383
ंखला	-4384
ंडीज	-4385
गणना	-4386
जर्स	-4387
दर्भ	-4388
धारी	-4389
बारा	-4390
बीसी	-4391
र्टी	-4392
वार्	-4393
स्टम	-4394
ोतरी	-4395
्यात	-4396
▁आंध	-4397
▁आंस	-4398
▁उदय	-4399
▁उपभ	-4400
▁कंट	-4401
▁कथा	-4402
▁कुर	-4403
▁गोद	-4404
▁चोर	-4405
▁जला	-4406
▁तार	-4407
▁नशे	-4408
▁फुट	-4409
▁बहस	-4410
▁बाग	-4411
▁महज	-4412
▁रमन	-4413
▁रित	-4414
▁लेन	-4415
▁विज	-4416
▁विद	-4417
▁सिक	-4418
▁सिम	-4419
▁सेल	-4420
▁हरि	-4421
▁होम	-4422
ember	-4423
कुमार	-4424
स्टिक	-4425
्यवाद	-4426
▁अफसर	-4427
▁अभिन	-4428
▁अस्त	-4429
▁आजकल	-4430
▁इमाम	-4431
▁कराई	-4432
▁कराए	-4433
▁गुना	-4434
▁गोरख	-4435
▁जनपद	-4436
▁जनरल	-4437
▁जियो	-4438
▁डाला	-4439
▁दौरे	-4440
▁धरती	-4441
▁नामक	-4442
▁निपट	-4443
▁पर्स	-4444
▁फायर	-4445
▁बचाव	-4446
▁बतौर	-4447
▁ब्रा	-4448
▁भागी	-4449
▁मोहन	-4450
▁लापर	-4451
▁लिंक	-4452
▁लीटर	-4453
▁वहाँ	-4454
▁शर्म	-4455
▁श्रम	-4456
▁सिने	-4457
▁सीजन	-4458
▁सुझा	-4459
▁सोनी	-4460
▁हस्त	-4461
▁आवाज़	-4462
▁कपड़े	-4463
▁जोड़ी	-4464
▁दस्ता	-4465
▁देखना	-4466
▁नीतीश	-4467
▁पूंजी	-4468
▁बच्चन	-4469
▁बदलने	-4470
▁बनाते	-4471
▁भरोसा	-4472
▁मालूम	-4473
▁लिखित	-4474
▁श्याम	-4475
▁सर्वो	-4476
▁हटाने	-4477
▁हल्का	-4478
▁हस्ता	-4479
डब्ल्यू	-4480
▁अरविंद	-4481
▁आचार्य	-4482
▁आरोपों	-4483
▁इसीलिए	-4484
▁खरीदने	-4485
▁छुट्टी	-4486
▁टैक्सी	-4487
▁नामांक	-4488
▁नियमित	-4489
▁पुष्टि	-4490
▁मिलाकर	-4491
▁मुलायम	-4492
▁शाहरुख	-4493
▁हजारों	-4494
▁हिन्दू	-4495
▁आदिवासी	-4496
▁चेयरमैन	-4497
▁प्रेरणा	-4498
▁मान्यता	-4499
▁विभागों	-4500
▁सम्बन्ध	-4501
▁तस्वीरें	-4502
▁दुर्घटना	-4503
▁प्रसिद्ध	-4504
▁प्राथमिक	-4505
▁लोकतंत्र	-4506
▁विज्ञापन	-4507
▁आदित्यनाथ	-4508
▁कार्यवाही	-4509
▁प्रोजेक्ट	-4510
▁मंत्रियों	-4511
.'	-4512
40	-4513
41	-4514
42	-4515
:1	-4516
:2	-4517
od	-4518
आप	-4519
कै	-4520
चय	-4521
पथ	-4522
वो	-4523
सप	-4524
ेप	-4525
ain	-4526
ali	-4527
खों	-4528
ग्न	-4529
चीन	-4530
डिय	-4531
डि़	-4532
णार	-4533
पने	-4534
पों	-4535
प्‍	-4536
फना	-4537
भुत	-4538
म्भ	-4539
वनी	-4540
ष्‍	-4541
संघ	-4542
साह	-4543
सीय	-4544
स्फ	-4545
ाइन	-4546
▁32	-4547
▁33	-4548
▁on	-4549
▁अज	-4550
▁इर	-4551
▁गत	-4552
▁दब	-4553
▁दह	-4554
▁सभ	-4555
इयों	-4556
टिप्	-4557
डियो	-4558
दूषण	-4559
प्रे	-4560
राया	-4561
विंग	-4562
वेयर	-4563
शाली	-4564
श्री	-4565
हारी	-4566
िष्ट	-4567
िस्ट	-4568
्वचा	-4569
▁193	-4570
▁300	-4571
▁com	-4572
▁the	-4573
▁अमे	-4574
▁आणि	-4575
▁आदत	-4576
▁कले	-4577
▁छवि	-4578
▁ताल	-4579
▁तिर	-4580
▁तिल	-4581
▁दशक	-4582
▁नये	-4583
▁नीर	-4584
▁बुल	-4585
▁मेक	-4586
▁यूर	-4587
▁रकम	-4588
▁राव	-4589
▁रुख	-4590
▁वजन	-4591
▁विन	-4592
▁व्र	-4593
ading	-4594
कर्ता	-4595
गरानी	-4596
ग्राम	-4597
बाजों	-4598
वितीय	-4599
हत्या	-4600
हाबाद	-4601
▁उक्त	-4602
▁कम्प	-4603
▁कौशल	-4604
▁गुड़	-4605
▁गुस्	-4606
▁चलती	-4607
▁जर्म	-4608
▁जस्ट	-4609
▁जाया	-4610
▁तहसी	-4611
▁दिग्	-4612
▁दोषी	-4613
▁निम्	-4614
▁पढ़े	-4615
▁पब्ल	-4616
▁पाते	-4617
▁पावर	-4618
▁प्रस	-4619
▁प्रे	-4620
▁बचपन	-4621
▁बजाय	-4622
▁बनकर	-4623
▁बाइक	-4624
▁मुकद	-4625
▁यूरो	-4626
▁रानी	-4627
▁रोहत	-4628
▁लंबा	-4629
▁शंकर	-4630
▁शाखा	-4631
▁समर्	-4632
▁साउथ	-4633
▁सिंध	-4634
▁सिलस	-4635
▁सीईओ	-4636
▁सेहत	-4637
▁हार्	-4638
दाताओं	-4639
ार्‍या	-4640
▁आगामी	-4641
▁कामया	-4642
▁कितने	-4643
▁किशोर	-4644
▁चेहरे	-4645
▁ड्रेस	-4646
▁त्वचा	-4647
▁दुश्म	-4648
▁पांडे	-4649
▁प्रभु	-4650
▁फांसी	-4651
▁फैक्ट	-4652
▁बनाये	-4653
▁बौद्ध	-4654
▁भारती	-4655
▁रोहित	-4656
▁संचार	-4657
▁संतोष	-4658
▁सुझाव	-4659
▁सैन्य	-4660
▁स्ट्र	-4661
कारियों	-4662
▁आईपीएल	-4663
▁कुलदीप	-4664
▁जवानों	-4665
▁झारखंड	-4666
▁डिजाइन	-4667
▁नियमों	-4668
▁पुस्तक	-4669
▁व्यापक	-4670
▁श्रीवा	-4671
▁सर्जरी	-4672
▁सोनिया	-4673
▁अक्षरम्	-4674
▁अधिनियम	-4675
▁इंटरनेट	-4676
▁जबरदस्त	-4677
▁टिप्पणी	-4678
▁दिलचस्प	-4679
▁धन्यवाद	-4680
▁निगरानी	-4681
▁पत्रिका	-4682
▁प्रणाली	-4683
▁विस्तृत	-4684
▁व्यंग्य	-4685
▁संक्रमण	-4686
▁संस्करण	-4687
▁सैकड़ों	-4688
▁कंपनियां	-4689
▁गुणवत्ता	-4690
▁ट्रेनिंग	-4691
▁तत्कालीन	-4692
▁माध्यमिक	-4693
▁लापरवाही	-4694
टिप्पणियां	-4695
▁न्यायाधीश	-4696
▁सिद्धार्थ	-4697
▁प्राथमिकता	-4698
▁अफगानिस्तान	-4699
SC	-4700
घर	-4701
छी	-4702
डण	-4703
▁’	-4704
ind	-4705
ंवर	-4706
कटर	-4707
कूल	-4708
तरे	-4709
निक	-4710
पीट	-4711
म्म	-4712
विक	-4713
विल	-4714
संत	-4715
सेस	-4716
िडी	-4717
ूली	-4718
ोगे	-4719
ोने	-4720
्ठी	-4721
्सा	-4722
▁46	-4723
▁आँ	-4724
▁टॉ	-4725
▁मथ	-4726
एसपी	-4727
करार	-4728
काने	-4729
क्या	-4730
जिये	-4731
तरीय	-4732
दायक	-4733
धारा	-4734
पिंग	-4735
पिता	-4736
फिया	-4737
फेसर	-4738
रीबन	-4739
र्डर	-4740
ुसार	-4741
ेंगी	-4742
ॉनिक	-4743
ोसिए	-4744
्रेट	-4745
्लास	-4746
▁आईए	-4747
▁कने	-4748
▁किम	-4749
▁कोड	-4750
▁खतर	-4751
▁गठन	-4752
▁चोप	-4753
▁जाओ	-4754
▁जेट	-4755
▁डॉट	-4756
▁ताप	-4757
▁निच	-4758
▁पटा	-4759
▁पीठ	-4760
▁फर्	-4761
▁यूं	-4762
▁रोल	-4763
▁लीग	-4764
▁विट	-4765
oogle	-4766
मार्ग	-4767
ोग्रा	-4768
▁आएगा	-4769
▁एचडी	-4770
▁ऐलान	-4771
▁कहां	-4772
▁कैंप	-4773
▁खेला	-4774
▁गहरा	-4775
▁जनजा	-4776
▁जब्त	-4777
▁ट्वि	-4778
▁डाले	-4779
▁नक्स	-4780
▁नवीन	-4781
▁निकट	-4782
▁पढ़ा	-4783
▁पेपर	-4784
▁बताए	-4785
▁भक्त	-4786
▁मुआव	-4787
▁रमेश	-4788
▁रहीं	-4789
▁रेखा	-4790
▁विनो	-4791
▁शारी	-4792
▁शुरु	-4793
▁शोषण	-4794
▁सुरू	-4795
▁स्पी	-4796
स्तानी	-4797
स्पिटल	-4798
्यूनतम	-4799
▁अंदाज	-4800
▁अपमान	-4801
▁आंध्र	-4802
▁इमरान	-4803
▁खिताब	-4804
▁गर्मी	-4805
▁चिन्ह	-4806
▁टेक्न	-4807
▁तहसील	-4808
▁निकला	-4809
▁पंचाय	-4810
▁पार्क	-4811
▁बढ़ती	-4812
▁मनाने	-4813
▁यांनी	-4814
▁रोहतक	-4815
▁लेंगे	-4816
▁हुसैन	-4817
▁अभ्यास	-4818
▁अमरीकी	-4819
▁चोपड़ा	-4820
▁डिप्टी	-4821
▁निकाला	-4822
▁फेसबुक	-4823
▁बुलाया	-4824
▁मेट्रो	-4825
▁योगदान	-4826
▁रफ्तार	-4827
▁शूटिंग	-4828
▁संचालक	-4829
▁संशोधन	-4830
▁करोड़ों	-4831
▁ट्रेनों	-4832
▁नेटवर्क	-4833
▁प्रदूषण	-4834
▁बढ़ोतरी	-4835
▁शारीरिक	-4836
▁इंटरव्यू	-4837
▁निर्माता	-4838
▁प्रोफेसर	-4839
▁व्यापारी	-4840
▁अभिनेत्री	-4841
▁आत्महत्या	-4842
▁पाठ्यक्रम	-4843
▁मुसलमानों	-4844
▁हस्ताक्षर	-4845
▁श्रीवास्तव	-4846
▁आतंकवादियों	-4847
▁व्यापारियों	-4848
▁अंतर्राष्ट्रीय	-4849
,7	-4850
ah	-4851
uc	-4852
ऩे	-4853
फॉ	-4854
रस	-4855
लै	-4856
सह	-4857
िड	-4858
ुम	-4859
ॉट	-4860
।"	-4861
।’	-4862
▁Y	-4863
ail	-4864
are	-4865
hot	-4866
ill	-4867
ine	-4868
ंदे	-4869
इंट	-4870
एसई	-4871
कीम	-4872
कॉम	-4873
जपे	-4874
भाष	-4875
मंद	-4876
लीय	-4877
संच	-4878
िको	-4879
ोसी	-4880
‍ली	-4881
▁Lo	-4882
▁अट	-4883
▁कस	-4884
▁झु	-4885
▁म्	-4886
▁रॉ	-4887
ंगों	-4888
एमएस	-4889
एससी	-4890
टिंग	-4891
तिया	-4892
त्तर	-4893
त्ते	-4894
नाडु	-4895
प्पा	-4896
श्चा	-4897
ष्ठा	-4898
ारों	-4899
ूंगा	-4900
ृत्त	-4901
ैक्ट	-4902
▁अधि	-4903
▁अधी	-4904
▁अपर	-4905
▁असे	-4906
▁आइए	-4907
▁आना	-4908
▁आला	-4909
▁एटी	-4910
▁ऑपर	-4911
▁खून	-4912
▁गड़	-4913
▁चीफ	-4914
▁चेक	-4915
▁जुट	-4916
▁डाय	-4917
▁नयी	-4918
▁फेर	-4919
▁बाई	-4920
▁बुर	-4921
▁बैक	-4922
▁भंड	-4923
▁भरा	-4924
▁मजा	-4925
▁मद्	-4926
▁माय	-4927
▁यमु	-4928
▁युग	-4929
▁रेट	-4930
▁लाए	-4931
▁सेक	-4932
▁हंस	-4933
कर्मी	-4934
कृतिक	-4935
क्षेप	-4936
ग्रहण	-4937
न्त्र	-4938
वानिव	-4939
वानों	-4940
ालैंड	-4941
ोध्या	-4942
▁अक्त	-4943
▁अज्ञ	-4944
▁आएगी	-4945
▁आगरा	-4946
▁उपभो	-4947
▁उपरा	-4948
▁एकता	-4949
▁किरण	-4950
▁किस्	-4951
▁ख़बर	-4952
▁खींच	-4953
▁घाटी	-4954
▁चंडी	-4955
▁जीता	-4956
▁डाउन	-4957
▁डाटा	-4958
▁दौरा	-4959
▁द्वि	-4960
▁धोखा	-4961
▁नीला	-4962
▁पुष्	-4963
▁फ्ला	-4964
▁बीमा	-4965
▁भेजे	-4966
▁मछली	-4967
▁मनीष	-4968
▁मनोज	-4969
▁मरीज	-4970
▁महत्	-4971
▁मानस	-4972
▁मारा	-4973
▁लंबी	-4974
▁शहरी	-4975
▁सख्त	-4976
▁स्‍ट	-4977
ंत्रित	-4978
स्वरूप	-4979
्‍यादा	-4980
▁आदर्श	-4981
▁आलिया	-4982
▁इंस्प	-4983
▁ऊर्जा	-4984
▁एहसास	-4985
▁कमेंट	-4986
▁करवाई	-4987
▁कैंसर	-4988
▁जापान	-4989
▁जिनकी	-4990
▁जुर्म	-4991
▁नतीजे	-4992
▁परंतु	-4993
▁परिचय	-4994
▁पार्ष	-4995
▁प्याज	-4996
▁बराबर	-4997
▁युवती	-4998
▁यूरोप	-4999
▁रणवीर	-5000
▁राजेश	-5001
▁वारदा	-5002
▁विटाम	-5003
▁विनोद	-5004
▁शुद्ध	-5005
▁संदेह	-5006
▁सुनने	-5007
▁सॉफ्ट	-5008
▁अब्दुल	-5009
▁आपत्ति	-5010
▁उत्साह	-5011
▁एसोसिए	-5012
▁करण्या	-5013
▁करवाया	-5014
▁कारणों	-5015
▁किन्तु	-5016
▁घटनाओं	-5017
▁चरित्र	-5018
▁टाइम्स	-5019
▁ट्रेलर	-5020
▁निकलने	-5021
▁निरंतर	-5022
▁पेमेंट	-5023
▁मरीजों	-5024
▁मैनेजर	-5025
▁रणनीति	-5026
▁संसाधन	-5027
▁स्तरीय	-5028
▁हड़ताल	-5029
▁अक्तूबर	-5030
▁आंकड़ों	-5031
▁आपूर्ति	-5032
▁कैबिनेट	-5033
▁क्रांति	-5034
▁ज्‍यादा	-5035
▁ड्राइवर	-5036
▁दर्शकों	-5037
▁दिल्‍ली	-5038
▁निर्यात	-5039
▁न्यूनतम	-5040
▁प्रमोशन	-5041
▁ब्रिटिश	-5042
▁महासचिव	-5043
▁मिलेंगे	-5044
▁मुकाबला	-5045
▁मुद्दों	-5046
▁यांच्या	-5047
▁संगठनों	-5048
▁सब्सिडी	-5049
▁अस्तित्व	-5050
▁आतंकवादी	-5051
▁कारोबारी	-5052
▁गेंदबाजी	-5053
▁दुष्कर्म	-5054
▁पहुंचाने	-5055
▁फैक्ट्री	-5056
▁श्रृंखला	-5057
▁समाजवादी	-5058
▁स्वतंत्रता	-5059
▁आस्ट्रेलिया	-5060
.9	-5061
/0	-5062
47	-5063
80	-5064
ai	-5065
aj	-5066
vi	-5067
ंठ	-5068
कन	-5069
घु	-5070
यत	-5071
वय	-5072
▁·	-5073
▁ष	-5074
▁”	-5075
all	-5076
ant	-5077
ary	-5078
ide	-5079
ord	-5080
ory	-5081
कां	-5082
कोट	-5083
जात	-5084
जिए	-5085
जिद	-5086
टिल	-5087
तीन	-5088
त्न	-5089
पाई	-5090
बड़	-5091
बरा	-5092
बली	-5093
वों	-5094
शान	-5095
हरण	-5096
िपल	-5097
िसू	-5098
ुति	-5099
ुलर	-5100
▁..	-5101
▁1.	-5102
▁38	-5103
▁65	-5104
▁An	-5105
▁पढ	-5106
▁पत	-5107
▁बम	-5108
▁भौ	-5109
▁हक	-5110
-201	-5111
ंगाई	-5112
आईपी	-5113
आरपी	-5114
एसआई	-5115
क्की	-5116
जल्ट	-5117
ट्यू	-5118
पचार	-5119
प्शन	-5120
ब्दी	-5121
भद्र	-5122
भूषण	-5123
रेली	-5124
र्टर	-5125
वाड़	-5126
स्बे	-5127
्रीट	-5128
▁Com	-5129
▁अजी	-5130
▁अटल	-5131
▁आपस	-5132
▁इजा	-5133
▁करण	-5134
▁गिन	-5135
▁चूत	-5136
▁थाम	-5137
▁धमा	-5138
▁पाक	-5139
▁फ़ै	-5140
▁बला	-5141
▁भरी	-5142
▁मंग	-5143
▁मस्	-5144
▁महो	-5145
▁मिळ	-5146
▁रजत	-5147
▁लुक	-5148
▁सूर	-5149
▁सेट	-5150
▁सौर	-5151
▁हंग	-5152
▁हाइ	-5153
▁हेल	-5154
▁हॉट	-5155
ंपरिक	-5156
इंडीज	-5157
चुनाव	-5158
जपेयी	-5159
द्दीन	-5160
द्वार	-5161
न्यास	-5162
मध्ये	-5163
युक्त	-5164
ल्पना	-5165
संख्य	-5166
ानिया	-5167
ेक्टर	-5168
ेडियम	-5169
ेमारी	-5170
ेशनों	-5171
▁अंडर	-5172
▁अभ्य	-5173
▁अमीर	-5174
▁अस्थ	-5175
▁आकाश	-5176
▁आज़ा	-5177
▁आपदा	-5178
▁आपसी	-5179
▁आरंभ	-5180
▁इसको	-5181
▁एंटी	-5182
▁काली	-5183
▁खड़ी	-5184
▁गठित	-5185
▁गणेश	-5186
▁गीता	-5187
▁चिंत	-5188
▁जहाँ	-5189
▁जानी	-5190
▁जीबी	-5191
▁झटका	-5192
▁डेढ़	-5193
▁ड्यू	-5194
▁दिली	-5195
▁देखे	-5196
▁दौड़	-5197
▁नाही	-5198
▁पर्व	-5199
▁फ्री	-5200
▁बढ़त	-5201
▁बढ़े	-5202
▁बर्फ	-5203
▁बाबू	-5204
▁बुरी	-5205
▁ब्रह	-5206
▁ब्लू	-5207
▁मरने	-5208
▁महेश	-5209
▁मानी	-5210
▁मीटर	-5211
▁मेजब	-5212
▁मेला	-5213
▁विवे	-5214
▁व्रत	-5215
▁शुक्	-5216
▁साझा	-5217
▁सूरत	-5218
▁हिरा	-5219
ड़ीसिन	-5220
फ्रेंस	-5221
मूर्ति	-5222
स्वामी	-5223
▁उपकरण	-5224
▁काउंस	-5225
▁कोर्स	-5226
▁गुप्त	-5227
▁ग्रीन	-5228
▁चक्कर	-5229
▁चार्ज	-5230
▁जगहों	-5231
▁टेनिस	-5232
▁डॉकटर	-5233
▁तीसरा	-5234
▁दिखने	-5235
▁नाराज	-5236
▁निकाय	-5237
▁पड़ने	-5238
▁पत्थर	-5239
▁पीढ़ी	-5240
▁प्रोड	-5241
▁बालों	-5242
▁मुफ्त	-5243
▁यूनिट	-5244
▁राकेश	-5245
▁लिहाज	-5246
▁संतुल	-5247
▁संदीप	-5248
▁समक्ष	-5249
▁समस्त	-5250
कर्ताओं	-5251
▁अनिवार	-5252
▁अनुरोध	-5253
▁अमरीका	-5254
▁अर्जुन	-5255
▁अश्लील	-5256
▁इस्लाम	-5257
▁कीमतें	-5258
▁कुर्सी	-5259
▁छोड़ने	-5260
▁जाएंगी	-5261
▁जानकार	-5262
▁जिल्हा	-5263
▁ट्विटर	-5264
▁दरवाजे	-5265
▁दिखाने	-5266
▁दिवसीय	-5267
▁निर्भर	-5268
▁नीलामी	-5269
▁बनर्जी	-5270
▁मद्देन	-5271
▁मनमोहन	-5272
▁महंगाई	-5273
▁मुकदमा	-5274
▁मुहैया	-5275
▁यात्री	-5276
▁युवकों	-5277
▁रिजल्ट	-5278
▁रिसर्च	-5279
▁रेडियो	-5280
▁वोटिंग	-5281
▁शिवराज	-5282
▁सच्चाई	-5283
▁समुद्र	-5284
▁साक्षा	-5285
▁सिनेमा	-5286
▁सिन्हा	-5287
▁सिस्टम	-5288
▁सीरिया	-5289
▁स्वामी	-5290
▁अधीक्षक	-5291
▁अयोध्या	-5292
▁चंडीगढ़	-5293
▁जन्मदिन	-5294
▁जायेंगे	-5295
▁नीतियों	-5296
▁रैंकिंग	-5297
▁लक्ष्मी	-5298
▁विटामिन	-5299
▁विशिष्ट	-5300
▁संबंधों	-5301
▁सेवानिव	-5302
▁आमंत्रित	-5303
▁कार्यकाल	-5304
▁छापेमारी	-5305
▁तुम्हारे	-5306
▁निरीक्षण	-5307
▁निर्देशन	-5308
▁पारंपरिक	-5309
▁भारतीयों	-5310
▁मेड़ीसिन	-5311
▁राज्यसभा	-5312
▁हॉस्पिटल	-5313
▁प्रशासनिक	-5314
▁प्लास्टिक	-5315
▁यात्रियों	-5316
▁संवाददाता	-5317
▁सकारात्मक	-5318
▁पत्रकारिता	-5319
▁व्यक्तियों	-5320
▁कार्यक्रमों	-5321
▁इलेक्ट्रॉनिक	-5322
▁विद्यार्थियों	-5323
13	-5324
SL	-5325
ia	-5326
ik	-5327
ll	-5328
ob	-5329
आम	-5330
तो	-5331
नन	-5332
फो	-5333
वक	-5334
िद	-5335
ूण	-5336
ॉड	-5337
▁r	-5338
ick	-5339
ish	-5340
one	-5341
ंघन	-5342
ंडे	-5343
आईए	-5344
केल	-5345
जान	-5346
ड्र	-5347
तून	-5348
दाई	-5349
दाद	-5350
पंच	-5351
पता	-5352
भाई	-5353
यें	-5354
लिक	-5355
शनी	-5356
श्‍	-5357
हरू	-5358
ारस	-5359
्वा	-5360
▁43	-5361
▁48	-5362
▁69	-5363
▁Ad	-5364
▁se	-5365
▁up	-5366
▁इश	-5367
▁ऑल	-5368
▁घो	-5369
▁डु	-5370
▁नु	-5371
▁बध	-5372
▁सश	-5373
...]	-5374
ress	-5375
खाने	-5376
ग्रह	-5377
ड्या	-5378
धारण	-5379
धीरे	-5380
पाही	-5381
फ्टी	-5382
म्मत	-5383
रेटर	-5384
वाया	-5385
साइज	-5386
हाना	-5387
्वान	-5388
्षिक	-5389
▁150	-5390
▁आले	-5391
▁आशी	-5392
▁ऋतु	-5393
▁एक्	-5394
▁कैर	-5395
▁गिल	-5396
▁गुट	-5397
▁घुट	-5398
▁चरम	-5399
▁जाग	-5400
▁जोन	-5401
▁झाल	-5402
▁ढंग	-5403
▁निव	-5404
▁पाय	-5405
▁पृथ	-5406
▁पेज	-5407
▁पॉप	-5408
▁फते	-5409
▁फैल	-5410
▁बंट	-5411
▁बोझ	-5412
▁भरे	-5413
▁मुर	-5414
▁शरद	-5415
▁शोर	-5416
▁सैफ	-5417
▁हाँ	-5418
कृष्ट	-5419
तियां	-5420
बालिग	-5421
राज्य	-5422
वर्ती	-5423
श्विक	-5424
ोलॉजी	-5425
▁2010	-5426
▁Hind	-5427
▁Read	-5428
▁आईटी	-5429
▁आजाद	-5430
▁आरटी	-5431
▁उठाए	-5432
▁उतना	-5433
▁उद्य	-5434
▁उर्फ	-5435
▁ऑफिस	-5436
▁किंग	-5437
▁केली	-5438
▁खतरे	-5439
▁गवर्	-5440
▁गाना	-5441
▁गायब	-5442
▁गोवा	-5443
▁चक्र	-5444
▁चौथे	-5445
▁छेड़	-5446
▁झटके	-5447
▁डिवा	-5448
▁दिक्	-5449
▁देखी	-5450
▁नौकर	-5451
▁पंजी	-5452
▁फीचर	-5453
▁बसों	-5454
▁मुना	-5455
▁मोटा	-5456
▁म्हण	-5457
▁रिपो	-5458
▁शिखर	-5459
▁सिंग	-5460
▁सिद्	-5461
▁सिया	-5462
▁सीधा	-5463
▁सीसी	-5464
▁सुर्	-5465
कश्मीर	-5466
जीलैंड	-5467
प्रकाश	-5468
ोग्राम	-5469
▁अभिनय	-5470
▁अर्था	-5471
▁इनकार	-5472
▁उठाते	-5473
▁एक्टर	-5474
▁एजेंस	-5475
▁कट्टर	-5476
▁खाद्य	-5477
▁जयपुर	-5478
▁जानिए	-5479
▁जिनका	-5480
▁जोड़ा	-5481
▁तारीफ	-5482
▁पढ़ने	-5483
▁पारित	-5484
▁पिछली	-5485
▁प्रकट	-5486
▁फॉर्म	-5487
▁बेरोज	-5488
▁मथुरा	-5489
▁मुहिम	-5490
▁मैक्स	-5491
▁रवाना	-5492
▁लगेगा	-5493
▁संजीव	-5494
▁सुनते	-5495
▁स्टाफ	-5496
▁स्थिर	-5497
क्षेत्र	-5498
▁अज्ञात	-5499
▁अधिकतम	-5500
▁एशियाई	-5501
▁कानपुर	-5502
▁किनारे	-5503
▁क्राइम	-5504
▁खतरनाक	-5505
▁जायेगी	-5506
▁तकरीबन	-5507
▁दिग्गज	-5508
▁दोबारा	-5509
▁नारायण	-5510
▁पदार्थ	-5511
▁प्रतीक	-5512
▁प्रिंस	-5513
▁ब्यूरो	-5514
▁मनुष्य	-5515
▁मिर्जा	-5516
▁मिश्रण	-5517
▁यूजर्स	-5518
▁राजस्व	-5519
▁वारदात	-5520
▁संकल्प	-5521
▁सम्बंध	-5522
▁सिंचाई	-5523
▁सिपाही	-5524
▁स्टैंड	-5525
▁अपेक्षा	-5526
▁कंट्रोल	-5527
▁करण्यात	-5528
▁गोरखपुर	-5529
▁डाउनलोड	-5530
▁नाबालिग	-5531
▁प्राचीन	-5532
▁फिल्में	-5533
▁बाजारों	-5534
▁मायावती	-5535
▁रिश्तों	-5536
▁विपक्षी	-5537
▁वैश्विक	-5538
▁शिवसेना	-5539
▁श्रीमती	-5540
▁सितम्बर	-5541
▁सिलसिला	-5542
▁ईमानदारी	-5543
▁उत्पादों	-5544
▁एसोसिएशन	-5545
▁चिकित्सा	-5546
▁तमिलनाडु	-5547
▁परिवारों	-5548
▁प्रतिस्प	-5549
▁प्राप्ति	-5550
▁मद्देनजर	-5551
▁लड़कियां	-5552
▁इंडस्ट्री	-5553
▁प्राकृतिक	-5554
▁संस्थानों	-5555
▁इंस्पेक्टर	-5556
▁न्यूजीलैंड	-5557
▁पाकिस्तानी	-5558
▁वेस्टइंडीज	-5559
▁स्टूडेंट्स	-5560
▁हिस्सेदारी	-5561
▁न्यायमूर्ति	-5562
,2	-5563
-6	-5564
."	-5565
10	-5566
12	-5567
30	-5568
av	-5569
fe	-5570
ge	-5571
ht	-5572
आइ	-5573
और	-5574
कश	-5575
धव	-5576
मस	-5577
ळा	-5578
शर	-5579
-10	-5580
ack	-5581
ist	-5582
आउट	-5583
एडा	-5584
कोश	-5585
गति	-5586
जिट	-5587
टने	-5588
टीक	-5589
ढ़ा	-5590
णसी	-5591
नाल	-5592
निर	-5593
न्ट	-5594
प्प	-5595
बान	-5596
भूम	-5597
मूल	-5598
मेर	-5599
म्‍	-5600
ल्थ	-5601
वात	-5602
वेल	-5603
शिक	-5604
षेक	-5605
ान्	-5606
ारण	-5607
िनल	-5608
ैंप	-5609
ोंग	-5610
ोज़	-5611
ोटे	-5612
ौली	-5613
्यर	-5614
।’’	-5615
▁ad	-5616
▁an	-5617
▁by	-5618
▁अत	-5619
▁अह	-5620
▁उज	-5621
▁ऋष	-5622
▁एप	-5623
▁एव	-5624
▁ऑप	-5625
▁ओब	-5626
▁ओम	-5627
▁पथ	-5628
▁लव	-5629
▁सृ	-5630
/201	-5631
tion	-5632
ंटों	-5633
ंबित	-5634
एफडी	-5635
एसएस	-5636
क़्त	-5637
जाने	-5638
जीसी	-5639
डीपी	-5640
डीसी	-5641
ड्डे	-5642
दिया	-5643
परीत	-5644
प्ले	-5645
लंघन	-5646
ल्फी	-5647
ल्ले	-5648
वरों	-5649
विदा	-5650
शाही	-5651
ष्णा	-5652
ष्णु	-5653
सीआई	-5654
स्को	-5655
ायंस	-5656
ेंडर	-5657
्याल	-5658
्यूब	-5659
्रोत	-5660
▁Pro	-5661
▁अरो	-5662
▁ऊना	-5663
▁ऐश्	-5664
▁कना	-5665
▁कहे	-5666
▁कैद	-5667
▁कॉम	-5668
▁कों	-5669
▁ख़ु	-5670
▁घाय	-5671
▁घुस	-5672
▁चिद	-5673
▁जगत	-5674
▁जमी	-5675
▁जरा	-5676
▁ज़ि	-5677
▁झेल	-5678
▁डाइ	-5679
▁दास	-5680
▁देह	-5681
▁परा	-5682
▁पवन	-5683
▁फीड	-5684
▁फुल	-5685
▁बोन	-5686
▁मजे	-5687
▁मसी	-5688
▁शपथ	-5689
▁शेष	-5690
▁समृ	-5691
▁सेन	-5692
▁हेड	-5693
▁होश	-5694
ments	-5695
ustan	-5696
जुर्ग	-5697
ल्लाह	-5698
वर्या	-5699
िकेटर	-5700
ुक्ति	-5701
्यांक	-5702
▁2020	-5703
▁अकबर	-5704
▁अजीत	-5705
▁अधिव	-5706
▁अरुण	-5707
▁अवगत	-5708
▁आलोक	-5709
▁आश्च	-5710
▁इंजी	-5711
▁उतरे	-5712
▁ऊपरी	-5713
▁एक्‍	-5714
▁कच्च	-5715
▁कपिल	-5716
▁केला	-5717
▁गौतम	-5718
▁ग्रा	-5719
▁चीज़	-5720
▁चौकी	-5721
▁जंगल	-5722
▁झाले	-5723
▁डेवल	-5724
▁तबाद	-5725
▁तेंद	-5726
▁दूरी	-5727
▁पाता	-5728
▁पीसी	-5729
▁पेड़	-5730
▁बीती	-5731
▁मनोर	-5732
▁मोड़	-5733
▁रक्त	-5734
▁राजद	-5735
▁लाइट	-5736
▁लेती	-5737
▁वारा	-5738
▁व्हा	-5739
▁शांत	-5740
▁शुगर	-5741
▁सबूत	-5742
▁सराह	-5743
▁सर्च	-5744
▁साधन	-5745
▁सीता	-5746
▁हरकत	-5747
▁होली	-5748
ंत्रिक	-5749
फ्रेंड	-5750
रात्रि	-5751
▁अन्दर	-5752
▁अपहरण	-5753
▁आएंगे	-5754
▁इंद्र	-5755
▁इरफान	-5756
▁एंड्र	-5757
▁करीना	-5758
▁क्लिक	-5759
▁क्षति	-5760
▁खरीदी	-5761
▁गेम्स	-5762
▁चीजों	-5763
▁चौंका	-5764
▁छक्के	-5765
▁जेटली	-5766
▁तालाब	-5767
▁तीसरी	-5768
▁दिमाग	-5769
▁देखता	-5770
▁निकले	-5771
▁नितिन	-5772
▁निराश	-5773
▁निशान	-5774
▁फील्ड	-5775
▁बुद्ध	-5776
▁बॉक्स	-5777
▁ब्लैक	-5778
▁भूकंप	-5779
▁मानने	-5780
▁मिलना	-5781
▁लिखते	-5782
▁वक़्त	-5783
▁विविध	-5784
▁शुरूआ	-5785
▁श्रेय	-5786
▁समापन	-5787
▁सरदार	-5788
▁सर्वश	-5789
▁सुनाई	-5790
▁सोचने	-5791
▁हमलों	-5792
द्योगिक	-5793
▁अल्लाह	-5794
▁आंकड़े	-5795
▁आज़ादी	-5796
▁इंदिरा	-5797
▁एसडीएम	-5798
▁ऑपरेशन	-5799
▁करवाने	-5800
▁कल्पना	-5801
▁कानूनी	-5802
▁कृष्णा	-5803
▁क्रिया	-5804
▁घायलों	-5805
▁जस्टिस	-5806
▁डिवाइस	-5807
▁ड्यूटी	-5808
▁तापमान	-5809
▁देखभाल	-5810
▁पड़ोसी	-5811
▁पब्लिक	-5812
▁परिवहन	-5813
▁पैमाने	-5814
▁पोर्टल	-5815
▁बरकरार	-5816
▁ब्रह्म	-5817
▁विद्या	-5818
▁विपरीत	-5819
▁शेयरों	-5820
▁समझौते	-5821
▁सर्विस	-5822
▁हिरासत	-5823
▁हुड्डा	-5824
▁अभियंता	-5825
▁अभ्यर्थ	-5826
▁आश्चर्य	-5827
▁उल्लंघन	-5828
▁ठेकेदार	-5829
▁तुम्हें	-5830
▁द्वितीय	-5831
▁नामांकन	-5832
▁प्रतिमा	-5833
▁बदमाशों	-5834
▁योजनाएं	-5835
▁वाराणसी	-5836
▁विद्युत	-5837
▁संचालित	-5838
▁संभालने	-5839
▁संस्कृत	-5840
धिकारियों	-5841
▁अनिवार्य	-5842
▁अनुमानित	-5843
▁इलाहाबाद	-5844
▁ऐश्वर्या	-5845
▁क्रिकेटर	-5846
▁जागरूकता	-5847
▁रिपोर्टर	-5848
▁शास्त्री	-5849
▁शिकायतें	-5850
▁स्टेडियम	-5851
▁Hindustan	-5852
▁प्रोग्राम	-5853
▁सर्वेक्षण	-5854
▁प्रतिस्पर्	-5855
▁साक्षात्कार	-5856
,0	-5857
,5	-5858
,8	-5859
-5	-5860
gr	-5861
iv	-5862
ug	-5863
ँस	-5864
इए	-5865
धक	-5866
बस	-5867
मै	-5868
लक	-5869
िब	-5870
ॉफ	-5871
▁*	-5872
ebs	-5873
esh	-5874
ext	-5875
has	-5876
hat	-5877
ond	-5878
ंकज	-5879
अगर	-5880
करा	-5881
खिम	-5882
गाव	-5883
गेट	-5884
जना	-5885
जिश	-5886
डिल	-5887
डेट	-5888
डोर	-5889
नाई	-5890
फाइ	-5891
फार	-5892
बरी	-5893
बीन	-5894
मीन	-5895
मेट	-5896
रुण	-5897
सुर	-5898
िमी	-5899
ेबल	-5900
ौरा	-5901
▁54	-5902
▁55	-5903
▁62	-5904
▁Ex	-5905
▁Ka	-5906
▁de	-5907
▁re	-5908
▁आफ	-5909
▁खज	-5910
▁गर	-5911
▁जॉ	-5912
▁झग	-5913
▁धु	-5914
▁पच	-5915
▁पड	-5916
▁भय	-5917
▁२०	-5918
ंपरा	-5919
ंबरम	-5920
एफसी	-5921
जिंग	-5922
तव्य	-5923
द्धा	-5924
नायक	-5925
न्ने	-5926
बड़ी	-5927
ब्यू	-5928
भक्त	-5929
मानत	-5930
मिया	-5931
लिंग	-5932
शिंग	-5933
शियम	-5934
ान्त	-5935
ार्ट	-5936
ालों	-5937
ीकरण	-5938
ुलकर	-5939
ूहिक	-5940
ेडकर	-5941
▁196	-5942
▁अंध	-5943
▁इंच	-5944
▁इकट	-5945
▁इधर	-5946
▁उज्	-5947
▁कवर	-5948
▁कैश	-5949
▁जहा	-5950
▁जीव	-5951
▁दुः	-5952
▁दुआ	-5953
▁द्र	-5954
▁धवन	-5955
▁धान	-5956
▁धूप	-5957
▁धूम	-5958
▁नमा	-5959
▁नाय	-5960
▁निल	-5961
▁नौज	-5962
▁पित	-5963
▁फसल	-5964
▁बैल	-5965
▁बॉस	-5966
▁भूख	-5967
▁मिठ	-5968
▁मेघ	-5969
▁मेर	-5970
▁मैन	-5971
▁राइ	-5972
▁लीड	-5973
▁लुट	-5974
▁वें	-5975
▁शरण	-5976
▁शिल	-5977
▁सार	-5978
▁सीए	-5979
▁सुल	-5980
▁सुष	-5981
▁हेम	-5982
क्षता	-5983
चंद्र	-5984
ट्यूट	-5985
प्रति	-5986
भाग्य	-5987
संचार	-5988
िक्सल	-5989
ोरेंस	-5990
▁2011	-5991
▁अनाज	-5992
▁अनुप	-5993
▁आयकर	-5994
▁आर्ट	-5995
▁इंजन	-5996
▁ऊंची	-5997
▁कहाँ	-5998
▁कहें	-5999
▁किमी	-6000
▁कैसा	-6001
▁क्लब	-6002
▁क्षण	-6003
▁खेती	-6004
▁गैंग	-6005
▁चपेट	-6006
▁चेता	-6007
▁जनसं	-6008
▁टाटा	-6009
▁डिली	-6010
▁डिस्	-6011
▁डीसी	-6012
▁ड्रग	-6013
▁पंकज	-6014
▁पाठक	-6015
▁पुणे	-6016
▁पुरू	-6017
▁फ़ोन	-6018
▁बधाई	-6019
▁बिंद	-6020
▁बैठी	-6021
▁बॉडी	-6022
▁भव्य	-6023
▁मिनी	-6024
▁रखकर	-6025
▁रूपए	-6026
▁रोज़	-6027
▁रोशन	-6028
▁लेखक	-6029
▁वर्क	-6030
▁विधि	-6031
▁सबको	-6032
▁सब्ज	-6033
▁साझे	-6034
▁सिखा	-6035
▁सैनी	-6036
द्वारा	-6037
मार्टम	-6038
्रेष्ठ	-6039
▁अपडेट	-6040
▁अवतार	-6041
▁आग्रह	-6042
▁आयुर्	-6043
▁आसमान	-6044
▁ईरानी	-6045
▁ईश्वर	-6046
▁ओबामा	-6047
▁कटौती	-6048
▁कर्मी	-6049
▁क्‍या	-6050
▁गिनती	-6051
▁घूमने	-6052
▁चलेगा	-6053
▁ट्रैक	-6054
▁डालकर	-6055
▁डेस्क	-6056
▁तंत्र	-6057
▁दर्जन	-6058
▁नाबाद	-6059
▁निम्न	-6060
▁निर्द	-6061
▁नेहरू	-6062
▁पश्चा	-6063
▁पैरों	-6064
▁प्रको	-6065
▁प्रीम	-6066
▁बनाता	-6067
▁भरपूर	-6068
▁मेहता	-6069
▁यादों	-6070
▁लगाना	-6071
▁लिखने	-6072
▁वार्ड	-6073
▁विवरण	-6074
▁विश्‍	-6075
▁सतर्क	-6076
▁साढ़े	-6077
▁सुरेश	-6078
▁सोचते	-6079
▁स्कीम	-6080
▁स्टॉक	-6081
▁हज़ार	-6082
वादियों	-6083
विज्ञान	-6084
शास्त्र	-6085
ोग्राफी	-6086
▁Google	-6087
▁अंबानी	-6088
▁अद्भुत	-6089
▁अभिषेक	-6090
▁अरोड़ा	-6091
▁अर्पित	-6092
▁इन्हीं	-6093
▁किशोरी	-6094
▁दिलाने	-6095
▁पक्षों	-6096
▁पार्षद	-6097
▁पुराना	-6098
▁पृथ्वी	-6099
▁प्रगति	-6100
▁बाज़ार	-6101
▁मारपीट	-6102
▁यूरोपी	-6103
▁रिलीज़	-6104
▁संदर्भ	-6105
▁संरचना	-6106
▁सड़कें	-6107
▁समझौता	-6108
▁सीमेंट	-6109
▁सुन्दर	-6110
▁सेवाएं	-6111
▁स्टाइल	-6112
▁स्टोरी	-6113
▁स्थायी	-6114
ण्यासाठी	-6115
▁अधिकांश	-6116
▁कार्यरत	-6117
▁चिदंबरम	-6118
▁नोटबंदी	-6119
▁बुजुर्ग	-6120
▁मजदूरों	-6121
▁मनोरंजन	-6122
▁महाभारत	-6123
▁मुखर्जी	-6124
▁योग्यता	-6125
▁वाजपेयी	-6126
▁वार्षिक	-6127
▁संस्कार	-6128
▁सामूहिक	-6129
▁स्पोर्ट	-6130
▁इंजीनियर	-6131
▁उत्कृष्ट	-6132
▁कंप्यूटर	-6133
▁चिकित्सक	-6134
▁जुर्माना	-6135
▁नियुक्ति	-6136
▁निर्देशक	-6137
▁पंचायतों	-6138
▁रजिस्ट्र	-6139
▁विश्लेषण	-6140
▁समर्थकों	-6141
▁सर्वाधिक	-6142
▁सर्वोच्च	-6143
▁कार्यकारी	-6144
▁नकारात्मक	-6145
▁पदाधिकारी	-6146
▁प्रदर्शित	-6147
▁व्यक्तित्व	-6148
▁प्रदर्शनकारियों	-6149
):	-6150
.”	-6151
2)	-6152
43	-6153
5)	-6154
EO	-6155
GB	-6156
ID	-6157
ka	-6158
ld	-6159
ng	-6160
pl	-6161
uk	-6162
ww	-6163
ऊन	-6164
एप	-6165
बि	-6166
लत	-6167
लन	-6168
▁Q	-6169
▁i	-6170
▁j	-6171
.30	-6172
ark	-6173
end	-6174
hab	-6175
ity	-6176
कसद	-6177
किट	-6178
खड़	-6179
खार	-6180
घाट	-6181
ज़ल	-6182
जिन	-6183
नें	-6184
न्ड	-6185
प्स	-6186
वीण	-6187
संध	-6188
सला	-6189
सेट	-6190
ांज	-6191
ैनी	-6192
ोकस	-6193
ोटा	-6194
▁3.	-6195
▁39	-6196
▁Me	-6197
▁Pr	-6198
▁be	-6199
▁di	-6200
▁he	-6201
▁इज	-6202
▁खट	-6203
▁खर	-6204
▁ग़	-6205
▁चो	-6206
▁छू	-6207
▁जस	-6208
▁दै	-6209
▁फस	-6210
▁बक	-6211
▁बग	-6212
▁यी	-6213
____	-6214
ंजरे	-6215
अपने	-6216
आरसी	-6217
कड़ी	-6218
कांग	-6219
काया	-6220
क्सा	-6221
ग्रा	-6222
चर्स	-6223
टीसी	-6224
देखी	-6225
देवी	-6226
निर्	-6227
नीचर	-6228
पादन	-6229
भूमि	-6230
मर्श	-6231
र्चे	-6232
र्मी	-6233
सपेश	-6234
सागर	-6235
सीआर	-6236
स्थल	-6237
ांना	-6238
िकेश	-6239
ृत्य	-6240
ॉर्क	-6241
ॉर्ट	-6242
्यूल	-6243
्रमण	-6244
▁50%	-6245
▁Kar	-6246
▁अदा	-6247
▁इंट	-6248
▁उर्	-6249
▁एसी	-6250
▁ऑयल	-6251
▁ओटी	-6252
▁काब	-6253
▁खनन	-6254
▁खैर	-6255
▁जड़	-6256
▁डील	-6257
▁ढेर	-6258
▁दार	-6259
▁दाल	-6260
▁दुर	-6261
▁नाई	-6262
▁पेय	-6263
▁पेर	-6264
▁फंस	-6265
▁बजर	-6266
▁बूथ	-6267
▁बेल	-6268
▁बैग	-6269
▁भंग	-6270
▁मिथ	-6271
▁मैथ	-6272
▁रूट	-6273
▁रूम	-6274
▁रेप	-6275
▁लम्	-6276
▁वाइ	-6277
▁वैध	-6278
▁हिट	-6279
india	-6280
कालीन	-6281
कृष्ण	-6282
ट्सएप	-6283
तावरण	-6284
तीर्ण	-6285
त्स्य	-6286
नाल्ड	-6287
न्दगी	-6288
मात्र	-6289
मुक्त	-6290
वार्ड	-6291
शियों	-6292
स्फोट	-6293
िकाओं	-6294
▁2001	-6295
▁2004	-6296
▁2008	-6297
▁अधीन	-6298
▁अमृत	-6299
▁अम्ब	-6300
▁अर्ध	-6301
▁असून	-6302
▁आंटी	-6303
▁आकार	-6304
▁आक्र	-6305
▁आर्य	-6306
▁इकट्	-6307
▁इकाई	-6308
▁इस्‍	-6309
▁उठाई	-6310
▁उड़ा	-6311
▁कागज	-6312
▁कायम	-6313
▁ख़ास	-6314
▁गर्भ	-6315
▁गियर	-6316
▁गौरव	-6317
▁चाचा	-6318
▁छापा	-6319
▁जताई	-6320
▁जुड़	-6321
▁डांस	-6322
▁तेरी	-6323
▁त्यो	-6324
▁दत्त	-6325
▁दबंग	-6326
▁दिखे	-6327
▁देनी	-6328
▁दोनो	-6329
▁नजदी	-6330
▁निधन	-6331
▁पीछा	-6332
▁पूजन	-6333
▁फ़िर	-6334
▁फ़्ल	-6335
▁फैंस	-6336
▁बजाज	-6337
▁बढ़ी	-6338
▁बनता	-6339
▁बनते	-6340
▁बनाम	-6341
▁बांट	-6342
▁बारी	-6343
▁बिता	-6344
▁ब्ला	-6345
▁मकसद	-6346
▁मुर्	-6347
▁मूर्	-6348
▁रखता	-6349
▁राइट	-6350
▁राणा	-6351
▁रियल	-6352
▁रिया	-6353
▁लांच	-6354
▁वरुण	-6355
▁समन्	-6356
▁सांप	-6357
▁साइड	-6358
▁सिक्	-6359
▁स्टो	-6360
▁स्वर	-6361
▁हरीश	-6362
ग्रस्त	-6363
त्यादि	-6364
पूर्वक	-6365
फिकेशन	-6366
साइकिल	-6367
स्‍तान	-6368
ारियों	-6369
ार्थना	-6370
िसूचना	-6371
ॉपर्टी	-6372
्यांकन	-6373
▁[...]	-6374
▁अड्डे	-6375
▁अवश्य	-6376
▁अहसास	-6377
▁आईफोन	-6378
▁उजाला	-6379
▁उन्हे	-6380
▁एकत्र	-6381
▁कस्बे	-6382
▁केन्द	-6383
▁कैप्ट	-6384
▁क्रमश	-6385
▁खबरें	-6386
▁ख़िला	-6387
▁खासकर	-6388
▁गीतों	-6389
▁गुलाम	-6390
▁गोपाल	-6391
▁जिसको	-6392
▁जिसमे	-6393
▁जीतकर	-6394
▁जोखिम	-6395
▁टीमें	-6396
▁डालें	-6397
▁डेवलप	-6398
▁दशकों	-6399
▁देखिए	-6400
▁देहरा	-6401
▁निवडण	-6402
▁न्यूय	-6403
▁पृष्ठ	-6404
▁पोलिस	-6405
▁प्राण	-6406
▁प्राय	-6407
▁बच्चा	-6408
▁बहाने	-6409
▁बेसिक	-6410
▁बैटरी	-6411
▁बैठकर	-6412
▁बोलते	-6413
▁बोल्ड	-6414
▁ब्रेक	-6415
▁ब्लॉग	-6416
▁भेजने	-6417
▁मंजूर	-6418
▁मस्ती	-6419
▁महंगा	-6420
▁मांगा	-6421
▁मान्य	-6422
▁रहस्य	-6423
▁रांची	-6424
▁लापता	-6425
▁वस्तु	-6426
▁साइबर	-6427
▁साजिश	-6428
▁स्रोत	-6429
▁हलफना	-6430
▁हवाले	-6431
▁हितों	-6432
किस्तान	-6433
वेदनशील	-6434
▁अत्यंत	-6435
▁आंकड़ा	-6436
▁आकर्षक	-6437
▁इच्छुक	-6438
▁उत्तरी	-6439
▁उपयोगी	-6440
▁ऑपरेटर	-6441
▁कलाकार	-6442
▁गुस्सा	-6443
▁चन्द्र	-6444
▁जर्मनी	-6445
▁दिक्कत	-6446
▁दिलाया	-6447
▁दीवाली	-6448
▁दुश्मन	-6449
▁परंपरा	-6450
▁पर्सनल	-6451
▁पिंजरे	-6452
▁पोस्टर	-6453
▁प्रकरण	-6454
▁प्रवीण	-6455
▁बहादुर	-6456
▁भास्कर	-6457
▁मजबूती	-6458
▁मजेदार	-6459
▁मिलियन	-6460
▁मुख्‍य	-6461
▁मूर्ति	-6462
▁रामदेव	-6463
▁रायपुर	-6464
▁राशिफल	-6465
▁संतुलन	-6466
▁संपादक	-6467
▁समर्थक	-6468
▁सहयोगी	-6469
▁सालाना	-6470
▁सावधान	-6471
▁सेवाओं	-6472
श्योरेंस	-6473
ार्थियों	-6474
▁अत्यधिक	-6475
▁इत्यादि	-6476
▁ईमानदार	-6477
▁गंभीरता	-6478
▁चौंकाने	-6479
▁ट्रैफिक	-6480
▁त्योहार	-6481
▁पहुंचकर	-6482
▁प्रभावी	-6483
▁प्रसारण	-6484
▁फर्नीचर	-6485
▁भावनाओं	-6486
▁मंदिरों	-6487
▁महेंद्र	-6488
▁मांसपेश	-6489
▁मित्रों	-6490
▁यूरोपीय	-6491
▁रिलायंस	-6492
▁वातावरण	-6493
▁विचारों	-6494
▁विभागीय	-6495
▁विवादित	-6496
▁शब्दकोश	-6497
▁संभावित	-6498
▁सांसदों	-6499
▁सिद्धान	-6500
स्टीट्यूट	-6501
▁इन्होंने	-6502
▁उत्तीर्ण	-6503
▁उपस्थिति	-6504
▁एनडीटीवी	-6505
▁औद्योगिक	-6506
▁जनसंख्या	-6507
▁डॉक्टरों	-6508
▁प्रतिदिन	-6509
▁प्रयासों	-6510
▁बलात्कार	-6511
▁भागीदारी	-6512
▁श्रद्धाल	-6513
▁संस्थाओं	-6514
▁सुविधाएं	-6515
▁स्वच्छता	-6516
▁एजेंसियों	-6517
▁केन्द्रीय	-6518
▁निर्वाचित	-6519
▁पार्टियों	-6520
▁प्रतिनिधि	-6521
▁प्रार्थना	-6522
▁प्रॉपर्टी	-6523
▁बल्लेबाजी	-6524
▁सॉफ्टवेयर	-6525
▁कॉन्फ्रेंस	-6526
▁चिकित्सकों	-6527
▁विशेषज्ञों	-6528
▁पोस्टमार्टम	-6529
▁सर्वश्रेष्ठ	-6530
▁सेवानिवृत्त	-6531
',	-6532
-7	-6533
11	-6534
83	-6535
JP	-6536
ce	-6537
ly	-6538
me	-6539
ub	-6540
ँग	-6541
ंथ	-6542
आज	-6543
गह	-6544
गि	-6545
ट्	-6546
ण्	-6547
तल	-6548
थल	-6549
बै	-6550
यो	-6551
ूद	-6552
ैम	-6553
्ठ	-6554
▁X	-6555
▁e	-6556
▁y	-6557
▁̈	-6558
-15	-6559
-17	-6560
-18	-6561
ass	-6562
ies	-6563
now	-6564
out	-6565
uck	-6566
करे	-6567
काय	-6568
कित	-6569
जुए	-6570
ज्य	-6571
डऩे	-6572
ड़न	-6573
दरी	-6574
दून	-6575
नाश	-6576
पया	-6577
प्ल	-6578
फ़ी	-6579
फुल	-6580
भूत	-6581
भेद	-6582
लाइ	-6583
वत्	-6584
शीर	-6585
षित	-6586
सात	-6587
सेज	-6588
ामक	-6589
ाहि	-6590
िती	-6591
िनर	-6592
िमा	-6593
िसा	-6594
ुणा	-6595
ेली	-6596
ेशर	-6597
ोली	-6598
्वे	-6599
्‍त	-6600
▁''	-6601
▁01	-6602
▁41	-6603
▁51	-6604
▁Ch	-6605
▁Of	-6606
▁ओड	-6607
▁कं	-6608
▁छु	-6609
▁तन	-6610
▁तल	-6611
▁फट	-6612
▁रज	-6613
land	-6614
ंस्य	-6615
आईटी	-6616
एमसी	-6617
करों	-6618
कार्	-6619
जागर	-6620
टरों	-6621
डिय़	-6622
त्सव	-6623
त्सा	-6624
न्नी	-6625
न्‍न	-6626
पंथी	-6627
पनों	-6628
पाठी	-6629
प्पी	-6630
ब्बे	-6631
मिशन	-6632
म्बई	-6633
यंती	-6634
रिटी	-6635
र्की	-6636
वाणी	-6637
हप्र	-6638
ांचे	-6639
ांनी	-6640
िवेश	-6641
ूनों	-6642
्मान	-6643
▁195	-6644
▁202	-6645
▁Pre	-6646
▁Sep	-6647
▁अमी	-6648
▁आजम	-6649
▁आधा	-6650
▁आधे	-6651
▁आली	-6652
▁आवं	-6653
▁ऐंड	-6654
▁ऑफ़	-6655
▁कंग	-6656
▁कमर	-6657
▁कमि	-6658
▁कोट	-6659
▁खां	-6660
▁खाम	-6661
▁गला	-6662
▁गार	-6663
▁गेल	-6664
▁जहर	-6665
▁जाल	-6666
▁ठिक	-6667
▁डिक	-6668
▁ढूं	-6669
▁दही	-6670
▁धूल	-6671
▁ध्व	-6672
▁नमक	-6673
▁नवा	-6674
▁पलट	-6675
▁पाप	-6676
▁पिट	-6677
▁बचे	-6678
▁बुक	-6679
▁बेस	-6680
▁बैन	-6681
▁भिव	-6682
▁भूप	-6683
▁मज़	-6684
▁मदन	-6685
▁मुज	-6686
▁राठ	-6687
▁लाश	-6688
▁लिव	-6689
▁वाम	-6690
▁वास	-6691
▁वैल	-6692
▁शेर	-6693
▁शौक	-6694
▁सकी	-6695
▁सफर	-6696
▁सहज	-6697
▁साई	-6698
▁साव	-6699
▁सैं	-6700
▁हनी	-6701
▁हॉल	-6702
कालिक	-6703
थियों	-6704
दर्शी	-6705
द्धति	-6706
द्रोह	-6707
धानिक	-6708
निरपे	-6709
नेशनल	-6710
फाइनल	-6711
फॉर्म	-6712
भाजपा	-6713
लिन्स	-6714
लियों	-6715
लेजों	-6716
वाड़ी	-6717
शक्ति	-6718
ष्कार	-6719
स्पति	-6720
ार्थी	-6721
िमंडल	-6722
ुलेंस	-6723
ृत्ति	-6724
्रेसी	-6725
▁2009	-6726
▁Post	-6727
▁Test	-6728
▁अगला	-6729
▁अजीब	-6730
▁अदरक	-6731
▁अनुश	-6732
▁आंसू	-6733
▁आसार	-6734
▁उठता	-6735
▁उत्‍	-6736
▁उसमे	-6737
▁एफआई	-6738
▁किरा	-6739
▁गर्ल	-6740
▁गवाह	-6741
▁गोयल	-6742
▁चलाए	-6743
▁चावल	-6744
▁चिल्	-6745
▁चुने	-6746
▁चैंप	-6747
▁जुटा	-6748
▁ज्या	-6749
▁झाड़	-6750
▁झूठे	-6751
▁टर्म	-6752
▁टीचर	-6753
▁डीएम	-6754
▁तनाव	-6755
▁दीर्	-6756
▁दुःख	-6757
▁देगी	-6758
▁देरी	-6759
▁नाटक	-6760
▁नींद	-6761
▁नेगी	-6762
▁पढ़ी	-6763
▁पद्म	-6764
▁पवार	-6765
▁पापा	-6766
▁पीटर	-6767
▁पेशे	-6768
▁पैदल	-6769
▁प्रय	-6770
▁फूफा	-6771
▁बचने	-6772
▁बसंत	-6773
▁बसपा	-6774
▁बहाल	-6775
▁बापू	-6776
▁बैठा	-6777
▁ब्लड	-6778
▁माफी	-6779
▁माला	-6780
▁मुग़	-6781
▁मेगा	-6782
▁राजन	-6783
▁लाइव	-6784
▁लिखे	-6785
▁लौटे	-6786
▁विवश	-6787
▁शरीफ	-6788
▁संतु	-6789
▁सांग	-6790
▁साफ़	-6791
▁साहू	-6792
▁सूरज	-6793
▁सेंट	-6794
▁सौदा	-6795
▁स्मि	-6796
▁हलचल	-6797
▁हीरा	-6798
▁हीरो	-6799
......	-6800
ebsite	-6801
क्ताओं	-6802
देशालय	-6803
पचारिक	-6804
श्वासन	-6805
▁अन्ना	-6806
▁उर्दू	-6807
▁एक्सर	-6808
▁ओडिशा	-6809
▁खातों	-6810
▁खुलकर	-6811
▁खोलने	-6812
▁घंटों	-6813
▁चीजें	-6814
▁छोड़ा	-6815
▁जताते	-6816
▁जनसभा	-6817
▁जमानत	-6818
▁जयंती	-6819
▁जवाहर	-6820
▁जानता	-6821
▁जिल्ह	-6822
▁टीमों	-6823
▁ड्रोन	-6824
▁तीर्थ	-6825
▁तुलसी	-6826
▁त्याग	-6827
▁दरबार	-6828
▁दवाओं	-6829
▁दिलाई	-6830
▁द्वार	-6831
▁नाकाम	-6832
▁निंदा	-6833
▁निचले	-6834
▁निवास	-6835
▁नैतिक	-6836
▁नोएडा	-6837
▁पड़ती	-6838
▁पड़ोस	-6839
▁पात्र	-6840
▁पैसों	-6841
▁फसलों	-6842
▁फिरोज	-6843
▁बकवास	-6844
▁बाहरी	-6845
▁ब्राउ	-6846
▁मनोहर	-6847
▁मांगे	-6848
▁मिर्च	-6849
▁रुपया	-6850
▁रोशनी	-6851
▁लड़का	-6852
▁वर्दी	-6853
▁विजयी	-6854
▁विवेक	-6855
▁सीखने	-6856
▁सुभाष	-6857
▁सुशील	-6858
▁सुषमा	-6859
▁सैनिक	-6860
▁सौंपा	-6861
▁स्क्र	-6862
▁स्पेश	-6863
ication	-6864
▁अंदाजा	-6865
▁अनुकूल	-6866
▁अनुदान	-6867
▁अनुवाद	-6868
▁अनुसंध	-6869
▁असल्या	-6870
▁आकर्षण	-6871
▁आक्रमण	-6872
▁आत्मवि	-6873
▁आह्वान	-6874
▁उच्चतम	-6875
▁करेंगी	-6876
▁कांस्य	-6877
▁कुत्ते	-6878
▁कोचिंग	-6879
▁गड़बड़	-6880
▁गवर्नर	-6881
▁चाहिये	-6882
▁जंगलों	-6883
▁जनगणना	-6884
▁ज़रूरत	-6885
▁जोड़ने	-6886
▁दरवाजा	-6887
▁देशमुख	-6888
▁पकड़ने	-6889
▁पद्धति	-6890
▁पहुँचा	-6891
▁प्रदीप	-6892
▁बादशाह	-6893
▁बिहारी	-6894
▁माफिया	-6895
▁राजनाथ	-6896
▁रामायण	-6897
▁रोजाना	-6898
▁लड़कों	-6899
▁लिहाजा	-6900
▁विडियो	-6901
▁विरासत	-6902
▁संपन्न	-6903
▁सभ्यता	-6904
▁सवालों	-6905
▁सहकारी	-6906
▁सेल्फी	-6907
▁स्पीकर	-6908
▁हिम्मत	-6909
▁Loading	-6910
▁आश्वासन	-6911
▁इस्लामी	-6912
▁एकमात्र	-6913
▁ओटीएफडी	-6914
▁काउंसिल	-6915
▁किताबें	-6916
▁कॉलेजों	-6917
▁कोलिन्स	-6918
▁ख़िलाफ़	-6919
▁चेतावनी	-6920
▁दक्षिणी	-6921
▁निर्मित	-6922
▁पंजीकरण	-6923
▁प्रवासी	-6924
▁फायरिंग	-6925
▁ब्रिटेन	-6926
▁लक्ष्मण	-6927
▁साथियों	-6928
▁हार्दिक	-6929
▁अधिकारों	-6930
▁अधिग्रहण	-6931
▁अधिसूचना	-6932
▁आतंकियों	-6933
▁उपायुक्त	-6934
▁त्रिपाठी	-6935
▁त्रिपुरा	-6936
▁दूरसंचार	-6937
▁देहरादून	-6938
▁वास्तविक	-6939
▁साझेदारी	-6940
▁स्टेशनों	-6941
▁अंग्रेजों	-6942
▁अल्पसंख्य	-6943
▁इंटरनेशनल	-6944
▁क्षेत्रीय	-6945
▁तैयारियां	-6946
▁तैयारियों	-6947
▁प्रत्यक्ष	-6948
▁प्रिंसिपल	-6949
▁मूल्यांकन	-6950
▁विचारधारा	-6951
▁संवेदनशील	-6952
▁मार्गदर्शन	-6953
▁मोटरसाइकिल	-6954
▁विद्यार्थी	-6955
▁इंस्टीट्यूट	-6956
▁महाविद्यालय	-6957
,6	-6958
--	-6959
.’	-6960
46	-6961
:0	-6962
IT	-6963
oc	-6964
wj	-6965
ँह	-6966
अस	-6967
ईन	-6968
ऑफ	-6969
डम	-6970
नक	-6971
मण	-6972
मल	-6973
मह	-6974
यद	-6975
वण	-6976
व्	-6977
ाध	-6978
ैग	-6979
ैड	-6980
ोई	-6981
।)	-6982
▁६	-6983
age	-6984
app	-6985
ash	-6986
dit	-6987
ile	-6988
ith	-6989
ont	-6990
ook	-6991
ort	-6992
our	-6993
uth	-6994
ँगा	-6995
ँसी	-6996
ंटन	-6997
कला	-6998
कीत	-6999
गित	-7000
डनी	-7001
ड़क	-7002
डिट	-7003
डून	-7004
णिक	-7005
णिज	-7006
तीत	-7007
थित	-7008
परि	-7009
पार	-7010
पीठ	-7011
पौर	-7012
बंद	-7013
बदल	-7014
बाग	-7015
मंड	-7016
मला	-7017
रिए	-7018
रित	-7019
रिय	-7020
रीद	-7021
लिख	-7022
वनि	-7023
विड	-7024
वीप	-7025
व्र	-7026
शिव	-7027
साम	-7028
सेन	-7029
हाद	-7030
ह्न	-7031
ांव	-7032
ुके	-7033
ूटी	-7034
ृदय	-7035
ेयक	-7036
ोजक	-7037
ोबल	-7038
ौदा	-7039
्टे	-7040
▁47	-7041
▁63	-7042
▁No	-7043
▁is	-7044
▁me	-7045
▁us	-7046
▁ओल	-7047
▁कव	-7048
▁गज	-7049
▁जख	-7050
▁जद	-7051
▁नक	-7052
▁पश	-7053
▁फु	-7054
▁बट	-7055
▁मच	-7056
▁हौ	-7057
▁१९	-7058
ated	-7059
logg	-7060
ंगिक	-7061
ंचित	-7062
आरडी	-7063
कांड	-7064
च्‍च	-7065
छाड़	-7066
जिया	-7067
तानी	-7068
नीति	-7069
नेलो	-7070
पटॉप	-7071
पुरम	-7072
बिया	-7073
भूति	-7074
मुझे	-7075
यानी	-7076
राशि	-7077
रेशन	-7078
र्जर	-7079
र्या	-7080
लिटी	-7081
ल्ला	-7082
वर्ड	-7083
वहार	-7084
वाजी	-7085
विजन	-7086
विटी	-7087
वेंट	-7088
वेदी	-7089
शियन	-7090
सेवी	-7091
स्‍त	-7092
हपुर	-7093
हिता	-7094
ांतर	-7095
ायलट	-7096
ैलरी	-7097
्राई	-7098
्रेन	-7099
▁120	-7100
▁Eng	-7101
▁app	-7102
▁nan	-7103
▁pro	-7104
▁अगु	-7105
▁अमा	-7106
▁अरे	-7107
▁असल	-7108
▁आगा	-7109
▁आयी	-7110
▁ईडी	-7111
▁एंज	-7112
▁कटा	-7113
▁कैप	-7114
▁कैल	-7115
▁कोण	-7116
▁कोर	-7117
▁चर्	-7118
▁चैट	-7119
▁छठे	-7120
▁छीन	-7121
▁जगा	-7122
▁जात	-7123
▁जूझ	-7124
▁टोल	-7125
▁डाक	-7126
▁डूब	-7127
▁ढाई	-7128
▁तड़	-7129
▁दखल	-7130
▁दया	-7131
▁दशा	-7132
▁दाय	-7133
▁दीन	-7134
▁दुस	-7135
▁धमक	-7136
▁नहर	-7137
▁परे	-7138
▁पाव	-7139
▁पॉल	-7140
▁फिस	-7141
▁फीट	-7142
▁फें	-7143
▁बड़	-7144
▁बहर	-7145
▁बीत	-7146
▁बृह	-7147
▁बेन	-7148
▁बेश	-7149
▁भूत	-7150
▁मसल	-7151
▁माओ	-7152
▁मात	-7153
▁रति	-7154
▁रवी	-7155
▁राग	-7156
▁रोह	-7157
▁लीक	-7158
▁वेल	-7159
▁वेश	-7160
▁शहद	-7161
▁शिर	-7162
▁शैल	-7163
▁सता	-7164
▁सरल	-7165
▁सरा	-7166
▁सहन	-7167
▁सूट	-7168
▁सेव	-7169
▁हिल	-7170
▁होत	-7171
arket	-7172
ंतरिक	-7173
कामना	-7174
क्ष्य	-7175
चित्र	-7176
णिज्य	-7177
नैतिक	-7178
न्नति	-7179
न्नाव	-7180
पोरेट	-7181
फार्म	-7182
ब्दील	-7183
मैंने	-7184
योग्य	-7185
राबरी	-7186
वर्धन	-7187
वेस्ट	-7188
शुल्क	-7189
सुराल	-7190
स्तों	-7191
ासपुर	-7192
ोरेशन	-7193
▁More	-7194
▁अंधे	-7195
▁अनुभ	-7196
▁आपसे	-7197
▁आयुष	-7198
▁आवेद	-7199
▁कंटे	-7200
▁कठोर	-7201
▁केले	-7202
▁कैसी	-7203
▁ख़ुद	-7204
▁खुली	-7205
▁खेली	-7206
▁गणित	-7207
▁गहरे	-7208
▁गौड़	-7209
▁घबरा	-7210
▁छाया	-7211
▁जलवा	-7212
▁जादू	-7213
▁जीती	-7214
▁जुटे	-7215
▁डेटा	-7216
▁तलाक	-7217
▁ताना	-7218
▁दर्श	-7219
▁दांत	-7220
▁नर्स	-7221
▁नीरज	-7222
▁नेहा	-7223
▁पंछी	-7224
▁पराम	-7225
▁पहना	-7226
▁पाती	-7227
▁पीजी	-7228
▁फंसे	-7229
▁फ्लू	-7230
▁बदली	-7231
▁बनती	-7232
▁बेंच	-7233
▁बोला	-7234
▁ब्रि	-7235
▁मलिक	-7236
▁मीना	-7237
▁मुल्	-7238
▁मेले	-7239
▁यूजर	-7240
▁रहकर	-7241
▁रिक्	-7242
▁ललित	-7243
▁लौटा	-7244
▁वरीय	-7245
▁वादा	-7246
▁विजे	-7247
▁विफल	-7248
▁वॉटर	-7249
▁शोभा	-7250
▁सटीक	-7251
▁सीपी	-7252
▁सीबी	-7253
▁सेमी	-7254
▁सोनम	-7255
▁स्तन	-7256
▁स्वि	-7257
▁हमीर	-7258
▁हुईं	-7259
tember	-7260
क्षणिक	-7261
ड़ियां	-7262
पक्षीय	-7263
पिक्सल	-7264
वार्टर	-7265
वार्ता	-7266
िवारिक	-7267
ुरुस्त	-7268
▁अंकों	-7269
▁अध्‍य	-7270
▁अय्यर	-7271
▁अरुणा	-7272
▁अवकाश	-7273
▁आईएएस	-7274
▁आनन्द	-7275
▁इंस्ट	-7276
▁उत्पी	-7277
▁उत्सव	-7278
▁उद्यम	-7279
▁ऊंचाई	-7280
▁एजेंट	-7281
▁एटीएम	-7282
▁कपड़ा	-7283
▁कारगर	-7284
▁क्लास	-7285
▁खन्ना	-7286
▁खुदरा	-7287
▁ख्याल	-7288
▁ग्रेड	-7289
▁चलाया	-7290
▁चुनने	-7291
▁चेहरा	-7292
▁जताया	-7293
▁ज़रूर	-7294
▁जागरण	-7295
▁जानें	-7296
▁ठाकरे	-7297
▁डालने	-7298
▁दंगों	-7299
▁दिखती	-7300
▁दिलीप	-7301
▁निभाई	-7302
▁पर्दे	-7303
▁पायलट	-7304
▁पुरूष	-7305
▁पेशकश	-7306
▁प्रजा	-7307
▁प्रथा	-7308
▁बताना	-7309
▁बर्दा	-7310
▁बलदेव	-7311
▁बीएसई	-7312
▁बुराई	-7313
▁बेंगल	-7314
▁भंडार	-7315
▁मानता	-7316
▁मानें	-7317
▁मारकर	-7318
▁मुग़ल	-7319
▁मुझसे	-7320
▁मौर्य	-7321
▁यमुना	-7322
▁राउंड	-7323
▁लिफ्ट	-7324
▁वंचित	-7325
▁वायरस	-7326
▁संतान	-7327
▁संस्‍	-7328
▁समझते	-7329
▁सहमति	-7330
▁साइंस	-7331
▁सुनकर	-7332
▁स्मिथ	-7333
▁हल्के	-7334
त्तियों	-7335
▁अनुरूप	-7336
▁अपनाया	-7337
▁अफसरों	-7338
▁अर्थात	-7339
▁अवसरों	-7340
▁अवार्ड	-7341
▁आंतरिक	-7342
▁आरबीआई	-7343
▁आरोपित	-7344
▁उन्नाव	-7345
▁उन्हीं	-7346
▁उपरांत	-7347
▁ऋषिकेश	-7348
▁एक्टिव	-7349
▁करूंगा	-7350
▁कामयाब	-7351
▁कुमारी	-7352
▁कैप्टन	-7353
▁कैरियर	-7354
▁खासतौर	-7355
▁चिट्ठी	-7356
▁जनजाति	-7357
▁ज़रूरी	-7358
▁जूनियर	-7359
▁ट्रस्ट	-7360
▁ठहराया	-7361
▁डेब्यू	-7362
▁तबादला	-7363
▁तब्दील	-7364
▁तरक्की	-7365
▁दिव्या	-7366
▁दोस्ती	-7367
▁धनराशि	-7368
▁निकाली	-7369
▁निशाने	-7370
▁पड़ताल	-7371
▁पिछड़े	-7372
▁प्रशास	-7373
▁फिल्मी	-7374
▁फ्रांस	-7375
▁बर्बाद	-7376
▁बालिका	-7377
▁ब्रांच	-7378
▁भिवानी	-7379
▁मत्स्य	-7380
▁मांगों	-7381
▁मानवीय	-7382
▁माल्या	-7383
▁मुआवजा	-7384
▁मेजबान	-7385
▁यूनियन	-7386
▁रामलाल	-7387
▁रिटर्न	-7388
▁वर्गों	-7389
▁वस्त्र	-7390
▁विधेयक	-7391
▁व्यस्त	-7392
▁शुरूआत	-7393
▁संहिता	-7394
▁सानिया	-7395
▁सोनीपत	-7396
▁हंगामा	-7397
▁उन्‍हें	-7398
▁उपचुनाव	-7399
▁उपन्यास	-7400
▁उपलब्धि	-7401
▁किताबों	-7402
▁ग्राउंड	-7403
▁जलमार्ग	-7404
▁देखेंगे	-7405
▁प्रदेशा	-7406
▁प्रशंसा	-7407
▁प्रसन्न	-7408
▁प्रोटीन	-7409
▁रणनीतिक	-7410
▁वाणिज्य	-7411
▁वीरभद्र	-7412
▁संपादित	-7413
▁सरकारों	-7414
▁सलाहकार	-7415
▁अंतरिक्ष	-7416
▁अनुसंधान	-7417
▁अहमदाबाद	-7418
▁आयुर्वेद	-7419
▁उपभोक्ता	-7420
▁एक्सपर्ट	-7421
▁एचडीएफसी	-7422
▁एयरपोर्ट	-7423
▁कहानियों	-7424
▁केंद्रों	-7425
▁गुड़गांव	-7426
▁ट्रैक्शन	-7427
▁दस्तावेज	-7428
▁नारेबाजी	-7429
▁परिणामों	-7430
▁पहुंचाया	-7431
▁प्रसारित	-7432
▁प्रोत्सा	-7433
▁फायदेमंद	-7434
▁बिलासपुर	-7435
▁बृहस्पति	-7436
▁शुभकामना	-7437
▁शैक्षणिक	-7438
▁सम्बोधित	-7439
▁सीसीटीवी	-7440
▁स्वीकृति	-7441
▁एक्सरसाइज	-7442
▁पारिवारिक	-7443
▁प्रतिष्ठा	-7444
▁महामंत्री	-7445
▁हस्तक्षेप	-7446
▁इंश्योरेंस	-7447
▁कार्यालयों	-7448
▁जिलाधिकारी	-7449
▁पेट्रोलियम	-7450
▁फोटोग्राफी	-7451
▁मेगापिक्सल	-7452
▁रजिस्ट्रेशन	-7453
▁श्रद्धालुओं	-7454
18	-7455
36	-7456
70	-7457
9)	-7458
:-	-7459
:5	-7460
AT	-7461
CI	-7462
EE	-7463
ho	-7464
tt	-7465
ँच	-7466
आन	-7467
झी	-7468
टू	-7469
ढे	-7470
नस	-7471
फन	-7472
वट	-7473
ि‍	-7474
ुष	-7475
ूज	-7476
ॉस	-7477
्ज	-7478
▁&	-7479
▁•	-7480
ame	-7481
ari	-7482
cre	-7483
ice	-7484
ink	-7485
old	-7486
ous	-7487
ric	-7488
ंचल	-7489
ंजा	-7490
ंधन	-7491
ंसक	-7492
इये	-7493
एगा	-7494
कभी	-7495
कलन	-7496
कुछ	-7497
केर	-7498
कोष	-7499
गें	-7500
गेड	-7501
चाप	-7502
जगह	-7503
टेक	-7504
दंड	-7505
धित	-7506
धीर	-7507
पणन	-7508
पिन	-7509
बीच	-7510
बेस	-7511
ब्स	-7512
मिन	-7513
म्स	-7514
याय	-7515
युग	-7516
रीश	-7517
रेप	-7518
रोध	-7519
लीफ	-7520
ल्फ	-7521
वला	-7522
शतक	-7523
श्र	-7524
सरत	-7525
सले	-7526
साफ	-7527
सूल	-7528
ामु	-7529
ारन	-7530
ासा	-7531
ाहे	-7532
िकन	-7533
िणी	-7534
ुरी	-7535
ुली	-7536
ैंक	-7537
ौलत	-7538
्टो	-7539
्बा	-7540
▁2.	-7541
▁44	-7542
▁5.	-7543
▁56	-7544
▁67	-7545
▁68	-7546
▁74	-7547
▁Is	-7548
▁Ki	-7549
▁at	-7550
▁ch	-7551
▁nm	-7552
▁आक	-7553
▁उछ	-7554
▁ऊँ	-7555
▁डू	-7556
▁ढल	-7557
▁तौ	-7558
▁बँ	-7559
▁यो	-7560
▁लह	-7561
▁षड	-7562
able	-7563
ideo	-7564
lick	-7565
wali	-7566
ंतोष	-7567
ंदूर	-7568
ंपिक	-7569
आईएम	-7570
उन्ह	-7571
एनएस	-7572
कुशी	-7573
चुअल	-7574
ज्जा	-7575
झाने	-7576
ड़की	-7577
डीकल	-7578
ड्डी	-7579
णमूल	-7580
त्रु	-7581
त्वा	-7582
दानी	-7583
धड़ी	-7584
धाना	-7585
न्‍च	-7586
पकों	-7587
पाली	-7588
पूर्	-7589
बर्ग	-7590
बाज़	-7591
भवती	-7592
मराह	-7593
मारक	-7594
मेरी	-7595
रोवर	-7596
र्शी	-7597
लपुर	-7598
लाना	-7599
लिये	-7600
लेटर	-7601
विधि	-7602
श्नर	-7603
ष्‍ट	-7604
सनीय	-7605
सारी	-7606
सीमल	-7607
ांचा	-7608
ाराम	-7609
ूँगा	-7610
ूंकि	-7611
ेशंस	-7612
ॉफ्ट	-7613
्‍ला	-7614
▁2.5	-7615
▁HSL	-7616
▁Nov	-7617
▁RGB	-7618
▁The	-7619
▁Tim	-7620
▁अतः	-7621
▁अभय	-7622
▁अशा	-7623
▁अशी	-7624
▁असह	-7625
▁आधी	-7626
▁आरा	-7627
▁उठी	-7628
▁उमर	-7629
▁एंट	-7630
▁एडि	-7631
▁एपी	-7632
▁एबी	-7633
▁ओपन	-7634
▁कदर	-7635
▁कन्	-7636
▁कृत	-7637
▁गाल	-7638
▁गाव	-7639
▁गेह	-7640
▁घटी	-7641
▁घेत	-7642
▁चतु	-7643
▁चुक	-7644
▁जेब	-7645
▁जॉन	-7646
▁झलक	-7647
▁ताज	-7648
▁दोन	-7649
▁नज़	-7650
▁नाथ	-7651
▁न्य	-7652
▁पीट	-7653
▁पीस	-7654
▁पैं	-7655
▁फॉर	-7656
▁बख्	-7657
▁बाघ	-7658
▁बाज	-7659
▁बाप	-7660
▁बाब	-7661
▁बाह	-7662
▁बैड	-7663
▁बोर	-7664
▁भला	-7665
▁भेद	-7666
▁भोज	-7667
▁मंड	-7668
▁मधे	-7669
▁मरा	-7670
▁मशी	-7671
▁यार	-7672
▁रेत	-7673
▁लाह	-7674
▁लोह	-7675
▁वेट	-7676
▁वेद	-7677
▁शर्	-7678
▁शेत	-7679
▁संभ	-7680
▁सदर	-7681
▁सफ़	-7682
▁सिख	-7683
▁सील	-7684
▁सुश	-7685
▁सूच	-7686
▁हमे	-7687
▁हरे	-7688
ction	-7689
vious	-7690
ंद्रा	-7691
क्ट्स	-7692
क्ष्म	-7693
ख्यात	-7694
ट्रिक	-7695
डाफोन	-7696
तायात	-7697
धारणा	-7698
निष्ठ	-7699
फारिश	-7700
भाविक	-7701
रिएंट	-7702
र्ध्य	-7703
वालों	-7704
वाहिक	-7705
वेजों	-7706
ष्वास	-7707
सायटी	-7708
सेक्स	-7709
ाह्मण	-7710
▁1000	-7711
▁2000	-7712
▁more	-7713
▁अचार	-7714
▁अटैक	-7715
▁अभाव	-7716
▁असफल	-7717
▁आचार	-7718
▁आहार	-7719
▁इसने	-7720
▁ईंधन	-7721
▁एसिड	-7722
▁कंधे	-7723
▁कक्ष	-7724
▁कमाल	-7725
▁करून	-7726
▁कहता	-7727
▁काशी	-7728
▁काही	-7729
▁किले	-7730
▁कैला	-7731
▁कैल्	-7732
▁कॉफी	-7733
▁कोने	-7734
▁क्रो	-7735
▁गाली	-7736
▁गिरा	-7737
▁ग्रह	-7738
▁घाटा	-7739
▁घेवर	-7740
▁चंबा	-7741
▁चढ़ा	-7742
▁चलना	-7743
▁चलें	-7744
▁चालू	-7745
▁चौथी	-7746
▁जाधव	-7747
▁जिया	-7748
▁जीजा	-7749
▁जीने	-7750
▁झाला	-7751
▁टेबल	-7752
▁ठण्ड	-7753
▁तरंग	-7754
▁तालु	-7755
▁दरों	-7756
▁दहेज	-7757
▁दिना	-7758
▁दीदी	-7759
▁देखो	-7760
▁धरना	-7761
▁धीमी	-7762
▁नवाज	-7763
▁नाना	-7764
▁निया	-7765
▁परिश	-7766
▁पांव	-7767
▁पाएं	-7768
▁पाटी	-7769
▁पादु	-7770
▁पाना	-7771
▁पिंक	-7772
▁पिला	-7773
▁पीला	-7774
▁पैके	-7775
▁पॉलि	-7776
▁प्रॉ	-7777
▁फोकस	-7778
▁बंदर	-7779
▁बंधन	-7780
▁बंबई	-7781
▁बचना	-7782
▁बजाए	-7783
▁बर्थ	-7784
▁बलों	-7785
▁बाधा	-7786
▁बाबत	-7787
▁बारह	-7788
▁बुरे	-7789
▁ब्लॉ	-7790
▁भीषण	-7791
▁भेंट	-7792
▁भेजी	-7793
▁मजाक	-7794
▁माँग	-7795
▁मारी	-7796
▁मिमी	-7797
▁मेयर	-7798
▁मेरठ	-7799
▁यूएस	-7800
▁राखी	-7801
▁रूसी	-7802
▁रोटी	-7803
▁लगीं	-7804
▁लालच	-7805
▁लैंड	-7806
▁वरना	-7807
▁वादे	-7808
▁विद्	-7809
▁व्यय	-7810
▁शर्त	-7811
▁शाला	-7812
▁संतृ	-7813
▁सबके	-7814
▁समलै	-7815
▁साधा	-7816
▁सावन	-7817
▁साहस	-7818
▁सैयद	-7819
▁सोनू	-7820
▁सौरभ	-7821
▁स्वत	-7822
▁हृदय	-7823
ंडीकेट	-7824
क्साडे	-7825
निर्मा	-7826
श्मीरी	-7827
ानुसार	-7828
ान्यास	-7829
▁अन्तर	-7830
▁अलर्ट	-7831
▁आंखें	-7832
▁इनेलो	-7833
▁उजागर	-7834
▁उड़ान	-7835
▁उत्तम	-7836
▁उत्ते	-7837
▁एजुके	-7838
▁एरिया	-7839
▁कंगना	-7840
▁कनाडा	-7841
▁कब्जा	-7842
▁कराये	-7843
▁कामना	-7844
▁कार्ब	-7845
▁खांसी	-7846
▁गर्दन	-7847
▁गोदाम	-7848
▁चलाते	-7849
▁चारों	-7850
▁चूंकि	-7851
▁चैम्प	-7852
▁जोड़े	-7853
▁तादाद	-7854
▁दतिया	-7855
▁दर्शक	-7856
▁दीर्घ	-7857
▁देशभर	-7858
▁धमाके	-7859
▁नजदीक	-7860
▁नतीजा	-7861
▁निकली	-7862
▁नॉर्थ	-7863
▁पकड़ा	-7864
▁पकड़े	-7865
▁पटाखे	-7866
▁पत्ते	-7867
▁पद्मा	-7868
▁पहनने	-7869
▁पीडि़	-7870
▁पुराण	-7871
▁प्रका	-7872
▁फटकार	-7873
▁बकाया	-7874
▁बजरंग	-7875
▁बताता	-7876
▁बरेली	-7877
▁बस्तर	-7878
▁बहुमत	-7879
▁बिंदु	-7880
▁बेचने	-7881
▁बोलने	-7882
▁भरोसे	-7883
▁मंजिल	-7884
▁मतदार	-7885
▁मसीहा	-7886
▁महंगी	-7887
▁मासिक	-7888
▁मुरली	-7889
▁यशवंत	-7890
▁यूपीए	-7891
▁रूपये	-7892
▁लकड़ी	-7893
▁वर्षा	-7894
▁विज्ञ	-7895
▁विपणन	-7896
▁वोटों	-7897
▁संवत्	-7898
▁सरपंच	-7899
▁सर्दी	-7900
▁सिविल	-7901
▁सेल्स	-7902
▁सोचना	-7903
▁स्किन	-7904
▁स्टोर	-7905
▁स्नान	-7906
▁स्वाद	-7907
▁हटाया	-7908
▁हराया	-7909
▁हिमाल	-7910
▁हैरान	-7911
ेक्ट्रम	-7912
▁अनदेखी	-7913
▁अनुपात	-7914
▁अनुभवी	-7915
▁अपराधी	-7916
▁आईपीएस	-7917
▁आईसीसी	-7918
▁इंतजाम	-7919
▁इकट्ठा	-7920
▁इस्राई	-7921
▁उत्सुक	-7922
▁एफआईआर	-7923
▁कमांडर	-7924
▁कम्पनी	-7925
▁कार्या	-7926
▁गारंटी	-7927
▁ग्राहक	-7928
▁घटनाएं	-7929
▁चालकों	-7930
▁जलवायु	-7931
▁झाल्या	-7932
▁डाकिया	-7933
▁डाक्टर	-7934
▁तुर्की	-7935
▁तृणमूल	-7936
▁तोड़ने	-7937
▁नवम्बर	-7938
▁निपटने	-7939
▁पहलुओं	-7940
▁पांडेय	-7941
▁पॉपुलर	-7942
▁प्रवर्	-7943
▁प्रवाह	-7944
▁प्रेमी	-7945
▁प्रेशर	-7946
▁प्लांट	-7947
▁फ़्लोर	-7948
▁फ्लाइट	-7949
▁बढ़ाया	-7950
▁बढ़ेगा	-7951
▁बराबरी	-7952
▁बिलकुल	-7953
▁बुनिया	-7954
▁मदरसों	-7955
▁मशीनों	-7956
▁मस्जिद	-7957
▁माइक्र	-7958
▁मामूली	-7959
▁मेहमान	-7960
▁युवराज	-7961
▁रिश्वत	-7962
▁रेटिंग	-7963
▁लगेंगे	-7964
▁लेनदेन	-7965
▁लॉन्‍च	-7966
▁शिक्षण	-7967
▁शिवपाल	-7968
▁संध्या	-7969
▁सराहना	-7970
▁ससुराल	-7971
▁साधारण	-7972
▁सेफ्टी	-7973
▁सोनाली	-7974
▁स्पर्श	-7975
▁स्वराज	-7976
▁स्वाइन	-7977
कांग्रेस	-7978
▁अखबारों	-7979
▁अपराधों	-7980
▁आखिरकार	-7981
▁एक्टिंग	-7982
▁कनेक्शन	-7983
▁कश्मीरी	-7984
▁कामयाबी	-7985
▁कोशिशों	-7986
▁खुदकुशी	-7987
▁गणतंत्र	-7988
▁गर्भवती	-7989
▁गैंगरेप	-7990
▁ज्योतिष	-7991
▁डालमिया	-7992
▁दुकानों	-7993
▁दुरुस्त	-7994
▁दैर्ध्य	-7995
▁निलंबित	-7996
▁पहुंचते	-7997
▁प्रशांत	-7998
▁प्रैक्ट	-7999
▁ब्रिगेड	-8000
▁मधेपुरा	-8001
▁महत्त्व	-8002
▁मौजूदगी	-8003
▁यातायात	-8004
▁विवादों	-8005
▁विस्फोट	-8006
▁वोडाफोन	-8007
▁श्रीनगर	-8008
▁सावधानी	-8009
▁सिंधिया	-8010
▁सिफारिश	-8011
▁सोसायटी	-8012
▁स्टोरेज	-8013
▁स्वीकृत	-8014
▁हमीरपुर	-8015
▁हल्कापन	-8016
▁हिस्सों	-8017
▁Previous	-8018
▁कलाकारों	-8019
▁कैल्शियम	-8020
▁घटनाक्रम	-8021
▁घटनास्थल	-8022
▁ट्रांसफर	-8023
▁तस्वीरों	-8024
▁तेंदुलकर	-8025
▁देवेंद्र	-8026
▁धोखाधड़ी	-8027
▁नागालैंड	-8028
▁निदेशालय	-8029
▁पूर्णिमा	-8030
▁प्रकोष्ठ	-8031
▁बर्दाश्त	-8032
▁बर्फबारी	-8033
▁ब्राह्मण	-8034
▁मानसरोवर	-8035
▁मानसिकता	-8036
▁राजकुमार	-8037
▁विश्‍वास	-8038
▁संतृप्ति	-8039
▁संस्थापक	-8040
▁सब्जियां	-8041
▁सम्बंधित	-8042
▁सिंडीकेट	-8043
▁सुविधाओं	-8044
▁हैक्साडे	-8045
▁September	-8046
▁गेंदबाजों	-8047
▁न्यूयॉर्क	-8048
▁प्रदर्शनी	-8049
▁बीमारियों	-8050
▁व्यक्तिगत	-8051
▁शिलान्यास	-8052
▁स्पोर्ट्स	-8053
▁जिलाध्यक्ष	-8054
▁टेक्नोलॉजी	-8055
▁दस्तावेजों	-8056
▁प्रतिबंधित	-8057
▁प्रयोगशाला	-8058
▁स्पेक्ट्रम	-8059
▁हिंदुस्तान	-8060
▁अभ्यर्थियों	-8061
▁प्रतिनिधित्व	-8062
▁प्रत्याशियों	-8063
▁हैक्साडेसीमल	-8064
▁प्रदेशाध्यक्ष	-8065
,3	-8066
15	-8067
60	-8068
76	-8069
88	-8070
9,	-8071
>>	-8072
IM	-8073
ee	-8074
ls	-8075
ne	-8076
pd	-8077
pe	-8078
qu	-8079
ti	-8080
tw	-8081
xx	-8082
इप	-8083
खू	-8084
ङ्	-8085
डन	-8086
डॉ	-8087
बन	-8088
बॉ	-8089
वृ	-8090
शय	-8091
सद	-8092
▁$	-8093
▁४	-8094
▁५	-8095
-16	-8096
-19	-8097
.’’	-8098
ake	-8099
ong	-8100
ork	-8101
orm	-8102
oun	-8103
ran	-8104
ree	-8105
uri	-8106
ंगत	-8107
ंगन	-8108
ंबू	-8109
इकल	-8110
एगी	-8111
कता	-8112
कने	-8113
कपा	-8114
क़त	-8115
काज	-8116
कोण	-8117
क्व	-8118
जेश	-8119
जैन	-8120
टित	-8121
थला	-8122
थान	-8123
थाम	-8124
दड़	-8125
दित	-8126
नास	-8127
फाय	-8128
फिट	-8129
फेड	-8130
बाय	-8131
बिम	-8132
राइ	-8133
रार	-8134
रेन	-8135
रोक	-8136
लीक	-8137
ष्क	-8138
सीए	-8139
हरि	-8140
हेल	-8141
ारू	-8142
ॉफी	-8143
ोंद	-8144
ोगी	-8145
्मच	-8146
्रल	-8147
▁!!	-8148
▁4.	-8149
▁57	-8150
▁72	-8151
▁81	-8152
▁95	-8153
▁AM	-8154
▁IP	-8155
▁Vs	-8156
▁ke	-8157
▁अछ	-8158
▁इक	-8159
▁ऐप	-8160
▁कच	-8161
▁गड	-8162
▁गह	-8163
▁घन	-8164
▁चढ	-8165
▁छप	-8166
▁ढा	-8167
▁तग	-8168
▁तप	-8169
▁पठ	-8170
▁फि	-8171
▁मक	-8172
▁हं	-8173
ures	-8174
ंकार	-8175
इयां	-8176
उंडर	-8177
एसएल	-8178
क्चर	-8179
क्‍त	-8180
खोरी	-8181
गांठ	-8182
चुरी	-8183
जीवन	-8184
टाला	-8185
डीएस	-8186
तिथि	-8187
देशी	-8188
द्दा	-8189
नामा	-8190
न्नू	-8191
पालन	-8192
पीएल	-8193
प्रश	-8194
प्ला	-8195
फ़्त	-8196
बड़े	-8197
बाही	-8198
ब्बत	-8199
मपुर	-8200
मसंग	-8201
मानी	-8202
राहे	-8203
रेगा	-8204
लाबी	-8205
लोनी	-8206
ल्‍ड	-8207
वीएम	-8208
वीजन	-8209
ष्का	-8210
स्टल	-8211
स्पद	-8212
हाउस	-8213
ायें	-8214
ाहिम	-8215
िकोण	-8216
ियंस	-8217
िल्स	-8218
ूब्स	-8219
्मिक	-8220
्लाह	-8221
▁400	-8222
▁600	-8223
▁IST	-8224
▁add	-8225
▁use	-8226
▁अनी	-8227
▁अमन	-8228
▁आमद	-8229
▁इतर	-8230
▁उगा	-8231
▁उभर	-8232
▁ऋषि	-8233
▁एंब	-8234
▁एग्	-8235
▁कड़	-8236
▁कत्	-8237
▁काग	-8238
▁काढ	-8239
▁काॅ	-8240
▁केश	-8241
▁कॉर	-8242
▁खपत	-8243
▁खरा	-8244
▁गरम	-8245
▁गुड	-8246
▁घोल	-8247
▁चाइ	-8248
▁छान	-8249
▁छुआ	-8250
▁झूठ	-8251
▁टाल	-8252
▁टेक	-8253
▁टेल	-8254
▁डरा	-8255
▁डिफ	-8256
▁डिव	-8257
▁तंग	-8258
▁तरस	-8259
▁ताइ	-8260
▁दाऊ	-8261
▁नंद	-8262
▁नशा	-8263
▁नाच	-8264
▁निः	-8265
▁पंख	-8266
▁पते	-8267
▁पाउ	-8268
▁पाट	-8269
▁पान	-8270
▁पुत	-8271
▁पैड	-8272
▁पैन	-8273
▁प्‍	-8274
▁फार	-8275
▁फेम	-8276
▁फेल	-8277
▁बरत	-8278
▁बरी	-8279
▁बहि	-8280
▁बाँ	-8281
▁बीए	-8282
▁बीस	-8283
▁बेव	-8284
▁बॉल	-8285
▁भाज	-8286
▁मल्	-8287
▁माग	-8288
▁माध	-8289
▁मूड	-8290
▁मेन	-8291
▁मैक	-8292
▁मॉड	-8293
▁मोड	-8294
▁रिए	-8295
▁रिम	-8296
▁लंच	-8297
▁लहर	-8298
▁लाज	-8299
▁लात	-8300
▁लाद	-8301
▁लैब	-8302
▁लैस	-8303
▁वसु	-8304
▁शेख	-8305
▁शेड	-8306
▁शॉप	-8307
▁शोक	-8308
▁शौच	-8309
▁सीन	-8310
▁स्त	-8311
▁हसन	-8312
▁हिर	-8313
▁२०१	-8314
.....	-8315
umber	-8316
ंटरनल	-8317
इसेंस	-8318
कार्ट	-8319
क्षिक	-8320
त्‍या	-8321
दिष्ट	-8322
द्वाज	-8323
धिकृत	-8324
ध्याय	-8325
नानगर	-8326
पत्ति	-8327
प्रेम	-8328
भावना	-8329
मंत्र	-8330
मान्य	-8331
मिंटन	-8332
म्यान	-8333
राधिक	-8334
रिडोर	-8335
र्वाद	-8336
विन्द	-8337
हारों	-8338
ांजलि	-8339
ांतिक	-8340
िंद्र	-8341
िनेटर	-8342
िम्मे	-8343
्रेता	-8344
▁(200	-8345
▁2005	-8346
▁Card	-8347
▁अग्न	-8348
▁अतुल	-8349
▁अमाव	-8350
▁असले	-8351
▁आंसर	-8352
▁आभार	-8353
▁आशीष	-8354
▁आश्व	-8355
▁इनको	-8356
▁इमार	-8357
▁उतरी	-8358
▁उमेश	-8359
▁कड़ा	-8360
▁कड़े	-8361
▁कपास	-8362
▁कहला	-8363
▁क्यो	-8364
▁खजूर	-8365
▁घाटे	-8366
▁घुमा	-8367
▁चलिए	-8368
▁चांद	-8369
▁चिकन	-8370
▁छिपा	-8371
▁जश्न	-8372
▁जीते	-8373
▁जोंग	-8374
▁टावर	-8375
▁टिका	-8376
▁डाली	-8377
▁डिज़	-8378
▁ढूंढ	-8379
▁तहरी	-8380
▁तिलक	-8381
▁दादा	-8382
▁धातु	-8383
▁धारण	-8384
▁नमाज	-8385
▁पचास	-8386
▁पटरी	-8387
▁पाये	-8388
▁पीपी	-8389
▁पॉली	-8390
▁प्रच	-8391
▁फर्म	-8392
▁फाइल	-8393
▁फीसद	-8394
▁फूंक	-8395
▁फेरी	-8396
▁बचाओ	-8397
▁बजकर	-8398
▁बाबु	-8399
▁बेचा	-8400
▁बैनर	-8401
▁भगवा	-8402
▁भलाई	-8403
▁मन्द	-8404
▁मल्ल	-8405
▁मसलन	-8406
▁मसले	-8407
▁मानो	-8408
▁माले	-8409
▁मुँह	-8410
▁मूंग	-8411
▁यीशु	-8412
▁रंजन	-8413
▁रजनी	-8414
▁रसाय	-8415
▁रिंग	-8416
▁रेंज	-8417
▁लाकर	-8418
▁लेखा	-8419
▁लेटे	-8420
▁लेनी	-8421
▁वसूल	-8422
▁वाकई	-8423
▁व्‍य	-8424
▁शक्त	-8425
▁शैली	-8426
▁श्वे	-8427
▁संके	-8428
▁साँस	-8429
▁सीआई	-8430
▁सीधी	-8431
▁सीने	-8432
▁सोया	-8433
▁स्कॉ	-8434
▁स्टे	-8435
▁हाथी	-8436
▁हानि	-8437
▁हुयी	-8438
▁हैंड	-8439
ucknow	-8440
कार्पण	-8441
छात्रा	-8442
जेक्शन	-8443
डिय़ों	-8444
पोरेशन	-8445
प्रदाय	-8446
स्टाइल	-8447
होत्रा	-8448
ाग्राम	-8449
ारनपुर	-8450
▁2018:	-8451
▁अकाली	-8452
▁अत्या	-8453
▁अपलोड	-8454
▁अमेठी	-8455
▁आपलोग	-8456
▁आस्था	-8457
▁इवेंट	-8458
▁उतारा	-8459
▁ओबीसी	-8460
▁कच्चे	-8461
▁कमीशन	-8462
▁कराते	-8463
▁काटने	-8464
▁किंतु	-8465
▁किराए	-8466
▁कैलाश	-8467
▁क्रिस	-8468
▁क्रीम	-8469
▁क्लीन	-8470
▁खट्टर	-8471
▁खरीदा	-8472
▁खेलते	-8473
▁गिरने	-8474
▁गिरोह	-8475
▁ग्लास	-8476
▁घोड़े	-8477
▁चम्मच	-8478
▁चाहें	-8479
▁चौपाल	-8480
▁जख्मी	-8481
▁जन्मे	-8482
▁जबर्द	-8483
▁जरुरत	-8484
▁ज़मीन	-8485
▁जितने	-8486
▁ट्यूब	-8487
▁डिस्क	-8488
▁तबाही	-8489
▁त्रास	-8490
▁त्रिव	-8491
▁त्रुट	-8492
▁थोड़े	-8493
▁दिखाए	-8494
▁दूंगा	-8495
▁दृष्ट	-8496
▁नायडू	-8497
▁निगाह	-8498
▁नृत्य	-8499
▁पटिया	-8500
▁पढ़कर	-8501
▁परिजन	-8502
▁पाटिल	-8503
▁पाण्ड	-8504
▁पुनर्	-8505
▁पेयजल	-8506
▁फ्रंट	-8507
▁फ्लोर	-8508
▁बढ़ते	-8509
▁बदौलत	-8510
▁बनाती	-8511
▁बांधे	-8512
▁बाधित	-8513
▁बिगड़	-8514
▁बुखार	-8515
▁बुलंद	-8516
▁बुलाई	-8517
▁बूब्स	-8518
▁ब्लाक	-8519
▁भिन्न	-8520
▁मसाला	-8521
▁महानि	-8522
▁मायने	-8523
▁मासूम	-8524
▁मिठाई	-8525
▁मौलिक	-8526
▁युद्द	-8527
▁रंगीन	-8528
▁रहाणे	-8529
▁राशिद	-8530
▁रितेश	-8531
▁लंबाई	-8532
▁वर्जन	-8533
▁वर्णन	-8534
▁शुक्ल	-8535
▁श्रॉफ	-8536
▁सच्चा	-8537
▁सपनों	-8538
▁सब्जी	-8539
▁समझना	-8540
▁सस्ते	-8541
▁सहारे	-8542
▁सिंधु	-8543
▁सिक्य	-8544
▁सीतार	-8545
▁सुमित	-8546
▁सुराग	-8547
▁सुर्ख	-8548
▁सौंपी	-8549
▁स्कैन	-8550
▁स्टील	-8551
▁स्वर्	-8552
▁स्वाम	-8553
▁हल्की	-8554
▁हिन्‍	-8555
जियाबाद	-8556
वैधानिक	-8557
▁अंबाला	-8558
▁अंसारी	-8559
▁अग्रणी	-8560
▁अधिकतर	-8561
▁अन्यथा	-8562
▁अन्याय	-8563
▁अलीगढ़	-8564
▁अवॉर्ड	-8565
▁असंतोष	-8566
▁आयेंगे	-8567
▁आरटीआई	-8568
▁ईंटरनल	-8569
▁एडमिशन	-8570
▁एसएसपी	-8571
▁ओलंपिक	-8572
▁कामकाज	-8573
▁किंग्स	-8574
▁किस्मत	-8575
▁कुलपति	-8576
▁केल्या	-8577
▁गार्डन	-8578
▁गुर्जर	-8579
▁ग्लोबल	-8580
▁घोटाला	-8581
▁चुप्पी	-8582
▁चैनलों	-8583
▁चौटाला	-8584
▁जिन्हे	-8585
▁ट्रम्प	-8586
▁ट्रॉफी	-8587
▁तथ्यों	-8588
▁दलितों	-8589
▁निर्मल	-8590
▁निवडणु	-8591
▁पड़ेगी	-8592
▁पूनिया	-8593
▁प्रतीत	-8594
▁प्रिंट	-8595
▁प्लेयर	-8596
▁फीचर्स	-8597
▁फेरबदल	-8598
▁बढ़ाकर	-8599
▁बहरहाल	-8600
▁बीसीसी	-8601
▁भाषाओं	-8602
▁महापौर	-8603
▁माननीय	-8604
▁मानवता	-8605
▁मालिनी	-8606
▁मुक्ति	-8607
▁मोर्चे	-8608
▁यादगार	-8609
▁रात्रि	-8610
▁रामपुर	-8611
▁रिटायर	-8612
▁रिलेशन	-8613
▁रोकथाम	-8614
▁लैपटॉप	-8615
▁वाशिंग	-8616
▁विष्णु	-8617
▁वेश्या	-8618
▁शासकीय	-8619
▁शुक्ला	-8620
▁समन्वय	-8621
▁समूहों	-8622
▁साइकिल	-8623
▁सिंदूर	-8624
▁सेकेंड	-8625
▁सेविंग	-8626
▁सैमसंग	-8627
▁स्कूली	-8628
▁स्पेशल	-8629
▁हमलावर	-8630
▁हिन्दु	-8631
▁हैरानी	-8632
उन्होंने	-8633
▁England	-8634
▁Website	-8635
▁अनुष्का	-8636
▁अफ्रीकी	-8637
▁अवधारणा	-8638
▁आपराधिक	-8639
▁आश्वस्त	-8640
▁उपयुक्त	-8641
▁एजुकेशन	-8642
▁कमिश्नर	-8643
▁गतिविधि	-8644
▁ग्रेजुए	-8645
▁छुटकारा	-8646
▁जरूरतों	-8647
▁जातियों	-8648
▁टर्मिनल	-8649
▁डोनाल्ड	-8650
▁तेजस्वी	-8651
▁दायित्व	-8652
▁दोषियों	-8653
▁न्यायिक	-8654
▁परिभाषा	-8655
▁पश्चिमी	-8656
▁पार्टनर	-8657
▁प्रताड़	-8658
▁प्रयत्न	-8659
▁बेटियों	-8660
▁ब्राउजर	-8661
▁महासागर	-8662
▁लाइसेंस	-8663
▁वेरिएंट	-8664
▁शैक्षिक	-8665
▁संतुष्ट	-8666
▁संपूर्ण	-8667
▁संयंत्र	-8668
▁समर्पित	-8669
▁समुद्री	-8670
▁सूक्ष्म	-8671
▁स्ट्रीट	-8672
बिमारियों	-8673
स्थितियों	-8674
▁November	-8675
▁अधिवक्ता	-8676
▁उपलब्धता	-8677
▁कार्यकार	-8678
▁केंद्रित	-8679
▁क्वार्टर	-8680
▁गाड़ियों	-8681
▁छेड़छाड़	-8682
▁तुम्हारी	-8683
▁नौजवानों	-8684
▁पासपोर्ट	-8685
▁प्रीमियर	-8686
▁बहिष्कार	-8687
▁बुनियादी	-8688
▁बेरोजगार	-8689
▁बैडमिंटन	-8690
▁महेन्द्र	-8691
▁राजनैतिक	-8692
▁लोकार्पण	-8693
▁वीरेंद्र	-8694
▁समस्याएं	-8695
▁सहारनपुर	-8696
▁सेंसेक्स	-8697
▁हरिद्वार	-8698
निरपेक्षता	-8699
▁आपत्तिजनक	-8700
▁गाजियाबाद	-8701
▁डेवलपमेंट	-8702
▁निर्देशित	-8703
▁प्राचार्य	-8704
▁प्रारंभिक	-8705
▁प्रैक्टिस	-8706
▁साहित्यिक	-8707
▁सिद्धान्त	-8708
▁सेमीफाइनल	-8709
▁स्वाभाविक	-8710
▁हत्याकांड	-8711
▁जानकारियां	-8712
▁परियोजनाओं	-8713
▁पुलिसकर्मी	-8714
▁प्रस्तावित	-8715
▁प्लेटफार्म	-8716
▁आत्मविश्वास	-8717
▁इंस्टाग्राम	-8718
▁न्यायाधीशों	-8719
▁बृहस्पतिवार	-8720
▁मांसपेशियों	-8721
▁ऑस्ट्रेलियाई	-8722
▁पदाधिकारियों	-8723
▁परिस्थितियों	-8724
▁मुख्‍यमंत्री	-8725
!!	-8726
-4	-8727
//	-8728
/2	-8729
1.	-8730
19	-8731
26	-8732
31	-8733
4)	-8734
48	-8735
8)	-8736
90	-8737
98	-8738
AP	-8739
IN	-8740
Re	-8741
mi	-8742
mp	-8743
pr	-8744
ru	-8745
ta	-8746
ty	-8747
अब	-8748
ईस	-8749
ऊं	-8750
छे	-8751
ढा	-8752
णु	-8753
थन	-8754
पह	-8755
फै	-8756
बई	-8757
मय	-8758
रू	-8759
लभ	-8760
ैव	-8761
ोड	-8762
ौज	-8763
ौफ	-8764
।।	-8765
००	-8766
▁@	-8767
,99	-8768
-25	-8769
300	-8770
ata	-8771
ath	-8772
aye	-8773
chi	-8774
cri	-8775
dic	-8776
eng	-8777
ere	-8778
erv	-8779
ins	-8780
its	-8781
mon	-8782
ult	-8783
ure	-8784
ंटो	-8785
ंधर	-8786
ंसल	-8787
अनु	-8788
इंड	-8789
इया	-8790
ओमी	-8791
ओसी	-8792
कुश	-8793
कोल	-8794
गमन	-8795
जील	-8796
जुट	-8797
जेट	-8798
टेन	-8799
टेल	-8800
डाई	-8801
णाल	-8802
तिर	-8803
तुम	-8804
नेड	-8805
पीए	-8806
पुल	-8807
पूत	-8808
फेल	-8809
फ्ल	-8810
बुल	-8811
बूझ	-8812
बूत	-8813
बों	-8814
मास	-8815
मुच	-8816
मून	-8817
यना	-8818
याल	-8819
रखा	-8820
रां	-8821
रूप	-8822
लका	-8823
लाप	-8824
वयन	-8825
विस	-8826
वीस	-8827
वेन	-8828
शब्	-8829
शीट	-8830
सनी	-8831
सीन	-8832
सूर	-8833
सेल	-8834
स्स	-8835
िएट	-8836
िना	-8837
िमय	-8838
ीता	-8839
ुआर	-8840
ुरू	-8841
ेयर	-8842
ैना	-8843
ैमर	-8844
ॉयड	-8845
ोगु	-8846
ोटी	-8847
ोही	-8848
ौड़	-8849
्टन	-8850
्टा	-8851
्तर	-8852
्रफ	-8853
्रय	-8854
▁03	-8855
▁09	-8856
▁58	-8857
▁59	-8858
▁66	-8859
▁71	-8860
▁97	-8861
▁De	-8862
▁Ho	-8863
▁NE	-8864
▁Qu	-8865
▁Te	-8866
▁Vi	-8867
▁am	-8868
▁fe	-8869
▁im	-8870
▁lo	-8871
▁अा	-8872
▁आच	-8873
▁आब	-8874
▁आभ	-8875
▁आॅ	-8876
▁इट	-8877
▁इल	-8878
▁एं	-8879
▁औऱ	-8880
▁कन	-8881
▁चट	-8882
▁चह	-8883
▁छत	-8884
▁छल	-8885
▁छे	-8886
▁टु	-8887
▁ढ़	-8888
▁धौ	-8889
▁नट	-8890
▁पन	-8891
▁मठ	-8892
▁मय	-8893
▁रौ	-8894
▁लत	-8895
▁१२	-8896
,,,,	-8897
aceb	-8898
arah	-8899
ator	-8900
ener	-8901
gram	-8902
hone	-8903
icle	-8904
orld	-8905
tern	-8906
आईएल	-8907
आरएस	-8908
ऊंगा	-8909
एक्स	-8910
एनएल	-8911
कथित	-8912
कांक	-8913
कालत	-8914
काशी	-8915
कीकत	-8916
कूला	-8917
क्‍ट	-8918
क्‍स	-8919
खण्ड	-8920
खानी	-8921
ख्ता	-8922
गुरु	-8923
चारे	-8924
चेंज	-8925
जामा	-8926
जीबी	-8927
ट्री	-8928
डेंट	-8929
तरफा	-8930
ताना	-8931
ताशा	-8932
त्तम	-8933
त्‍व	-8934
दत्त	-8935
द्दी	-8936
निंग	-8937
न्नत	-8938
पर्स	-8939
पीसी	-8940
पूजन	-8941
फराज	-8942
फ्तर	-8943
बर्ट	-8944
बलों	-8945
बाला	-8946
बेरी	-8947
ब्बर	-8948
मकिन	-8949
मानस	-8950
यराम	-8951
यर्स	-8952
राहट	-8953
रियल	-8954
र्नल	-8955
लाइट	-8956
ल्दी	-8957
ल्हा	-8958
वन्त	-8959
वाहक	-8960
वाहा	-8961
वेळी	-8962
शंकर	-8963
शुदा	-8964
श्यप	-8965
षकों	-8966
सिंग	-8967
सीबत	-8968
सूली	-8969
सेसर	-8970
स्पी	-8971
ायदा	-8972
ायिक	-8973
ूंगी	-8974
ोड़ा	-8975
्यां	-8976
्वित	-8977
▁1.2	-8978
▁1.5	-8979
▁125	-8980
▁Aaj	-8981
▁App	-8982
▁Jan	-8983
▁Mar	-8984
▁Off	-8985
▁Top	-8986
▁You	-8987
▁are	-8988
▁̈सह	-8989
▁अनि	-8990
▁अफ़	-8991
▁आंत	-8992
▁आंब	-8993
▁आलू	-8994
▁आहत	-8995
▁उपर	-8996
▁उमा	-8997
▁ऑर्	-8998
▁ओपी	-8999
▁औरत	-9000
▁कथन	-9001
▁कम्	-9002
▁कोत	-9003
▁खदे	-9004
▁खाद	-9005
▁खोख	-9006
▁गंग	-9007
▁गड्	-9008
▁गली	-9009
▁गहन	-9010
▁गूं	-9011
▁घेर	-9012
▁चित	-9013
▁चिप	-9014
▁चीख	-9015
▁चूस	-9016
▁जगन	-9017
▁जना	-9018
▁जाप	-9019
▁जोग	-9020
▁जोश	-9021
▁ज्य	-9022
▁झड़	-9023
▁टैग	-9024
▁टॉस	-9025
▁ठंड	-9026
▁ठोक	-9027
▁डबल	-9028
▁डोन	-9029
▁तरल	-9030
▁तले	-9031
▁त्य	-9032
▁थमा	-9033
▁थाई	-9034
▁थॉम	-9035
▁दंड	-9036
▁दंप	-9037
▁दुम	-9038
▁नकल	-9039
▁नमू	-9040
▁नहा	-9041
▁नाट	-9042
▁नाव	-9043
▁पंप	-9044
▁पटक	-9045
▁पदो	-9046
▁पनी	-9047
▁पशु	-9048
▁पैट	-9049
▁फिश	-9050
▁फेक	-9051
▁बची	-9052
▁बीज	-9053
▁भंस	-9054
▁भती	-9055
▁भीम	-9056
▁मधु	-9057
▁मरे	-9058
▁मर्	-9059
▁महम	-9060
▁महल	-9061
▁मीन	-9062
▁मुं	-9063
▁मौज	-9064
▁येथ	-9065
▁योन	-9066
▁रंज	-9067
▁रघु	-9068
▁रचा	-9069
▁रतन	-9070
▁रिच	-9071
▁रैल	-9072
▁लकी	-9073
▁लाई	-9074
▁वाई	-9075
▁शंख	-9076
▁शीत	-9077
▁सरे	-9078
▁हाश	-9079
▁हैस	-9080
earch	-9081
habar	-9082
ption	-9083
एशिया	-9084
कोषीय	-9085
क्‍टर	-9086
गार्ड	-9087
ग्राह	-9088
चालित	-9089
त्तों	-9090
द्यपि	-9091
पावली	-9092
फायती	-9093
बरेली	-9094
भक्ति	-9095
म्परा	-9096
योजना	-9097
र्यंत	-9098
लिखित	-9099
लेकिन	-9100
वार्थ	-9101
सत्ता	-9102
साइटी	-9103
स्टिव	-9104
ांतों	-9105
ूलियत	-9106
ेलियन	-9107
्रदाय	-9108
्वरित	-9109
▁1998	-9110
▁2003	-9111
▁2007	-9112
▁Exam	-9113
▁Indi	-9114
▁Next	-9115
▁comp	-9116
▁news	-9117
▁post	-9118
▁अच्‍	-9119
▁अतिक	-9120
▁अनंत	-9121
▁अन्त	-9122
▁अन्न	-9123
▁अपार	-9124
▁अश्व	-9125
▁आंगन	-9126
▁आईजी	-9127
▁आकलन	-9128
▁आन्द	-9129
▁आरडी	-9130
▁आरसी	-9131
▁इब्र	-9132
▁इराक	-9133
▁उग्र	-9134
▁उदार	-9135
▁उधार	-9136
▁एंटर	-9137
▁एडवा	-9138
▁एण्ड	-9139
▁एनएच	-9140
▁एमएस	-9141
▁एलान	-9142
▁कत्ल	-9143
▁कबूल	-9144
▁करूं	-9145
▁काबू	-9146
▁कुंड	-9147
▁कॉपी	-9148
▁कॉर्	-9149
▁गिरि	-9150
▁गिरी	-9151
▁गुरू	-9152
▁ग्रो	-9153
▁चलकर	-9154
▁चादर	-9155
▁चारा	-9156
▁चाहत	-9157
▁चाहा	-9158
▁चुंब	-9159
▁चौथा	-9160
▁छाती	-9161
▁जाइए	-9162
▁जाएँ	-9163
▁जैकी	-9164
▁ज्ञा	-9165
▁टिकी	-9166
▁डेली	-9167
▁दरें	-9168
▁दलील	-9169
▁दस्त	-9170
▁दहशत	-9171
▁दाऊद	-9172
▁दाखल	-9173
▁दोगु	-9174
▁नगरी	-9175
▁नाते	-9176
▁नायक	-9177
▁निको	-9178
▁परेड	-9179
▁पहने	-9180
▁पांड	-9181
▁पाणी	-9182
▁पार्	-9183
▁पीएच	-9184
▁पुरे	-9185
▁पूछे	-9186
▁प्वा	-9187
▁फंसा	-9188
▁फर्क	-9189
▁बंधक	-9190
▁बंधु	-9191
▁बन्द	-9192
▁बस्त	-9193
▁बहुल	-9194
▁बाड़	-9195
▁बादल	-9196
▁बीवी	-9197
▁बेदी	-9198
▁बोनस	-9199
▁भाभी	-9200
▁भुगत	-9201
▁भूरे	-9202
▁भूषण	-9203
▁मज़ा	-9204
▁मानक	-9205
▁मामा	-9206
▁मुड़	-9207
▁मोती	-9208
▁यहीं	-9209
▁रखती	-9210
▁राजे	-9211
▁रामू	-9212
▁रुचि	-9213
▁रेफर	-9214
▁रोका	-9215
▁लहरा	-9216
▁लाठी	-9217
▁लायक	-9218
▁लिवर	-9219
▁लीला	-9220
▁लोहे	-9221
▁विलय	-9222
▁वैसा	-9223
▁शासक	-9224
▁शिल्	-9225
▁सपने	-9226
▁सबकी	-9227
▁समझे	-9228
▁सम्‍	-9229
▁सिमट	-9230
▁सुखद	-9231
▁सुधा	-9232
▁सूफी	-9233
▁सूबे	-9234
▁सेबी	-9235
▁सोलन	-9236
▁सौंद	-9237
▁सौदे	-9238
▁स्टॉ	-9239
▁हर्ष	-9240
▁हलका	-9241
▁हुनर	-9242
▁हेमा	-9243
▁हॉकी	-9244
एनजीसी	-9245
क्षकों	-9246
क्सीजन	-9247
डि़यों	-9248
ण्याचा	-9249
ण्याचे	-9250
द्रोही	-9251
पालिका	-9252
यात्रा	-9253
ुदायिक	-9254
▁Story	-9255
▁अंकुश	-9256
▁अंतरा	-9257
▁अकेला	-9258
▁अगरकर	-9259
▁अनुपम	-9260
▁अफवाह	-9261
▁आँखों	-9262
▁आभूषण	-9263
▁आर्मी	-9264
▁इंकार	-9265
▁इजाजत	-9266
▁ईवीएम	-9267
▁एकजुट	-9268
▁एक्शन	-9269
▁एडीएम	-9270
▁एनडीए	-9271
▁एशियन	-9272
▁ऑर्डर	-9273
▁कब्जे	-9274
▁करनाल	-9275
▁करवाए	-9276
▁कराना	-9277
▁कश्यप	-9278
▁कालेज	-9279
▁किडनी	-9280
▁किस्म	-9281
▁कीजिए	-9282
▁केदार	-9283
▁क्वाल	-9284
▁क्षमा	-9285
▁खजाने	-9286
▁ख़ुशी	-9287
▁गडकरी	-9288
▁गिफ्ट	-9289
▁गिरकर	-9290
▁गुनाह	-9291
▁गुहार	-9292
▁गेहूं	-9293
▁घुटने	-9294
▁चलेगी	-9295
▁चार्ट	-9296
▁चिह्न	-9297
▁चूर्ण	-9298
▁चोरों	-9299
▁छुट्ट	-9300
▁जयराम	-9301
▁जरुरी	-9302
▁जाखड़	-9303
▁जानकर	-9304
▁जानती	-9305
▁जितनी	-9306
▁जिनसे	-9307
▁ज्ञात	-9308
▁झाँसी	-9309
▁टाइगर	-9310
▁डेविड	-9311
▁तकलीफ	-9312
▁तहरीर	-9313
▁ताज़ा	-9314
▁तीव्र	-9315
▁तुमने	-9316
▁तृतीय	-9317
▁दफ्तर	-9318
▁दिव्य	-9319
▁दृश्य	-9320
▁दोहरा	-9321
▁धक्का	-9322
▁नजारा	-9323
▁नोटों	-9324
▁पड़ते	-9325
▁पढ़ते	-9326
▁पहाड़	-9327
▁पाउडर	-9328
▁पाएगा	-9329
▁पिटाई	-9330
▁पेरिस	-9331
▁पैकेज	-9332
▁प्रचल	-9333
▁प्रोट	-9334
▁प्रोफ	-9335
▁प्लेन	-9336
▁फरमान	-9337
▁फाइबर	-9338
▁बंदूक	-9339
▁बच्चो	-9340
▁बढ़ता	-9341
▁बताकर	-9342
▁बनारस	-9343
▁बनेगा	-9344
▁बरसात	-9345
▁बेकार	-9346
▁बेस्ट	-9347
▁बैठने	-9348
▁ब्रॉड	-9349
▁भागने	-9350
▁भागवत	-9351
▁भाग्य	-9352
▁भूगोल	-9353
▁मतभेद	-9354
▁मध्यम	-9355
▁महंगे	-9356
▁महिमा	-9357
▁मालिश	-9358
▁मेकअप	-9359
▁मेडिस	-9360
▁मैनेज	-9361
▁राफेल	-9362
▁राहगी	-9363
▁रिहाई	-9364
▁रुकने	-9365
▁रूपों	-9366
▁लगाएं	-9367
▁लगाये	-9368
▁लम्बे	-9369
▁लौटने	-9370
▁वकालत	-9371
▁वरदान	-9372
▁विदाई	-9373
▁विधवा	-9374
▁विहार	-9375
▁शत्रु	-9376
▁सत्या	-9377
▁सध्या	-9378
▁समझें	-9379
▁साकेत	-9380
▁सिंगल	-9381
▁सूचित	-9382
▁स्मरण	-9383
▁हकीकत	-9384
▁हजारे	-9385
▁हराकर	-9386
▁हार्ट	-9387
▁हेक्ट	-9388
▁हेल्थ	-9389
acebook	-9390
निर्देश	-9391
स्क्रीन	-9392
ोनेशिया	-9393
▁number	-9394
▁अध्याय	-9395
▁अनुबंध	-9396
▁अनुराग	-9397
▁अभिभाव	-9398
▁अयोग्य	-9399
▁आरएसएस	-9400
▁इसलिये	-9401
▁उपमंडल	-9402
▁एंट्री	-9403
▁एनर्जी	-9404
▁कमांडो	-9405
▁किराया	-9406
▁कॉलिंग	-9407
▁कोविंद	-9408
▁ख़बरें	-9409
▁खिलाने	-9410
▁खुलेआम	-9411
▁गुरुवर	-9412
▁गुलाबी	-9413
▁चिंतित	-9414
▁जामिया	-9415
▁जोड़कर	-9416
▁जोरदार	-9417
▁डिब्बे	-9418
▁डिवीजन	-9419
▁तत्वों	-9420
▁त्वरित	-9421
▁दिवंगत	-9422
▁दुर्गा	-9423
▁नक्सली	-9424
▁नारंगी	-9425
▁निराशा	-9426
▁निवेदन	-9427
▁पटाखों	-9428
▁पर्यटक	-9429
▁पश्चात	-9430
▁पांचवे	-9431
▁पिछड़ा	-9432
▁पूर्ति	-9433
▁पूर्वा	-9434
▁प्रभार	-9435
▁प्रवास	-9436
▁प्रांत	-9437
▁फंडिंग	-9438
▁फ़ायदा	-9439
▁फिटनेस	-9440
▁फैलाने	-9441
▁बढ़िया	-9442
▁बिलियन	-9443
▁बुद्धि	-9444
▁भंसाली	-9445
▁भाइयों	-9446
▁भ्रष्ट	-9447
▁मतगणना	-9448
▁मनरेगा	-9449
▁मन्दिर	-9450
▁मानकों	-9451
▁मानदंड	-9452
▁मुखिया	-9453
▁मुमकिन	-9454
▁मुसीबत	-9455
▁मेघालय	-9456
▁मोहाली	-9457
▁यद्यपि	-9458
▁राजकीय	-9459
▁रिक्शा	-9460
▁रिश्ता	-9461
▁लड़ाकू	-9462
▁लाभांश	-9463
▁विक्रम	-9464
▁शॉपिंग	-9465
▁शौचालय	-9466
▁संकेतक	-9467
▁सचिवों	-9468
▁सदियों	-9469
▁समझाया	-9470
▁सरफराज	-9471
▁साइट्स	-9472
▁साक्षी	-9473
▁सातवें	-9474
▁सीनियर	-9475
▁सेक्सी	-9476
▁स्थगित	-9477
▁स्थलों	-9478
▁स्मारक	-9479
▁स्वर्ग	-9480
▁हिमालय	-9481
तांत्रिक	-9482
ष्ट्रपति	-9483
ार्टमेंट	-9484
▁2016-17	-9485
▁2017-18	-9486
▁अध्यापक	-9487
▁अरुणाचल	-9488
▁अर्धशतक	-9489
▁आन्दोलन	-9490
▁इंग्लिश	-9491
▁इंतज़ार	-9492
▁इस्राईल	-9493
▁कप्तानी	-9494
▁कर्तव्य	-9495
▁कलेक्टर	-9496
▁कलेक्शन	-9497
▁कविताओं	-9498
▁किफायती	-9499
▁कैदियों	-9500
▁कॉरिडोर	-9501
▁कोतवाली	-9502
▁गावस्कर	-9503
▁गियरलेस	-9504
▁चंद्रमा	-9505
▁जिनपिंग	-9506
▁ट्रेनें	-9507
▁ठिकानों	-9508
▁डिलीवरी	-9509
▁दर्जनों	-9510
▁दीक्षित	-9511
▁देण्यात	-9512
▁निकालकर	-9513
▁निकालने	-9514
▁निर्दोष	-9515
▁पद्मावत	-9516
▁परम्परा	-9517
▁परामर्श	-9518
▁पहुँचने	-9519
▁पांड्या	-9520
▁पाण्डेय	-9521
▁पादुकोण	-9522
▁प्रकाशन	-9523
▁प्रधाना	-9524
▁प्रारूप	-9525
▁फतेहपुर	-9526
▁फ़िरोज़	-9527
▁बैंकिंग	-9528
▁बौद्धिक	-9529
▁भोजपुरी	-9530
▁लक्ष्‍य	-9531
▁वस्तुओं	-9532
▁विद्रोह	-9533
▁शिवपुरी	-9534
▁श्रीराम	-9535
▁सचिवालय	-9536
▁सदस्यता	-9537
▁सदस्यीय	-9538
▁सब्सक्र	-9539
▁सशस्त्र	-9540
▁सहूलियत	-9541
▁सूचकांक	-9542
▁सेंट्रल	-9543
▁सोसाइटी	-9544
▁स्टार्ट	-9545
▁स्ट्राइ	-9546
▁हलफनामे	-9547
▁Comments	-9548
▁अतिक्रमण	-9549
▁अत्याचार	-9550
▁आयुष्मान	-9551
▁इब्राहिम	-9552
▁उत्पीड़न	-9553
▁उद्योगों	-9554
▁उपाध्याय	-9555
▁एंबुलेंस	-9556
▁एक्सचेंज	-9557
▁कर्मियों	-9558
▁गाड़ियां	-9559
▁ट्रैक्टर	-9560
▁डिस्प्ले	-9561
▁तहसीलदार	-9562
▁त्यामुळे	-9563
▁दुनियाभर	-9564
▁निष्पक्ष	-9565
▁पदोन्नति	-9566
▁प्रेमिका	-9567
▁बस्तियों	-9568
▁बीसीसीआई	-9569
▁भारद्वाज	-9570
▁यमुनानगर	-9571
▁राजकोषीय	-9572
▁राजमार्ग	-9573
▁रायबरेली	-9574
▁वायुसेना	-9575
▁विश्वनाथ	-9576
▁समाजसेवी	-9577
▁सम्पूर्ण	-9578
▁सुरेंद्र	-9579
▁सेकेंडरी	-9580
▁स्टूडियो	-9581
▁स्टूडेंट	-9582
▁स्वर्गीय	-9583
▁कांग्रेसी	-9584
▁जिल्ह्यात	-9585
▁दुर्भाग्य	-9586
▁नक्सलियों	-9587
▁प्रतिबद्ध	-9588
▁प्रवृत्ति	-9589
▁प्राथमिकी	-9590
▁फ़्लोरिंग	-9591
▁मल्होत्रा	-9592
▁मुश्किलें	-9593
▁रिलेशनशिप	-9594
▁विश्वसनीय	-9595
▁शक्तिशाली	-9596
▁संवैधानिक	-9597
▁सहयोगियों	-9598
▁सांप्रदाय	-9599
▁सामुदायिक	-9600
▁सुरेन्द्र	-9601
▁स्वामित्व	-9602
▁अल्पसंख्यक	-9603
▁इंडोनेशिया	-9604
▁उद्देश्यों	-9605
▁गतिविधियां	-9606
▁द्विपक्षीय	-9607
▁परेशानियों	-9608
▁पाकिस्‍तान	-9609
▁प्रोत्साहन	-9610
▁मार्केटिंग	-9611
▁विद्यालयों	-9612
▁स्पष्टीकरण	-9613
▁कार्यकारिणी	-9614
▁ट्रांसपोर्ट	-9615
▁राष्ट्रमंडल	-9616
▁सुरक्षाबलों	-9617
▁अभिनेत्रियों	-9618
▁उत्तराधिकारी	-9619
▁कार्यकर्त्या	-9620
▁प्रतिनिधियों	-9621
▁प्रतिस्पर्धा	-9622
▁प्रतिस्पर्धी	-9623
▁पुलिसकर्मियों	-9624
",	-9625
''	-9626
,4	-9627
35	-9628
37	-9629
58	-9630
75	-9631
92	-9632
95	-9633
AR	-9634
BI	-9635
PM	-9636
UV	-9637
WS	-9638
cc	-9639
hy	-9640
ks	-9641
la	-9642
ts	-9643
ud	-9644
vv	-9645
ँव	-9646
अन	-9647
अर	-9648
उप	-9649
कझ	-9650
गढ	-9651
गद	-9652
घन	-9653
दृ	-9654
धू	-9655
भु	-9656
मद	-9657
रज	-9658
रन	-9659
लव	-9660
लु	-9661
वह	-9662
शै	-9663
शो	-9664
सब	-9665
है	-9666
▁]	-9667
▁८	-9668
,’’	-9669
-11	-9670
-40	-9671
.00	-9672
.25	-9673
.43	-9674
.45	-9675
.75	-9676
.78	-9677
900	-9678
:30	-9679
BJP	-9680
ace	-9681
ble	-9682
day	-9683
ect	-9684
ern	-9685
ets	-9686
ike	-9687
ise	-9688
kar	-9689
let	-9690
own	-9691
rom	-9692
ush	-9693
ver	-9694
इंग	-9695
ईटी	-9696
एमई	-9697
ओएस	-9698
ओवर	-9699
कली	-9700
कवि	-9701
काऊ	-9702
काव	-9703
कूद	-9704
कून	-9705
कैद	-9706
खलन	-9707
खें	-9708
गता	-9709
गने	-9710
गाई	-9711
गाम	-9712
गुन	-9713
गों	-9714
घुर	-9715
चिक	-9716
छित	-9717
ज़न	-9718
ज़े	-9719
जीर	-9720
झार	-9721
टीय	-9722
टों	-9723
डीओ	-9724
डीज	-9725
तवा	-9726
तात	-9727
ताप	-9728
द्व	-9729
धाम	-9730
नगु	-9731
नाग	-9732
न्ग	-9733
पंथ	-9734
फ़ा	-9735
फिर	-9736
फ्फ	-9737
बहा	-9738
बाई	-9739
बाब	-9740
बेट	-9741
बेर	-9742
बेल	-9743
भजन	-9744
भीत	-9745
मरी	-9746
महल	-9747
महा	-9748
मीत	-9749
राय	-9750
रिज	-9751
रेख	-9752
लीम	-9753
वज्	-9754
वधि	-9755
विन	-9756
वेष	-9757
शेद	-9758
श्क	-9759
षास	-9760
संप	-9761
सें	-9762
हनी	-9763
हाग	-9764
हेड	-9765
ाइब	-9766
ाईं	-9767
ाखा	-9768
ामू	-9769
ालि	-9770
ावा	-9771
िंट	-9772
िज़	-9773
ियस	-9774
िवत	-9775
ूढ़	-9776
ूरे	-9777
ेगी	-9778
ेरे	-9779
ैगन	-9780
ोकर	-9781
ोरा	-9782
ोवा	-9783
्डी	-9784
्नि	-9785
्‍स	-9786
▁--	-9787
▁06	-9788
▁52	-9789
▁53	-9790
▁64	-9791
▁73	-9792
▁92	-9793
▁96	-9794
▁AT	-9795
▁Di	-9796
▁MP	-9797
▁Pl	-9798
▁SC	-9799
▁Sh	-9800
▁So	-9801
▁Tr	-9802
▁ka	-9803
▁ki	-9804
▁vs	-9805
▁आड	-9806
▁ईद	-9807
▁एत	-9808
▁एथ	-9809
▁जं	-9810
▁जौ	-9811
▁थक	-9812
▁दश	-9813
▁धै	-9814
▁पग	-9815
▁प्	-9816
▁यथ	-9817
▁रच	-9818
▁रत	-9819
▁शू	-9820
IDEO	-9821
Read	-9822
atri	-9823
hani	-9824
hoto	-9825
itic	-9826
puri	-9827
sapp	-9828
uter	-9829
इसके	-9830
एनएन	-9831
एनबी	-9832
कझोर	-9833
कडून	-9834
कतों	-9835
कांत	-9836
केयर	-9837
गरेट	-9838
गाड़	-9839
गारी	-9840
घरों	-9841
जहां	-9842
जोरी	-9843
टर्स	-9844
टाइम	-9845
ट्टा	-9846
ड़कर	-9847
डीएफ	-9848
ढ़ाई	-9849
दराज	-9850
दलीय	-9851
द्र्	-9852
धपुर	-9853
धर्म	-9854
नांद	-9855
नाइट	-9856
नातक	-9857
नाती	-9858
नेंस	-9859
न्ती	-9860
न्दा	-9861
पक्व	-9862
पांच	-9863
पीएस	-9864
प्रा	-9865
प्लो	-9866
बीएस	-9867
बोधन	-9868
मताज	-9869
माटर	-9870
मारे	-9871
मुखी	-9872
मेंस	-9873
यंकर	-9874
रखाव	-9875
रीबी	-9876
रीशस	-9877
र्जन	-9878
लराम	-9879
लीला	-9880
लेषण	-9881
वर्ग	-9882
वाइन	-9883
वाकर	-9884
शियल	-9885
शीला	-9886
शेखर	-9887
साइड	-9888
साने	-9889
सिटी	-9890
स्टन	-9891
ारसी	-9892
ार्स	-9893
ाहिर	-9894
िकार	-9895
िटीज	-9896
िमान	-9897
िलाई	-9898
िलित	-9899
ुलिन	-9900
ेंटी	-9901
ेक्स	-9902
ोसिस	-9903
ोहित	-9904
्मेट	-9905
्यूस	-9906
्रीत	-9907
्वरी	-9908
्वॉय	-9909
▁170	-9910
▁186	-9911
▁190	-9912
▁250	-9913
▁Now	-9914
▁SUV	-9915
▁Upd	-9916
▁adm	-9917
▁art	-9918
▁gir	-9919
▁pic	-9920
▁sha	-9921
▁अंश	-9922
▁अण्	-9923
▁अथॉ	-9924
▁अलै	-9925
▁असा	-9926
▁आंच	-9927
▁आंश	-9928
▁आलम	-9929
▁आसन	-9930
▁इक्	-9931
▁उपज	-9932
▁उपन	-9933
▁एंव	-9934
▁एसओ	-9935
▁करत	-9936
▁कहर	-9937
▁काळ	-9938
▁कीं	-9939
▁कुश	-9940
▁कैफ	-9941
▁क्‍	-9942
▁गधे	-9943
▁गुप	-9944
▁घास	-9945
▁घुल	-9946
▁चचे	-9947
▁चने	-9948
▁चलन	-9949
▁चलो	-9950
▁चिर	-9951
▁चूक	-9952
▁छठी	-9953
▁छिप	-9954
▁छुप	-9955
▁जज्	-9956
▁जिल	-9957
▁ज्व	-9958
▁झां	-9959
▁झुक	-9960
▁टोर	-9961
▁डंप	-9962
▁डिश	-9963
▁डैड	-9964
▁तनु	-9965
▁तित	-9966
▁धड़	-9967
▁धनी	-9968
▁नबी	-9969
▁नाइ	-9970
▁पकड	-9971
▁पहच	-9972
▁पिन	-9973
▁पुज	-9974
▁पेन	-9975
▁पोट	-9976
▁पौध	-9977
▁प्य	-9978
▁फडण	-9979
▁फरी	-9980
▁फूड	-9981
▁फेड	-9982
▁बगल	-9983
▁बचत	-9984
▁बदन	-9985
▁बरस	-9986
▁बसे	-9987
▁बिर	-9988
▁बीर	-9989
▁बेड	-9990
▁बॉय	-9991
▁भगत	-9992
▁भटक	-9993
▁मकर	-9994
▁मणि	-9995
▁मता	-9996
▁मले	-9997
▁मसा	-9998
▁माफ	-9999
▁मॉक	-10000
▁यूट	-10001
▁रक्	-10002
▁रवै	-10003
▁राख	-10004
▁लक्	-10005
▁लघु	-10006
▁लेक	-10007
▁वाघ	-10008
▁वाढ	-10009
▁वान	-10010
▁वीं	-10011
▁वेळ	-10012
▁वॉल	-10013
▁शता	-10014
▁शहा	-10015
▁शां	-10016
▁शार	-10017
▁शिश	-10018
▁शेट	-10019
▁शेन	-10020
▁सत्	-10021
▁सदी	-10022
▁सद्	-10023
▁सना	-10024
▁समू	-10025
▁सला	-10026
▁साठ	-10027
▁सिस	-10028
▁हाफ	-10029
▁हिम	-10030
-2018	-10031
30020	-10032
itter	-10033
obile	-10034
redit	-10035
uthor	-10036
ंगाना	-10037
ंताओं	-10038
गोलिक	-10039
घुराम	-10040
ङ्क्ष	-10041
टरिंग	-10042
ड़िया	-10043
डिय़ा	-10044
तिकर्	-10045
थापाई	-10046
धियों	-10047
निंदा	-10048
निवास	-10049
न्वयन	-10050
प्रथम	-10051
प्राइ	-10052
प्लाई	-10053
फेक्ट	-10054
यंत्र	-10055
रलैंड	-10056
र्टिफ	-10057
लिस्ट	-10058
वज्जो	-10059
वर्धक	-10060
वीकरण	-10061
षासुर	-10062
समेंट	-10063
स्मरण	-10064
स्मिक	-10065
स्वती	-10066
स्‍कर	-10067
स्‍टर	-10068
ियर्स	-10069
ियाना	-10070
ुआरों	-10071
ुपयोग	-10072
ेंड्स	-10073
ेंबली	-10074
ॉप्टर	-10075
ोनिया	-10076
ोरिया	-10077
्यूशन	-10078
्‍यों	-10079
▁....	-10080
▁100%	-10081
▁1985	-10082
▁1991	-10083
▁2006	-10084
▁Cont	-10085
▁Jaye	-10086
▁Khan	-10087
▁Shar	-10088
▁this	-10089
▁will	-10090
▁year	-10091
▁अंडे	-10092
▁अनशन	-10093
▁अमरि	-10094
▁अलवर	-10095
▁असीम	-10096
▁असुर	-10097
▁आईडी	-10098
▁आमिर	-10099
▁आरती	-10100
▁इटली	-10101
▁इनसे	-10102
▁ईमेल	-10103
▁ईशान	-10104
▁उतनी	-10105
▁उतरा	-10106
▁ऊंचा	-10107
▁एकाद	-10108
▁एनएस	-10109
▁एप्प	-10110
▁एसएच	-10111
▁कचरा	-10112
▁कतार	-10113
▁कन्ह	-10114
▁कबीर	-10115
▁कब्र	-10116
▁कमला	-10117
▁करंट	-10118
▁करों	-10119
▁कर्ण	-10120
▁कवाय	-10121
▁काँग	-10122
▁कांच	-10123
▁कांड	-10124
▁कारख	-10125
▁कारी	-10126
▁कार्	-10127
▁कालि	-10128
▁किसे	-10129
▁कृति	-10130
▁कॉमन	-10131
▁कोटा	-10132
▁खगोल	-10133
▁खदान	-10134
▁खाता	-10135
▁खासा	-10136
▁खिंच	-10137
▁गंवा	-10138
▁गढ़ी	-10139
▁गणना	-10140
▁गहरी	-10141
▁गूंज	-10142
▁गैरस	-10143
▁गोले	-10144
▁ग्ले	-10145
▁घटित	-10146
▁चलाई	-10147
▁छक्‍	-10148
▁छुपा	-10149
▁जटिल	-10150
▁जदयू	-10151
▁जबरन	-10152
▁जल्‍	-10153
▁जीना	-10154
▁झूला	-10155
▁टकरा	-10156
▁टाइप	-10157
▁टाउन	-10158
▁ठेका	-10159
▁डायल	-10160
▁तयार	-10161
▁तेरे	-10162
▁तेवर	-10163
▁त्यौ	-10164
▁थाली	-10165
▁दिखी	-10166
▁दुल्	-10167
▁धकेल	-10168
▁ध्वज	-10169
▁नंदा	-10170
▁नकार	-10171
▁नरमी	-10172
▁नरेश	-10173
▁नवनि	-10174
▁नारी	-10175
▁नींव	-10176
▁नीरव	-10177
▁नीली	-10178
▁नुस्	-10179
▁पनीर	-10180
▁परिस	-10181
▁पहलू	-10182
▁पहुच	-10183
▁पाँच	-10184
▁पागल	-10185
▁पावन	-10186
▁पितृ	-10187
▁पीटा	-10188
▁पीते	-10189
▁पेटी	-10190
▁पोली	-10191
▁पोषण	-10192
▁पोहो	-10193
▁पौधे	-10194
▁प्रक	-10195
▁प्लस	-10196
▁फहरा	-10197
▁फाटक	-10198
▁फिरा	-10199
▁फैले	-10200
▁फैशन	-10201
▁बताओ	-10202
▁बनना	-10203
▁बशीर	-10204
▁बसें	-10205
▁बहार	-10206
▁बागी	-10207
▁बाजी	-10208
▁बालक	-10209
▁बालू	-10210
▁बीबी	-10211
▁भरने	-10212
▁भाजप	-10213
▁भिड़	-10214
▁भैंस	-10215
▁मंशा	-10216
▁मच्छ	-10217
▁मधुर	-10218
▁मनाई	-10219
▁मप्र	-10220
▁मलया	-10221
▁मिनि	-10222
▁मीणा	-10223
▁मुक़	-10224
▁मैसे	-10225
▁मोटी	-10226
▁यज्ञ	-10227
▁रसोई	-10228
▁रहित	-10229
▁रहीम	-10230
▁राजू	-10231
▁रिहा	-10232
▁रैंक	-10233
▁रोगी	-10234
▁लड्ड	-10235
▁लन्ड	-10236
▁लाना	-10237
▁लेगी	-10238
▁वन्य	-10239
▁वसंत	-10240
▁वहीँ	-10241
▁वाटर	-10242
▁विधा	-10243
▁वियत	-10244
▁वीवो	-10245
▁श्रा	-10246
▁श्रो	-10247
▁षड्य	-10248
▁सदैव	-10249
▁समिट	-10250
▁सलाम	-10251
▁साहे	-10252
▁सिंघ	-10253
▁सीवी	-10254
▁सुधर	-10255
▁सुल्	-10256
▁सूखे	-10257
▁स्का	-10258
▁स्ला	-10259
▁हत्य	-10260
▁हमसे	-10261
▁हैरत	-10262
▁होगे	-10263
▁होड़	-10264
च्‍चों	-10265
जरलैंड	-10266
तारूढ़	-10267
नेश्वर	-10268
पनियों	-10269
प्रधान	-10270
फ़्तार	-10271
बहादुर	-10272
मोबाइल	-10273
राउंडर	-10274
वित्री	-10275
विमर्श	-10276
श्लेषण	-10277
स्टेबल	-10278
िंग्या	-10279
ुद्दीन	-10280
ेंटाइन	-10281
्यातील	-10282
▁Tarah	-10283
▁blogg	-10284
▁अंकित	-10285
▁अख्तर	-10286
▁अग्नि	-10287
▁अजमेर	-10288
▁अलगाव	-10289
▁आध्या	-10290
▁आपूर्	-10291
▁आल्या	-10292
▁इकबाल	-10293
▁इराक़	-10294
▁इलेवन	-10295
▁इशारा	-10296
▁उतरने	-10297
▁एक्‍स	-10298
▁एडिटर	-10299
▁कन्या	-10300
▁करारा	-10301
▁करारी	-10302
▁करोगे	-10303
▁कवरेज	-10304
▁कहावत	-10305
▁क़रीब	-10306
▁कांशी	-10307
▁काफ़ी	-10308
▁कुंजी	-10309
▁कौशिक	-10310
▁क्यूं	-10311
▁खुशबू	-10312
▁खेलना	-10313
▁गन्ने	-10314
▁गुणों	-10315
▁गुनगु	-10316
▁गुलाब	-10317
▁गैजेट	-10318
▁गैसों	-10319
▁ग्रंथ	-10320
▁ग्रोथ	-10321
▁चर्बी	-10322
▁चांदी	-10323
▁छोड़ी	-10324
▁जमशेद	-10325
▁जमीनी	-10326
▁जरिया	-10327
▁जर्मन	-10328
▁जवाबी	-10329
▁जातीय	-10330
▁जानना	-10331
▁जानवर	-10332
▁जायजा	-10333
▁जिंदा	-10334
▁झकझोर	-10335
▁झाड़ू	-10336
▁टमाटर	-10337
▁टूटने	-10338
▁टेंशन	-10339
▁टेक्स	-10340
▁ट्रीट	-10341
▁डिलीट	-10342
▁ढेरों	-10343
▁तलाशी	-10344
▁तहलका	-10345
▁ताक़त	-10346
▁तिहाई	-10347
▁तुमको	-10348
▁तूफान	-10349
▁दर्जा	-10350
▁दर्शा	-10351
▁दामों	-10352
▁दिखते	-10353
▁दिनभर	-10354
▁दीवार	-10355
▁देंगी	-10356
▁देवगन	-10357
▁देवता	-10358
▁द्वीप	-10359
▁धारणा	-10360
▁धैर्य	-10361
▁नम्बर	-10362
▁नामों	-10363
▁निजात	-10364
▁निर्व	-10365
▁निश्च	-10366
▁पंचमी	-10367
▁पक्का	-10368
▁पीड़ा	-10369
▁पुतला	-10370
▁प्यास	-10371
▁प्रबल	-10372
▁फिक्स	-10373
▁फ्लिप	-10374
▁बदलते	-10375
▁बनाएं	-10376
▁बनेगी	-10377
▁बरसों	-10378
▁बर्तन	-10379
▁बलराम	-10380
▁बहुजन	-10381
▁बाध्य	-10382
▁बुलेट	-10383
▁ब्वॉय	-10384
▁भयंकर	-10385
▁भागों	-10386
▁भौतिक	-10387
▁मध्‍य	-10388
▁मनोबल	-10389
▁महीना	-10390
▁मांझी	-10391
▁माकपा	-10392
▁मागणी	-10393
▁मानकर	-10394
▁माहिर	-10395
▁मिक्स	-10396
▁मिनिट	-10397
▁मिसाल	-10398
▁मुस्क	-10399
▁मूत्र	-10400
▁मेक्स	-10401
▁म्यां	-10402
▁यंत्र	-10403
▁येथील	-10404
▁रंजिश	-10405
▁रहमान	-10406
▁राजने	-10407
▁रिक्त	-10408
▁रियाय	-10409
▁रेस्ट	-10410
▁रोगों	-10411
▁लगेगी	-10412
▁लाहौर	-10413
▁लिखिए	-10414
▁लिप्त	-10415
▁वर्षो	-10416
▁वसूली	-10417
▁वृक्ष	-10418
▁वैद्य	-10419
▁शासना	-10420
▁शिष्य	-10421
▁संक्र	-10422
▁सकेगी	-10423
▁सचमुच	-10424
▁सनसनी	-10425
▁सशक्त	-10426
▁सस्ती	-10427
▁सादिक	-10428
▁सार्थ	-10429
▁साहिब	-10430
▁सुधीर	-10431
▁स्टाल	-10432
▁स्टेज	-10433
▁स्पीड	-10434
▁स्पेन	-10435
▁स्पेस	-10436
▁स्पों	-10437
▁हजकां	-10438
▁हरभजन	-10439
▁हल्दी	-10440
▁हाथरस	-10441
▁हादसा	-10442
▁हारने	-10443
▁हार्ड	-10444
▁हिटलर	-10445
ational	-10446
lucknow	-10447
कर्तव्य	-10448
क्षिप्त	-10449
णार्‍या	-10450
निर्माण	-10451
स्वीकार	-10452
्यानंतर	-10453
▁Diwali	-10454
▁Indian	-10455
▁अगुवाई	-10456
▁अमृतसर	-10457
▁अर्जित	-10458
▁अलविदा	-10459
▁अवस्था	-10460
▁आक्रोश	-10461
▁आडवाणी	-10462
▁आपरेशन	-10463
▁आवंटित	-10464
▁आवागमन	-10465
▁इन्द्र	-10466
▁उच्चतर	-10467
▁उदयपुर	-10468
▁एडवांस	-10469
▁कनेक्ट	-10470
▁कमलनाथ	-10471
▁कार्बो	-10472
▁काॅलेज	-10473
▁कीजिये	-10474
▁कोलारस	-10475
▁क्योकि	-10476
▁क्षणों	-10477
▁क्‍यों	-10478
▁खंडपीठ	-10479
▁खासियत	-10480
▁खिड़की	-10481
▁गरीबों	-10482
▁गुजरना	-10483
▁ग्रैंड	-10484
▁ग्लैमर	-10485
▁घुटनों	-10486
▁चुपचाप	-10487
▁जनमानस	-10488
▁जबलपुर	-10489
▁ज़ाहिर	-10490
▁जोधपुर	-10491
▁ज्ञापन	-10492
▁टोरंटो	-10493
▁ट्रायल	-10494
▁ट्रेंड	-10495
▁डिप्लो	-10496
▁तवज्जो	-10497
▁तिरंगा	-10498
▁तैनाती	-10499
▁त्रुटि	-10500
▁दिनांक	-10501
▁दुर्लभ	-10502
▁दूसरों	-10503
▁धर्मों	-10504
▁नदियों	-10505
▁नवीनतम	-10506
▁निकाले	-10507
▁निफ्टी	-10508
▁पराजित	-10509
▁पहाड़ी	-10510
▁पहुँचे	-10511
▁पाबंदी	-10512
▁पायदान	-10513
▁पालिका	-10514
▁पासवान	-10515
▁पुख्ता	-10516
▁पुरस्‍	-10517
▁पेड़ों	-10518
▁पेशेवर	-10519
▁पॉलिसी	-10520
▁प्रखंड	-10521
▁प्रचंड	-10522
▁प्रहार	-10523
▁प्राइस	-10524
▁प्राणी	-10525
▁प्रातः	-10526
▁प्रोमो	-10527
▁फडणवीस	-10528
▁बिस्तर	-10529
▁बुकिंग	-10530
▁बुलाकर	-10531
▁बैलेंस	-10532
▁मल्लिक	-10533
▁महासंघ	-10534
▁मारुति	-10535
▁मास्टर	-10536
▁माहिती	-10537
▁मीटिंग	-10538
▁मुक्के	-10539
▁मुनाफा	-10540
▁मुनाफे	-10541
▁मुमताज	-10542
▁मुम्बई	-10543
▁मेडीकल	-10544
▁मैथ्यू	-10545
▁मैदानी	-10546
▁मोटापा	-10547
▁मोटापे	-10548
▁म्हणून	-10549
▁यथार्थ	-10550
▁यामुळे	-10551
▁रघुराम	-10552
▁रहेंगी	-10553
▁राजदूत	-10554
▁राजपूत	-10555
▁रेड्डी	-10556
▁रोमांस	-10557
▁लीजिये	-10558
▁लोहिया	-10559
▁वरीयता	-10560
▁विजेता	-10561
▁विधिवत	-10562
▁विनिमय	-10563
▁विभागा	-10564
▁विमर्श	-10565
▁विशाखा	-10566
▁व्यर्थ	-10567
▁शिवाजी	-10568
▁शेट्टी	-10569
▁शेतकरी	-10570
▁संयोजक	-10571
▁समर्पण	-10572
▁समृद्ध	-10573
▁सर्टिफ	-10574
▁सिगरेट	-10575
▁सिद्धू	-10576
▁सीरियल	-10577
▁सुनीता	-10578
▁सोमनाथ	-10579
▁सौंपने	-10580
▁स्टेटस	-10581
▁स्‍कूल	-10582
▁हालिया	-10583
▁हैसियत	-10584
क्सीडेंट	-10585
छात्राओं	-10586
नांदगांव	-10587
ष्‍ट्रीय	-10588
िम्मेदार	-10589
▁2014-15	-10590
▁2015-16	-10591
▁6930020	-10592
▁article	-10593
▁अथॉरिटी	-10594
▁अनधिकृत	-10595
▁अरविन्द	-10596
▁आंबेडकर	-10597
▁आक्रामक	-10598
▁आरक्षित	-10599
▁इक्विटी	-10600
▁उपनिवेश	-10601
▁उपेक्षा	-10602
▁उम्रकैद	-10603
▁एकत्रित	-10604
▁ओएनजीसी	-10605
▁औपचारिक	-10606
▁कन्हैया	-10607
▁कपूरथला	-10608
▁कानूनों	-10609
▁कोरियाई	-10610
▁खिलवाड़	-10611
▁खुशियों	-10612
▁गोलियां	-10613
▁गोलियों	-10614
▁चिन्हित	-10615
▁चुनिंदा	-10616
▁चैंपियन	-10617
▁जानवरों	-10618
▁जामवन्त	-10619
▁टेलीफोन	-10620
▁डिज़ाइन	-10621
▁तथाकथित	-10622
▁त्यांनी	-10623
▁दरम्यान	-10624
▁दीपावली	-10625
▁निकायों	-10626
▁निकालना	-10627
▁नौकरशाह	-10628
▁पंचकूला	-10629
▁पंडितों	-10630
▁पटियाला	-10631
▁परिश्रम	-10632
▁पवेलियन	-10633
▁पांचवें	-10634
▁प्रबंधक	-10635
▁प्रशंसक	-10636
▁प्रोसेस	-10637
▁बंटवारा	-10638
▁बच्‍चों	-10639
▁भौगोलिक	-10640
▁मछुआरों	-10641
▁महिन्या	-10642
▁महोत्सव	-10643
▁मार्क्स	-10644
▁रामलीला	-10645
▁रास्तों	-10646
▁लाभदायक	-10647
▁लैंडिंग	-10648
▁विमानों	-10649
▁वियतनाम	-10650
▁विश्राम	-10651
▁वैवाहिक	-10652
▁व्याप्त	-10653
▁शर्मनाक	-10654
▁श्रीसंत	-10655
▁श्रेष्ठ	-10656
▁संस्मरण	-10657
▁समझदारी	-10658
▁समृद्धि	-10659
▁सम्पन्न	-10660
▁सरस्वती	-10661
▁सीतापुर	-10662
▁सोयाबीन	-10663
▁सौंदर्य	-10664
▁सौभाग्य	-10665
▁स्थिरता	-10666
▁स्वयंसे	-10667
▁हाथापाई	-10668
▁हॉलीवुड	-10669
ग्राहियों	-10670
पाकिस्तान	-10671
▁अमावस्या	-10672
▁असल्याचे	-10673
▁आध्यात्म	-10674
▁आशीर्वाद	-10675
▁ओमप्रकाश	-10676
▁कहानियाँ	-10677
▁काँग्रेस	-10678
▁गर्मियों	-10679
▁गोलीबारी	-10680
▁छात्राओं	-10681
▁जल्दबाजी	-10682
▁ज़िन्दगी	-10683
▁जानकारों	-10684
▁जितेंद्र	-10685
▁जोगिंद्र	-10686
▁तेलंगाना	-10687
▁दुश्मनों	-10688
▁नागरिकता	-10689
▁निःशुल्क	-10690
▁निरीक्षक	-10691
▁निर्दलीय	-10692
▁निर्धारण	-10693
▁निष्पादन	-10694
▁पारदर्शी	-10695
▁प्रतिष्ठ	-10696
▁प्रमुखता	-10697
▁प्रमुखों	-10698
▁प्रोसेसर	-10699
▁प्लानिंग	-10700
▁फिल्‍मों	-10701
▁बीएसएनएल	-10702
▁बेंगलुरु	-10703
▁मतदाताओं	-10704
▁महिंद्रा	-10705
▁महिषासुर	-10706
▁म्यांमार	-10707
▁रचनात्मक	-10708
▁व्याख्या	-10709
▁शादीशुदा	-10710
▁शुक्रिया	-10711
▁श्रमिकों	-10712
▁श्रीदेवी	-10713
▁षड्यंत्र	-10714
▁सक्रियता	-10715
▁समुदायों	-10716
▁सम्मिलित	-10717
▁सर्वदलीय	-10718
▁सर्वाइकल	-10719
▁सेल्सियस	-10720
▁अपराधियों	-10721
▁इस्‍तेमाल	-10722
▁कम्पनियों	-10723
▁कम्प्यूटर	-10724
▁कांस्टेबल	-10725
▁ड्राइविंग	-10726
▁दृष्टिकोण	-10727
▁निवासियों	-10728
▁परीक्षाओं	-10729
▁प्रतीक्षा	-10730
▁प्रस्तुति	-10731
▁महानिदेशक	-10732
▁रिश्तेदार	-10733
▁रोहिंग्या	-10734
▁व्हाट्सएप	-10735
▁श्रीनिवास	-10736
▁श्रीलंकाई	-10737
▁संक्षिप्त	-10738
▁सत्तारूढ़	-10739
▁स्थानांतर	-10740
▁स्वीकार्य	-10741
▁आपूर्तिकर्	-10742
▁उपभोक्ताओं	-10743
▁उपयोगकर्ता	-10744
▁खिलाडि़यों	-10745
▁गर्लफ्रेंड	-10746
▁टिप्पणियां	-10747
▁निम्नलिखित	-10748
▁निर्माताओं	-10749
▁पूर्ववर्ती	-10750
▁प्रमाणपत्र	-10751
▁प्रशिक्षित	-10752
▁प्रियदर्शन	-10753
▁फ्लिपकार्ट	-10754
▁बल्लेबाजों	-10755
▁मंत्रिमंडल	-10756
▁शुभकामनाएं	-10757
▁सर्टिफिकेट	-10758
▁साहित्यकार	-10759
▁क्षतिग्रस्त	-10760
▁राजनांदगांव	-10761
▁लोकतांत्रिक	-10762
▁वैज्ञानिकों	-10763
▁श्रद्धांजलि	-10764
▁संवाददाताओं	-10765
▁उपराष्ट्रपति	-10766
▁महत्त्वपूर्ण	-10767
▁हितग्राहियों	-10768
▁धर्मनिरपेक्षता	-10769
▁विश्वविद्यालयों	-10770
'।	-10771
)-	-10772
);	-10773
,#	-10774
.,	-10775
1,	-10776
14	-10777
27	-10778
3)	-10779
4%	-10780
4,	-10781
7%	-10782
74	-10783
85	-10784
94	-10785
?”	-10786
AM	-10787
AS	-10788
Ex	-10789
IA	-10790
TC	-10791
UP	-10792
ef	-10793
if	-10794
ip	-10795
iz	-10796
li	-10797
na	-10798
ny	-10799
oh	-10800
ue	-10801
uy	-10802
इश	-10803
उज	-10804
उड	-10805
एब	-10806
ऐप	-10807
ओए	-10808
कॉ	-10809
खु	-10810
गठ	-10811
जद	-10812
टै	-10813
डक	-10814
पड	-10815
पृ	-10816
पौ	-10817
फू	-10818
बं	-10819
मं	-10820
मॉ	-10821
यश	-10822
लल	-10823
वळ	-10824
ुए	-10825
ैय	-10826
ोभ	-10827
ोम	-10828
ोव	-10829
ौम	-10830
्ह	-10831
९०	-10832
▁७	-10833
-14	-10834
-50	-10835
.''	-10836
.09	-10837
.10	-10838
.15	-10839
.19	-10840
.53	-10841
.85	-10842
100	-10843
://	-10844
aid	-10845
ama	-10846
anj	-10847
che	-10848
era	-10849
etw	-10850
ife	-10851
igg	-10852
ign	-10853
ima	-10854
lla	-10855
man	-10856
mit	-10857
nat	-10858
oll	-10859
ons	-10860
ood	-10861
oss	-10862
oth	-10863
per	-10864
ple	-10865
por	-10866
raw	-10867
res	-10868
und	-10869
utt	-10870
zwj	-10871
ंटा	-10872
ंते	-10873
ंबल	-10874
अभी	-10875
इजर	-10876
एमओ	-10877
ऐसे	-10878
काट	-10879
किक	-10880
कूट	-10881
कोस	-10882
क्य	-10883
क्ल	-10884
खास	-10885
गर्	-10886
गिर	-10887
घात	-10888
घुक	-10889
घ्र	-10890
चुप	-10891
जली	-10892
ज़त	-10893
ज़म	-10894
जॉय	-10895
ठीक	-10896
ठों	-10897
डक़	-10898
णीय	-10899
ण्य	-10900
ताज	-10901
थिन	-10902
दमी	-10903
देय	-10904
दोई	-10905
द्घ	-10906
धीन	-10907
धेश	-10908
नाह	-10909
नीज	-10910
नीत	-10911
न्थ	-10912
न्म	-10913
पटा	-10914
पाट	-10915
पिक	-10916
पेन	-10917
पेश	-10918
फरत	-10919
फरी	-10920
फाई	-10921
बला	-10922
बिग	-10923
बिट	-10924
बित	-10925
बिन	-10926
बीए	-10927
बीब	-10928
बेन	-10929
बैक	-10930
बोट	-10931
भगत	-10932
भरी	-10933
भवन	-10934
भ्र	-10935
मनी	-10936
मिल	-10937
मीद	-10938
मीर	-10939
मृत	-10940
यदि	-10941
यरी	-10942
राई	-10943
राक	-10944
रिट	-10945
र्र	-10946
लाज	-10947
लीट	-10948
लेन	-10949
वले	-10950
शंस	-10951
शाद	-10952
शाम	-10953
शास	-10954
समा	-10955
सवी	-10956
सेच	-10957
सोस	-10958
सौर	-10959
स्ड	-10960
हड़	-10961
हला	-10962
हात	-10963
हीर	-10964
ांप	-10965
ायन	-10966
ालन	-10967
ूकी	-10968
ेमे	-10969
ेसर	-10970
ैंण	-10971
ैशी	-10972
ोंक	-10973
ोटल	-10974
ोदर	-10975
ोधन	-10976
ोनी	-10977
ोरस	-10978
ोले	-10979
ोशी	-10980
ौला	-10981
्का	-10982
्की	-10983
्ति	-10984
्रु	-10985
▁(5	-10986
▁07	-10987
▁49	-10988
▁61	-10989
▁76	-10990
▁78	-10991
▁84	-10992
▁88	-10993
▁93	-10994
▁Af	-10995
▁Am	-10996
▁Bo	-10997
▁CA	-10998
▁He	-10999
▁Le	-11000
▁MA	-11001
▁Un	-11002
▁as	-11003
▁em	-11004
▁ha	-11005
▁it	-11006
▁sh	-11007
▁un	-11008
▁wh	-11009
▁आल	-11010
▁उक	-11011
▁ऊन	-11012
▁ऑर	-11013
▁गन	-11014
▁घण	-11015
▁घब	-11016
▁छठ	-11017
▁छी	-11018
▁झट	-11019
▁झर	-11020
▁ढी	-11021
▁ढु	-11022
▁थम	-11023
▁नू	-11024
▁पण	-11025
▁फौ	-11026
▁फ‍	-11027
▁मट	-11028
▁यम	-11029
▁रथ	-11030
▁रव	-11031
▁वट	-11032
▁हब	-11033
▁१५	-11034
▁१८	-11035
▁’’	-11036
,999	-11037
alth	-11038
aphy	-11039
ashi	-11040
assw	-11041
aste	-11042
atch	-11043
bout	-11044
edmi	-11045
ense	-11046
imit	-11047
ites	-11048
live	-11049
load	-11050
lowj	-11051
mail	-11052
otes	-11053
rchi	-11054
umar	-11055
ंक्य	-11056
ंगली	-11057
ंदेल	-11058
ंधरा	-11059
अपनी	-11060
आरटी	-11061
एनयू	-11062
कर्ण	-11063
कर्ष	-11064
क़ात	-11065
कारो	-11066
किसी	-11067
कीपर	-11068
कोहल	-11069
क्यू	-11070
खबरी	-11071
गाँव	-11072
गामी	-11073
गिंग	-11074
ग्गी	-11075
च्छा	-11076
छोटी	-11077
छोटे	-11078
ज़ों	-11079
ज़ोर	-11080
जाही	-11081
जिकल	-11082
जीवी	-11083
टकाए	-11084
ठ्ठी	-11085
ड़ला	-11086
डेजा	-11087
णाली	-11088
ण्डा	-11089
तरंज	-11090
ताने	-11091
दर्द	-11092
दर्य	-11093
दायत	-11094
दायी	-11095
धनों	-11096
नहीं	-11097
नामी	-11098
नामे	-11099
न्ही	-11100
पारा	-11101
पावर	-11102
पीएन	-11103
पेपर	-11104
पोषण	-11105
प्पल	-11106
फीति	-11107
फॉर्	-11108
फोड़	-11109
फ्यू	-11110
बड़ा	-11111
बहुत	-11112
बाबत	-11113
बाबू	-11114
ब्बल	-11115
ब्लम	-11116
ब्वे	-11117
भागी	-11118
मिली	-11119
म्पर	-11120
म्पा	-11121
म्बा	-11122
राडे	-11123
रीज़	-11124
रेकर	-11125
रेसा	-11126
रोहर	-11127
लमेल	-11128
लाने	-11129
ल्‍प	-11130
वर्ट	-11131
वसाय	-11132
वाचक	-11133
वाते	-11134
वीपी	-11135
वेगन	-11136
वेली	-11137
वैसी	-11138
शब्द	-11139
श्कर	-11140
श्ती	-11141
संगी	-11142
सलाम	-11143
सवाल	-11144
सीटी	-11145
सीबी	-11146
सीहत	-11147
सुरी	-11148
सेवा	-11149
स्‍व	-11150
हांत	-11151
हाइड	-11152
ांशु	-11153
ाईगर	-11154
ानंद	-11155
ानगर	-11156
ान्ड	-11157
ालिद	-11158
ाहेब	-11159
िंदा	-11160
िकॉन	-11161
िरोध	-11162
िवुड	-11163
िव्य	-11164
ीकृत	-11165
ुद्ध	-11166
ेरों	-11167
ोनिक	-11168
ौड़ा	-11169
्तिक	-11170
्बास	-11171
्युम	-11172
्रेम	-11173
्रेल	-11174
्लोक	-11175
्‍मे	-11176
▁101	-11177
▁110	-11178
▁128	-11179
▁160	-11180
▁175	-11181
▁192	-11182
▁21,	-11183
▁Cam	-11184
▁Cut	-11185
▁Des	-11186
▁Fri	-11187
▁IPL	-11188
▁Kay	-11189
▁Med	-11190
▁Mir	-11191
▁SEO	-11192
▁Sha	-11193
▁अखा	-11194
▁अछू	-11195
▁अजि	-11196
▁अनो	-11197
▁अनौ	-11198
▁अम्	-11199
▁असं	-11200
▁आति	-11201
▁आर्	-11202
▁आशय	-11203
▁इको	-11204
▁ईशा	-11205
▁ईसा	-11206
▁उलझ	-11207
▁एएन	-11208
▁एडी	-11209
▁एपल	-11210
▁एवज	-11211
▁कंड	-11212
▁कपल	-11213
▁कलम	-11214
▁कसा	-11215
▁काठ	-11216
▁किं	-11217
▁कुं	-11218
▁कूद	-11219
▁कूल	-11220
▁कैच	-11221
▁कोठ	-11222
▁खनि	-11223
▁खाई	-11224
▁खेर	-11225
▁गधा	-11226
▁गम्	-11227
▁घने	-11228
▁घात	-11229
▁घों	-11230
▁चमक	-11231
▁चमन	-11232
▁चाँ	-11233
▁चेन	-11234
▁चॉक	-11235
▁जाँ	-11236
▁जाट	-11237
▁जीप	-11238
▁जीभ	-11239
▁जेम	-11240
▁टेप	-11241
▁ठोस	-11242
▁डाॅ	-11243
▁डिट	-11244
▁डेन	-11245
▁डेम	-11246
▁तंज	-11247
▁तक़	-11248
▁ताब	-11249
▁तोह	-11250
▁दंग	-11251
▁दली	-11252
▁दाह	-11253
▁दूँ	-11254
▁धाम	-11255
▁नक्	-11256
▁नस्	-11257
▁नाश	-11258
▁निस	-11259
▁नीम	-11260
▁नॉन	-11261
▁नोक	-11262
▁पंत	-11263
▁पंथ	-11264
▁पटर	-11265
▁पपी	-11266
▁परह	-11267
▁परो	-11268
▁पाह	-11269
▁पिघ	-11270
▁पिच	-11271
▁पूल	-11272
▁पैच	-11273
▁पों	-11274
▁फिन	-11275
▁फेफ	-11276
▁फैन	-11277
▁फोर	-11278
▁बक्	-11279
▁बया	-11280
▁बसा	-11281
▁बिख	-11282
▁बिछ	-11283
▁बिन	-11284
▁बीन	-11285
▁बैर	-11286
▁बोध	-11287
▁भगा	-11288
▁भनक	-11289
▁भली	-11290
▁भुट	-11291
▁भुव	-11292
▁मक्	-11293
▁मजि	-11294
▁मला	-11295
▁मीर	-11296
▁मून	-11297
▁मॉल	-11298
▁मोल	-11299
▁यहू	-11300
▁यूँ	-11301
▁रज़	-11302
▁रमा	-11303
▁रीड	-11304
▁रेग	-11305
▁रेम	-11306
▁रोष	-11307
▁लखी	-11308
▁लटक	-11309
▁लता	-11310
▁लां	-11311
▁लिट	-11312
▁लेट	-11313
▁लेा	-11314
▁लोज	-11315
▁लोट	-11316
▁वंश	-11317
▁वचन	-11318
▁वसा	-11319
▁वां	-11320
▁वाद	-11321
▁वॉक	-11322
▁शेफ	-11323
▁सदा	-11324
▁सनी	-11325
▁सबक	-11326
▁समज	-11327
▁सरो	-11328
▁सास	-11329
▁सीओ	-11330
▁सुब	-11331
▁सैल	-11332
▁हक़	-11333
▁हर्	-11334
▁हसी	-11335
▁हान	-11336
▁हुक	-11337
/2017	-11338
adesh	-11339
dilla	-11340
photo	-11341
press	-11342
ंगुली	-11343
ंदीदा	-11344
उत्तर	-11345
कर्मा	-11346
कानेर	-11347
कायदा	-11348
कार्ड	-11349
घुकथा	-11350
टरीना	-11351
ट्सऐप	-11352
तालों	-11353
तृहरि	-11354
दृश्य	-11355
धिकरण	-11356
नाख्त	-11357
पयामी	-11358
पर्टी	-11359
पासून	-11360
फास्ट	-11361
फील्ड	-11362
फोर्स	-11363
ब्रिट	-11364
मिनार	-11365
मुख्य	-11366
राणिक	-11367
र्शीद	-11368
वमेंट	-11369
वासीय	-11370
व्यों	-11371
शर्रफ	-11372
शीलता	-11373
श्रीम	-11374
संबंध	-11375
सेंजर	-11376
स्कुट	-11377
स्खलन	-11378
स्तौल	-11379
स्‍पी	-11380
हतिया	-11381
हेड़ा	-11382
ानिधि	-11383
ान्तर	-11384
िक्षा	-11385
िनेशन	-11386
ियमित	-11387
ेल्या	-11388
्याचे	-11389
्युनि	-11390
▁(22)	-11391
▁1500	-11392
▁1935	-11393
▁1990	-11394
▁1995	-11395
▁1996	-11396
▁2022	-11397
▁Boss	-11398
▁Main	-11399
▁NEWS	-11400
▁Stat	-11401
▁Word	-11402
▁site	-11403
▁अनाम	-11404
▁अभूत	-11405
▁अरसे	-11406
▁अरूण	-11407
▁अल्ट	-11408
▁असहि	-11409
▁आइये	-11410
▁आईआर	-11411
▁आईएस	-11412
▁आगमन	-11413
▁आगाज	-11414
▁आचरण	-11415
▁आड़े	-11416
▁आभाव	-11417
▁आयाम	-11418
▁आरआर	-11419
▁आरजे	-11420
▁आलेख	-11421
▁इंगल	-11422
▁इनाम	-11423
▁इन्द	-11424
▁इमेज	-11425
▁ईसाई	-11426
▁ईस्ट	-11427
▁उड़द	-11428
▁उद्ध	-11429
▁उनपर	-11430
▁उम्‍	-11431
▁एकड़	-11432
▁एकदम	-11433
▁एचसी	-11434
▁एनजी	-11435
▁एनसी	-11436
▁एसआई	-11437
▁एसएल	-11438
▁एसटी	-11439
▁ऐक्ट	-11440
▁करूब	-11441
▁कलाम	-11442
▁क़ान	-11443
▁काका	-11444
▁कारक	-11445
▁किरन	-11446
▁किशन	-11447
▁कुंभ	-11448
▁कुशल	-11449
▁कृत्	-11450
▁केपी	-11451
▁केशव	-11452
▁कोटक	-11453
▁कोरी	-11454
▁कोषा	-11455
▁क्ला	-11456
▁क्ली	-11457
▁क्वि	-11458
▁खण्ड	-11459
▁खाएं	-11460
▁खिलौ	-11461
▁खीरी	-11462
▁खोला	-11463
▁गंदे	-11464
▁गर्ग	-11465
▁गर्व	-11466
▁ग़लत	-11467
▁गाँड	-11468
▁गोपी	-11469
▁घंटी	-11470
▁घटने	-11471
▁चंदन	-11472
▁चिन्	-11473
▁चुनी	-11474
▁छिड़	-11475
▁छिपे	-11476
▁जजों	-11477
▁जनसम	-11478
▁जन्‍	-11479
▁जहाज	-11480
▁जिंक	-11481
▁जीवा	-11482
▁जुटी	-11483
▁जेके	-11484
▁जेने	-11485
▁झंडा	-11486
▁झंडी	-11487
▁टाकी	-11488
▁टुडे	-11489
▁टूटा	-11490
▁ट्रा	-11491
▁ठंडे	-11492
▁डाइट	-11493
▁डिनर	-11494
▁डिपॉ	-11495
▁डीआई	-11496
▁डीलर	-11497
▁डुअल	-11498
▁डेरा	-11499
▁ड्रा	-11500
▁ड्रॉ	-11501
▁तटीय	-11502
▁तबाह	-11503
▁तरफ़	-11504
▁तरुण	-11505
▁तसेच	-11506
▁तीखी	-11507
▁तुम्	-11508
▁तेरा	-11509
▁थकान	-11510
▁थॉमस	-11511
▁थोडा	-11512
▁दलाल	-11513
▁दांव	-11514
▁दाईं	-11515
▁दिलो	-11516
▁दुखी	-11517
▁दुबई	-11518
▁दृढ़	-11519
▁दोहन	-11520
▁धरने	-11521
▁धोकर	-11522
▁नंगा	-11523
▁नंगे	-11524
▁नकदी	-11525
▁नफरत	-11526
▁नर्म	-11527
▁नाईक	-11528
▁निगल	-11529
▁निधि	-11530
▁निषा	-11531
▁नोंद	-11532
▁नोटि	-11533
▁नौका	-11534
▁न्‍य	-11535
▁पच्च	-11536
▁पठान	-11537
▁पाइप	-11538
▁पालक	-11539
▁पिपर	-11540
▁पीली	-11541
▁पुनः	-11542
▁पूरक	-11543
▁प्या	-11544
▁प्‍य	-11545
▁फाइव	-11546
▁फारे	-11547
▁फिसल	-11548
▁फीफा	-11549
▁फेमस	-11550
▁फेवर	-11551
▁फ्ले	-11552
▁फ्लै	-11553
▁बंधे	-11554
▁बचें	-11555
▁बजरी	-11556
▁बरगद	-11557
▁बराक	-11558
▁बांस	-11559
▁बाते	-11560
▁बायो	-11561
▁बीजा	-11562
▁बेशक	-11563
▁बैंग	-11564
▁बोतल	-11565
▁भड़क	-11566
▁भागा	-11567
▁भुला	-11568
▁भ्रम	-11569
▁मंगा	-11570
▁मंथन	-11571
▁मसीह	-11572
▁मस्त	-11573
▁महबू	-11574
▁माधव	-11575
▁मुहं	-11576
▁मेजर	-11577
▁मेने	-11578
▁मैग्	-11579
▁युगल	-11580
▁यूने	-11581
▁रणजी	-11582
▁रसूल	-11583
▁रसेल	-11584
▁राजग	-11585
▁रावण	-11586
▁रियो	-11587
▁रेंस	-11588
▁रेसि	-11589
▁रैना	-11590
▁रोचक	-11591
▁लगाव	-11592
▁लटका	-11593
▁लेगा	-11594
▁लेवल	-11595
▁वल्ल	-11596
▁वसीम	-11597
▁वालो	-11598
▁वासु	-11599
▁विदा	-11600
▁विनय	-11601
▁विवि	-11602
▁वीजा	-11603
▁वेरि	-11604
▁वैसी	-11605
▁शक्ल	-11606
▁शरार	-11607
▁शाका	-11608
▁शायर	-11609
▁शिशु	-11610
▁शोएब	-11611
▁संडे	-11612
▁सज़ा	-11613
▁सबका	-11614
▁समेट	-11615
▁सस्प	-11616
▁साधक	-11617
▁साधु	-11618
▁साले	-11619
▁सिल्	-11620
▁सिवा	-11621
▁सुपु	-11622
▁सूखा	-11623
▁सेंस	-11624
▁सेरे	-11625
▁सेलि	-11626
▁सेवक	-11627
▁सॉल्	-11628
▁सोलर	-11629
▁स्नै	-11630
▁स्लो	-11631
▁स्‍थ	-11632
▁हड्ड	-11633
▁हमको	-11634
▁हल्‍	-11635
▁हाइड	-11636
▁हायर	-11637
▁हावी	-11638
Credit	-11639
dicine	-11640
eneral	-11641
graphy	-11642
lowjob	-11643
ंगाबाद	-11644
ंगिकता	-11645
कल्पिक	-11646
कुलेटर	-11647
कॉमर्स	-11648
क्षांत	-11649
क्ष्मी	-11650
क्साइड	-11651
ख़ियों	-11652
जेवाला	-11653
नाइटेड	-11654
पूर्वी	-11655
प्रत्य	-11656
प्रबंध	-11657
भारतीय	-11658
विनायक	-11659
श्तैनी	-11660
ष्णुता	-11661
सीबीआई	-11662
सुविधा	-11663
स्टिंग	-11664
स्फीति	-11665
स्सलाम	-11666
ान्वित	-11667
ाहिदीन	-11668
िस्तान	-11669
ुल्लाह	-11670
ोद्योग	-11671
्यांना	-11672
्युनिक	-11673
्राज्य	-11674
▁2019:	-11675
▁Click	-11676
▁Redmi	-11677
▁admin	-11678
▁अण्णा	-11679
▁अदभुत	-11680
▁अधूरी	-11681
▁अनीता	-11682
▁अफसोस	-11683
▁अमेजन	-11684
▁अर्जी	-11685
▁अर्बन	-11686
▁आंशिक	-11687
▁आमदनी	-11688
▁आरम्भ	-11689
▁आश्रम	-11690
▁आसिया	-11691
▁इंजिन	-11692
▁इजाफा	-11693
▁इन्टर	-11694
▁इलाका	-11695
▁उठाना	-11696
▁ऑडियो	-11697
▁ऑप्शन	-11698
▁ऑफर्स	-11699
▁ऑफिसर	-11700
▁ओवैसी	-11701
▁कराएं	-11702
▁कराकर	-11703
▁करीबी	-11704
▁कवायद	-11705
▁काबिज	-11706
▁कामता	-11707
▁कामों	-11708
▁किसने	-11709
▁कुणाल	-11710
▁कूड़ा	-11711
▁कैम्प	-11712
▁कोल्ड	-11713
▁खजाना	-11714
▁खेतों	-11715
▁खोजने	-11716
▁गहराई	-11717
▁गानों	-11718
▁गिरते	-11719
▁घुसकर	-11720
▁घूमते	-11721
▁चचेरे	-11722
▁चटकाए	-11723
▁चढ़ाई	-11724
▁चलाना	-11725
▁चालान	-11726
▁चिट्ठ	-11727
▁छक्का	-11728
▁छोड़े	-11729
▁जडेजा	-11730
▁जनहित	-11731
▁जल्‍द	-11732
▁जसलीन	-11733
▁जैविक	-11734
▁झगड़ा	-11735
▁झगड़े	-11736
▁टाईगर	-11737
▁टेक्‍	-11738
▁ट्रां	-11739
▁ट्राइ	-11740
▁डिविल	-11741
▁डिस्प	-11742
▁डूबने	-11743
▁डेयरी	-11744
▁ढांचे	-11745
▁ढुलाई	-11746
▁तगड़ा	-11747
▁तत्पर	-11748
▁दमदार	-11749
▁दलबीर	-11750
▁दिलों	-11751
▁दीजिए	-11752
▁दुर्ग	-11753
▁दुसरे	-11754
▁दूषित	-11755
▁दोहरे	-11756
▁धमाका	-11757
▁धरोहर	-11758
▁नजरें	-11759
▁नन्दी	-11760
▁नमाज़	-11761
▁नमूने	-11762
▁नवजात	-11763
▁नसीहत	-11764
▁नामित	-11765
▁निचली	-11766
▁नित्य	-11767
▁नोबेल	-11768
▁पक्षी	-11769
▁पट्टी	-11770
▁पड़ाव	-11771
▁पढ़िए	-11772
▁पदभार	-11773
▁पन्नू	-11774
▁पलामू	-11775
▁पाटील	-11776
▁पित्त	-11777
▁पुष्प	-11778
▁पूछना	-11779
▁पॉर्न	-11780
▁पोर्न	-11781
▁पोहोच	-11782
▁प्रया	-11783
▁प्रश्	-11784
▁प्रो०	-11785
▁प्लैट	-11786
▁फ़ज़ल	-11787
▁फ़ाइल	-11788
▁फास्ट	-11789
▁फिराक	-11790
▁फूलों	-11791
▁फोक्स	-11792
▁फ्रीज	-11793
▁फ्रें	-11794
▁फ्लैट	-11795
▁बजाया	-11796
▁बढ़ना	-11797
▁बदलकर	-11798
▁बम्बई	-11799
▁बस्ती	-11800
▁बहनों	-11801
▁बायें	-11802
▁बेचैन	-11803
▁बेटों	-11804
▁बेहोश	-11805
▁बोलना	-11806
▁ब्रिज	-11807
▁ब्‍ला	-11808
▁भक्ति	-11809
▁भरमार	-11810
▁भावुक	-11811
▁भेजना	-11812
▁भ्रमण	-11813
▁मक्का	-11814
▁मचाने	-11815
▁मदरसे	-11816
▁मध्ये	-11817
▁मनाते	-11818
▁मसल्स	-11819
▁महँगा	-11820
▁महाजन	-11821
▁मानगो	-11822
▁मार्क	-11823
▁माहथा	-11824
▁मियां	-11825
▁मुंडा	-11826
▁मुकाम	-11827
▁मुशीर	-11828
▁मृतका	-11829
▁मैरिज	-11830
▁मैसेज	-11831
▁मोक्ष	-11832
▁यांना	-11833
▁युक्त	-11834
▁रंगों	-11835
▁रणबीर	-11836
▁रवैया	-11837
▁रवैये	-11838
▁रसायन	-11839
▁रहिये	-11840
▁रितिक	-11841
▁रेडमी	-11842
▁रोकना	-11843
▁रोबोट	-11844
▁लगाती	-11845
▁लेंगी	-11846
▁लैसनर	-11847
▁वाक्य	-11848
▁वायदा	-11849
▁विपिन	-11850
▁वेदों	-11851
▁वैदिक	-11852
▁वैधता	-11853
▁शाओमी	-11854
▁शासित	-11855
▁शिरकत	-11856
▁शीघ्र	-11857
▁शुभार	-11858
▁शॉर्ट	-11859
▁संभवत	-11860
▁सच्ची	-11861
▁सबकुछ	-11862
▁समग्र	-11863
▁सम्भव	-11864
▁सरिता	-11865
▁सलामी	-11866
▁साइना	-11867
▁साधना	-11868
▁साधने	-11869
▁सावंत	-11870
▁साहित	-11871
▁साहेब	-11872
▁सिंगा	-11873
▁सीखना	-11874
▁सुजीत	-11875
▁सुतार	-11876
▁सॉन्ग	-11877
▁सोचता	-11878
▁सोहेल	-11879
▁स्काई	-11880
▁स्त्र	-11881
▁स्पर्	-11882
▁स्पिन	-11883
▁हमलोग	-11884
▁हवाओं	-11885
▁हवाला	-11886
▁हाइवे	-11887
▁हाईवे	-11888
▁हिसार	-11889
▁हेमंत	-11890
▁होंडा	-11891
assword	-11892
hatsapp	-11893
ंदेलखंड	-11894
टेनमेंट	-11895
डिलोसिस	-11896
दर्शिता	-11897
प्रणाली	-11898
प्रतिनि	-11899
फ्लिक्स	-11900
श्रीमती	-11901
्याच्या	-11902
▁20,000	-11903
▁Author	-11904
▁Kayast	-11905
▁Khabar	-11906
▁Market	-11907
▁market	-11908
▁mobile	-11909
▁search	-11910
▁अंधेरा	-11911
▁अकादमी	-11912
▁अच्‍छा	-11913
▁अन्तिम	-11914
▁अपनाने	-11915
▁अब्बास	-11916
▁अरेस्ट	-11917
▁अविनाश	-11918
▁अश्विन	-11919
▁अहमियत	-11920
▁आईसीआई	-11921
▁आवासीय	-11922
▁इस्‍ती	-11923
▁उतारने	-11924
▁उपग्रह	-11925
▁एनआरसी	-11926
▁एसबीआई	-11927
▁कमजोरी	-11928
▁करप्शन	-11929
▁करवाना	-11930
▁करेंसी	-11931
▁कहेंगे	-11932
▁कांकेर	-11933
▁काउंटी	-11934
▁कारीगर	-11935
▁कालिया	-11936
▁किग्रा	-11937
▁कैंटीन	-11938
▁कोशिका	-11939
▁खासदार	-11940
▁खुफिया	-11941
▁खुलासे	-11942
▁खेलकूद	-11943
▁गम्भीर	-11944
▁गलियों	-11945
▁गिराया	-11946
▁गुमराह	-11947
▁गुरमीत	-11948
▁गुस्से	-11949
▁गेल्या	-11950
▁गोविंद	-11951
▁ग्रस्त	-11952
▁चढ़ाने	-11953
▁चॉकलेट	-11954
▁चौराहे	-11955
▁छानबीन	-11956
▁छोड़ते	-11957
▁जयन्ती	-11958
▁ज़रिये	-11959
▁जादूगर	-11960
▁जानबूझ	-11961
▁जालंधर	-11962
▁जीडीपी	-11963
▁झुग्गी	-11964
▁टीएमसी	-11965
▁टेरेसा	-11966
▁ट्रकों	-11967
▁डीएसपी	-11968
▁ड्रग्स	-11969
▁तरीकों	-11970
▁ताइवान	-11971
▁तालमेल	-11972
▁तुरन्त	-11973
▁तोड़कर	-11974
▁त्यागी	-11975
▁त्रिवे	-11976
▁दाखिले	-11977
▁दामोदर	-11978
▁दीजिये	-11979
▁दीवाने	-11980
▁दुल्हन	-11981
▁देखरेख	-11982
▁देखिये	-11983
▁धाराओं	-11984
▁नववर्ष	-11985
▁नारियल	-11986
▁निभाने	-11987
▁नियामक	-11988
▁निविदा	-11989
▁निवेशक	-11990
▁निश्चय	-11991
▁नुस्खे	-11992
▁नेपाली	-11993
▁नौजवान	-11994
▁पंजाबी	-11995
▁पत्रों	-11996
▁पांचों	-11997
▁पात्रा	-11998
▁पीडीएफ	-11999
▁पीडीपी	-12000
▁पुलकित	-12001
▁पूर्वक	-12002
▁पैटर्न	-12003
▁पोलिंग	-12004
▁पोस्‍ट	-12005
▁प्रमोद	-12006
▁प्रसंग	-12007
▁प्रिया	-12008
▁फ़ैसला	-12009
▁फूफाजी	-12010
▁फैमिली	-12011
▁बढ़ाता	-12012
▁बढ़ाती	-12013
▁बढ़ाते	-12014
▁बढ़ाना	-12015
▁बढ़ेगी	-12016
▁बनेंगे	-12017
▁बयानों	-12018
▁बर्थडे	-12019
▁बाईपास	-12020
▁बीएसएफ	-12021
▁बीएसपी	-12022
▁बुझाने	-12023
▁बुलाने	-12024
▁ब्यौरा	-12025
▁भक्तों	-12026
▁भिड़ंत	-12027
▁भुट्टो	-12028
▁मंदसौर	-12029
▁मजबूरी	-12030
▁मतदाता	-12031
▁मददगार	-12032
▁मर्ज़ी	-12033
▁मांगने	-12034
▁मांगें	-12035
▁मानदेय	-12036
▁मालवीय	-12037
▁मिलाया	-12038
▁मिसाइल	-12039
▁मिस्टर	-12040
▁मुख्या	-12041
▁मुर्गा	-12042
▁मेकर्स	-12043
▁मॉरीशस	-12044
▁रखरखाव	-12045
▁रखेंगे	-12046
▁रतिराम	-12047
▁राज्‍य	-12048
▁राठौड़	-12049
▁रोमांच	-12050
▁लक्जरी	-12051
▁लघुकथा	-12052
▁वितरित	-12053
▁विलियम	-12054
▁विषयों	-12055
▁वृद्धा	-12056
▁वेडिंग	-12057
▁व्हाइट	-12058
▁शर्तों	-12059
▁शान्ति	-12060
▁शाहपुर	-12061
▁शिकंजा	-12062
▁श्वेता	-12063
▁संगीता	-12064
▁सपोर्ट	-12065
▁सप्लाई	-12066
▁समझाने	-12067
▁समावेश	-12068
▁समीकरण	-12069
▁सर्किट	-12070
▁सर्कुल	-12071
▁सांख्य	-12072
▁सांगित	-12073
▁साध्वी	-12074
▁सार्थक	-12075
▁सियासी	-12076
▁सिर्फ़	-12077
▁सीआईडी	-12078
▁सीआरपी	-12079
▁सीवीसी	-12080
▁सुनैना	-12081
▁सुशांत	-12082
▁सृष्टि	-12083
▁सेनानी	-12084
▁स्कूटी	-12085
▁स्पिनर	-12086
▁हड़कंप	-12087
▁हड़पने	-12088
▁हरकतें	-12089
▁हिदायत	-12090
▁हेल्दी	-12091
iticator	-12092
lication	-12093
ण्याच्या	-12094
▁General	-12095
▁Updated	-12096
▁blowjob	-12097
▁अजिंक्य	-12098
▁अदालतों	-12099
▁अनियमित	-12100
▁अनुशासन	-12101
▁अमरिंदर	-12102
▁अम्बाला	-12103
▁अर्थात्	-12104
▁आकर्षित	-12105
▁आकस्मिक	-12106
▁आवाजाही	-12107
▁आवेदकों	-12108
▁इस्तीफे	-12109
▁उत्पादक	-12110
▁उन्होने	-12111
▁उम्‍मीद	-12112
▁ऑक्सीजन	-12113
▁कंटेस्ट	-12114
▁कक्षाओं	-12115
▁कम्युनि	-12116
▁कांगड़ा	-12117
▁कारखाने	-12118
▁कार्तिक	-12119
▁कुत्तों	-12120
▁कैटरीना	-12121
▁क्रमांक	-12122
▁क्रिस्ट	-12123
▁खुर्शीद	-12124
▁गांगुली	-12125
▁गैरसैंण	-12126
▁घरवालों	-12127
▁चमत्कार	-12128
▁चर्चाओं	-12129
▁ज़िंदगी	-12130
▁जातिवाद	-12131
▁जिम्‍मे	-12132
▁टेलीकॉम	-12133
▁तानाशाह	-12134
▁त्यौहार	-12135
▁थाईलैंड	-12136
▁दर्दनाक	-12137
▁दर्शाता	-12138
▁दवाइयां	-12139
▁दावेदार	-12140
▁दिसम्बर	-12141
▁दुकानें	-12142
▁देवताओं	-12143
▁नमस्कार	-12144
▁नर्सिंग	-12145
▁नाराजगी	-12146
▁निपटाने	-12147
▁निर्मला	-12148
▁नैतिकता	-12149
▁पंचायती	-12150
▁परिपक्व	-12151
▁परिवर्त	-12152
▁पसंदीदा	-12153
▁पिस्तौल	-12154
▁पौराणिक	-12155
▁प्रेग्न	-12156
▁प्वाइंट	-12157
▁फेस्टिव	-12158
▁बताएंगे	-12159
▁बाँसुरी	-12160
▁बिस्कुट	-12161
▁बीकानेर	-12162
▁ब्राजील	-12163
▁भड़काने	-12164
▁भाईचारे	-12165
▁भावनाएं	-12166
▁माइक्रो	-12167
▁माओवादी	-12168
▁मालिकों	-12169
▁मुआविया	-12170
▁मुरलीधर	-12171
▁मुशर्रफ	-12172
▁मेजबानी	-12173
▁यूट्यूब	-12174
▁रजिस्टर	-12175
▁रवींद्र	-12176
▁रियल्टी	-12177
▁रेवाड़ी	-12178
▁लेटेस्ट	-12179
▁वामपंथी	-12180
▁विकल्‍प	-12181
▁विद्वान	-12182
▁विष्वास	-12183
▁वेतनमान	-12184
▁वॉट्सएप	-12185
▁वॉलपेपर	-12186
▁व्यवधान	-12187
▁शताब्दी	-12188
▁शिक्षित	-12189
▁शिनाख्त	-12190
▁शिविरों	-12191
▁शेड्यूल	-12192
▁संग्राम	-12193
▁संवर्धन	-12194
▁संशोधित	-12195
▁समाप्ति	-12196
▁सवालिया	-12197
▁सुल्तान	-12198
▁स्टार्स	-12199
▁स्टालिन	-12200
▁स्वदेशी	-12201
▁हत्याओं	-12202
▁हरियाली	-12203
▁हाथियों	-12204
▁हेल्मेट	-12205
▁हैंडसेट	-12206
▁होशियार	-12207
rchidilla	-12208
ार्‍यांना	-12209
▁Facebook	-12210
▁Medicine	-12211
▁Medindia	-12212
▁अद्वितीय	-12213
▁अध्‍यक्ष	-12214
▁अनिश्चित	-12215
▁अभ्यर्थी	-12216
▁अविश्वास	-12217
▁इन्वेस्ट	-12218
▁उत्तेजित	-12219
▁उत्पत्ति	-12220
▁उत्सर्जन	-12221
▁उपलक्ष्य	-12222
▁एंड्रॉयड	-12223
▁कहानियां	-12224
▁कांशीराम	-12225
▁केदारनाथ	-12226
▁क्रांतिक	-12227
▁चैम्पियन	-12228
▁जबरदस्ती	-12229
▁जबर्दस्त	-12230
▁जमशेदपुर	-12231
▁टेलीविजन	-12232
▁ट्रेडिंग	-12233
▁डिप्लोमा	-12234
▁दीक्षांत	-12235
▁दुरुपयोग	-12236
▁दूरदर्शन	-12237
▁देशभक्ति	-12238
▁परिदृश्य	-12239
▁पहलवानों	-12240
▁पुरस्कृत	-12241
▁पुश्तैनी	-12242
▁प्रतिरोध	-12243
▁प्रमाणित	-12244
▁प्रवर्तन	-12245
▁प्रारम्भ	-12246
▁प्रीमियम	-12247
▁प्रेमचंद	-12248
▁फरीदाबाद	-12249
▁बयानबाजी	-12250
▁बिल्डिंग	-12251
▁ब्रेकिंग	-12252
▁भूपेंद्र	-12253
▁मुंबईतील	-12254
▁मुल्तानी	-12255
▁मेक्सिको	-12256
▁मैक्सवेल	-12257
▁यूनाइटेड	-12258
▁यूनेस्को	-12259
▁वाशिंगटन	-12260
▁विकल्पों	-12261
▁विशाखापट	-12262
▁विश्लेषक	-12263
▁वैकल्पिक	-12264
▁व्‍यक्ति	-12265
▁शक्तिमान	-12266
▁संगीतकार	-12267
▁संतोषजनक	-12268
▁संसाधनों	-12269
▁समलैंगिक	-12270
▁सूचीबद्ध	-12271
▁सोनाक्षी	-12272
▁हथियारों	-12273
▁हिस्ट्री	-12274
▁हेक्टेयर	-12275
▁होमगार्ड	-12276
▁अध्यापकों	-12277
▁अनौपचारिक	-12278
▁अब्दुल्ला	-12279
▁अभूतपूर्व	-12280
▁अस्पतालों	-12281
▁कार्यवाहक	-12282
▁कार्यशाला	-12283
▁कैलकुलेटर	-12284
▁क्रोएशिया	-12285
▁चंद्रशेखर	-12286
▁पार्टियां	-12287
▁पुरस्‍कार	-12288
▁पृष्ठभूमि	-12289
▁प्रताड़ित	-12290
▁प्लेसमेंट	-12291
▁फोक्सवेगन	-12292
▁बल्लेबाज़	-12293
▁बुंदेलखंड	-12294
▁बुजुर्गों	-12295
▁बेरोजगारी	-12296
▁भावनात्मक	-12297
▁भुवनेश्वर	-12298
▁मान्यताओं	-12299
▁मिलीग्राम	-12300
▁मुक्केबाज	-12301
▁मुजाहिदीन	-12302
▁मैनेजमेंट	-12303
▁राजेन्द्र	-12304
▁रिपोर्ट्स	-12305
▁लाभान्वित	-12306
▁विज्ञप्ति	-12307
▁वीरेन्द्र	-12308
▁शास्त्रीय	-12309
▁शास्त्रों	-12310
▁श्रीकृष्ण	-12311
▁समर्पयामी	-12312
▁सर्वप्रथम	-12313
▁साम्राज्य	-12314
▁सुर्खियों	-12315
▁स्थितियों	-12316
▁स्वतन्त्र	-12317
▁स्वादिष्ट	-12318
photography	-12319
▁आईसीआईसीआई	-12320
▁कार्ययोजना	-12321
▁कोषाध्यक्ष	-12322
▁गुरुद्वारा	-12323
▁डिविलियर्स	-12324
▁दीर्घकालिक	-12325
▁नेटफ्लिक्स	-12326
▁नोटिफिकेशन	-12327
▁परेशानियां	-12328
▁पारदर्शिता	-12329
▁प्रजातियों	-12330
▁प्रतिष्ठित	-12331
▁मंत्रालयों	-12332
▁मनोविज्ञान	-12333
▁माओवादियों	-12334
▁लोकप्रियता	-12335
▁वास्तविकता	-12336
▁विश्लेषकों	-12337
▁संपत्तियों	-12338
▁सब्सक्राइब	-12339
▁सुर्ख़ियों	-12340
▁अर्थशास्त्र	-12341
▁इंजीनियरिंग	-12342
▁एंटरटेनमेंट	-12343
▁कुमारस्वामी	-12344
▁ग्रामोद्योग	-12345
▁प्रधानाध्या	-12346
▁ब्वॉयफ्रेंड	-12347
▁विश्वसनीयता	-12348
▁शरणार्थियों	-12349
▁स्थानांतरित	-12350
▁हिंदुस्‍तान	-12351
▁आस्ट्रेलियाई	-12352
▁परिणामस्वरूप	-12353
▁स्पोंडिलोसिस	-12354
▁प्रतिनिधिमंडल	-12355
▁Authoriticator	-12356
▁आपूर्तिकर्ताओं	-12357
▁सुरक्षाकर्मियों	-12358
!’	-12359
'.	-12360
).	-12361
,’	-12362
.)	-12363
./	-12364
/-	-12365
17	-12366
3,	-12367
49	-12368
6)	-12369
81	-12370
86	-12371
97	-12372
:3	-12373
?’	-12374
AL	-12375
An	-12376
ER	-12377
HI	-12378
IP	-12379
IS	-12380
In	-12381
MG	-12382
NU	-12383
PB	-12384
PC	-12385
SS	-12386
Sc	-12387
TP	-12388
UR	-12389
aw	-12390
ax	-12391
az	-12392
ec	-12393
gi	-12394
gu	-12395
ix	-12396
ky	-12397
pt	-12398
rd	-12399
ry	-12400
uj	-12401
va	-12402
अह	-12403
इं	-12404
ऊँ	-12405
एज	-12406
ऑन	-12407
कई	-12408
कप	-12409
खत	-12410
गं	-12411
चौ	-12412
ञा	-12413
ठक	-12414
ढर	-12415
थै	-12416
ध्	-12417
नौ	-12418
पस	-12419
बम	-12420
वॉ	-12421
शद	-12422
षु	-12423
हॉ	-12424
िं	-12425
िच	-12426
ुफ	-12427
ुभ	-12428
ुस	-12429
ूफ	-12430
ैस	-12431
ोद	-12432
।[	-12433
।‘	-12434
‍ि	-12435
”।	-12436
▁+	-12437
▁Z	-12438
▁Þ	-12439
▁̊	-12440
▁μ	-12441
▁९	-12442
▁→	-12443
,16	-12444
-07	-12445
-12	-12446
-13	-12447
.04	-12448
.13	-12449
.50	-12450
.54	-12451
.60	-12452
.80	-12453
.90	-12454
9),	-12455
ECI	-12456
MID	-12457
ada	-12458
afe	-12459
aka	-12460
ale	-12461
ana	-12462
anc	-12463
ane	-12464
ans	-12465
any	-12466
aya	-12467
cto	-12468
eop	-12469
fal	-12470
fic	-12471
hak	-12472
hoj	-12473
hya	-12474
ich	-12475
ism	-12476
iti	-12477
jay	-12478
kia	-12479
led	-12480
ola	-12481
org	-12482
orn	-12483
ose	-12484
pir	-12485
riv	-12486
rou	-12487
rov	-12488
ttp	-12489
www	-12490
xxx	-12491
yst	-12492
ँति	-12493
ंजय	-12494
ंडई	-12495
ंडर	-12496
ंसी	-12497
अंग	-12498
अरे	-12499
ईएम	-12500
ईएस	-12501
ईडी	-12502
उंस	-12503
एंड	-12504
एपी	-12505
ओके	-12506
ओयू	-12507
कड़	-12508
कडो	-12509
कणा	-12510
कमल	-12511
कमा	-12512
काउ	-12513
काळ	-12514
किर	-12515
कीं	-12516
कीट	-12517
कुट	-12518
कॉन	-12519
कोम	-12520
ख़्	-12521
खिल	-12522
गड़	-12523
गरी	-12524
गिन	-12525
गिल	-12526
गीर	-12527
गुज	-12528
गैर	-12529
ग्‍	-12530
घरे	-12531
घ्न	-12532
चड़	-12533
चले	-12534
चां	-12535
चाई	-12536
चेत	-12537
जतन	-12538
जरत	-12539
जाई	-12540
जाज	-12541
जिस	-12542
जुक	-12543
ज्ज	-12544
झान	-12545
टसन	-12546
टिव	-12547
टीए	-12548
डे़	-12549
डों	-12550
ड्स	-12551
णीत	-12552
ताह	-12553
तीस	-12554
तृक	-12555
त्थ	-12556
थिक	-12557
दाह	-12558
दीश	-12559
धील	-12560
नार	-12561
नेऊ	-12562
नौल	-12563
पिछ	-12564
पीन	-12565
पुन	-12566
प्न	-12567
फों	-12568
बती	-12569
बरू	-12570
बरे	-12571
बले	-12572
बहन	-12573
बाइ	-12574
बाण	-12575
बिक	-12576
बिर	-12577
बूज	-12578
ब्ध	-12579
ब्‍	-12580
भोग	-12581
मंत	-12582
मयी	-12583
मिड	-12584
मुन	-12585
मेक	-12586
मोर	-12587
मोल	-12588
मोह	-12589
मौर	-12590
म्न	-12591
याँ	-12592
यूष	-12593
रईस	-12594
राद	-12595
रिफ	-12596
रीं	-12597
रूर	-12598
लिन	-12599
लेव	-12600
ल्ह	-12601
वाँ	-12602
वाट	-12603
वाब	-12604
वेत	-12605
शहर	-12606
शीष	-12607
शेष	-12608
सभी	-12609
सरण	-12610
सर्	-12611
सिम	-12612
सिल	-12613
सीट	-12614
सूद	-12615
हमी	-12616
हिट	-12617
ांट	-12618
ांे	-12619
ाइड	-12620
ाधु	-12621
ायड	-12622
ाल्	-12623
ावर	-12624
ाहन	-12625
िन्	-12626
िमन	-12627
िरे	-12628
िलर	-12629
िसक	-12630
िसह	-12631
ुअल	-12632
ूला	-12633
ेटर	-12634
ेने	-12635
ेला	-12636
ैरा	-12637
ोजल	-12638
ोदय	-12639
ोपा	-12640
ोषक	-12641
ौदे	-12642
्ञा	-12643
्तल	-12644
्लू	-12645
्वॉ	-12646
्सू	-12647
्‍ल	-12648
‍नी	-12649
‍िन	-12650
▁02	-12651
▁04	-12652
▁05	-12653
▁08	-12654
▁42	-12655
▁5,	-12656
▁6.	-12657
▁77	-12658
▁82	-12659
▁86	-12660
▁:-	-12661
▁::	-12662
▁AB	-12663
▁My	-12664
▁RT	-12665
▁Rs	-12666
▁Th	-12667
▁Tw	-12668
▁US	-12669
▁XS	-12670
▁al	-12671
▁bl	-12672
▁ex	-12673
▁iP	-12674
▁qu	-12675
▁so	-12676
▁te	-12677
▁ty	-12678
▁vi	-12679
▁||	-12680
▁अँ	-12681
▁अच	-12682
▁आओ	-12683
▁उग	-12684
▁ऊस	-12685
▁एट	-12686
▁एे	-12687
▁ओढ	-12688
▁ओह	-12689
▁औष	-12690
▁कछ	-12691
▁कण	-12692
▁कद	-12693
▁खू	-12694
▁गम	-12695
▁गॉ	-12696
▁जज	-12697
▁टि	-12698
▁ठप	-12699
▁डब	-12700
▁थल	-12701
▁द‍	-12702
▁नन	-12703
▁नय	-12704
▁पछ	-12705
▁बड	-12706
▁भट	-12707
▁मझ	-12708
▁मृ	-12709
▁लढ	-12710
▁वल	-12711
▁सव	-12712
▁हू	-12713
▁१६	-12714
,500	-12715
..."	-12716
.201	-12717
UPSC	-12718
ater	-12719
avid	-12720
enef	-12721
fect	-12722
form	-12723
ight	-12724
ingh	-12725
ings	-12726
iral	-12727
ises	-12728
ject	-12729
lect	-12730
onda	-12731
orat	-12732
ount	-12733
port	-12734
shot	-12735
tain	-12736
uary	-12737
unny	-12738
view	-12739
ंचाइ	-12740
ंजलि	-12741
ंडीर	-12742
ंबले	-12743
आईएस	-12744
आज़म	-12745
इओवर	-12746
इनरी	-12747
उनके	-12748
उसके	-12749
एसके	-12750
कमान	-12751
क़ों	-12752
काते	-12753
कारण	-12754
किता	-12755
केके	-12756
कोरी	-12757
क्कत	-12758
क्रा	-12759
ख़्त	-12760
खूबी	-12761
ख्ती	-12762
गणित	-12763
गणेश	-12764
गर्म	-12765
गिरह	-12766
गिरी	-12767
गीचे	-12768
गूगल	-12769
ग्गल	-12770
चढ़ा	-12771
चरित	-12772
चालन	-12773
चीनी	-12774
च्चा	-12775
जमान	-12776
जीएस	-12777
जैसे	-12778
ज्जत	-12779
ज्जन	-12780
टकों	-12781
टाकर	-12782
टावा	-12783
टिया	-12784
टेकर	-12785
डर्स	-12786
डियम	-12787
डीजल	-12788
डीयू	-12789
ड्रा	-12790
ण्टी	-12791
ण्डल	-12792
तकों	-12793
तेले	-12794
थवेट	-12795
थैरे	-12796
दिनी	-12797
दिल्	-12798
दीकी	-12799
दुरी	-12800
दुर्	-12801
देहा	-12802
द्यु	-12803
धावी	-12804
नसून	-12805
नाची	-12806
नाने	-12807
न्तर	-12808
न्दन	-12809
न्यू	-12810
न्हे	-12811
पटना	-12812
पड्र	-12813
पीआर	-12814
पूरी	-12815
प्लॉ	-12816
प्‍त	-12817
फ़्ट	-12818
फेरी	-12819
फ्रा	-12820
फ्री	-12821
बसपा	-12822
बादत	-12823
बानी	-12824
बीयत	-12825
बैंड	-12826
बोधि	-12827
भाषण	-12828
मंडी	-12829
मलाई	-12830
माया	-12831
मेरे	-12832
मोरी	-12833
यायी	-12834
यूवी	-12835
रचना	-12836
राजन	-12837
राने	-12838
राहा	-12839
रिमा	-12840
रेखा	-12841
रोपण	-12842
र्तग	-12843
र्ति	-12844
लांग	-12845
लीता	-12846
ल्टी	-12847
ल्लो	-12848
वड़ा	-12849
वाइड	-12850
वाडी	-12851
वामा	-12852
वायत	-12853
वायर	-12854
वाहन	-12855
विका	-12856
विजय	-12857
वेरी	-12858
वेषण	-12859
व्हा	-12860
व्ही	-12861
शर्ट	-12862
शायर	-12863
शिला	-12864
शैली	-12865
श्मा	-12866
श्मि	-12867
ष्‍ठ	-12868
सम्म	-12869
साथी	-12870
सूसी	-12871
स्की	-12872
स्तु	-12873
स्पर	-12874
स्वत	-12875
स्‍प	-12876
हरान	-12877
हादत	-12878
हानी	-12879
हेरा	-12880
ांडा	-12881
ाधीन	-12882
ारंग	-12883
ालखा	-12884
ालाल	-12885
ासना	-12886
िंगर	-12887
िकरण	-12888
िज्म	-12889
िटरी	-12890
िनाई	-12891
िप्ट	-12892
िफिन	-12893
ुणाल	-12894
ुतोष	-12895
ुपति	-12896
ून्य	-12897
ूर्ण	-12898
ूर्त	-12899
ेंडा	-12900
ेटिक	-12901
ेलाल	-12902
ेलिज	-12903
ेशनल	-12904
ोंके	-12905
ोंडा	-12906
ौकिक	-12907
्टनम	-12908
्नवी	-12909
्येय	-12910
्राह	-12911
▁(10	-12912
▁1,3	-12913
▁1,6	-12914
▁106	-12915
▁10:	-12916
▁122	-12917
▁136	-12918
▁140	-12919
▁151	-12920
▁165	-12921
▁22,	-12922
▁249	-12923
▁3,7	-12924
▁3-0	-12925
▁3.8	-12926
▁7.5	-12927
▁700	-12928
▁ATM	-12929
▁AdS	-12930
▁All	-12931
▁Aug	-12932
▁BJP	-12933
▁Bod	-12934
▁GST	-12935
▁Lan	-12936
▁May	-12937
▁NIA	-12938
▁OTP	-12939
▁One	-12940
▁Pri	-12941
▁Shi	-12942
▁Tag	-12943
▁Use	-12944
▁kor	-12945
▁mot	-12946
▁not	-12947
▁per	-12948
▁res	-12949
▁sex	-12950
▁tem	-12951
▁who	-12952
▁www	-12953
▁xxx	-12954
▁you	-12955
▁अंच	-12956
▁अंप	-12957
▁अटक	-12958
▁अड़	-12959
▁अती	-12960
▁अपन	-12961
▁अबू	-12962
▁अमल	-12963
▁अवर	-12964
▁आईं	-12965
▁आक़	-12966
▁आज़	-12967
▁आटा	-12968
▁आढ़	-12969
▁आदी	-12970
▁इमो	-12971
▁इम्	-12972
▁इयर	-12973
▁ईंट	-12974
▁उखा	-12975
▁उठे	-12976
▁ऋषभ	-12977
▁एआर	-12978
▁एन्	-12979
▁एले	-12980
▁ओझा	-12981
▁ओरल	-12982
▁ओला	-12983
▁औचक	-12984
▁कंज	-12985
▁कबू	-12986
▁कलर	-12987
▁कल्	-12988
▁काज	-12989
▁कील	-12990
▁कूट	-12991
▁कैट	-12992
▁कौल	-12993
▁खाए	-12994
▁खोए	-12995
▁खौफ	-12996
▁गंध	-12997
▁गुम	-12998
▁घोर	-12999
▁चंप	-13000
▁चना	-13001
▁चहल	-13002
▁चाट	-13003
▁चिड	-13004
▁चिल	-13005
▁चेत	-13006
▁जनक	-13007
▁ज़ी	-13008
▁जुल	-13009
▁जूल	-13010
▁जेन	-13011
▁जोड	-13012
▁झपट	-13013
▁झुल	-13014
▁झूम	-13015
▁झोन	-13016
▁टके	-13017
▁टार	-13018
▁टें	-13019
▁टेन	-13020
▁टेर	-13021
▁टॉय	-13022
▁ठुक	-13023
▁ठेस	-13024
▁ढूँ	-13025
▁ढोल	-13026
▁तलब	-13027
▁तल्	-13028
▁ताई	-13029
▁तिक	-13030
▁तीर	-13031
▁तें	-13032
▁दबे	-13033
▁दमा	-13034
▁दरो	-13035
▁दाग	-13036
▁दीं	-13037
▁नकद	-13038
▁नरम	-13039
▁नरे	-13040
▁नवल	-13041
▁नसल	-13042
▁नाक	-13043
▁नान	-13044
▁नीत	-13045
▁नील	-13046
▁नूर	-13047
▁नेह	-13048
▁परत	-13049
▁पीड	-13050
▁पें	-13051
▁फैट	-13052
▁बग़	-13053
▁बरो	-13054
▁बलि	-13055
▁बहू	-13056
▁बाट	-13057
▁बाॅ	-13058
▁बेर	-13059
▁बैच	-13060
▁बोट	-13061
▁भाल	-13062
▁भाष	-13063
▁भों	-13064
▁भोग	-13065
▁मंे	-13066
▁माई	-13067
▁मिड	-13068
▁मित	-13069
▁मील	-13070
▁मुद	-13071
▁मुश	-13072
▁मैम	-13073
▁मोठ	-13074
▁मोम	-13075
▁मौख	-13076
▁यथा	-13077
▁येत	-13078
▁रत्	-13079
▁रफी	-13080
▁रहस	-13081
▁राघ	-13082
▁राद	-13083
▁राल	-13084
▁रिव	-13085
▁रुत	-13086
▁रेन	-13087
▁रेस	-13088
▁रैम	-13089
▁लती	-13090
▁लाग	-13091
▁लाय	-13092
▁लीं	-13093
▁लुध	-13094
▁लॉक	-13095
▁लॉस	-13096
▁वहा	-13097
▁विड	-13098
▁वीक	-13099
▁शकर	-13100
▁शेव	-13101
▁शैं	-13102
▁शॉल	-13103
▁श्‍	-13104
▁सक्	-13105
▁समन	-13106
▁सले	-13107
▁सवा	-13108
▁साख	-13109
▁सुई	-13110
▁सुग	-13111
▁सुथ	-13112
▁सुध	-13113
▁सेग	-13114
▁सेब	-13115
▁सैम	-13116
▁सोल	-13117
▁हेर	-13118
▁१९९	-13119
/2018	-13120
Press	-13121
ainik	-13122
aster	-13123
ating	-13124
orpor	-13125
ortal	-13126
stall	-13127
ंद्वी	-13128
आधारी	-13129
आरडीए	-13130
इलैंड	-13131
एनआईए	-13132
काउंट	-13133
कियों	-13134
केंसी	-13135
केतिक	-13136
कोविक	-13137
क्यों	-13138
क्रॉस	-13139
खास्त	-13140
ख्‍या	-13141
गाड़ी	-13142
गारों	-13143
गिर्द	-13144
गेनिक	-13145
गोपाल	-13146
ग्रंथ	-13147
ग्रेन	-13148
चार्ज	-13149
च्छेद	-13150
जारों	-13151
जिटिव	-13152
जेक्ट	-13153
टलैंड	-13154
डियों	-13155
णियों	-13156
ण्यास	-13157
तुम्ह	-13158
दानंद	-13159
दिमाग	-13160
द्रास	-13161
द्रिक	-13162
द्रित	-13163
द्वीप	-13164
धिक्य	-13165
नातको	-13166
नाबाद	-13167
निफिट	-13168
पियां	-13169
फ़ेसर	-13170
फिल्म	-13171
फोर्ड	-13172
बाड़ी	-13173
बिटीज	-13174
बोर्ड	-13175
ब्बती	-13176
भाषित	-13177
मानता	-13178
रप्पा	-13179
रेस्ट	-13180
र्ड्स	-13181
र्मित	-13182
लरशिप	-13183
लापूर	-13184
विलास	-13185
वीपों	-13186
व्यूल	-13187
शिमला	-13188
श्याम	-13189
श्वरी	-13190
संगीत	-13191
समिति	-13192
साड़ी	-13193
सिद्ध	-13194
सिर्फ	-13195
सूरती	-13196
स्टार	-13197
स्टेट	-13198
स्‍सा	-13199
हमारी	-13200
हाड़ी	-13201
हासों	-13202
ामुमो	-13203
ायतों	-13204
ायर्ड	-13205
िकागो	-13206
िकारक	-13207
िन्यू	-13208
िमिनल	-13209
ियाजा	-13210
ियेटर	-13211
िविटी	-13212
िशियल	-13213
ुभक्त	-13214
ोरिटी	-13215
ोरेंट	-13216
ोवेशन	-13217
▁(201	-13218
▁11:2	-13219
▁1934	-13220
▁1950	-13221
▁1963	-13222
▁1980	-13223
▁1984	-13224
▁1999	-13225
▁2002	-13226
▁Bhoj	-13227
▁Bigg	-13228
▁Down	-13229
▁Draw	-13230
▁Karp	-13231
▁Live	-13232
▁MMID	-13233
▁Netw	-13234
▁Octo	-13235
▁Real	-13236
▁Sand	-13237
▁Tele	-13238
▁Wish	-13239
▁____	-13240
▁game	-13241
▁http	-13242
▁pick	-13243
▁that	-13244
▁with	-13245
▁अंकल	-13246
▁अंगू	-13247
▁अंडा	-13248
▁अंतत	-13249
▁अकसर	-13250
▁अजित	-13251
▁अटकी	-13252
▁अतीत	-13253
▁अबतक	-13254
▁अब्‍	-13255
▁अरबी	-13256
▁अरशद	-13257
▁अल्‍	-13258
▁अशुभ	-13259
▁आइकन	-13260
▁आपात	-13261
▁आभास	-13262
▁आमने	-13263
▁आयरन	-13264
▁आहिल	-13265
▁इनकम	-13266
▁इन्स	-13267
▁इर्द	-13268
▁इसपर	-13269
▁ईसाइ	-13270
▁उछाल	-13271
▁उदास	-13272
▁उपनि	-13273
▁उमड़	-13274
▁उमेद	-13275
▁उलझा	-13276
▁उल्‍	-13277
▁ऊँचा	-13278
▁ऋतिक	-13279
▁एचआर	-13280
▁एफडी	-13281
▁एमएच	-13282
▁एमएम	-13283
▁एमपी	-13284
▁एमसी	-13285
▁एसआर	-13286
▁ऑक्ट	-13287
▁ऑडिट	-13288
▁ओरछा	-13289
▁कजली	-13290
▁कष्ट	-13291
▁कहकर	-13292
▁क़दम	-13293
▁कांत	-13294
▁कान्	-13295
▁कारा	-13296
▁काहे	-13297
▁किचन	-13298
▁किला	-13299
▁कुचल	-13300
▁कुमा	-13301
▁केमि	-13302
▁केशर	-13303
▁केसर	-13304
▁कैथल	-13305
▁कोटे	-13306
▁क्यु	-13307
▁क्रय	-13308
▁क्रि	-13309
▁क्रे	-13310
▁खटीक	-13311
▁खरड़	-13312
▁खरीफ	-13313
▁ख़ान	-13314
▁खाती	-13315
▁खाया	-13316
▁खोले	-13317
▁गड़ा	-13318
▁गद्य	-13319
▁गलतफ	-13320
▁गाउन	-13321
▁गाडी	-13322
▁गायक	-13323
▁गाया	-13324
▁गिरे	-13325
▁गुदा	-13326
▁गेले	-13327
▁गौरी	-13328
▁ग्री	-13329
▁घटकर	-13330
▁घटती	-13331
▁घड़ी	-13332
▁घूरे	-13333
▁घेरे	-13334
▁चुनौ	-13335
▁चुरा	-13336
▁चूना	-13337
▁चौंक	-13338
▁चौबे	-13339
▁छिंद	-13340
▁छूने	-13341
▁जनकल	-13342
▁जनमत	-13343
▁जनेऊ	-13344
▁जमाए	-13345
▁जयंत	-13346
▁जहरी	-13347
▁ज़ार	-13348
▁जांघ	-13349
▁जीएम	-13350
▁जीरो	-13351
▁जुडी	-13352
▁जूठन	-13353
▁जूते	-13354
▁जेएल	-13355
▁जेपी	-13356
▁जोकि	-13357
▁जोया	-13358
▁झड़प	-13359
▁झाली	-13360
▁टीएस	-13361
▁टैंक	-13362
▁टोटल	-13363
▁टोला	-13364
▁डीके	-13365
▁डुबो	-13366
▁डेरे	-13367
▁तंबा	-13368
▁तक्र	-13369
▁तर्ज	-13370
▁तस्क	-13371
▁तस्‍	-13372
▁तारा	-13373
▁ताला	-13374
▁तिरु	-13375
▁तीखा	-13376
▁तेज़	-13377
▁दंडा	-13378
▁दफना	-13379
▁दरार	-13380
▁दवाई	-13381
▁दामन	-13382
▁दिले	-13383
▁दीनद	-13384
▁दुखद	-13385
▁दुबे	-13386
▁दौलत	-13387
▁धमाल	-13388
▁धोका	-13389
▁धौनी	-13390
▁ध्रु	-13391
▁नक्ष	-13392
▁नग्न	-13393
▁नस्ल	-13394
▁नायर	-13395
▁नाला	-13396
▁नाले	-13397
▁नाश्	-13398
▁नाहन	-13399
▁नियत	-13400
▁नीले	-13401
▁पढऩे	-13402
▁पतली	-13403
▁पाला	-13404
▁पिंप	-13405
▁पूनम	-13406
▁पेंट	-13407
▁पैरो	-13408
▁पोषक	-13409
▁पौंड	-13410
▁पौधा	-13411
▁फंगल	-13412
▁फंसी	-13413
▁फरीद	-13414
▁फर्श	-13415
▁फाड़	-13416
▁फैली	-13417
▁फॉलो	-13418
▁बंसल	-13419
▁बगैर	-13420
▁बनवा	-13421
▁बनें	-13422
▁बयां	-13423
▁बरसा	-13424
▁बवाल	-13425
▁बहुप	-13426
▁बाएं	-13427
▁बाला	-13428
▁बिछा	-13429
▁बिज़	-13430
▁बीपी	-13431
▁बैंड	-13432
▁बॉयो	-13433
▁बोनट	-13434
▁बोने	-13435
▁भंवर	-13436
▁भरता	-13437
▁भूले	-13438
▁भेड़	-13439
▁भोला	-13440
▁मंज़	-13441
▁मधुम	-13442
▁मनपा	-13443
▁मनाए	-13444
▁मयंक	-13445
▁मलबा	-13446
▁मसला	-13447
▁मसूद	-13448
▁महिल	-13449
▁मांस	-13450
▁माडल	-13451
▁माथे	-13452
▁मापा	-13453
▁माली	-13454
▁मुनि	-13455
▁मुली	-13456
▁मुहर	-13457
▁मूंद	-13458
▁मूवी	-13459
▁मूसा	-13460
▁मेघा	-13461
▁मेटल	-13462
▁मैके	-13463
▁मैया	-13464
▁मैरी	-13465
▁मोटे	-13466
▁म्यू	-13467
▁यामी	-13468
▁यीषु	-13469
▁योजन	-13470
▁योनि	-13471
▁रत्न	-13472
▁राइड	-13473
▁राशन	-13474
▁रिसो	-13475
▁रीजन	-13476
▁रुका	-13477
▁रेगि	-13478
▁रोके	-13479
▁रोजी	-13480
▁रोमन	-13481
▁लपेट	-13482
▁लहजे	-13483
▁लाइक	-13484
▁लारा	-13485
▁लीची	-13486
▁लीडर	-13487
▁लुभा	-13488
▁लेखन	-13489
▁लोकल	-13490
▁लौटी	-13491
▁वर्च	-13492
▁वाहक	-13493
▁विंड	-13494
▁वीके	-13495
▁शंका	-13496
▁शकील	-13497
▁शशिक	-13498
▁शिया	-13499
▁शिवा	-13500
▁शीला	-13501
▁शीशे	-13502
▁संगम	-13503
▁सकूं	-13504
▁सगाई	-13505
▁सतना	-13506
▁सत्‍	-13507
▁समझी	-13508
▁समझो	-13509
▁समरस	-13510
▁समाय	-13511
▁समीप	-13512
▁सरोज	-13513
▁सहगल	-13514
▁सहमत	-13515
▁साईं	-13516
▁सादा	-13517
▁सायं	-13518
▁साली	-13519
▁सिकु	-13520
▁सिग्	-13521
▁सिमर	-13522
▁सिले	-13523
▁सीकर	-13524
▁सुजन	-13525
▁सुरु	-13526
▁सूखी	-13527
▁सूचक	-13528
▁सृजन	-13529
▁सैंड	-13530
▁सैटे	-13531
▁सोचे	-13532
▁सोफे	-13533
▁सोमा	-13534
▁स्क्	-13535
▁स्टै	-13536
▁स्वे	-13537
▁हटकर	-13538
▁हबीब	-13539
▁हमजा	-13540
▁हराम	-13541
▁हाकी	-13542
▁हाला	-13543
▁हिला	-13544
▁हेयर	-13545
▁हेरा	-13546
▁हैरी	-13547
▁२०१४	-13548
atrika	-13549
ername	-13550
haskar	-13551
osting	-13552
ंदारों	-13553
उंडेशन	-13554
गठबंधन	-13555
गुजरात	-13556
चन्द्र	-13557
जीविका	-13558
तन्त्र	-13559
त्मकथा	-13560
त्यक्ष	-13561
त्‍कार	-13562
थैरेपी	-13563
दिल्ली	-13564
दुनिया	-13565
दुर्गा	-13566
द्वानी	-13567
द्वारे	-13568
धारकों	-13569
पर्यंत	-13570
पूर्णी	-13571
फेक्शन	-13572
बन्धित	-13573
भक्तों	-13574
मीडिया	-13575
मेस्टर	-13576
रीबुरू	-13577
र्जिया	-13578
र्योधन	-13579
र्रियत	-13580
ल्डिंग	-13581
वण्यात	-13582
वर्गीय	-13583
वर्षीय	-13584
वसायिक	-13585
वांछित	-13586
शीटरों	-13587
सम्मान	-13588
सायनिक	-13589
स्तरां	-13590
स्तरीय	-13591
स्फोरस	-13592
स्वच्छ	-13593
हतियात	-13594
ांच्या	-13595
ाधिकार	-13596
ामाजिक	-13597
ालियों	-13598
ासाहेब	-13599
िकियों	-13600
िकेटों	-13601
िब्यून	-13602
ियरिंग	-13603
ेंटीना	-13604
ेंडरों	-13605
ेलियों	-13606
ेश्वरी	-13607
्टियां	-13608
्यांनी	-13609
▁.....	-13610
▁2,000	-13611
▁30000	-13612
▁David	-13613
▁Honda	-13614
▁March	-13615
▁Media	-13616
▁Nokia	-13617
▁Share	-13618
▁Times	-13619
▁VIDEO	-13620
▁Video	-13621
▁World	-13622
▁black	-13623
▁girls	-13624
▁inter	-13625
▁video	-13626
▁अंतर्	-13627
▁अकेली	-13628
▁अक्षम	-13629
▁अनमोल	-13630
▁अप्ला	-13631
▁अफगान	-13632
▁अम्मी	-13633
▁अर्पण	-13634
▁अशांत	-13635
▁असंभव	-13636
▁असहाय	-13637
▁आएंगी	-13638
▁आज्ञा	-13639
▁आठवीं	-13640
▁आदतों	-13641
▁आर्डर	-13642
▁आवंटन	-13643
▁आवेदक	-13644
▁इटावा	-13645
▁इबादत	-13646
▁इरादा	-13647
▁उंगली	-13648
▁उठाकर	-13649
▁उपनाम	-13650
▁उर्जा	-13651
▁उल्टी	-13652
▁एएसआई	-13653
▁एग्री	-13654
▁एतराज	-13655
▁एनआईए	-13656
▁एनओसी	-13657
▁एल्यू	-13658
▁एसडीओ	-13659
▁ऑरेंज	-13660
▁औपचार	-13661
▁कमलेश	-13662
▁कमाते	-13663
▁कमाने	-13664
▁कराची	-13665
▁कर्नल	-13666
▁कर्मच	-13667
▁कस्टम	-13668
▁कहाकि	-13669
▁कांटे	-13670
▁काटकर	-13671
▁कानों	-13672
▁काबुल	-13673
▁कालका	-13674
▁काव्य	-13675
▁किन्न	-13676
▁किरणे	-13677
▁कीमती	-13678
▁कुबेर	-13679
▁कुम्भ	-13680
▁कृपया	-13681
▁कैंपस	-13682
▁कॉस्म	-13683
▁क्रोध	-13684
▁क्लिप	-13685
▁खदेड़	-13686
▁खरीदे	-13687
▁खर्चा	-13688
▁खस्ता	-13689
▁ख़राब	-13690
▁खालिद	-13691
▁खिड़क	-13692
▁खिलजी	-13693
▁खुलने	-13694
▁खुलवा	-13695
▁खेलकर	-13696
▁खोखले	-13697
▁खोलकर	-13698
▁गणपति	-13699
▁गन्ना	-13700
▁गरिमा	-13701
▁गरीबी	-13702
▁गाढ़ी	-13703
▁गान्ड	-13704
▁गिरती	-13705
▁गुजार	-13706
▁गुटों	-13707
▁गेस्ट	-13708
▁गैलरी	-13709
▁ग्राफ	-13710
▁ग्लेन	-13711
▁घण्टे	-13712
▁घुसने	-13713
▁ङ्क्ष	-13714
▁चंदेल	-13715
▁चक्का	-13716
▁चतुर्	-13717
▁चमड़े	-13718
▁चम्पा	-13719
▁चयनित	-13720
▁चरणों	-13721
▁चलाकर	-13722
▁चश्मा	-13723
▁चांवल	-13724
▁चाहने	-13725
▁चिराग	-13726
▁छावनी	-13727
▁जगदीश	-13728
▁जगहें	-13729
▁जगाने	-13730
▁जमाने	-13731
▁जयकार	-13732
▁जर्नल	-13733
▁जलाने	-13734
▁ज़रिए	-13735
▁जायें	-13736
▁जिनको	-13737
▁जिहाद	-13738
▁जेम्स	-13739
▁जेलों	-13740
▁जैतून	-13741
▁जोन्स	-13742
▁झांसी	-13743
▁टक्के	-13744
▁टाइटल	-13745
▁टाकीज	-13746
▁टास्क	-13747
▁टिकाऊ	-13748
▁टिप्स	-13749
▁टिफिन	-13750
▁टेंडर	-13751
▁टैरिफ	-13752
▁ट्रिन	-13753
▁ट्रूड	-13754
▁डार्क	-13755
▁तड़के	-13756
▁तबीयत	-13757
▁तरबूज	-13758
▁तलवार	-13759
▁तापसी	-13760
▁तालीम	-13761
▁तोड़ी	-13762
▁दबाने	-13763
▁दर्जे	-13764
▁दशहरा	-13765
▁दिखता	-13766
▁दुमका	-13767
▁देहात	-13768
▁दोहरी	-13769
▁ध्येय	-13770
▁नक्सल	-13771
▁नजरों	-13772
▁नरवाल	-13773
▁नहाने	-13774
▁नाहीत	-13775
▁निकाह	-13776
▁निखिल	-13777
▁नियमन	-13778
▁नींबू	-13779
▁न्यास	-13780
▁पंपों	-13781
▁पक्षा	-13782
▁पढ़ना	-13783
▁पढ़ाओ	-13784
▁परवेज	-13785
▁परहेज	-13786
▁पराली	-13787
▁पर्दा	-13788
▁पशुओं	-13789
▁पाएगी	-13790
▁पापों	-13791
▁पावसा	-13792
▁पीयूष	-13793
▁पीसकर	-13794
▁पुण्य	-13795
▁पुस्त	-13796
▁पूछने	-13797
▁पेशाब	-13798
▁पैकेट	-13799
▁पैतृक	-13800
▁पोलीस	-13801
▁प्रणब	-13802
▁प्रात	-13803
▁प्रेष	-13804
▁प्‍ले	-13805
▁फंसने	-13806
▁फ़्ला	-13807
▁फैलने	-13808
▁फोर्स	-13809
▁फ्रेम	-13810
▁बंगला	-13811
▁बखूबी	-13812
▁बख्शा	-13813
▁बचाया	-13814
▁बढ़ाई	-13815
▁बताएं	-13816
▁बताती	-13817
▁बदनाम	-13818
▁बरतने	-13819
▁बहाना	-13820
▁बांदा	-13821
▁बिकने	-13822
▁बिमार	-13823
▁बीचों	-13824
▁बीरबल	-13825
▁बुधनी	-13826
▁बेचती	-13827
▁बेतवा	-13828
▁बेल्ट	-13829
▁बेवजह	-13830
▁बैंकर	-13831
▁बैंगल	-13832
▁बैकअप	-13833
▁बोहरा	-13834
▁ब्रेट	-13835
▁भट्टि	-13836
▁भड़के	-13837
▁भद्रा	-13838
▁भवानी	-13839
▁भांति	-13840
▁भूपेश	-13841
▁मक्खन	-13842
▁मचाया	-13843
▁मच्छर	-13844
▁मदरसा	-13845
▁मराठा	-13846
▁मर्डर	-13847
▁मल्टी	-13848
▁मसजिद	-13849
▁मसौदा	-13850
▁मसौदे	-13851
▁मस्जि	-13852
▁महिने	-13853
▁मानवा	-13854
▁मारते	-13855
▁मारना	-13856
▁मार्ट	-13857
▁मार्श	-13858
▁मिथुन	-13859
▁मुझको	-13860
▁मुस्त	-13861
▁मेगाह	-13862
▁मेनका	-13863
▁मेसेज	-13864
▁यांची	-13865
▁येणार	-13866
▁योगेश	-13867
▁रखिये	-13868
▁रखेगा	-13869
▁रश्मि	-13870
▁राइफल	-13871
▁राठौर	-13872
▁रिटेल	-13873
▁रिस्क	-13874
▁रुकना	-13875
▁रॉकेट	-13876
▁लंबित	-13877
▁लड़ना	-13878
▁लड्डू	-13879
▁ललिता	-13880
▁लश्कर	-13881
▁लातूर	-13882
▁लिखना	-13883
▁लेखों	-13884
▁लोजपा	-13885
▁लौटकर	-13886
▁वल्लभ	-13887
▁वाकया	-13888
▁वापिस	-13889
▁वारंट	-13890
▁वार्न	-13891
▁विक्ट	-13892
▁विजयन	-13893
▁वॉटसन	-13894
▁शतरंज	-13895
▁शहादत	-13896
▁शारदा	-13897
▁शाहिद	-13898
▁शिफ्ट	-13899
▁शिल्प	-13900
▁शीतला	-13901
▁शून्य	-13902
▁शौर्य	-13903
▁श्रवण	-13904
▁श्लोक	-13905
▁संपदा	-13906
▁सख्ती	-13907
▁सजाया	-13908
▁सजावट	-13909
▁सज्जा	-13910
▁सनातन	-13911
▁समिती	-13912
▁समूचे	-13913
▁सरसों	-13914
▁सरेआम	-13915
▁सर्कल	-13916
▁सवर्ण	-13917
▁सस्ता	-13918
▁साड़ी	-13919
▁साबळे	-13920
▁सामंत	-13921
▁साम्ब	-13922
▁सिंगर	-13923
▁सिंघल	-13924
▁सीएयू	-13925
▁सीखें	-13926
▁सुचार	-13927
▁सुनना	-13928
▁सुप्र	-13929
▁सुबोध	-13930
▁सुरभि	-13931
▁सेंसर	-13932
▁सेकंड	-13933
▁स्किट	-13934
▁स्किल	-13935
▁स्कैम	-13936
▁स्पॉट	-13937
▁स्विस	-13938
▁स्‍था	-13939
▁स्‍पे	-13940
▁स्‍वी	-13941
▁हंसते	-13942
▁हथेली	-13943
▁हरदोई	-13944
▁हवेली	-13945
▁हुकूम	-13946
▁हेलीक	-13947
▁होणार	-13948
▁होस्ट	-13949
enefits	-13950
twitter	-13951
कांक्षा	-13952
क्ट्रेट	-13953
क्राफ्ट	-13954
ग्राउंड	-13955
द्युम्न	-13956
प्ताहिक	-13957
प्रशासन	-13958
ब्रिटेन	-13959
मुस्लिम	-13960
ल्हापूर	-13961
स्ट्रेट	-13962
स्थापित	-13963
स्‍ट्री	-13964
हेडलाइन	-13965
िनाइयों	-13966
ेलिजेंस	-13967
्बाब्वे	-13968
▁10,000	-13969
▁Camera	-13970
▁Dainik	-13971
▁Descri	-13972
▁Kahani	-13973
▁Posted	-13974
▁iPhone	-13975
▁अंतराल	-13976
▁अंधाधु	-13977
▁अंपायर	-13978
▁अग्निश	-13979
▁अग्रिम	-13980
▁अपनाएं	-13981
▁अप्रेल	-13982
▁अभिन्न	-13983
▁अभिव्य	-13984
▁अर्द्ध	-13985
▁अलंकार	-13986
▁अलौकिक	-13987
▁अशांति	-13988
▁असहनीय	-13989
▁असिस्ट	-13990
▁आइपीएल	-13991
▁आईएसआई	-13992
▁आक़्सू	-13993
▁आजमगढ़	-13994
▁आदेशों	-13995
▁आयातित	-13996
▁आरआईएल	-13997
▁आशुतोष	-13998
▁इंद्रा	-13999
▁इन्कार	-14000
▁इस्पात	-14001
▁उकसाने	-14002
▁उज्जैन	-14003
▁उड़ाया	-14004
▁उतारकर	-14005
▁उत्थान	-14006
▁उद्यमी	-14007
▁उद्यान	-14008
▁उन्हों	-14009
▁उपायों	-14010
▁एकीकृत	-14011
▁एग्जाम	-14012
▁एचसीएल	-14013
▁एनएसयू	-14014
▁एनसीआर	-14015
▁एयरटेल	-14016
▁एशियाड	-14017
▁एसआईटी	-14018
▁एसएमएस	-14019
▁एसएससी	-14020
▁एसयूवी	-14021
▁ओव्यूल	-14022
▁कंटेनर	-14023
▁कठिनाई	-14024
▁कनाडाई	-14025
▁कपड़ों	-14026
▁कबड्डी	-14027
▁कब्ज़ा	-14028
▁कर्मों	-14029
▁कहूंगा	-14030
▁क़ानून	-14031
▁कारगिल	-14032
▁कारवाई	-14033
▁कालोनी	-14034
▁कितनों	-14035
▁कीर्ति	-14036
▁कुंडली	-14037
▁कुंबले	-14038
▁कुरिन्	-14039
▁कुल्लू	-14040
▁कुश्ती	-14041
▁कैपिटल	-14042
▁कॉमनवे	-14043
▁कॉलोनी	-14044
▁क्रमशः	-14045
▁क्वेरी	-14046
▁खरीदना	-14047
▁खिलाडी	-14048
▁खिलाते	-14049
▁खिलौने	-14050
▁गिलानी	-14051
▁गोहाना	-14052
▁ग्रन्थ	-14053
▁ग्रेटर	-14054
▁घबराहट	-14055
▁चंदौली	-14056
▁चंद्रा	-14057
▁चर्चित	-14058
▁चिठ्ठी	-14059
▁चुकाना	-14060
▁चौतरफा	-14061
▁छक्‍का	-14062
▁जाएँगे	-14063
▁जागरुक	-14064
▁जानिये	-14065
▁जायेगे	-14066
▁जासूसी	-14067
▁जिद्दी	-14068
▁जुटाने	-14069
▁ज्वाइन	-14070
▁झामुमो	-14071
▁टारगेट	-14072
▁टेस्‍ट	-14073
▁टॉयलेट	-14074
▁ट्राफी	-14075
▁ट्रिपल	-14076
▁ठिकाना	-14077
▁डोनल्ड	-14078
▁तबादले	-14079
▁ताकतवर	-14080
▁ताजमहल	-14081
▁तिब्बत	-14082
▁तोड़ता	-14083
▁त्रेता	-14084
▁थियेटर	-14085
▁दक्षता	-14086
▁दाखिला	-14087
▁दिखाता	-14088
▁दीक्षा	-14089
▁दुग्गल	-14090
▁दोन्ही	-14091
▁दौड़ते	-14092
▁धारदार	-14093
▁ध्वस्त	-14094
▁नटराजन	-14095
▁नतीजतन	-14096
▁नमस्ते	-14097
▁नवभारत	-14098
▁नवाचार	-14099
▁नागपाल	-14100
▁नारनौल	-14101
▁निकलता	-14102
▁निकलती	-14103
▁निभाया	-14104
▁निष्ठा	-14105
▁न्यूरो	-14106
▁न्‍यूज	-14107
▁पटवारी	-14108
▁पत्‍नी	-14109
▁पब्लिश	-14110
▁परफॉर्	-14111
▁परिक्ष	-14112
▁परिचित	-14113
▁परीक्ष	-14114
▁पहचाना	-14115
▁पहलवान	-14116
▁पानीपत	-14117
▁पायेगा	-14118
▁पिस्टल	-14119
▁पीएचडी	-14120
▁पीजीआई	-14121
▁पुजारा	-14122
▁पुत्री	-14123
▁पुरजोर	-14124
▁पुर्तग	-14125
▁पुष्पा	-14126
▁पेपर्स	-14127
▁प्रकोप	-14128
▁प्रफुल	-14129
▁प्रभात	-14130
▁प्राइम	-14131
▁प्रामा	-14132
▁प्रीति	-14133
▁प्लेऑफ	-14134
▁फायदों	-14135
▁फार्मा	-14136
▁फ्रेंड	-14137
▁बलिदान	-14138
▁बांटने	-14139
▁बांधकर	-14140
▁बाइनरी	-14141
▁बादलों	-14142
▁बिड़ला	-14143
▁बीडीसी	-14144
▁बुमराह	-14145
▁बुरहान	-14146
▁बैटिंग	-14147
▁ब्रजेश	-14148
▁ब्रायन	-14149
▁भीमराव	-14150
▁भुगतना	-14151
▁भूमिगत	-14152
▁मंजिला	-14153
▁मणिपुर	-14154
▁मद्रास	-14155
▁मरम्मत	-14156
▁मलयालम	-14157
▁मल्लाह	-14158
▁महबूबा	-14159
▁महानगर	-14160
▁महावीर	-14161
▁मारिया	-14162
▁मित्तल	-14163
▁मिथिला	-14164
▁मिनटों	-14165
▁मिलाएं	-14166
▁मिळाले	-14167
▁मुआयना	-14168
▁मुर्गी	-14169
▁मृतकों	-14170
▁मेहंदी	-14171
▁मॉडल्स	-14172
▁मोहताज	-14173
▁मौलाना	-14174
▁यशस्वी	-14175
▁यासाठी	-14176
▁राजपाल	-14177
▁राजभवन	-14178
▁राजावत	-14179
▁राबड़ी	-14180
▁रामनाथ	-14181
▁रिताशा	-14182
▁रिवर्स	-14183
▁रॉबर्ट	-14184
▁रॉयल्स	-14185
▁लाइनों	-14186
▁लिम्का	-14187
▁लूटपाट	-14188
▁लेखपाल	-14189
▁लैंगिक	-14190
▁लोकपाल	-14191
▁वर्णित	-14192
▁वाइल्ड	-14193
▁वाडिया	-14194
▁विक्रय	-14195
▁विचारक	-14196
▁वित्‍त	-14197
▁विनायक	-14198
▁विभाजन	-14199
▁वीआईपी	-14200
▁वेटिंग	-14201
▁शस्त्र	-14202
▁श्रेयस	-14203
▁संज्ञा	-14204
▁संदेहा	-14205
▁संभवतः	-14206
▁संयोजन	-14207
▁सदानंद	-14208
▁सन्देश	-14209
▁समालखा	-14210
▁सहभागी	-14211
▁सातारा	-14212
▁सिखाया	-14213
▁सिरमौर	-14214
▁सीपीएम	-14215
▁सुनाते	-14216
▁सुनाया	-14217
▁सुरवीन	-14218
▁सुशीला	-14219
▁सूर्या	-14220
▁सेवकों	-14221
▁सौतेले	-14222
▁स्टिंग	-14223
▁स्नातक	-14224
▁स्लाइड	-14225
▁स्वप्न	-14226
▁स्वभाव	-14227
▁स्वरुप	-14228
▁स्विट्	-14229
▁स्‍कीम	-14230
▁हत्‍या	-14231
▁हॉस्टल	-14232
द्वंद्वी	-14233
म्बुलेंस	-14234
शास्त्री	-14235
्यांच्या	-14236
्याणकारी	-14237
▁2018-19	-14238
▁AdSense	-14239
▁Drawing	-14240
▁Network	-14241
▁October	-14242
▁Patrika	-14243
▁Pradesh	-14244
▁address	-14245
▁loading	-14246
▁अंग्रेज	-14247
▁अंबेडकर	-14248
▁अधिवेशन	-14249
▁अधीनस्थ	-14250
▁अध्‍ययन	-14251
▁अनुयायी	-14252
▁अनुशंसा	-14253
▁अन्वेषण	-14254
▁अभिभावक	-14255
▁अल्कोहल	-14256
▁अल्ट्रा	-14257
▁अवस्थित	-14258
▁असेंबली	-14259
▁आयरलैंड	-14260
▁आर्टिकल	-14261
▁इंडेक्स	-14262
▁इनोवेशन	-14263
▁इन्होने	-14264
▁उड़ानों	-14265
▁उपेंद्र	-14266
▁एकदूसरे	-14267
▁एबीवीपी	-14268
▁एहतियात	-14269
▁ऑफिशियल	-14270
▁कारनामा	-14271
▁कार्मिक	-14272
▁कालिदास	-14273
▁किनारों	-14274
▁कृत्यों	-14275
▁क्यूंकि	-14276
▁क्रुणाल	-14277
▁खामियों	-14278
▁खुशखबरी	-14279
▁खेलेंगे	-14280
▁गणराज्य	-14281
▁गायत्री	-14282
▁गिरिराज	-14283
▁गोदामों	-14284
▁ग्रेनेड	-14285
▁चिंताएं	-14286
▁चिंताओं	-14287
▁छिड़काव	-14288
▁जनजातीय	-14289
▁जाह्नवी	-14290
▁जोकोविक	-14291
▁झारखण्ड	-14292
▁टेक्नॉल	-14293
▁डिपॉजिट	-14294
▁ड्राफ्ट	-14295
▁ताब्यात	-14296
▁तिब्बती	-14297
▁त्यांना	-14298
▁त्रासदी	-14299
▁दर्शनीय	-14300
▁धर्मपाल	-14301
▁नक्षत्र	-14302
▁नगालैंड	-14303
▁निर्णया	-14304
▁निर्वास	-14305
▁पंजीकृत	-14306
▁पक्षपात	-14307
▁पटरियों	-14308
▁पठानकोट	-14309
▁परिप्रे	-14310
▁पहचानने	-14311
▁पहाड़ों	-14312
▁पाठशाला	-14313
▁पात्रता	-14314
▁पात्रों	-14315
▁पावरफुल	-14316
▁पिपरिया	-14317
▁पुरूषों	-14318
▁पुलवामा	-14319
▁पूंजीगत	-14320
▁पैदावार	-14321
▁पैसेंजर	-14322
▁पॉजिटिव	-14323
▁पौधरोपण	-14324
▁प्रचलित	-14325
▁प्रज्ञा	-14326
▁प्रधानम	-14327
▁फॉर्मेट	-14328
▁फ‍िल्‍म	-14329
▁बंदरगाह	-14330
▁बताऊंगा	-14331
▁बुद्धिम	-14332
▁बेटियां	-14333
▁बेनिफिट	-14334
▁बॉलिवुड	-14335
▁ब्लॉकों	-14336
▁भास्‍कर	-14337
▁महाबोधि	-14338
▁महाराजा	-14339
▁मार्कीट	-14340
▁मिलीभगत	-14341
▁मुहम्मद	-14342
▁मूल्यों	-14343
▁मेट्रोप	-14344
▁मैट्रिक	-14345
▁मोहब्बत	-14346
▁मोहल्ले	-14347
▁म्हणाले	-14348
▁रहस्यों	-14349
▁राजभाषा	-14350
▁राहगीरी	-14351
▁रिएक्शन	-14352
▁रैलियां	-14353
▁रोगियों	-14354
▁लक्षणों	-14355
▁लड़ाकों	-14356
▁लाभकारी	-14357
▁लुटेरों	-14358
▁वरिष्‍ठ	-14359
▁वसुंधरा	-14360
▁वाघमारे	-14361
▁विचित्र	-14362
▁विभाजित	-14363
▁व्याकरण	-14364
▁व्यापमं	-14365
▁शासनकाल	-14366
▁शाहजहां	-14367
▁शुभारंभ	-14368
▁शुरूआती	-14369
▁शैलियों	-14370
▁श्रद्धा	-14371
▁संज्ञान	-14372
▁संतुलित	-14373
▁सतर्कता	-14374
▁सन्दर्भ	-14375
▁सरकारें	-14376
▁सराहनीय	-14377
▁सर्कुलर	-14378
▁सर्जनों	-14379
▁सस्पेंड	-14380
▁सामानों	-14381
▁सालगिरह	-14382
▁सिंगाही	-14383
▁सितारों	-14384
▁सिलसिले	-14385
▁सीतारमण	-14386
▁सुधारने	-14387
▁सुधारों	-14388
▁सुपुर्द	-14389
▁सुलझाने	-14390
▁सेंचुरी	-14391
▁सेगमेंट	-14392
▁सेमिनार	-14393
▁सेलिब्र	-14394
▁सोनभद्र	-14395
▁सोलापूर	-14396
▁स्नातको	-14397
▁स्पर्धा	-14398
▁स्वार्थ	-14399
▁हलफनामा	-14400
▁हिन्‍दू	-14401
डब्ल्यूडी	-14402
्युमिनियम	-14403
▁Bhojpuri	-14404
▁Kayastha	-14405
▁Telegram	-14406
▁comments	-14407
▁computer	-14408
▁अकर्तव्य	-14409
▁अध्यादेश	-14410
▁अनुमानों	-14411
▁अन्तर्गत	-14412
▁अविष्वास	-14413
▁असलेल्या	-14414
▁अस्वीकार	-14415
▁आईआरजीसी	-14416
▁इन्टरनेट	-14417
▁इस्लामिक	-14418
▁उत्पादित	-14419
▁उपप्रधान	-14420
▁ऑलराउंडर	-14421
▁कम्युनिक	-14422
▁करण्याचा	-14423
▁कार्यभार	-14424
▁किरीबुरू	-14425
▁क्‍योंकि	-14426
▁खामियाजा	-14427
▁खूबसूरती	-14428
▁गोस्वामी	-14429
▁ग्रेजुएट	-14430
▁चित्रकूट	-14431
▁चैंपियंस	-14432
▁छेड़खानी	-14433
▁जवाहरलाल	-14434
▁जीवनसाथी	-14435
▁जॉर्जिया	-14436
▁झालावाड़	-14437
▁झालेल्या	-14438
▁झाल्याने	-14439
▁डाक्टरों	-14440
▁डायबिटीज	-14441
▁डायरेक्ट	-14442
▁डिस्ट्री	-14443
▁तांत्रिक	-14444
▁तालुक्या	-14445
▁तुम्हारा	-14446
▁दुर्योधन	-14447
▁देशद्रोह	-14448
▁द्विवेदी	-14449
▁धर्मशाला	-14450
▁निष्कर्ष	-14451
▁नौकरियों	-14452
▁पत्तियों	-14453
▁पदार्थों	-14454
▁परिभाषित	-14455
▁पर्यटकों	-14456
▁पार्किंग	-14457
▁पार्षदों	-14458
▁पीड़ितों	-14459
▁पीडि़तों	-14460
▁पुस्तकें	-14461
▁प्रतिक्ष	-14462
▁प्रतिभाग	-14463
▁प्रयुक्त	-14464
▁प्रयोगों	-14465
▁प्रसिद्द	-14466
▁प्रोफाइल	-14467
▁फतेहाबाद	-14468
▁फ़िल्में	-14469
▁फाउंडेशन	-14470
▁फिक्सिंग	-14471
▁फिरोजपुर	-14472
▁फिल्मकार	-14473
▁फेस्टिवल	-14474
▁बर्खास्त	-14475
▁बहुसंख्य	-14476
▁ब्रांड्स	-14477
▁ब्रेथवेट	-14478
▁ब्लूबेरी	-14479
▁भरोसेमंद	-14480
▁भर्तृहरि	-14481
▁भारतवर्ष	-14482
▁भूतपूर्व	-14483
▁मतदारसंघ	-14484
▁महत्त्वा	-14485
▁माइग्रेन	-14486
▁मिस्त्री	-14487
▁मुंहासों	-14488
▁मुलाक़ात	-14489
▁याचिकाएं	-14490
▁यात्राओं	-14491
▁यूपीएससी	-14492
▁राजरप्पा	-14493
▁रामचंद्र	-14494
▁रामविलास	-14495
▁रासायनिक	-14496
▁रिचर्ड्स	-14497
▁रेस्तरां	-14498
▁लुधियाना	-14499
▁वर्षगांठ	-14500
▁विभिन्‍न	-14501
▁विवाहिता	-14502
▁व्यवसायी	-14503
▁शक्तियां	-14504
▁शक्तियों	-14505
▁शिकायतों	-14506
▁शैलेंद्र	-14507
▁सब्जियों	-14508
▁सम्भावना	-14509
▁सांकेतिक	-14510
▁सांगितले	-14511
▁सावित्री	-14512
▁सिद्धांत	-14513
▁सुमित्रा	-14514
▁सूर्यदेव	-14515
▁स्टाइलिश	-14516
▁स्टेंड्स	-14517
▁स्ट्राइक	-14518
▁स्नैपड्र	-14519
▁स्वचालित	-14520
▁हड्डियों	-14521
▁हमलावरों	-14522
▁हस्तियां	-14523
▁हानिकारक	-14524
▁हिंदुत्व	-14525
▁हिन्दुओं	-14526
▁हुर्रियत	-14527
▁हेराफेरी	-14528
▁असुरक्षित	-14529
▁उत्पादकों	-14530
▁उद्योगपति	-14531
▁उपन्यासों	-14532
▁ऑटोमोबाइल	-14533
▁ओव्यूलेशन	-14534
▁औपचारिकता	-14535
▁काउंसलिंग	-14536
▁कॉरपोरेशन	-14537
▁कॉस्मेटिक	-14538
▁कोल्हापूर	-14539
▁क्षेत्रफल	-14540
▁गृहमंत्री	-14541
▁गोरखालैंड	-14542
▁ग्रीनहाउस	-14543
▁ग्रेजुएशन	-14544
▁चंद्रबाबू	-14545
▁छिंदवाड़ा	-14546
▁छुट्टियों	-14547
▁जनप्रतिनि	-14548
▁ट्रीटमेंट	-14549
▁ठेकेदारों	-14550
▁डिस्काउंट	-14551
▁त्रेतायुग	-14552
▁दावेदारों	-14553
▁द्विआधारी	-14554
▁नवनिर्मित	-14555
▁नियंत्रित	-14556
▁निवडणुकीत	-14557
▁नौकरशाहों	-14558
▁पड़ोसियों	-14559
▁परिवर्तित	-14560
▁परिस्थिति	-14561
▁पहुंचेंगे	-14562
▁पुलिसवाले	-14563
▁पूर्वांचल	-14564
▁पोलिसांनी	-14565
▁प्रतापगढ़	-14566
▁प्रतिवर्ष	-14567
▁प्रशिक्षक	-14568
▁प्रापर्टी	-14569
▁प्रोडक्शन	-14570
▁प्रोड्यूस	-14571
▁फ़्लाइओवर	-14572
▁महागठबंधन	-14573
▁महासागरों	-14574
▁राजनेताओं	-14575
▁रिपोर्टों	-14576
▁रेगिस्तान	-14577
▁वाणिज्यिक	-14578
▁विरोधियों	-14579
▁वैलेंटाइन	-14580
▁शिवरात्रि	-14581
▁शिष्टाचार	-14582
▁संदिग्धों	-14583
▁संभावनाएं	-14584
▁संभावनाओं	-14585
▁सम्प्रदाय	-14586
▁सम्बन्धित	-14587
▁सांख्यिकी	-14588
▁सामान्यतः	-14589
▁सिलिकेटों	-14590
▁सुपरस्टार	-14591
▁सुरजेवाला	-14592
▁स्कॉटलैंड	-14593
▁स्टेटमेंट	-14594
▁स्टैंडर्ड	-14595
▁स्वयंसेवक	-14596
▁हल्द्वानी	-14597
▁हेल्थकेयर	-14598
कर्मचारियों	-14599
▁अप्रत्यक्ष	-14600
▁अमेरिकियों	-14601
▁अर्जेंटीना	-14602
▁असहिष्णुता	-14603
▁इलेक्ट्रिक	-14604
▁करण्यासाठी	-14605
▁कार्यसमिति	-14606
▁चिंतपूर्णी	-14607
▁जिम्बाब्वे	-14608
▁दिव्यांगों	-14609
▁देण्यासाठी	-14610
▁ध्यानुभक्त	-14611
▁नेटवर्किंग	-14612
▁परफॉर्मेंस	-14613
▁प्रद्युम्न	-14614
▁प्रवासियों	-14615
▁प्रेग्नेंट	-14616
▁प्रोडक्ट्स	-14617
▁बैकग्राउंड	-14618
▁मजिस्ट्रेट	-14619
▁मानवाधिकार	-14620
▁मुख्यातिथि	-14621
▁राष्ट्रवाद	-14622
▁रेस्टोरेंट	-14623
▁लाइफस्टाइल	-14624
▁विक्टोरिया	-14625
▁विजयवर्गीय	-14626
▁विश्वकर्मा	-14627
▁वेरिफिकेशन	-14628
▁व्यावसायिक	-14629
▁शांतिपूर्ण	-14630
▁संदेहास्पद	-14631
▁सिद्धान्‍त	-14632
▁सूर्यग्रहण	-14633
▁हेलीकॉप्टर	-14634
▁होशियारपुर	-14635
▁Description	-14636
▁कारोबारियों	-14637
▁कार्यान्वयन	-14638
▁कुरिन्थियों	-14639
▁जिम्‍मेदारी	-14640
▁पाठ्यक्रमों	-14641
▁पीडब्ल्यूडी	-14642
▁प्रक्रियाओं	-14643
▁प्रतिभाशाली	-14644
▁राज्यमंत्री	-14645
▁राष्ट्रवादी	-14646
▁विशेषाधिकार	-14647
▁वृद्धावस्था	-14648
▁सफलतापूर्वक	-14649
▁स्नातकोत्तर	-14650
▁अंतराष्ट्रीय	-14651
▁अल्पसंख्यकों	-14652
▁कार्यप्रणाली	-14653
▁जनकल्याणकारी	-14654
▁परिप्रेक्ष्य	-14655
▁विशाखापट्टनम	-14656
▁सुरक्षाकर्मी	-14657
▁स्विट्जरलैंड	-14658
डब्ल्यूडब्ल्यू	-14659
▁प्रतिद्वंद्वी	-14660
▁सांप्रदायिकता	-14661
▁मीडियाकर्मियों	-14662
▁हिस्ट्रीशीटरों	-14663
▁कार्यकर्त्यांनी	-14664
()	-14665
)'	-14666
/3	-14667
1%	-14668
21	-14669
3]	-14670
45	-14671
61	-14672
7)	-14673
71	-14674
73	-14675
78	-14676
8%	-14677
8,	-14678
89	-14679
9%	-14680
9.	-14681
??	-14682
DI	-14683
DT	-14684
Go	-14685
HO	-14686
IF	-14687
IG	-14688
Is	-14689
No	-14690
OR	-14691
Pl	-14692
SR	-14693
Un	-14694
VP	-14695
]>	-14696
ae	-14697
bo	-14698
cd	-14699
ci	-14700
cl	-14701
du	-14702
ie	-14703
ić	-14704
ma	-14705
my	-14706
oj	-14707
po	-14708
sh	-14709
ye	-14710
za	-14711
ँक	-14712
ंआ	-14713
ंछ	-14714
ं०	-14715
अव	-14716
आस	-14717
ईई	-14718
ईए	-14719
ईल	-14720
उर	-14721
उल	-14722
ओ०	-14723
कठ	-14724
खो	-14725
गड	-14726
घी	-14727
चू	-14728
चो	-14729
जक	-14730
जव	-14731
तू	-14732
दत	-14733
दस	-14734
नव	-14735
भन	-14736
मज	-14737
मध	-14738
रथ	-14739
रर	-14740
लॉ	-14741
वद	-14742
वस	-14743
शॉ	-14744
षय	-14745
सभ	-14746
हट	-14747
हद	-14748
हब	-14749
हू	-14750
़ि	-14751
ाक	-14752
ुश	-14753
ूथ	-14754
ॅस	-14755
ेब	-14756
ैठ	-14757
ैप	-14758
१७	-14759
३०	-14760
‍ए	-14761
‘‘	-14762
’.	-14763
▁=	-14764
,12	-14765
-1,	-14766
-22	-14767
-3,	-14768
-60	-14769
.07	-14770
.11	-14771
.62	-14772
/06	-14773
042	-14774
102	-14775
170	-14776
2.5	-14777
200	-14778
40)	-14779
479	-14780
607	-14781
:17	-14782
:23	-14783
:27	-14784
DTV	-14785
Tak	-14786
aba	-14787
acc	-14788
ach	-14789
act	-14790
ala	-14791
ati	-14792
cda	-14793
con	-14794
cru	-14795
cur	-14796
eds	-14797
elf	-14798
eme	-14799
64	-14800
अग	-14801
did	-14802
fil	-14803
ftw	-14804
ful	-14805
gal	-14806
gin	-14807
hag	-14808
ian	-14809
ica	-14810
ild	-14811
ime	-14812
isg	-14813
itt	-14814
ića	-14815
kin	-14816
lop	-14817
low	-14818
ode	-14819
ohn	-14820
olk	-14821
ols	-14822
oop	-14823
ote	-14824
pen	-14825
rem	-14826
rol	-14827
ual	-14828
ube	-14829
ubl	-14830
umb	-14831
uss	-14832
uto	-14833
var	-14834
ँसा	-14835
ंगण	-14836
ंगर	-14837
ंग्	-14838
ंटू	-14839
ंने	-14840
ंसन	-14841
अभि	-14842
आरो	-14843
इंत	-14844
ईसी	-14845
उगा	-14846
कते	-14847
कथा	-14848
काए	-14849
किफ	-14850
किम	-14851
किश	-14852
किस	-14853
कीर	-14854
कीस	-14855
कूफ	-14856
कैप	-14857
कोई	-14858
कोड	-14859
खबर	-14860
ख़ल	-14861
खेल	-14862
खोर	-14863
खौफ	-14864
ख्र	-14865
गया	-14866
गरण	-14867
गळे	-14868
गाट	-14869
गृह	-14870
ग्स	-14871
चढ़	-14872
चर्	-14873
चुर	-14874
चैन	-14875
च्य	-14876
जगत	-14877
जता	-14878
जहब	-14879
जाक	-14880
जिब	-14881
जिम	-14882
जीह	-14883
जुल	-14884
ज्ड	-14885
टकी	-14886
टाइ	-14887
टात	-14888
टीस	-14889
टोन	-14890
ठ्ठ	-14891
डली	-14892
ड़ू	-14893
डाल	-14894
डेन	-14895
डोज	-14896
डोल	-14897
तला	-14898
ताव	-14899
्ा	-14900
ett	-14901
ilf	-14902
une	-14903
तूल	-14904
तैय	-14905
थीन	-14906
थुन	-14907
दना	-14908
दशा	-14909
दाब	-14910
दिय	-14911
दील	-14912
दीव	-14913
दें	-14914
धिव	-14915
नंद	-14916
नाच	-14917
नीक	-14918
नीश	-14919
नोई	-14920
नोट	-14921
पटी	-14922
पदा	-14923
परा	-14924
पले	-14925
पाक	-14926
पाठ	-14927
पाथ	-14928
पैर	-14929
पोट	-14930
फनम	-14931
फली	-14932
फुट	-14933
फोट	-14934
फोल	-14935
बता	-14936
बसी	-14937
बात	-14938
बाप	-14939
बाव	-14940
बाह	-14941
बिस	-14942
बीज	-14943
बूल	-14944
बोच	-14945
भया	-14946
भरा	-14947
भरे	-14948
भान	-14949
मरे	-14950
मरो	-14951
माँ	-14952
माई	-14953
माम	-14954
मिक	-14955
मिट	-14956
मिश	-14957
मूर	-14958
म्य	-14959
यली	-14960
याम	-14961
यीं	-14962
यूए	-14963
रवि	-14964
रिन	-14965
रीर	-14966
रें	-14967
रोग	-14968
रोट	-14969
रोन	-14970
लया	-14971
लला	-14972
लाक	-14973
लाभ	-14974
लास	-14975
लि‍	-14976
ल्ज	-14977
ळून	-14978
वंस	-14979
वडे	-14980
वणी	-14981
वद्	-14982
वाए	-14983
वाग	-14984
वाश	-14985
विट	-14986
वून	-14987
वेर	-14988
वैत	-14989
शने	-14990
शर्	-14991
शही	-14992
शित	-14993
ष्म	-14994
संग	-14995
सतन	-14996
सम्	-14997
सहम	-14998
साध	-14999
,"	-15000
OC	-15001
नई	-15002
omi	-15003
ंडन	-15004
एलए	-15005
थिल	-15006
थुर	-15007
नैल	-15008
फ़्	-15009
फाक	-15010
बहस	-15011
ब्ज	-15012
लिप	-15013
सिस	-15014
सेक	-15015
सेफ	-15016
सोग	-15017
सोच	-15018
सोम	-15019
हंस	-15020
हदी	-15021
हाथ	-15022
हिस	-15023
हुआ	-15024
हुड	-15025
ाणी	-15026
ानु	-15027
ानो	-15028
ायम	-15029
ाया	-15030
िंक	-15031
िकर	-15032
िडा	-15033
िडे	-15034
िरण	-15035
ुज़	-15036
ुतः	-15037
ुती	-15038
ुमा	-15039
ुरत	-15040
ुरे	-15041
ुला	-15042
ूटर	-15043
ूमन	-15044
ूरा	-15045
ेगा	-15046
ेचे	-15047
ेरह	-15048
ेवर	-15049
ैमी	-15050
ॉइड	-15051
ोगा	-15052
ोपण	-15053
ोपै	-15054
ोबर	-15055
ोलॉ	-15056
ौटी	-15057
ौता	-15058
्यम	-15059
्र्	-15060
्हे	-15061
०ओ०	-15062
‍ले	-15063
▁*]	-15064
▁1)	-15065
▁3-	-15066
▁5)	-15067
▁5:	-15068
▁6,	-15069
▁6-	-15070
▁7-	-15071
▁8.	-15072
▁85	-15073
▁87	-15074
▁89	-15075
▁98	-15076
▁>>	-15077
▁Ar	-15078
▁BS	-15079
▁Bi	-15080
▁Bu	-15081
▁CM	-15082
▁HD	-15083
▁IM	-15084
▁IN	-15085
▁IS	-15086
▁Ly	-15087
▁ML	-15088
▁Pa	-15089
▁RO	-15090
▁Ro	-15091
▁SS	-15092
▁Sa	-15093
▁Sm	-15094
▁Sy	-15095
▁To	-15096
▁UC	-15097
▁Us	-15098
▁[*	-15099
ोब	-15100
zed	-15101
पणे	-15102
समय	-15103
सीर	-15104
िशन	-15105
ुडू	-15106
▁!”	-15107
▁#9	-15108
▁li	-15109
▁or	-15110
▁pr	-15111
▁आउ	-15112
▁आण	-15113
▁इफ	-15114
▁उड	-15115
▁उब	-15116
▁एह	-15117
▁ऐज	-15118
▁ऐड	-15119
▁ऐन	-15120
▁कँ	-15121
▁कइ	-15122
▁खस	-15123
▁गृ	-15124
▁घी	-15125
▁घृ	-15126
▁छर	-15127
▁जह	-15128
▁टच	-15129
▁ठो	-15130
▁डै	-15131
▁ढो	-15132
▁तस	-15133
▁थौ	-15134
▁धक	-15135
▁ध्	-15136
▁नं	-15137
▁पख	-15138
▁बं	-15139
▁बघ	-15140
▁बृ	-15141
▁मम	-15142
▁यौ	-15143
▁र्	-15144
▁लप	-15145
▁वु	-15146
▁शब	-15147
▁शम	-15148
▁शॉ	-15149
▁श्	-15150
▁सज	-15151
▁११	-15152
▁२२	-15153
▁२६	-15154
,600	-15155
...?	-15156
/200	-15157
0008	-15158
2627	-15159
>>>>	-15160
ECIL	-15161
aily	-15162
ames	-15163
anti	-15164
aper	-15165
ates	-15166
blem	-15167
chal	-15168
ends	-15169
ents	-15170
fili	-15171
gest	-15172
giya	-15173
habr	-15174
hakt	-15175
hank	-15176
hatt	-15177
init	-15178
inue	-15179
irth	-15180
iven	-15181
line	-15182
oday	-15183
olač	-15184
oney	-15185
ongs	-15186
ould	-15187
ouse	-15188
rive	-15189
roid	-15190
ttar	-15191
unch	-15192
vvoc	-15193
ward	-15194
yari	-15195
ंककर	-15196
ंकरा	-15197
ंकों	-15198
ंगार	-15199
TE	-15200
.40	-15201
ंभे	-15202
इसक	-15203
तरह	-15204
बना	-15205
बॉल	-15206
लोत	-15207
सं०	-15208
▁ag	-15209
▁।।	-15210
dies	-15211
mand	-15212
ंगाल	-15213
ंगीर	-15214
ंठित	-15215
ंडों	-15216
ंदना	-15217
ंदेह	-15218
ंधों	-15219
ंध्य	-15220
ंपुर	-15221
ंबना	-15222
ंबली	-15223
ंवला	-15224
ंसों	-15225
अपना	-15226
अमेर	-15227
इन्स	-15228
इससे	-15229
ईओवर	-15230
ऊंगी	-15231
एनसी	-15232
एफपी	-15233
एमयू	-15234
ऑफिस	-15235
ऑर्ड	-15236
कंडी	-15237
कड़ा	-15238
कराम	-15239
कर्र	-15240
कसूर	-15241
क़ीन	-15242
काला	-15243
किस्	-15244
कुंज	-15245
केला	-15246
कैया	-15247
कोने	-15248
क्खी	-15249
क्टी	-15250
क्रे	-15251
गढ़ी	-15252
गमगा	-15253
गलों	-15254
गिनत	-15255
गुजा	-15256
गुबा	-15257
गैरह	-15258
घन्य	-15259
चकों	-15260
चक्र	-15261
चाकी	-15262
चाने	-15263
चारा	-15264
च्चि	-15265
जनौर	-15266
जरिम	-15267
ज़ाब	-15268
जाता	-15269
जाति	-15270
जिला	-15271
जुअल	-15272
जुकी	-15273
जेंट	-15274
जोखा	-15275
ज्जर	-15276
ज्वल	-15277
टंकी	-15278
टीआई	-15279
ठ्ठल	-15280
डल्ट	-15281
ड़ाव	-15282
डेगा	-15283
णारा	-15284
णुओं	-15285
णेता	-15286
ण्डी	-15287
तनों	-15288
तन्य	-15289
तारा	-15290
तुति	-15291
तेरस	-15292
तोड़	-15293
थरूम	-15294
थानी	-15295
दारा	-15296
दूरी	-15297
देने	-15298
देवा	-15299
NO	-15300
cb	-15301
ays	-15302
भवि	-15303
िपि	-15304
ौदी	-15305
▁(7	-15306
edal	-15307
ence	-15308
क्षस	-15309
द्ना	-15310
धारक	-15311
नशील	-15312
नानक	-15313
नानी	-15314
नाला	-15315
नेचे	-15316
नेजा	-15317
नोवे	-15318
न्डी	-15319
न्दु	-15320
न्‍ग	-15321
पब्ल	-15322
पसंख	-15323
पहली	-15324
पहले	-15325
पाणी	-15326
पानी	-15327
पाने	-15328
पाया	-15329
पीआई	-15330
पीकू	-15331
पुथल	-15332
प्पू	-15333
प्सी	-15334
फर्म	-15335
फ़रत	-15336
फायर	-15337
फ्ती	-15338
फ्फर	-15339
बख्त	-15340
बच्च	-15341
बबली	-15342
बर्स	-15343
बलेट	-15344
ब्बी	-15345
ब्बू	-15346
भागा	-15347
भाना	-15348
मंगल	-15349
मढ़ी	-15350
मधील	-15351
महान	-15352
मांड	-15353
माइल	-15354
माता	-15355
माना	-15356
मिला	-15357
मेहर	-15358
मॉडल	-15359
मोचन	-15360
म्बे	-15361
म्भव	-15362
यहाँ	-15363
यानक	-15364
युवक	-15365
य्या	-15366
रल्स	-15367
रवरी	-15368
राइट	-15369
राजा	-15370
रातल	-15371
रावल	-15372
रुदा	-15373
रेजी	-15374
रोधक	-15375
र्गन	-15376
र्गी	-15377
र्ता	-15378
र्थक	-15379
र्मल	-15380
र्षण	-15381
लामा	-15382
लायन	-15383
लाया	-15384
लीटर	-15385
लेखन	-15386
लेले	-15387
लेवा	-15388
लोकन	-15389
लोवे	-15390
ल्डर	-15391
ल्लत	-15392
ल्ली	-15393
ळगाव	-15394
वनंत	-15395
वरेज	-15396
वादन	-15397
वादा	-15398
वारण	-15399
वारत	-15400
वारे	-15401
विना	-15402
विनी	-15403
वियत	-15404
वियर	-15405
विया	-15406
वीरे	-15407
वेसी	-15408
शायद	-15409
शासक	-15410
शीले	-15411
शोधन	-15412
श्रम	-15413
ष्टी	-15414
सनों	-15415
सपैठ	-15416
सबसे	-15417
सर्ग	-15418
सहाय	-15419
सिबल	-15420
सिया	-15421
सीजन	-15422
सीधी	-15423
सीने	-15424
सुबह	-15425
स्टे	-15426
स्ति	-15427
स्पा	-15428
स्वा	-15429
हमने	-15430
हरों	-15431
हाटी	-15432
हारा	-15433
हीरो	-15434
होनी	-15435
़सान	-15436
ांकन	-15437
ांची	-15438
ानगी	-15439
ानास	-15440
ान्य	-15441
ायरा	-15442
ायोग	-15443
ारोप	-15444
िंगा	-15445
िंडा	-15446
िकलश	-15447
िकाऊ	-15448
िक्ट	-15449
िक्‍	-15450
िटेज	-15451
ितना	-15452
ितिक	-15453
िन्स	-15454
िबंध	-15455
ियरी	-15456
िय़ा	-15457
ियोज	-15458
ियोन	-15459
ीनगर	-15460
ूटान	-15461
ूनें	-15462
ूपुर	-15463
ूराम	-15464
ूलों	-15465
ेंगू	-15466
ेंडे	-15467
ेंने	-15468
ेंबर	-15469
ेट्स	-15470
ेष्ठ	-15471
ैरोग	-15472
ॉइंट	-15473
ॉर्म	-15474
ॉलिट	-15475
ॉल्ट	-15476
ोकला	-15477
ोकॉल	-15478
ोगिक	-15479
ोजिट	-15480
ोज्य	-15481
ोटिक	-15482
ोनें	-15483
ोमणि	-15484
ोलिस	-15485
्जरी	-15486
्रता	-15487
्राट	-15488
्रिड	-15489
्रित	-15490
्र्ड	-15491
्लाद	-15492
्वंस	-15493
्वटर	-15494
्‍यक	-15495
▁---	-15496
▁1.3	-15497
▁10.	-15498
▁104	-15499
▁119	-15500
▁12:	-15501
▁130	-15502
▁138	-15503
▁143	-15504
▁144	-15505
▁145	-15506
▁15,	-15507
▁159	-15508
▁161	-15509
▁17,	-15510
▁180	-15511
▁19,	-15512
▁2,8	-15513
▁2-3	-15514
▁212	-15515
▁238	-15516
▁3.2	-15517
▁3.5	-15518
▁361	-15519
▁370	-15520
▁40%	-15521
▁406	-15522
▁450	-15523
▁550	-15524
▁650	-15525
▁And	-15526
▁CAA	-15527
▁Das	-15528
▁Dun	-15529
▁For	-15530
▁Gov	-15531
▁Hai	-15532
▁Ind	-15533
▁Lat	-15534
▁Mot	-15535
▁Nav	-15536
▁New	-15537
▁RSS	-15538
▁Ram	-15539
▁Ran	-15540
▁Sur	-15541
▁WHO	-15542
▁Web	-15543
▁Xia	-15544
▁acc	-15545
▁act	-15546
▁age	-15547
▁all	-15548
▁ban	-15549
▁bhi	-15550
▁clo	-15551
▁dec	-15552
▁get	-15553
▁his	-15554
▁how	-15555
▁ins	-15556
▁log	-15557
▁out	-15558
▁was	-15559
▁अंद	-15560
▁अउर	-15561
▁अचल	-15562
▁अजब	-15563
▁अजू	-15564
▁अनल	-15565
▁अपग	-15566
▁अबु	-15567
▁अमृ	-15568
▁असद	-15569
▁अौर	-15570
▁आएँ	-15571
▁आएं	-15572
▁आख़	-15573
▁आदम	-15574
▁इकल	-15575
▁ईएफ	-15576
▁ईटी	-15577
▁ईयर	-15578
▁उथल	-15579
▁उदा	-15580
▁उपक	-15581
▁उबर	-15582
▁उरी	-15583
▁एआई	-15584
▁एकर	-15585
▁एजे	-15586
▁एनए	-15587
▁एमी	-15588
▁एरो	-15589
▁एस्	-15590
▁ऐप्	-15591
▁ऑडी	-15592
▁ओले	-15593
▁कंक	-15594
▁कतर	-15595
▁कता	-15596
▁कलश	-15597
▁कहब	-15598
▁क़ा	-15599
▁काफ	-15600
▁काय	-15601
▁काश	-15602
▁कूच	-15603
▁केक	-15604
▁कोप	-15605
▁खड़	-15606
▁खली	-15607
▁खुर	-15608
▁गजब	-15609
▁गते	-15610
▁गें	-15611
▁गेज	-15612
▁गोक	-15613
▁गोप	-15614
▁गोव	-15615
▁ग्‍	-15616
▁घाल	-15617
▁घाव	-15618
▁चबा	-15619
▁चहे	-15620
▁चाक	-15621
▁चाब	-15622
▁चेल	-15623
▁छटी	-15624
▁छोड	-15625
▁छोर	-15626
▁जगम	-15627
▁जरी	-15628
▁जलभ	-15629
▁जवळ	-15630
▁जसप	-15631
▁जुआ	-15632
▁जूस	-15633
▁झील	-15634
▁टका	-15635
▁टिन	-15636
▁टूक	-15637
▁टूर	-15638
▁टैं	-15639
▁टोक	-15640
▁टोन	-15641
▁टौम	-15642
▁ठहर	-15643
▁डकै	-15644
▁डरे	-15645
▁डां	-15646
▁डिल	-15647
▁डिस	-15648
▁डेढ	-15649
▁डेर	-15650
▁डॉन	-15651
▁डोक	-15652
▁ढाल	-15653
▁ढील	-15654
▁तंद	-15655
▁तजि	-15656
▁तफ्	-15657
▁तमा	-15658
▁तरा	-15659
▁तूल	-15660
▁तोड	-15661
▁थ्र	-15662
▁दंभ	-15663
▁दग्	-15664
▁दमन	-15665
▁दला	-15666
▁दुप	-15667
▁दुल	-15668
▁दूज	-15669
▁दे०	-15670
▁धडक	-15671
▁धनु	-15672
▁धरण	-15673
▁धुर	-15674
▁ध्‍	-15675
▁नगद	-15676
▁नतम	-15677
▁नमी	-15678
▁नवी	-15679
▁नाउ	-15680
▁नास	-15681
▁निघ	-15682
▁नें	-15683
▁नैन	-15684
▁पका	-15685
▁पतन	-15686
▁पाओ	-15687
▁पाम	-15688
▁पिक	-15689
▁पिल	-15690
▁पीए	-15691
▁पूर	-15692
▁पेड	-15693
▁पैक	-15694
▁पैग	-15695
▁पोख	-15696
▁फली	-15697
▁फ़ी	-15698
▁फ़ॉ	-15699
▁फास	-15700
▁फिज	-15701
▁फूट	-15702
▁बग्	-15703
▁बडी	-15704
▁बसी	-15705
▁बाम	-15706
▁बिच	-15707
▁बेग	-15708
▁भां	-15709
▁भिम	-15710
▁भीत	-15711
▁भुल	-15712
▁भेट	-15713
▁भैं	-15714
▁भोर	-15715
▁मजू	-15716
▁मटन	-15717
▁मड़	-15718
▁मदत	-15719
▁मनच	-15720
▁मरो	-15721
▁मिर	-15722
▁मीट	-15723
▁मूक	-15724
▁मूठ	-15725
▁मेथ	-15726
▁मेष	-15727
▁मोन	-15728
▁मौन	-15729
▁याक	-15730
▁यात	-15731
▁यास	-15732
▁यूक	-15733
▁यूज	-15734
▁येन	-15735
▁रजा	-15736
▁रनर	-15737
▁रबर	-15738
▁रहन	-15739
▁रहै	-15740
▁राई	-15741
▁राउ	-15742
▁लंग	-15743
▁ललन	-15744
▁लान	-15745
▁लाम	-15746
▁लिन	-15747
▁लौह	-15748
▁वकी	-15749
▁वतन	-15750
▁वली	-15751
▁वशि	-15752
▁वहन	-15753
▁वाट	-15754
▁विप	-15755
▁वेन	-15756
▁वैं	-15757
▁वैट	-15758
▁वैन	-15759
▁वॉर	-15760
▁व्‍	-15761
▁शशि	-15762
▁शीट	-15763
▁शेप	-15764
▁संध	-15765
▁सतत	-15766
▁सतह	-15767
▁सती	-15768
▁सबा	-15769
▁समर	-15770
▁सरग	-15771
▁सहस	-15772
▁सहा	-15773
▁स़ि	-15774
▁साँ	-15775
▁सिप	-15776
▁सीज	-15777
▁सीम	-15778
▁सुत	-15779
▁सूप	-15780
▁सेस	-15781
▁सोज	-15782
▁हँस	-15783
▁हता	-15784
▁हमी	-15785
▁हाज	-15786
▁हाय	-15787
▁हेन	-15788
▁हैः	-15789
▁हैड	-15790
▁ह्र	-15791
,,,,,	-15792
-2015	-15793
47936	-15794
Alive	-15795
Hindi	-15796
Kumar	-15797
Shakt	-15798
ality	-15799
ative	-15800
creen	-15801
cruit	-15802
ement	-15803
eople	-15804
ervic	-15805
gmail	-15806
hotos	-15807
iesel	-15808
imaan	-15809
ories	-15810
plate	-15811
ugins	-15812
velop	-15813
ystem	-15814
ंकारी	-15815
ंसकों	-15816
ंसल्ट	-15817
अध्या	-15818
ईआरटी	-15819
एंड्र	-15820
ऑनर्स	-15821
कर्णी	-15822
कविता	-15823
कांना	-15824
काशीय	-15825
किनार	-15826
क्कड़	-15827
क्रेट	-15828
क्लेव	-15829
क्‍या	-15830
गंभीर	-15831
गढ़ंत	-15832
ग़ांव	-15833
गेटिव	-15834
चढ़ाव	-15835
चांदी	-15836
चिकित	-15837
जरेकर	-15838
ज़ीज़	-15839
जातीय	-15840
जिस्ट	-15841
ज्ञों	-15842
ज्बुल	-15843
टेंशन	-15844
टैक्न	-15845
ठाकुर	-15846
ड़ापन	-15847
डायरे	-15848
डुप्ल	-15849
ढरपूर	-15850
णिकता	-15851
तकबीर	-15852
तरनाक	-15853
तिहान	-15854
दर्शक	-15855
दियुर	-15856
दूरों	-15857
देखील	-15858
देशिक	-15859
द्युत	-15860
निष्क	-15861
नीतिक	-15862
नुसार	-15863
नेटिक	-15864
न्नाथ	-15865
न्हुआ	-15866
न्‍ना	-15867
पमेंट	-15868
पश्चा	-15869
पादित	-15870
पिछले	-15871
पीरिय	-15872
पुत्र	-15873
पुरुष	-15874
प्पड़	-15875
प्राय	-15876
प्रीत	-15877
प्लेस	-15878
फ्तों	-15879
फ्यूज	-15880
बत्ती	-15881
बन्धी	-15882
बस्ती	-15883
बुद्ध	-15884
बेसडर	-15885
भगवान	-15886
भागार	-15887
भागों	-15888
भिज्ञ	-15889
भियोग	-15890
भ्रंश	-15891
मर्रा	-15892
महिला	-15893
मांडू	-15894
मार्क	-15895
मावली	-15896
मित्र	-15897
मुग्ध	-15898
मूल्य	-15899
मैथुन	-15900
मॉर्ट	-15901
यातून	-15902
येंगे	-15903
राजीव	-15904
रिक्स	-15905
रियों	-15906
रीमला	-15907
रूद्ध	-15908
रेटिव	-15909
रोक्त	-15910
र्जित	-15911
र्ट्ज	-15912
र्व्य	-15913
र्‍या	-15914
ललिता	-15915
लिपिन	-15916
लिबान	-15917
लियां	-15918
लेक्स	-15919
वर्षी	-15920
वाड़े	-15921
वारगी	-15922
विंदा	-15923
विचार	-15924
वितरण	-15925
विपीन	-15926
वियों	-15927
विश्व	-15928
वीरें	-15929
व्रता	-15930
व्हाण	-15931
शांति	-15932
श्चिक	-15933
ष्यंत	-15934
ष्यों	-15935
संस्थ	-15936
सर्वा	-15937
सलूकी	-15938
सहारा	-15939
सामने	-15940
स्ताँ	-15941
स्थता	-15942
स्‍ता	-15943
हन्ना	-15944
हायशी	-15945
हिंसा	-15946
हेलना	-15947
ांडेड	-15948
ांतीय	-15949
ाबिज़	-15950
ारिया	-15951
ार्पण	-15952
ालीसा	-15953
ासाठी	-15954
िकाणी	-15955
िकासी	-15956
िकेने	-15957
िताओं	-15958
ियारा	-15959
िलहाल	-15960
िल्या	-15961
िवर्त	-15962
िसातन	-15963
ुपालन	-15964
ुल्ला	-15965
ेंसिक	-15966
ेयर्स	-15967
ेरियल	-15968
ेशिया	-15969
ोटिया	-15970
ोत्तम	-15971
ोत्तर	-15972
ोत्री	-15973
्याने	-15974
्योता	-15975
्योपै	-15976
्योरा	-15977
्रकोस	-15978
्‍तीय	-15979
▁#042	-15980
▁#170	-15981
▁#607	-15982
▁(35)	-15983
▁1941	-15984
▁1946	-15985
▁1947	-15986
▁1949	-15987
▁1952	-15988
▁1957	-15989
▁1960	-15990
▁1972	-15991
▁1975	-15992
▁1976	-15993
▁1977	-15994
▁1979	-15995
▁1987	-15996
▁1992	-15997
▁1997	-15998
▁3000	-15999
▁3500	-16000
▁6.25	-16001
▁7000	-16002
▁Bill	-16003
▁Blog	-16004
▁Comp	-16005
▁Data	-16006
▁Date	-16007
▁File	-16008
▁Form	-16009
▁Free	-16010
▁Hist	-16011
▁IPPB	-16012
▁Kolk	-16013
▁Like	-16014
▁Loop	-16015
▁Marc	-16016
▁Most	-16017
▁NDTV	-16018
▁Tags	-16019
▁Time	-16020
▁With	-16021
▁been	-16022
▁blog	-16023
▁cont	-16024
▁feat	-16025
▁from	-16026
▁fuck	-16027
▁home	-16028
▁jack	-16029
▁know	-16030
▁porn	-16031
▁show	-16032
▁step	-16033
▁stop	-16034
▁team	-16035
▁view	-16036
▁ंिसह	-16037
▁अँगू	-16038
▁अंगद	-16039
▁अंचल	-16040
▁अंबा	-16041
▁अजहर	-16042
▁अटका	-16043
▁अतीक	-16044
▁अनाथ	-16045
▁अनार	-16046
▁अनाव	-16047
▁अपरि	-16048
▁अमरो	-16049
▁अमले	-16050
▁अमूल	-16051
▁अष्ट	-16052
▁असलम	-16053
▁अस्म	-16054
▁आइसक	-16055
▁आईये	-16056
▁आईसी	-16057
▁आडिट	-16058
▁आदान	-16059
▁आमरण	-16060
▁आरिफ	-16061
▁आलिम	-16062
▁आॅपर	-16063
▁इंडी	-16064
▁इवान	-16065
▁इश्क	-16066
▁इसरो	-16067
▁ईकाई	-16068
▁ईसवी	-16069
▁उंगल	-16070
▁उठकर	-16071
▁उठने	-16072
▁उपजा	-16073
▁उफ्फ	-16074
▁उभार	-16075
▁उलझे	-16076
▁उलटी	-16077
▁उसपर	-16078
▁उसूर	-16079
▁ऊंचे	-16080
▁एनटी	-16081
▁एनाल	-16082
▁एफएम	-16083
▁एफसी	-16084
▁एलजी	-16085
▁एलाप	-16086
▁एलिम	-16087
▁ऑप्ट	-16088
▁ऑयली	-16089
▁ऑस्ट	-16090
▁औसतन	-16091
▁कटाई	-16092
▁कयास	-16093
▁करवट	-16094
▁कराय	-16095
▁करिए	-16096
▁करुण	-16097
▁करूँ	-16098
▁कर्क	-16099
▁कर्त	-16100
▁कलान	-16101
▁कसने	-16102
▁कस्ट	-16103
▁कहूं	-16104
▁क़ब्	-16105
▁क़ुर	-16106
▁कांप	-16107
▁काटे	-16108
▁कामो	-16109
▁काया	-16110
▁किती	-16111
▁कुरु	-16112
▁कुल्	-16113
▁कृपा	-16114
▁केएल	-16115
▁केबल	-16116
▁केयर	-16117
▁कैंड	-16118
▁कैरे	-16119
▁कोटी	-16120
▁कोमल	-16121
▁कौमी	-16122
▁क्री	-16123
▁क्रू	-16124
▁क्वी	-16125
▁क्वॉ	-16126
▁खंडन	-16127
▁खंभे	-16128
▁खनिज	-16129
▁खबरे	-16130
▁खाकी	-16131
▁खादी	-16132
▁खानी	-16133
▁खामी	-16134
▁खाये	-16135
▁खासी	-16136
▁खिसक	-16137
▁खुदी	-16138
▁खूबी	-16139
▁खेमे	-16140
▁खोकर	-16141
▁खोजी	-16142
▁खोना	-16143
▁ख्या	-16144
▁गहने	-16145
▁गाकर	-16146
▁गाजर	-16147
▁गीला	-16148
▁गुफा	-16149
▁गोंद	-16150
▁गोबर	-16151
▁गोरे	-16152
▁गोला	-16153
▁घातक	-16154
▁घिरे	-16155
▁घेऊन	-16156
▁चंबल	-16157
▁चटनी	-16158
▁चर्च	-16159
▁चहरे	-16160
▁चाँद	-16161
▁चाकू	-16162
▁चूहा	-16163
▁चेंज	-16164
▁चौका	-16165
▁छत्र	-16166
▁छलनी	-16167
▁छाता	-16168
▁छापे	-16169
▁छिपी	-16170
▁छुपे	-16171
▁जनधन	-16172
▁जबाब	-16173
▁जमने	-16174
▁जमात	-16175
▁जलकर	-16176
▁जलते	-16177
▁जलाई	-16178
▁ज़रा	-16179
▁ज़री	-16180
▁ज़ोर	-16181
▁जाँच	-16182
▁जांग	-16183
▁जाली	-16184
▁जावे	-16185
▁जिना	-16186
▁जींद	-16187
▁जीएल	-16188
▁जूता	-16189
▁जेसन	-16190
▁जेहन	-16191
▁जॉली	-16192
▁जोनस	-16193
▁जौहर	-16194
▁झांक	-16195
▁झुके	-16196
▁झुलस	-16197
▁झूठी	-16198
▁झोनल	-16199
▁झोली	-16200
▁टर्न	-16201
▁टायर	-16202
▁टीके	-16203
▁टीटी	-16204
▁टेक्	-16205
▁टॉपर	-16206
▁टोपे	-16207
▁ठंडा	-16208
▁ठाणे	-16209
▁डंडे	-16210
▁डंपर	-16211
▁डरते	-16212
▁डालो	-16213
▁डिफर	-16214
▁डिसू	-16215
▁डीआइ	-16216
▁डूबा	-16217
▁ढंका	-16218
▁ढलते	-16219
▁ढलाई	-16220
▁ढीली	-16221
▁ढूँढ	-16222
▁तटों	-16223
▁तनख्	-16224
▁तपास	-16225
▁ताजे	-16226
▁ताड़	-16227
▁तात्	-16228
▁तीखे	-16229
▁तुझे	-16230
▁तुला	-16231
[...]
