{
  "version": "1.0",
  "truncation": null,
  "padding": null,
  "added_tokens": [
    {
      "id": 0,
      "content": "<s>",
      "single_word": false,
      "lstrip": false,
      "rstrip": false,
      "normalized": false,
      "special": true
    },
    {
      "id": 1,
      "content": "<pad>",
      "single_word": false,
      "lstrip": false,
      "rstrip": false,
      "normalized": false,
      "special": true
    },
    {
      "id": 2,
      "content": "</s>",
      "single_word": false,
      "lstrip": false,
      "rstrip": false,
      "normalized": false,
      "special": true
    },
    {
      "id": 3,
      "content": "<unk>",
      "single_word": false,
      "lstrip": false,
      "rstrip": false,
      "normalized": false,
      "special": true
    },
    {
      "id": 4,
      "content": "<cls>",
      "single_word": false,
      "lstrip": false,
      "rstrip": false,
      "normalized": false,
      "special": true
    },
    {
      "id": 5,
      "content": "<sep>",
      "single_word": false,
      "lstrip": false,
      "rstrip": false,
      "normalized": false,
      "special": true
    },
    {
      "id": 6,
      "content": "<mask>",
      "single_word": false,
      "lstrip": false,
      "rstrip": false,
      "normalized": false,
      "special": true
    }
  ],
  "normalizer": {
    "type": "NFKC"
  },
  "pre_tokenizer": {
    "type": "Metaspace",
    "replacement": "▁",
    "add_prefix_space": true
  },
  "post_processor": null,
  "decoder": {
    "type": "Metaspace",
    "replacement": "▁",
    "add_prefix_space": true
  },
  "model": {
    "type": "BPE",
    "dropout": null,
    "unk_token": "<unk>",
    "continuing_subword_prefix": null,
    "end_of_word_suffix": null,
    "fuse_unk": false,
    "byte_fallback": false,
    "vocab": {
      "<s>": 0,
      "<pad>": 1,
      "</s>": 2,
      "<unk>": 3,
      "<cls>": 4,
      "<sep>": 5,
      "<mask>": 6,
      "\n": 7,
      "!": 8,
      "\"": 9,
      "#": 10,
      "$": 11,
      "%": 12,
      "&": 13,
      "'": 14,
      "(": 15,
      ")": 16,
      "*": 17,
      "+": 18,
      ",": 19,
      "-": 20,
      ".": 21,
      "/": 22,
      "0": 23,
      "1": 24,
      "2": 25,
      "3": 26,
      "4": 27,
      "5": 28,
      "6": 29,
      "7": 30,
      "8": 31,
      "9": 32,
      ":": 33,
      ";": 34,
      "<": 35,
      "=": 36,
      ">": 37,
      "?": 38,
      "@": 39,
      "A": 40,
      "B": 41,
      "C": 42,
      "D": 43,
      "E": 44,
      "F": 45,
      "G": 46,
      "H": 47,
      "I": 48,
      "J": 49,
      "K": 50,
      "L": 51,
      "M": 52,
      "N": 53,
      "O": 54,
      "P": 55,
      "Q": 56,
      "R": 57,
      "S": 58,
      "T": 59,
      "U": 60,
      "V": 61,
      "W": 62,
      "X": 63,
      "Y": 64,
      "Z": 65,
      "[": 66,
      "\\": 67,
      "]": 68,
      "^": 69,
      "_": 70,
      "`": 71,
      "a": 72,
      "b": 73,
      "c": 74,
      "d": 75,
      "e": 76,
      "f": 77,
      "g": 78,
      "h": 79,
      "i": 80,
      "j": 81,
      "k": 82,
      "l": 83,
      "m": 84,
      "n": 85,
      "o": 86,
      "p": 87,
      "q": 88,
      "r": 89,
      "s": 90,
      "t": 91,
      "u": 92,
      "v": 93,
      "w": 94,
      "x": 95,
      "y": 96,
      "z": 97,
      "{": 98,
      "|": 99,
      "}": 100,
      "~": 101,
      "ऀ": 102,
      "ँ": 103,
      "ं": 104,
      "ः": 105,
      "ऄ": 106,
      "अ": 107,
      "आ": 108,
      "इ": 109,
      "ई": 110,
      "उ": 111,
      "ऊ": 112,
      "ऋ": 113,
      "ऌ": 114,
      "ऍ": 115,
      "ऎ": 116,
      "ए": 117,
      "ऐ": 118,
      "ऑ": 119,
      "ऒ": 120,
      "ओ": 121,
      "औ": 122,
      "क": 123,
      "ख": 124,
      "ग": 125,
      "घ": 126,
      "ङ": 127,
      "च": 128,
      "छ": 129,
      "ज": 130,
      "झ": 131,
      "ञ": 132,
      "ट": 133,
      "ठ": 134,
      "ड": 135,
      "ढ": 136,
      "ण": 137,
      "त": 138,
      "थ": 139,
      "द": 140,
      "ध": 141,
      "न": 142,
      "ऩ": 143,
      "प": 144,
      "फ": 145,
      "ब": 146,
      "भ": 147,
      "म": 148,
      "य": 149,
      "र": 150,
      "ऱ": 151,
      "ल": 152,
      "ळ": 153,
      "ऴ": 154,
      "व": 155,
      "श": 156,
      "ष": 157,
      "स": 158,
      "ह": 159,
      "ऺ": 160,
      "ऻ": 161,
      "़": 162,
      "ऽ": 163,
      "ा": 164,
      "ि": 165,
      "ी": 166,
      "ु": 167,
      "ू": 168,
      "ृ": 169,
      "ॄ": 170,
      "ॅ": 171,
      "ॆ": 172,
      "े": 173,
      "ै": 174,
      "ॉ": 175,
      "ॊ": 176,
      "ो": 177,
      "ौ": 178,
      "्": 179,
      "ॎ": 180,
      "ॏ": 181,
      "ॐ": 182,
      "॑": 183,
      "॒": 184,
      "॓": 185,
      "॔": 186,
      "ॕ": 187,
      "ॖ": 188,
      "ॠ": 189,
      "ॡ": 190,
      "ॢ": 191,
      "ॣ": 192,
      "।": 193,
      "॥": 194,
      "०": 195,
      "१": 196,
      "२": 197,
      "३": 198,
      "४": 199,
      "५": 200,
      "६": 201,
      "७": 202,
      "८": 203,
      "९": 204,
      "॰": 205,
      "ॱ": 206,
      "ॲ": 207,
      "ॳ": 208,
      "ॴ": 209,
      "ॵ": 210,
      "ॶ": 211,
      "ॷ": 212,
      "ॹ": 213,
      "ॺ": 214,
      "ॻ": 215,
      "ॼ": 216,
      "ॽ": 217,
      "ॾ": 218,
      "ॿ": 219,
      "▁": 220,
      "▁क": 221,
      "▁स": 222,
      "▁ह": 223,
      "▁म": 224,
      "▁प": 225,
      "ें": 226,
      "ार": 227,
      "▁के": 228,
      "ने": 229,
      "▁ब": 230,
      "्र": 231,
      "▁है": 232,
      "▁ज": 233,
      "या": 234,
      "▁द": 235,
      "▁अ": 236,
      "▁व": 237,
      "▁में": 238,
      "▁र": 239,
      "▁ल": 240,
      "ों": 241,
      "▁की": 242,
      "▁न": 243,
      "▁आ": 244,
      "▁को": 245,
      "र्": 246,
      "ता": 247,
      "▁ग": 248,
      "▁से": 249,
      "▁त": 250,
      "ान": 251,
      "▁उ": 252,
      "।\n": 253,
      "▁इ": 254,
      "▁कर": 255,
      "▁कि": 256,
      "▁भ": 257,
      "▁का": 258,
      "ना": 259,
      "्य": 260,
      "▁औ": 261,
      "िक": 262,
      "▁और": 263,
      "ाल": 264,
      "▁पर": 265,
      "▁ने": 266,
      "▁च": 267,
      "▁श": 268,
      "▁प्र": 269,
      "स्": 270,
      "▁ए": 271,
      "िल": 272,
      "ही": 273,
      "▁हो": 274,
      "▁इस": 275,
      "क्": 276,
      "▁य": 277,
      "ड़": 278,
      "हा": 279,
      "▁हैं": 280,
      "ते": 281,
      "▁थ": 282,
      "ित": 283,
      "▁जा": 284,
      "▁फ": 285,
      "िया": 286,
      "िए": 287,
      "▁ख": 288,
      "िय": 289,
      "▁भी": 290,
      "वा": 291,
      "ाम": 292,
      "ंग": 293,
      "न्": 294,
      "के": 295,
      "ती": 296,
      "ला": 297,
      "▁वि": 298,
      "▁बा": 299,
      "▁स्": 300,
      "्या": 301,
      "हीं": 302,
      "त्र": 303,
      "से": 304,
      "ले": 305,
      "री": 306,
      "▁एक": 307,
      "▁दे": 308,
      "नी": 309,
      "रा": 310,
      "▁सा": 311,
      "ति": 312,
      ".\n": 313,
      "▁लिए": 314,
      "▁रा": 315,
      "▁अप": 316,
      "▁नहीं": 317,
      "कर": 318,
      "▁है।\n": 319,
      "▁सम": 320,
      "िन": 321,
      "गा": 322,
      "सी": 323,
      "का": 324,
      "▁सं": 325,
      "▁ट": 326,
      "▁ले": 327,
      "▁ही": 328,
      "▁मु": 329,
      "ेश": 330,
      "ोग": 331,
      "कार": 332,
      "▁है।": 333,
      "िस": 334,
      "▁हु": 335,
      "ली": 336,
      "त्": 337,
      "ुर": 338,
      "▁ड": 339,
      "्ट": 340,
      "▁तो": 341,
      "▁1": 342,
      "क्ष": 343,
      "▁रह": 344,
      "ां": 345,
      "▁किया": 346,
      "ंद": 347,
      "▁2": 348,
      "की": 349,
      "वार": 350,
      "ाय": 351,
      "▁आप": 352,
      "▁था": 353,
      "्म": 354,
      "▁पह": 355,
      "▁यह": 356,
      "▁नि": 357,
      "ारी": 358,
      "ियों": 359,
      "▁कार": 360,
      "▁कहा": 361,
      "▁करने": 362,
      "▁गया": 363,
      "न्ह": 364,
      "▁घ": 365,
      "ुल": 366,
      "ास": 367,
      "मा": 368,
      "▁साथ": 369,
      "रे": 370,
      "▁उन": 371,
      "▁उस": 372,
      "दी": 373,
      "ंड": 374,
      "ाह": 375,
      "▁या": 376,
      "▁हम": 377,
      "िला": 378,
      "▁सि": 379,
      "▁कु": 380,
      "▁उन्ह": 381,
      "सा": 382,
      "कि": 383,
      "▁वाल": 384,
      "्री": 385,
      "▁सु": 386,
      "▁सक": 387,
      "ढ़": 388,
      "▁राज": 389,
      "▁पू": 390,
      "गी": 391,
      "भा": 392,
      "▁बाद": 393,
      "ल्": 394,
      "▁छ": 395,
      "▁अध": 396,
      "िर": 397,
      "▁अन": 398,
      "▁जो": 399,
      "▁ध": 400,
      "दा": 401,
      "▁(": 402,
      "▁रहे": 403,
      "▁अपने": 404,
      "▁दो": 405,
      "ंत्र": 406,
      "▁मै": 407,
      "भी": 408,
      "ंच": 409,
      "▁लोग": 410,
      "जी": 411,
      "्व": 412,
      "टी": 413,
      "्रे": 414,
      "▁सर": 415,
      "च्": 416,
      "▁भार": 417,
      "▁तक": 418,
      "▁है,": 419,
      "गे": 420,
      "▁दिया": 421,
      "स्ट": 422,
      "▁थी": 423,
      "▁मे": 424,
      "देश": 425,
      "▁पा": 426,
      "ओं": 427,
      "▁मह": 428,
      "तर": 429,
      "▁सी": 430,
      "▁चु": 431,
      "▁हुए": 432,
      "▁मा": 433,
      "जा": 434,
      "वि": 435,
      "▁रहा": 436,
      "पी": 437,
      "▁ऐ": 438,
      "वी": 439,
      "द्": 440,
      "▁हैं।\n": 441,
      "ोज": 442,
      "▁ला": 443,
      "गर": 444,
      "ेल": 445,
      "▁जी": 446,
      "▁20": 447,
      "बा": 448,
      "▁बी": 449,
      "▁मिल": 450,
      "पा": 451,
      "ानी": 452,
      "किन": 453,
      "▁बार": 454,
      "▁भा": 455,
      "ाना": 456,
      "▁सरकार": 457,
      "▁रही": 458,
      "था": 459,
      "ोंने": 460,
      "ष्ट": 461,
      "प्": 462,
      "्ष": 463,
      "टर": 464,
      "..": 465,
      "में": 466,
      "▁बता": 467,
      "▁लेकिन": 468,
      "ूर": 469,
      "▁जिस": 470,
      "▁बना": 471,
      "▁गई": 472,
      "▁थे": 473,
      "ौर": 474,
      "▁वह": 475,
      "बर": 476,
      "▁उन्होंने": 477,
      "▁हैं।": 478,
      "▁दी": 479,
      "ये": 480,
      "को": 481,
      "▁कम": 482,
      "ड़ी": 483,
      "▁कुछ": 484,
      "िश": 485,
      "ेट": 486,
      "खा": 487,
      "▁तर": 488,
      "िव": 489,
      "▁जब": 490,
      "ार्": 491,
      "स्त": 492,
      "▁बात": 493,
      "ीन": 494,
      "ड़ा": 495,
      "▁लगा": 496,
      "▁उप": 497,
      "▁मो": 498,
      "▁सब": 499,
      "रो": 500,
      "▁चाह": 501,
      "▁पहले": 502,
      "द्र": 503,
      "▁अधिक": 504,
      "▁अब": 505,
      "र्म": 506,
      "ंत्री": 507,
      "हां": 508,
      "▁बह": 509,
      "ंध": 510,
      "▁बै": 511,
      "नों": 512,
      "▁इन": 513,
      "▁होने": 514,
      "▁है.": 515,
      "▁वर्": 516,
      "▁जाए": 517,
      "शन": 518,
      "ंप": 519,
      "▁कोई": 520,
      "▁ये": 521,
      "▁दिन": 522,
      "ंक": 523,
      "▁वे": 524,
      "▁अपनी": 525,
      "िंग": 526,
      "▁करते": 527,
      "▁कह": 528,
      "▁है.\n": 529,
      "▁हि": 530,
      "▁वाले": 531,
      "▁पी": 532,
      "▁भारत": 533,
      "ंह": 534,
      "▁सो": 535,
      "▁लोगों": 536,
      "▁बे": 537,
      "▁रू": 538,
      "▁देश": 539,
      "▁मौ": 540,
      "▁स्थ": 541,
      "हर": 542,
      "▁बि": 543,
      "र्व": 544,
      "ड़े": 545,
      "▁किसी": 546,
      "▁अनु": 547,
      "▁गए": 548,
      "▁3": 549,
      "▁पुल": 550,
      "▁इसके": 551,
      "▁रु": 552,
      "ोट": 553,
      "▁कार्य": 554,
      "▁मैं": 555,
      "▁फिल": 556,
      "▁साल": 557,
      "ज़": 558,
      "00": 559,
      "च्च": 560,
      "▁जान": 561,
      "ोल": 562,
      "▁कै": 563,
      "▁पुलिस": 564,
      "▁प्रति": 565,
      "▁ओ": 566,
      "ुत": 567,
      "▁देख": 568,
      "▁टी": 569,
      "धान": 570,
      "▁201": 571,
      "▁काम": 572,
      "क्त": 573,
      "र्ट": 574,
      "▁साम": 575,
      "्स": 576,
      "in": 577,
      "ून": 578,
      "▁विश": 579,
      "▁आज": 580,
      "ारा": 581,
      "क्र": 582,
      "ाइ": 583,
      "▁तरह": 584,
      "बी": 585,
      "्ल": 586,
      "ूल": 587,
      "ूस": 588,
      "चार": 589,
      "▁दिल": 590,
      "▁बढ़": 591,
      "▁सिंह": 592,
      "▁निर्": 593,
      "मान": 594,
      "्यों": 595,
      "▁दु": 596,
      "▁समय": 597,
      "▁पार": 598,
      "ोक": 599,
      "▁फिल्म": 600,
      "▁हुआ": 601,
      "वे": 602,
      "वर": 603,
      "कों": 604,
      "▁हर": 605,
      "चा": 606,
      "द्ध": 607,
      "िम": 608,
      "▁उत्": 609,
      "स्ता": 610,
      "▁कई": 611,
      "▁उनके": 612,
      "▁परि": 613,
      "▁व्य": 614,
      "्त": 615,
      "▁गु": 616,
      "ंस": 617,
      "वं": 618,
      "▁लग": 619,
      "▁ऑ": 620,
      "्वार": 621,
      "▁करें": 622,
      "▁हैं,": 623,
      "▁लेकर": 624,
      "जे": 625,
      "▁माम": 626,
      "िका": 627,
      "▁हा": 628,
      "▁रख": 629,
      "▁क्ष": 630,
      "▁ना": 631,
      "▁जै": 632,
      "▁जाता": 633,
      "क्षा": 634,
      "स्थ": 635,
      "▁रूप": 636,
      "डी": 637,
      "▁हुई": 638,
      "▁नाम": 639,
      "मार": 640,
      "▁होता": 641,
      "▁द्वार": 642,
      "▁शुर": 643,
      "ंट": 644,
      "▁मुख": 645,
      "ष्": 646,
      "क्स": 647,
      "▁बताया": 648,
      "▁रुप": 649,
      "▁विक": 650,
      "▁'": 651,
      "▁पि": 652,
      "्यू": 653,
      "मी": 654,
      "▁स्ट": 655,
      "च्छ": 656,
      "▁द्वारा": 657,
      "्टी": 658,
      "▁उन्हें": 659,
      "▁जन": 660,
      "्रेस": 661,
      "मंत्री": 662,
      "्ली": 663,
      "▁फिर": 664,
      "म्": 665,
      "▁5": 666,
      "▁आय": 667,
      "ंत": 668,
      "▁पहु": 669,
      "▁सभी": 670,
      "▁बहुत": 671,
      "ोड़": 672,
      "▁करना": 673,
      "▁वा": 674,
      "ारे": 675,
      "िट": 676,
      "▁दि": 677,
      "एस": 678,
      "▁सकता": 679,
      "वाल": 680,
      "▁सकते": 681,
      "बंध": 682,
      "▁बन": 683,
      "▁चल": 684,
      "तीय": 685,
      "▁होगा": 686,
      "पुर": 687,
      "▁अम": 688,
      "▁खु": 689,
      "▁खिला": 690,
      "▁जाने": 691,
      "ोर": 692,
      "जन": 693,
      "वन": 694,
      "▁4": 695,
      "▁सू": 696,
      "▁मान": 697,
      "▁पै": 698,
      "दि": 699,
      "नाव": 700,
      "▁हाल": 701,
      "▁लि": 702,
      "▁क्या": 703,
      "▁दौर": 704,
      "▁.": 705,
      "▁झ": 706,
      "▁पहुंच": 707,
      "ेत्र": 708,
      "▁पु": 709,
      "▁शिक": 710,
      "▁जु": 711,
      "▁गां": 712,
      "दार": 713,
      "▁बु": 714,
      "▁सह": 715,
      "ीड": 716,
      "▁ग्र": 717,
      "▁-": 718,
      "▁दिल्ली": 719,
      "▁दूस": 720,
      "▁ता": 721,
      "ेर": 722,
      "श्": 723,
      "an": 724,
      "▁दर्": 725,
      "▁प्रा": 726,
      "जार": 727,
      "▁मुख्य": 728,
      "▁सबसे": 729,
      "ब्": 730,
      "्यादा": 731,
      "▁वो": 732,
      "म्म": 733,
      "फी": 734,
      "▁लिया": 735,
      "ाने": 736,
      "▁आई": 737,
      "▁ठ": 738,
      "▁घर": 739,
      "▁क्षेत्र": 740,
      "र्थ": 741,
      "धार": 742,
      "ेंद्र": 743,
      "▁जर": 744,
      "िप": 745,
      "▁कांग": 746,
      "ाई": 747,
      "यर": 748,
      "▁एवं": 749,
      "▁कंप": 750,
      "▁वर्ष": 751,
      "दे": 752,
      "▁बच्च": 753,
      "एं": 754,
      "ध्य": 755,
      "▁महिला": 756,
      "▁प्रदेश": 757,
      "▁उसके": 758,
      "▁अभ": 759,
      "▁टीम": 760,
      "▁समा": 761,
      "ar": 762,
      "ियां": 763,
      "▁भारतीय": 764,
      "▁पास": 765,
      "er": 766,
      "धी": 767,
      "▁यु": 768,
      "▁नी": 769,
      "पर": 770,
      "▁क्यों": 771,
      "क्ति": 772,
      "▁कारण": 773,
      "▁निक": 774,
      "▁आपको": 775,
      "शी": 776,
      "▁वाली": 777,
      "▁चाहिए": 778,
      "▁उसे": 779,
      "▁कांग्रेस": 780,
      "र्स": 781,
      "्ञ": 782,
      "एम": 783,
      "क्ट": 784,
      "▁तथा": 785,
      "▁शुरू": 786,
      "▁उनकी": 787,
      "▁राज्य": 788,
      "जर": 789,
      "▁दौरान": 790,
      "णा": 791,
      "▁ज्यादा": 792,
      "▁फै": 793,
      "योग": 794,
      "▁बीच": 795,
      "▁चुनाव": 796,
      "▁अव": 797,
      "आई": 798,
      "▁क्र": 799,
      "▁अगर": 800,
      "▁राष्ट": 801,
      "▁मन": 802,
      "▁दोनों": 803,
      "▁रो": 804,
      "्रीय": 805,
      "▁शाम": 806,
      "सर": 807,
      "प्र": 808,
      "नि": 809,
      "▁जि": 810,
      "▁था।\n": 811,
      "कारी": 812,
      "▁बद": 813,
      "हत": 814,
      "सार": 815,
      "र्ड": 816,
      "▁होती": 817,
      "▁अच्छ": 818,
      "▁ऐसे": 819,
      "जू": 820,
      "ूर्": 821,
      "▁आरो": 822,
      "ंब": 823,
      "▁यहां": 824,
      "▁पार्टी": 825,
      "▁तीन": 826,
      "▁|": 827,
      "वाद": 828,
      "भाव": 829,
      "on": 830,
      "सान": 831,
      "िये": 832,
      "▁अपना": 833,
      "्ड": 834,
      "▁ई": 835,
      "ेंगे": 836,
      "न्न": 837,
      "▁6": 838,
      "ेज": 839,
      "ूम": 840,
      "▁स्व": 841,
      "▁श्री": 842,
      "ोन": 843,
      "▁अग": 844,
      "▁स्क": 845,
      "ाली": 846,
      "ृत": 847,
      "दान": 848,
      "▁मामले": 849,
      "ताओं": 850,
      "▁बैठ": 851,
      "at": 852,
      "मु": 853,
      "लय": 854,
      "▁था।": 855,
      "ूं": 856,
      "ियो": 857,
      "▁बो": 858,
      "झे": 859,
      "▁मोदी": 860,
      "▁देने": 861,
      "▁अन्य": 862,
      "टना": 863,
      "▁बारे": 864,
      "▁।": 865,
      "प्त": 866,
      "टा": 867,
      "▁हैं.\n": 868,
      "▁अल": 869,
      "▁तै": 870,
      "▁गो": 871,
      "▁:": 872,
      "▁ऐसा": 873,
      "▁हैं.": 874,
      "लों": 875,
      "▁चौ": 876,
      "▁स्थित": 877,
      "es": 878,
      "दर्": 879,
      "▁सुर": 880,
      "स्था": 881,
      "▁अं": 882,
      "ीस": 883,
      "ोजना": 884,
      "▁खिलाफ": 885,
      "▁इं": 886,
      "▁,": 887,
      "लो": 888,
      "or": 889,
      "▁अध्य": 890,
      "▁करता": 891,
      "त्म": 892,
      "▁डॉ": 893,
      "▁छा": 894,
      "हार": 895,
      "▁पिछ": 896,
      "▁करोड़": 897,
      "▁इससे": 898,
      "▁कॉ": 899,
      "गत": 900,
      "चे": 901,
      "भाग": 902,
      "ची": 903,
      "ैन": 904,
      "▁10": 905,
      "▁पूर्व": 906,
      "ुक": 907,
      "▁पद": 908,
      "त्व": 909,
      "्रा": 910,
      "द्य": 911,
      "▁काफी": 912,
      "ेड": 913,
      "▁इसी": 914,
      "ाला": 915,
      "▁19": 916,
      "▁S": 917,
      "▁ली": 918,
      "▁जैसे": 919,
      "वास": 920,
      "स्तान": 921,
      "▁रुपये": 922,
      "निया": 923,
      "▁उठ": 924,
      "सभा": 925,
      "▁ओर": 926,
      "धा": 927,
      "▁7": 928,
      "▁किए": 929,
      "▁वै": 930,
      "ोष": 931,
      "▁प्रधान": 932,
      "▁ट्र": 933,
      "जपा": 934,
      "यी": 935,
      "वाई": 936,
      "ुरु": 937,
      "▁शामिल": 938,
      "▁मांग": 939,
      "चना": 940,
      "▁शु": 941,
      "िता": 942,
      "ज्ञ": 943,
      "गी।\n": 944,
      "▁लाख": 945,
      "ोर्ट": 946,
      "▁कुमार": 947,
      "▁जाएगा": 948,
      "▁मुझे": 949,
      "▁शा": 950,
      "स्प": 951,
      "▁जानकारी": 952,
      "वल": 953,
      "▁कहा,": 954,
      "▁लड़": 955,
      "▁समझ": 956,
      "▁इसे": 957,
      "▁P": 958,
      "त्रा": 959,
      "▁वहीं": 960,
      "▁एस": 961,
      "वान": 962,
      "▁राम": 963,
      "▁A": 964,
      "▁इस्": 965,
      "▁भाजपा": 966,
      "en": 967,
      "▁मंत्री": 968,
      "ंबर": 969,
      "▁दर": 970,
      "▁जारी": 971,
      "▁अस": 972,
      "▁स्वा": 973,
      "लिए": 974,
      "▁पढ़": 975,
      "▁आर": 976,
      "ेत": 977,
      "▁पत्र": 978,
      "▁ऊ": 979,
      "दन": 980,
      "ियम": 981,
      "▁लोक": 982,
      "▁।\n": 983,
      "▁शिक्ष": 984,
      "रण": 985,
      "फ़": 986,
      "▁आरोप": 987,
      "इन": 988,
      "▁डि": 989,
      "पाल": 990,
      "▁इंड": 991,
      "ेशन": 992,
      "क्रम": 993,
      "▁मार्": 994,
      "▁याद": 995,
      "णी": 996,
      "▁अध्यक्ष": 997,
      "ेंद": 998,
      "al": 999,
      "▁संग": 1000,
      "▁सकती": 1001,
      "▁दा": 1002,
      "न्द": 1003,
      "▁तैय": 1004,
      "▁कप": 1005,
      "▁जाती": 1006,
      "▁क्योंकि": 1007,
      "त्या": 1008,
      "ांच": 1009,
      "तिक": 1010,
      "▁गांव": 1011,
      "▁आम": 1012,
      "ेष": 1013,
      "▁कंपनी": 1014,
      "क्टर": 1015,
      "▁सामने": 1016,
      "▁होते": 1017,
      "▁8": 1018,
      "▁हों": 1019,
      "▁जग": 1020,
      "ष्ठ": 1021,
      "▁टे": 1022,
      "▁पड़": 1023,
      "▁महा": 1024,
      "▁करी": 1025,
      "▁पूरी": 1026,
      "▁खेल": 1027,
      "▁अनुसार": 1028,
      "ताब": 1029,
      "▁विश्व": 1030,
      "▁बल्": 1031,
      "▁आने": 1032,
      "▁पिछले": 1033,
      "ूट": 1034,
      "▁नई": 1035,
      "▁अभी": 1036,
      "▁संबंध": 1037,
      "▁चार": 1038,
      "्ला": 1039,
      "▁H": 1040,
      "di": 1041,
      "्यालय": 1042,
      "▁योजना": 1043,
      "▁पाकि": 1044,
      "▁सफ": 1045,
      "▁विकास": 1046,
      "चित": 1047,
      "▁तु": 1048,
      "ोध": 1049,
      "▁आए": 1050,
      "ेंट": 1051,
      "▁मुख्यमंत्री": 1052,
      "▁खा": 1053,
      "तों": 1054,
      "▁गिर": 1055,
      "▁तब": 1056,
      "▁विभाग": 1057,
      "▁ज़": 1058,
      "▁करे": 1059,
      "▁भर": 1060,
      "▁ब्र": 1061,
      "▁उनका": 1062,
      "माण": 1063,
      "▁अला": 1064,
      "कर्": 1065,
      "जूद": 1066,
      "▁चे": 1067,
      "▁कभी": 1068,
      "▁इसलिए": 1069,
      "तार": 1070,
      "▁इसमें": 1071,
      "र्फ": 1072,
      "▁आपके": 1073,
      "म्मी": 1074,
      "▁पानी": 1075,
      "▁थी।\n": 1076,
      "▁बनाने": 1077,
      "▁बड़ी": 1078,
      "▁जीवन": 1079,
      "▁मैच": 1080,
      "▁बंद": 1081,
      "▁उसकी": 1082,
      "▁अधिकार": 1083,
      "▁आगे": 1084,
      "▁यू": 1085,
      "▁प्रश": 1086,
      "▁\"": 1087,
      "▁परिवार": 1088,
      "धिक": 1089,
      "ीर": 1090,
      "▁थे।\n": 1091,
      "▁C": 1092,
      "▁दिखा": 1093,
      "▁जिन": 1094,
      "▁M": 1095,
      "▁सुन": 1096,
      "▁जबकि": 1097,
      "▁अलावा": 1098,
      "▁गा": 1099,
      "▁डी": 1100,
      "▁योग": 1101,
      "▁घटना": 1102,
      "▁इत": 1103,
      "▁बैंक": 1104,
      "बाद": 1105,
      "ंगे": 1106,
      "पन": 1107,
      "जह": 1108,
      "▁विध": 1109,
      "▁हमारे": 1110,
      "▁9": 1111,
      "▁s": 1112,
      "▁बॉ": 1113,
      "▁सद": 1114,
      "▁इला": 1115,
      "▁जिला": 1116,
      "▁अलग": 1117,
      "▁प्रधानमंत्री": 1118,
      "▁व्या": 1119,
      "ूत": 1120,
      "िज": 1121,
      "▁हाथ": 1122,
      "▁जहां": 1123,
      "▁जिसमें": 1124,
      "▁बेह": 1125,
      "▁मत": 1126,
      "▁मीड": 1127,
      "▁नेता": 1128,
      "▁जांच": 1129,
      "डे": 1130,
      "सल": 1131,
      "▁उम्मी": 1132,
      "इट": 1133,
      "▁जीत": 1134,
      "प्ता": 1135,
      "स्क": 1136,
      "▁12": 1137,
      "शा": 1138,
      "ेम": 1139,
      "▁उम्मीद": 1140,
      "▁इसका": 1141,
      "िले": 1142,
      "▁मेरे": 1143,
      "▁मीडिया": 1144,
      "▁स्प": 1145,
      "▁दर्ज": 1146,
      "▁मिले": 1147,
      "▁राष्ट्र": 1148,
      "र्क": 1149,
      "▁मिला": 1150,
      "▁दें": 1151,
      "▁आयोज": 1152,
      "▁करीब": 1153,
      "▁गया।\n": 1154,
      "▁दूसरे": 1155,
      "▁समाज": 1156,
      "▁दिए": 1157,
      "▁t": 1158,
      "▁बाहर": 1159,
      "▁चला": 1160,
      "▁वजह": 1161,
      "▁आधार": 1162,
      "माल": 1163,
      "न्द्र": 1164,
      "▁बस": 1165,
      "ांकि": 1166,
      "▁व्यक्ति": 1167,
      "▁आया": 1168,
      "▁कर्म": 1169,
      "▁व्यव": 1170,
      "र्य": 1171,
      "▁पाकिस्तान": 1172,
      "ैंड": 1173,
      "▁जाते": 1174,
      "त्य": 1175,
      "श्य": 1176,
      "▁हालांकि": 1177,
      "▁मद": 1178,
      "▁हूं": 1179,
      "▁N": 1180,
      "▁विशेष": 1181,
      "तन": 1182,
      "▁वाला": 1183,
      "▁था,": 1184,
      "▁ची": 1185,
      "ियर": 1186,
      "▁रे": 1187,
      "ंदी": 1188,
      "▁पता": 1189,
      "▁जगह": 1190,
      "मेंट": 1191,
      "▁शहर": 1192,
      "करण": 1193,
      "...": 1194,
      "पूर्": 1195,
      "▁शर्": 1196,
      "▁हजार": 1197,
      "्यान": 1198,
      "▁स्थान": 1199,
      "ामी": 1200,
      "आर": 1201,
      "ासन": 1202,
      "▁15": 1203,
      "ंगल": 1204,
      "ुक्त": 1205,
      "▁दुनिया": 1206,
      "▁उत्तर": 1207,
      "▁राजनी": 1208,
      "जय": 1209,
      "▁थी।": 1210,
      "▁ढ": 1211,
      "▁दिनों": 1212,
      "ायत": 1213,
      "▁स्कूल": 1214,
      "...\n": 1215,
      "▁फ़": 1216,
      "▁पांच": 1217,
      "▁फैस": 1218,
      "▁नौ": 1219,
      "ार्थ": 1220,
      "▁न्या": 1221,
      "▁तैयार": 1222,
      "▁कल": 1223,
      "फ्त": 1224,
      "ियन": 1225,
      "▁आदि": 1226,
      "▁कान": 1227,
      "हन": 1228,
      "▁ऑफ": 1229,
      "▁सच": 1230,
      "▁शिव": 1231,
      "▁रुपए": 1232,
      "▁बड़े": 1233,
      "it": 1234,
      "▁किसान": 1235,
      "▁मही": 1236,
      "▁होगी": 1237,
      "?\n": 1238,
      "▁कहना": 1239,
      "मे": 1240,
      "▁सर्व": 1241,
      "▁फीस": 1242,
      "om": 1243,
      "मत": 1244,
      "▁B": 1245,
      "▁कार्यक्रम": 1246,
      "▁नजर": 1247,
      "▁यदि": 1248,
      "ख्या": 1249,
      "▁करा": 1250,
      "▁अर": 1251,
      "▁R": 1252,
      "▁रिप": 1253,
      "स्या": 1254,
      "▁खुद": 1255,
      "20": 1256,
      "▁रंग": 1257,
      "▁एन": 1258,
      "▁मज": 1259,
      "▁पो": 1260,
      "ताबिक": 1261,
      "▁जरूर": 1262,
      "▁पे": 1263,
      "▁मुताबिक": 1264,
      "बार": 1265,
      "काश": 1266,
      "▁कोर्ट": 1267,
      "मुख": 1268,
      "▁केंद्र": 1269,
      "▁प्रदर्": 1270,
      "ायक": 1271,
      "▁करती": 1272,
      "▁पूरा": 1273,
      "▁अमेर": 1274,
      "▁उसने": 1275,
      "▁थे।": 1276,
      "लि": 1277,
      "▁पं": 1278,
      "वेश": 1279,
      "▁अधिकारी": 1280,
      "वरी": 1281,
      "ंदर": 1282,
      "▁पत्": 1283,
      "▁दूर": 1284,
      "▁I": 1285,
      "▁परी": 1286,
      "पूर्ण": 1287,
      "▁कृ": 1288,
      "▁सौ": 1289,
      "ताल": 1290,
      "▁करके": 1291,
      "▁मैंने": 1292,
      "त्री": 1293,
      "re": 1294,
      "▁वहां": 1295,
      "▁शे": 1296,
      "▁मार": 1297,
      "▁डा": 1298,
      "▁कुल": 1299,
      "▁खबर": 1300,
      "▁वीड": 1301,
      "▁देते": 1302,
      "▁विरो": 1303,
      "st": 1304,
      "▁रिक": 1305,
      "▁पहली": 1306,
      "ic": 1307,
      "▁सिर्फ": 1308,
      "राज": 1309,
      "ायर": 1310,
      "क्षण": 1311,
      "▁जनता": 1312,
      "ुट": 1313,
      "▁बच्चों": 1314,
      "ल्प": 1315,
      "हे": 1316,
      "शत": 1317,
      "ंगा": 1318,
      "▁बड़ा": 1319,
      "▁प्रो": 1320,
      "पति": 1321,
      "▁डे": 1322,
      "▁सम्म": 1323,
      "▁खान": 1324,
      "▁मदद": 1325,
      "ूरी": 1326,
      "षा": 1327,
      "▁प्राप्त": 1328,
      "▁बिल": 1329,
      "▁वीडियो": 1330,
      "▁हिस्": 1331,
      "▁तहत": 1332,
      "▁लगे": 1333,
      "▁प्रकार": 1334,
      "▁भाग": 1335,
      "दों": 1336,
      "▁रात": 1337,
      "▁सेवा": 1338,
      "हाँ": 1339,
      "▁लिख": 1340,
      "ुआ": 1341,
      "▁छात्र": 1342,
      "▁रन": 1343,
      "ग्र": 1344,
      "▁राह": 1345,
      "▁T": 1346,
      "▁समस्या": 1347,
      "▁गांधी": 1348,
      "टे": 1349,
      "▁मंद": 1350,
      "▁रहने": 1351,
      "हरा": 1352,
      "▁बिज": 1353,
      "▁रिपोर्ट": 1354,
      "▁करेंगे": 1355,
      "▁ऐसी": 1356,
      "▁सुरक्षा": 1357,
      "ad": 1358,
      "▁कोश": 1359,
      "▁जिसके": 1360,
      "ेद": 1361,
      "ल्ड": 1362,
      "▁घोष": 1363,
      "▁लिये": 1364,
      "▁11": 1365,
      "▁मौत": 1366,
      "▁आद": 1367,
      "▁सवाल": 1368,
      "▁शर्मा": 1369,
      "▁राष्ट्रीय": 1370,
      "▁200": 1371,
      "▁दल": 1372,
      "▁सदस": 1373,
      "र्ष": 1374,
      "तेमाल": 1375,
      "le": 1376,
      "शि": 1377,
      "▁2018": 1378,
      "▁लाल": 1379,
      "▁आस": 1380,
      "▁इस्तेमाल": 1381,
      "▁पूछ": 1382,
      "▁केवल": 1383,
      "▁ते": 1384,
      "स्थान": 1385,
      "श्व": 1386,
      "▁गया।": 1387,
      "यन": 1388,
      "▁किया।\n": 1389,
      "ूँ": 1390,
      "▁डाल": 1391,
      "▁वित": 1392,
      "श्म": 1393,
      "काल": 1394,
      "▁विधान": 1395,
      "▁लेने": 1396,
      "हित": 1397,
      "बह": 1398,
      "▁इसकी": 1399,
      "▁हमें": 1400,
      "र्च": 1401,
      "▁संघ": 1402,
      "वीर": 1403,
      "गढ़": 1404,
      "भव": 1405,
      "▁बाल": 1406,
      "ंज": 1407,
      "▁बैठक": 1408,
      "जों": 1409,
      "▁तरफ": 1410,
      "ing": 1411,
      "▁p": 1412,
      "त्ता": 1413,
      "▁ध्यान": 1414,
      "▁दिव": 1415,
      "-1": 1416,
      "▁आत": 1417,
      "ात": 1418,
      "यान": 1419,
      "▁जिससे": 1420,
      "▁कैसे": 1421,
      "▁बाजार": 1422,
      "▁मिली": 1423,
      "यास": 1424,
      "▁चि": 1425,
      "ैल": 1426,
      "▁धर्म": 1427,
      "ीय": 1428,
      "ेंस": 1429,
      "▁मंत्र": 1430,
      "तम": 1431,
      "र्चा": 1432,
      "▁तौर": 1433,
      "▁मंदिर": 1434,
      "▁पुर": 1435,
      "▁ख़": 1436,
      "▁उसका": 1437,
      "ेस": 1438,
      "ालय": 1439,
      "▁फीसदी": 1440,
      "▁शिक्षा": 1441,
      "▁नए": 1442,
      "गा।\n": 1443,
      "▁छोड़": 1444,
      "▁नर": 1445,
      "▁गयी": 1446,
      "▁जल्": 1447,
      "▁D": 1448,
      "▁माल": 1449,
      "▁कोशिश": 1450,
      "▁c": 1451,
      "▁होना": 1452,
      "▁एम": 1453,
      "▁अह": 1454,
      "▁यही": 1455,
      "र्ण": 1456,
      "▁बर": 1457,
      "▁जाना": 1458,
      "▁प्रदर्शन": 1459,
      "▁मध्य": 1460,
      "▁स्थिति": 1461,
      "▁अच्छा": 1462,
      "▁पेश": 1463,
      "धि": 1464,
      "▁खरी": 1465,
      "▁यादव": 1466,
      "▁प्रभाव": 1467,
      "एल": 1468,
      "▁प्रमुख": 1469,
      "▁मि": 1470,
      "▁विचार": 1471,
      "▁उठा": 1472,
      "रि": 1473,
      "▁प्रतिशत": 1474,
      "ंदा": 1475,
      "भि": 1476,
      "▁स्तर": 1477,
      "▁महीने": 1478,
      "▁इंडिया": 1479,
      "▁मेरी": 1480,
      "शल": 1481,
      "▁आग": 1482,
      "▁सीट": 1483,
      "चान": 1484,
      "▁पूरे": 1485,
      "ंका": 1486,
      "ंडी": 1487,
      "जेपी": 1488,
      "ित्र": 1489,
      "ंबई": 1490,
      "▁जम": 1491,
      "राब": 1492,
      "▁भूम": 1493,
      "▁लाभ": 1494,
      "बल": 1495,
      "▁गुरु": 1496,
      "▁गै": 1497,
      "डा": 1498,
      "कान": 1499,
      "▁अफ": 1500,
      "▁मी": 1501,
      "▁अंतर": 1502,
      "ठी": 1503,
      "-प": 1504,
      "▁निय": 1505,
      "नाथ": 1506,
      "नल": 1507,
      "ou": 1508,
      "ग्": 1509,
      "लर": 1510,
      "▁चाहते": 1511,
      "मो": 1512,
      "▁कौ": 1513,
      "▁उपल": 1514,
      "▁अर्": 1515,
      "▁हे": 1516,
      "▁शादी": 1517,
      "▁ट्रे": 1518,
      "ूब": 1519,
      "▁जवा": 1520,
      "▁उपयोग": 1521,
      "▁नगर": 1522,
      "▁खास": 1523,
      "षण": 1524,
      "▁निर्माण": 1525,
      "▁जिले": 1526,
      "▁सके": 1527,
      "भग": 1528,
      "▁मां": 1529,
      "लाई": 1530,
      "ॉर्ड": 1531,
      "ुन": 1532,
      "▁न्यू": 1533,
      "▁संख्या": 1534,
      "▁बिना": 1535,
      "ूप": 1536,
      "▁अभि": 1537,
      "▁बीजेपी": 1538,
      "▁सुबह": 1539,
      "▁बजे": 1540,
      "▁चुके": 1541,
      "am": 1542,
      "▁अस्प": 1543,
      "▁व्याप": 1544,
      "लब": 1545,
      "िति": 1546,
      "▁जे": 1547,
      "▁सफल": 1548,
      "फा": 1549,
      "▁श्र": 1550,
      "▁विधानसभा": 1551,
      "▁उपलब्": 1552,
      "▁मौजूद": 1553,
      "▁रवि": 1554,
      "▁धन": 1555,
      "▁शरी": 1556,
      "ion": 1557,
      "▁0": 1558,
      "▁दूसरी": 1559,
      "ीक": 1560,
      "▁वाप": 1561,
      "▁बिजली": 1562,
      "▁मुंबई": 1563,
      "ड़क": 1564,
      "▁क्रिक": 1565,
      "000": 1566,
      "▁युव": 1567,
      "वाह": 1568,
      "▁जल": 1569,
      "▁बल्कि": 1570,
      "▁देखा": 1571,
      "▁रखा": 1572,
      "दम": 1573,
      "▁मूल": 1574,
      "▁विदेश": 1575,
      "▁गेंद": 1576,
      "िश्": 1577,
      "▁परीक्षा": 1578,
      "▁18": 1579,
      "टक": 1580,
      "▁रेल": 1581,
      "▁होंगे": 1582,
      "▁निर्देश": 1583,
      "▁सही": 1584,
      "तु": 1585,
      "्वी": 1586,
      "▁बढ़ा": 1587,
      "▁नोट": 1588,
      "द्यालय": 1589,
      "▁सै": 1590,
      "▁लगभग": 1591,
      "▁कहते": 1592,
      "▁दिख": 1593,
      "▁शाह": 1594,
      "▁लगता": 1595,
      "▁उत्पा": 1596,
      "▁बदल": 1597,
      "▁समर्थ": 1598,
      "एन": 1599,
      "▁गिरफ्त": 1600,
      "▁विरोध": 1601,
      "▁आव": 1602,
      "▁रोज": 1603,
      "▁गि": 1604,
      "▁पंच": 1605,
      "ष्य": 1606,
      "▁तरी": 1607,
      "▁ब्ल": 1608,
      "्क": 1609,
      "▁बचा": 1610,
      "▁महत्व": 1611,
      "▁मामला": 1612,
      "▁माह": 1613,
      "▁रोक": 1614,
      "is": 1615,
      "▁b": 1616,
      "▁अख": 1617,
      "▁थीं": 1618,
      "▁गल": 1619,
      "सम": 1620,
      "▁सरकारी": 1621,
      "▁भग": 1622,
      "▁दिया।\n": 1623,
      "▁जन्": 1624,
      "ृति": 1625,
      "▁राहुल": 1626,
      "▁पीछ": 1627,
      "▁उच्च": 1628,
      "▁उम": 1629,
      "वासी": 1630,
      "▁मौके": 1631,
      "▁m": 1632,
      "▁फोन": 1633,
      "भिन्न": 1634,
      "▁सम्": 1635,
      "▁शी": 1636,
      "▁युवा": 1637,
      "▁अधिकारियों": 1638,
      "सि": 1639,
      "▁प्रकाश": 1640,
      "गल": 1641,
      "ण्ड": 1642,
      "्ले": 1643,
      "गी।": 1644,
      "▁लगातार": 1645,
      "-अ": 1646,
      "▁बने": 1647,
      "▁हत्या": 1648,
      "▁बज": 1649,
      "▁25": 1650,
      "▁अद": 1651,
      "▁था.": 1652,
      "▁देखने": 1653,
      "▁भाव": 1654,
      "वादी": 1655,
      "▁ति": 1656,
      "टन": 1657,
      "ठन": 1658,
      "▁उपलब्ध": 1659,
      "▁बयान": 1660,
      "▁बनाया": 1661,
      "▁शेयर": 1662,
      "▁जय": 1663,
      "▁महिलाओं": 1664,
      "▁सूचना": 1665,
      "▁अच्छी": 1666,
      "▁विभिन्न": 1667,
      "ुड": 1668,
      "▁अस्पताल": 1669,
      "▁लगाया": 1670,
      "रों": 1671,
      "▁मजब": 1672,
      "▁खे": 1673,
      "▁बच्चे": 1674,
      "▁चुकी": 1675,
      "▁पोस्ट": 1676,
      "▁14": 1677,
      "as": 1678,
      "ed": 1679,
      "▁कर्": 1680,
      "▁पिता": 1681,
      "रिक": 1682,
      "बे": 1683,
      "द्योग": 1684,
      "▁छोट": 1685,
      "▁चलते": 1686,
      "▁गं": 1687,
      "मन": 1688,
      "▁जवाब": 1689,
      "ेंड": 1690,
      "▁घंट": 1691,
      "ॉल": 1692,
      "िकी": 1693,
      "▁लो": 1694,
      "ew": 1695,
      "वेदन": 1696,
      "▁मुद्": 1697,
      "प्प": 1698,
      "श्यक": 1699,
      "▁आदेश": 1700,
      "▁30": 1701,
      "▁परेश": 1702,
      "ंद्र": 1703,
      "▁सोच": 1704,
      "▁हास": 1705,
      "▁माध्य": 1706,
      "▁लिखा": 1707,
      "▁व्यवस्था": 1708,
      "▁यात्रा": 1709,
      "▁राशि": 1710,
      "▁वृ": 1711,
      "▁गये": 1712,
      "▁आपकी": 1713,
      "हास": 1714,
      "▁रखने": 1715,
      "▁इंटर": 1716,
      "▁आख": 1717,
      "▁अंक": 1718,
      "▁मंगल": 1719,
      "▁करवा": 1720,
      "▁पस": 1721,
      "ंख": 1722,
      "कु": 1723,
      "ज्ञान": 1724,
      "इस": 1725,
      "▁मना": 1726,
      "▁अंत": 1727,
      "▁लक्ष": 1728,
      "क्शन": 1729,
      "▁सामान": 1730,
      "श्च": 1731,
      "▁रै": 1732,
      "▁अति": 1733,
      "▁शुक्र": 1734,
      "▁संप": 1735,
      "▁भाई": 1736,
      "▁माध्यम": 1737,
      "▁प्रयास": 1738,
      "▁मिलने": 1739,
      "▁चर्चा": 1740,
      "▁किस": 1741,
      "▁जिसे": 1742,
      "स्थ्य": 1743,
      "▁सोम": 1744,
      "▁सहित": 1745,
      "▁फर": 1746,
      "▁कित": 1747,
      "इल": 1748,
      "▁सेना": 1749,
      "▁बिहार": 1750,
      "▁था.\n": 1751,
      "▁h": 1752,
      "रात": 1753,
      "▁फैसला": 1754,
      "▁बेट": 1755,
      "▁चीन": 1756,
      "▁नही": 1757,
      "▁एक्स": 1758,
      "▁शुरुआ": 1759,
      "▁रिकॉर्ड": 1760,
      "▁चा": 1761,
      "▁किया।": 1762,
      "▁सांस": 1763,
      "▁पत्रकार": 1764,
      "▁शरीर": 1765,
      "▁ठीक": 1766,
      "ांत": 1767,
      "▁तस्": 1768,
      "र्या": 1769,
      "▁अमेरिका": 1770,
      "▁थो": 1771,
      "▁थी,": 1772,
      "ॉप": 1773,
      "ायल": 1774,
      "काब": 1775,
      "▁क्रिकेट": 1776,
      "▁13": 1777,
      "▁दौ": 1778,
      "▁पीछे": 1779,
      "▁बोल": 1780,
      "▁आवश्यक": 1781,
      "श्मीर": 1782,
      "▁पक्ष": 1783,
      "▁F": 1784,
      "▁रि": 1785,
      "▁होगा।\n": 1786,
      "प्री": 1787,
      "▁निकल": 1788,
      "▁पक": 1789,
      "ष्ण": 1790,
      "किल": 1791,
      "),": 1792,
      "▁हासिल": 1793,
      "चर": 1794,
      "न,": 1795,
      "▁जाये": 1796,
      "▁16": 1797,
      "▁शब्": 1798,
      "▁f": 1799,
      "▁तेज": 1800,
      "क़": 1801,
      "कल": 1802,
      "▁कंपन": 1803,
      "▁की।\n": 1804,
      "▁कार्र": 1805,
      "▁पत्नी": 1806,
      "व्य": 1807,
      "गा।": 1808,
      "▁जन्म": 1809,
      "हाय": 1810,
      "▁नियम": 1811,
      "धे": 1812,
      "▁स्वास्थ्य": 1813,
      "िली": 1814,
      "िटी": 1815,
      "▁प्रशासन": 1816,
      "द्धि": 1817,
      "गार": 1818,
      "▁लगी": 1819,
      "नर": 1820,
      "▁सदस्य": 1821,
      "▁क्ल": 1822,
      "▁न्याया": 1823,
      "▁वक्त": 1824,
      "indi": 1825,
      "विधा": 1826,
      "▁चुका": 1827,
      "▁जरूरत": 1828,
      "▁हूँ": 1829,
      "▁मिश": 1830,
      "लिया": 1831,
      "▁कीमत": 1832,
      "भर": 1833,
      "▁कार्रवाई": 1834,
      "▁शो": 1835,
      "▁गई।\n": 1836,
      "▁कहीं": 1837,
      "▁माना": 1838,
      "एफ": 1839,
      "▁अंग": 1840,
      "▁स्था": 1841,
      "वर्": 1842,
      "तिहास": 1843,
      "▁संय": 1844,
      "थम": 1845,
      "▁विष": 1846,
      "▁वाह": 1847,
      "▁टै": 1848,
      "▁शनि": 1849,
      "▁कमी": 1850,
      "▁L": 1851,
      "▁शिकायत": 1852,
      "▁सित": 1853,
      "जिक": 1854,
      "ोस": 1855,
      "▁मिन": 1856,
      "▁आतंक": 1857,
      "▁टेस्ट": 1858,
      "ेशा": 1859,
      "▁यून": 1860,
      "ांस": 1861,
      "▁खरीद": 1862,
      "▁बनाए": 1863,
      "▁बच": 1864,
      "ड़ों": 1865,
      "▁पेट": 1866,
      "ोह": 1867,
      "▁आयोजित": 1868,
      "वें": 1869,
      "▁पंजा": 1870,
      "▁विकेट": 1871,
      "पित": 1872,
      "ीत": 1873,
      "▁देव": 1874,
      "▁K": 1875,
      "▁वन": 1876,
      "▁सम्मान": 1877,
      "▁नंबर": 1878,
      "▁किसानों": 1879,
      "िस्ट": 1880,
      "▁हमारी": 1881,
      "वुड": 1882,
      "▁दोस्त": 1883,
      "▁पड़ा": 1884,
      "▁G": 1885,
      "त्मक": 1886,
      "▁कट": 1887,
      "चल": 1888,
      "▁तीस": 1889,
      "▁विधायक": 1890,
      "ल्स": 1891,
      "▁अवसर": 1892,
      "▁रहते": 1893,
      "भीर": 1894,
      "तंत्र": 1895,
      "▁बोर्ड": 1896,
      "▁कानून": 1897,
      "तरा": 1898,
      "ार्ड": 1899,
      "यू": 1900,
      "रल": 1901,
      "▁/": 1902,
      "▁राष्ट्रपति": 1903,
      "▁जाएगा।\n": 1904,
      "▁अहम": 1905,
      "▁पट": 1906,
      "he": 1907,
      "▁50": 1908,
      "▁हरिया": 1909,
      "▁मेरा": 1910,
      "▁जिम": 1911,
      "्रीन": 1912,
      "▁in": 1913,
      "करी": 1914,
      "बंधन": 1915,
      "▁वालों": 1916,
      "धन": 1917,
      "▁तय": 1918,
      "ार्म": 1919,
      "▁तस्वीर": 1920,
      "▁तुम": 1921,
      "्यो": 1922,
      "राव": 1923,
      "▁थे,": 1924,
      "▁लेख": 1925,
      "▁निकाल": 1926,
      "▁लौ": 1927,
      "ियान": 1928,
      "▁फाइ": 1929,
      "▁ऊपर": 1930,
      "▁महारा": 1931,
      "यों": 1932,
      "▁गिरफ्तार": 1933,
      "हरी": 1934,
      "▁बुध": 1935,
      "▁बेहतर": 1936,
      "▁पाल": 1937,
      "किंग": 1938,
      "▁इतना": 1939,
      "क्षि": 1940,
      "▁सोमवार": 1941,
      "▁होकर": 1942,
      "▁मुकाब": 1943,
      "▁a": 1944,
      "न्हें": 1945,
      "गू": 1946,
      "▁राय": 1947,
      "▁देता": 1948,
      "▁उम्मीदवार": 1949,
      "रिया": 1950,
      "▁भगवान": 1951,
      "ग्री": 1952,
      "▁ज्ञ": 1953,
      "पे": 1954,
      "▁विप": 1955,
      "▁देना": 1956,
      "▁तेल": 1957,
      "खंड": 1958,
      "▁फोट": 1959,
      "▁घोषणा": 1960,
      "ay": 1961,
      "ro": 1962,
      "▁हमेशा": 1963,
      "▁सुविधा": 1964,
      "▁भू": 1965,
      "लाइन": 1966,
      "▁जल्द": 1967,
      "तियों": 1968,
      "lo": 1969,
      "▁उसी": 1970,
      "▁लॉ": 1971,
      "▁जमा": 1972,
      "et": 1973,
      "टल": 1974,
      "▁देशों": 1975,
      "▁!": 1976,
      "▁तम": 1977,
      "लीवुड": 1978,
      "लेज": 1979,
      "मता": 1980,
      "▁सल": 1981,
      "▁आहे": 1982,
      "बू": 1983,
      "जें": 1984,
      "▁पहुंचे": 1985,
      "▁हिस्सा": 1986,
      "त्ति": 1987,
      "▁पसंद": 1988,
      "ोरी": 1989,
      "ent": 1990,
      "पु": 1991,
      "▁ताकि": 1992,
      "डल": 1993,
      "ेक": 1994,
      "▁सहाय": 1995,
      "▁सर्": 1996,
      "▁चुन": 1997,
      "▁भाषा": 1998,
      "▁स्वी": 1999,
      "▁जून": 2000,
      "▁अप्र": 2001,
      "▁बदला": 2002,
      "हाल": 2003,
      "il": 2004,
      "▁हाई": 2005,
      "▁गंभीर": 2006,
      "्रम": 2007,
      "▁सचिव": 2008,
      "▁धो": 2009,
      "-क": 2010,
      "▁वी": 2011,
      "▁देर": 2012,
      "ण्या": 2013,
      "▁शुक्रवार": 2014,
      "▁भु": 2015,
      "▁आयोग": 2016,
      "▁नया": 2017,
      "रान": 2018,
      "ामीण": 2019,
      ")\n": 2020,
      "दाय": 2021,
      "▁नरेंद्र": 2022,
      "▁17": 2023,
      "िशा": 2024,
      "▁पड़े": 2025,
      "▁प्रयोग": 2026,
      "▁हरियाणा": 2027,
      "▁दिया।": 2028,
      "लू": 2029,
      "▁सात": 2030,
      "▁आर्थ": 2031,
      "चाल": 2032,
      "▁गुज": 2033,
      "तान": 2034,
      "▁राजनीति": 2035,
      "▁लें": 2036,
      "तृ": 2037,
      "▁सड़क": 2038,
      "▁वेब": 2039,
      "▁मॉ": 2040,
      "गम": 2041,
      "▁राजनीतिक": 2042,
      "दारी": 2043,
      "▁कदम": 2044,
      "क्रिया": 2045,
      "तरी": 2046,
      "▁शि": 2047,
      "र्जी": 2048,
      "▁साफ": 2049,
      "▁नीचे": 2050,
      "ुओं": 2051,
      "▁मश": 2052,
      "▁ग्रामीण": 2053,
      "▁सीमा": 2054,
      "▁प्य": 2055,
      "ंगी": 2056,
      "▁कार्यकर्": 2057,
      "क्षित": 2058,
      "स्थित": 2059,
      "▁समिति": 2060,
      "▁गौर": 2061,
      "बाजी": 2062,
      "ूह": 2063,
      "▁खूब": 2064,
      "▁अर्थ": 2065,
      "▁पंजाब": 2066,
      "▁नागर": 2067,
      "▁वापस": 2068,
      "▁लोकसभा": 2069,
      "▁त्या": 2070,
      "▁छो": 2071,
      "धर": 2072,
      "▁बुधवार": 2073,
      "▁नव": 2074,
      "▁दुर्": 2075,
      "id": 2076,
      "▁आरोपी": 2077,
      "ांड": 2078,
      "▁2017": 2079,
      "▁सोशल": 2080,
      "▁देखते": 2081,
      "▁मंगलवार": 2082,
      "नेट": 2083,
      "▁महत्वपूर्ण": 2084,
      "▁शुरुआत": 2085,
      "▁पाए": 2086,
      "रु": 2087,
      "▁भारी": 2088,
      "▁दक्षि": 2089,
      "▁पति": 2090,
      "▁मोबा": 2091,
      "▁दू": 2092,
      "▁आर्थिक": 2093,
      "▁निवेश": 2094,
      "▁कला": 2095,
      "▁अदाल": 2096,
      "तिम": 2097,
      "▁विवाद": 2098,
      "स्कार": 2099,
      "▁पहचान": 2100,
      "▁हार": 2101,
      "▁प्रेम": 2102,
      "▁चाहिए।\n": 2103,
      "ोप": 2104,
      "▁वर्ग": 2105,
      "▁w": 2106,
      "भार": 2107,
      "▁अगले": 2108,
      "▁रण": 2109,
      "▁फ्र": 2110,
      "▁बनी": 2111,
      "▁प्रक्रिया": 2112,
      "▁बेहद": 2113,
      "▁फाय": 2114,
      "▁भर्": 2115,
      "ांति": 2116,
      "▁सहयोग": 2117,
      "▁नेताओं": 2118,
      "ियल": 2119,
      "▁बल्ले": 2120,
      "केट": 2121,
      "ch": 2122,
      "▁घंटे": 2123,
      "लाह": 2124,
      "म्प": 2125,
      "▁अंदर": 2126,
      "▁भे": 2127,
      "वीं": 2128,
      "ंडल": 2129,
      "-ब": 2130,
      "मार्ट": 2131,
      "▁24": 2132,
      "ष्ट्रीय": 2133,
      "▁कारो": 2134,
      "▁साह": 2135,
      "ews": 2136,
      "▁आहे.\n": 2137,
      "▁दिस": 2138,
      "▁भेज": 2139,
      "ंभ": 2140,
      "▁गण": 2141,
      "▁सुप्री": 2142,
      "▁आता": 2143,
      "▁वरि": 2144,
      "▁मिनट": 2145,
      "▁रविवार": 2146,
      "▁21": 2147,
      "-स": 2148,
      "▁पीएम": 2149,
      "▁उससे": 2150,
      "▁शनिवार": 2151,
      "▁थाना": 2152,
      "▁मार्च": 2153,
      "खी": 2154,
      "क्ता": 2155,
      "ंसा": 2156,
      "▁आवेदन": 2157,
      "▁मृत": 2158,
      "▁हिंदी": 2159,
      "▁ड्र": 2160,
      "▁मोह": 2161,
      "▁समर्थन": 2162,
      "ृह": 2163,
      "▁पहला": 2164,
      "▁बाव": 2165,
      "कट": 2166,
      "▁जेल": 2167,
      "▁वरिष्ठ": 2168,
      "▁कहानी": 2169,
      "▁रहता": 2170,
      "िकल": 2171,
      "▁किये": 2172,
      "▁केंद": 2173,
      "ri": 2174,
      "फ्": 2175,
      "▁प्रदान": 2176,
      "▁हमने": 2177,
      "▁समु": 2178,
      "▁उम्र": 2179,
      "▁लगाने": 2180,
      "िक्ष": 2181,
      "ष्टि": 2182,
      "▁भूमिका": 2183,
      "▁हिंद": 2184,
      "▁जिम्म": 2185,
      "तक": 2186,
      "झा": 2187,
      "▁चै": 2188,
      "▁नागरिक": 2189,
      "ot": 2190,
      "▁खो": 2191,
      "▁जनवरी": 2192,
      "▁मुला": 2193,
      "▁#": 2194,
      "▁n": 2195,
      "▁W": 2196,
      "▁लड़की": 2197,
      "▁केंद्रीय": 2198,
      "▁आयोजन": 2199,
      "▁मोबाइल": 2200,
      "उन": 2201,
      "▁तला": 2202,
      "▁सें": 2203,
      "▁कवि": 2204,
      "कत": 2205,
      "▁आपका": 2206,
      "▁मंत्रालय": 2207,
      "▁अश": 2208,
      "▁निर्ण": 2209,
      "▁अभियान": 2210,
      "▁चाल": 2211,
      "▁एंड": 2212,
      "▁विद्य": 2213,
      "▁गर्": 2214,
      "शिया": 2215,
      "▁टाइ": 2216,
      "▁ग्राम": 2217,
      ".5": 2218,
      "नीय": 2219,
      "स्ताव": 2220,
      "यं": 2221,
      "स्ती": 2222,
      "ानीय": 2223,
      "▁दृ": 2224,
      "▁यानी": 2225,
      "▁अगस्त": 2226,
      "▁अंतिम": 2227,
      "▁जैसी": 2228,
      "फ्ट": 2229,
      "ेंगे।\n": 2230,
      "ct": 2231,
      "▁बॉलीवुड": 2232,
      "▁जुड़े": 2233,
      "▁अदालत": 2234,
      "विद्यालय": 2235,
      "▁व्यापार": 2236,
      "ील": 2237,
      "▁उद": 2238,
      "▁उल्": 2239,
      "्यु": 2240,
      "▁प्रस्ताव": 2241,
      "त्रों": 2242,
      "▁परिव": 2243,
      "्रोल": 2244,
      "▁भर्ती": 2245,
      "▁एयर": 2246,
      "शनल": 2247,
      "वरण": 2248,
      "▁लागू": 2249,
      "▁एल": 2250,
      "रीज": 2251,
      "▁नुक": 2252,
      "▁स्थानीय": 2253,
      "▁खत्म": 2254,
      "▁यहाँ": 2255,
      "▁गति": 2256,
      "▁होगा।": 2257,
      "न्स": 2258,
      "पक": 2259,
      "▁बावजूद": 2260,
      "▁जरूरी": 2261,
      "▁कश्मीर": 2262,
      "▁कंपनियों": 2263,
      "▁निश": 2264,
      "ूबर": 2265,
      "▁उद्": 2266,
      "▁छोटे": 2267,
      "▁अभिने": 2268,
      "▁वोट": 2269,
      "▁पूर्ण": 2270,
      "▁चिक": 2271,
      "▁जाएंगे": 2272,
      "▁हमला": 2273,
      "and": 2274,
      "▁राजस्थान": 2275,
      "▁आते": 2276,
      "▁खिलाड़ी": 2277,
      "▁सुप्रीम": 2278,
      "▁कौन": 2279,
      "▁E": 2280,
      "▁एड": 2281,
      "दीप": 2282,
      "▁अपरा": 2283,
      "िक्स": 2284,
      "▁गई।": 2285,
      "्वर": 2286,
      "▁आवा": 2287,
      "स्ल": 2288,
      "▁ऋ": 2289,
      "▁शाय": 2290,
      "रीब": 2291,
      "▁जुलाई": 2292,
      "ामा": 2293,
      "षि": 2294,
      "ve": 2295,
      "▁U": 2296,
      "▁ऑन": 2297,
      "▁स्क्रीन": 2298,
      "▁संभाव": 2299,
      "▁संस": 2300,
      "▁पूजा": 2301,
      "ल,": 2302,
      "▁100": 2303,
      "▁पैसे": 2304,
      "▁संगठन": 2305,
      "▁सुना": 2306,
      "▁साब": 2307,
      "▁हॉ": 2308,
      "ूक": 2309,
      "▁अच्छे": 2310,
      "स्तव": 2311,
      "▁पाया": 2312,
      "बाज": 2313,
      "▁त्र": 2314,
      "▁k": 2315,
      "▁में,": 2316,
      "▁दिखाई": 2317,
      "पना": 2318,
      "▁कप्ता": 2319,
      "▁डॉ.": 2320,
      "▁वही": 2321,
      "▁बनने": 2322,
      "▁जमीन": 2323,
      "▁उनसे": 2324,
      "▁बल": 2325,
      "ज्": 2326,
      "▁आन": 2327,
      "▁रेलवे": 2328,
      "....": 2329,
      "▁तरीके": 2330,
      "▁दक्षिण": 2331,
      "▁फोटो": 2332,
      "▁तुम्": 2333,
      "▁O": 2334,
      "▁प्रत्य": 2335,
      "▁छह": 2336,
      "▁नुकसान": 2337,
      "फे": 2338,
      "▁बेटी": 2339,
      "▁थी.": 2340,
      "म्बर": 2341,
      "णाम": 2342,
      "▁आदमी": 2343,
      "खन": 2344,
      "▁एक्ट": 2345,
      "न्ना": 2346,
      "र्न": 2347,
      "हरे": 2348,
      "सत": 2349,
      "▁दबा": 2350,
      "▁d": 2351,
      "▁मं": 2352,
      "▁V": 2353,
      "धिकार": 2354,
      "▁नहीं,": 2355,
      "▁गलत": 2356,
      "इड": 2357,
      "ष्ट्र": 2358,
      "▁वित्त": 2359,
      "ra": 2360,
      "▁विषय": 2361,
      "साय": 2362,
      "बीआई": 2363,
      "▁तेजी": 2364,
      "▁सुधार": 2365,
      "▁कार्ड": 2366,
      "▁संस्था": 2367,
      "▁ठा": 2368,
      "▁शान": 2369,
      "▁पैदा": 2370,
      "श्चिम": 2371,
      "वत": 2372,
      "टने": 2373,
      "▁प्यार": 2374,
      "मति": 2375,
      "▁मई": 2376,
      "▁मार्ग": 2377,
      "राने": 2378,
      "▁लेते": 2379,
      "▁छात्रों": 2380,
      "▁गए।\n": 2381,
      "ोलन": 2382,
      "▁यूपी": 2383,
      "▁सामा": 2384,
      "ौल": 2385,
      "▁रहती": 2386,
      "▁चले": 2387,
      "▁आठ": 2388,
      "▁2019": 2389,
      "च्या": 2390,
      "घा": 2391,
      "सू": 2392,
      "मारी": 2393,
      "el": 2394,
      "▁कराने": 2395,
      "ौती": 2396,
      "▁गुजरात": 2397,
      "▁मुश्": 2398,
      "साइट": 2399,
      "जल": 2400,
      "▁पुरु": 2401,
      "▁अप्रैल": 2402,
      "जरी": 2403,
      "▁कर्मचार": 2404,
      "ध्यक्ष": 2405,
      "▁पाठ": 2406,
      "नो": 2407,
      "▁मगर": 2408,
      "▁आश": 2409,
      "▁निवासी": 2410,
      "▁Hindi": 2411,
      "ol": 2412,
      "▁निजी": 2413,
      "▁देवी": 2414,
      "▁सांसद": 2415,
      "▁कपूर": 2416,
      "▁की।": 2417,
      "▁न्याय": 2418,
      "▁खर्च": 2419,
      "▁J": 2420,
      "▁सामाजिक": 2421,
      "जु": 2422,
      "▁आत्म": 2423,
      "▁सत्ता": 2424,
      "▁न्यायालय": 2425,
      "▁(1": 2426,
      "▁वैसे": 2427,
      "▁बदलाव": 2428,
      "्यता": 2429,
      "ब्ल": 2430,
      "▁खुश": 2431,
      "▁22": 2432,
      "देव": 2433,
      "ाले": 2434,
      "चीत": 2435,
      "असल": 2436,
      "ंता": 2437,
      "ंदगी": 2438,
      "▁कार्यालय": 2439,
      "▁दिवस": 2440,
      "्रो": 2441,
      ",000": 2442,
      "▁जित": 2443,
      "ॉय": 2444,
      "्टर": 2445,
      "ैक": 2446,
      "साद": 2447,
      "▁शायद": 2448,
      "▁पुरुष": 2449,
      "▁देकर": 2450,
      "▁संबंधित": 2451,
      "ड़ने": 2452,
      "▁निर्णय": 2453,
      "▁व्यक्त": 2454,
      "चारी": 2455,
      "▁इतिहास": 2456,
      "▁तुल": 2457,
      "स्ट्रे": 2458,
      "कृत": 2459,
      "▁उत": 2460,
      "फर": 2461,
      "▁मुश्किल": 2462,
      "▁भ्र": 2463,
      "▁बातचीत": 2464,
      "▁रोग": 2465,
      "▁प्रभावित": 2466,
      "▁हो,": 2467,
      "▁बारिश": 2468,
      "▁कराया": 2469,
      "ठा": 2470,
      "ur": 2471,
      "ेन": 2472,
      "▁दरअसल": 2473,
      "▁किलो": 2474,
      "▁परेशान": 2475,
      "▁घायल": 2476,
      "un": 2477,
      "▁ट्रेन": 2478,
      "कारा": 2479,
      "ॉक": 2480,
      "▁टिक": 2481,
      "बोध": 2482,
      "▁कैम": 2483,
      "▁सारे": 2484,
      "-सा": 2485,
      "▁जानते": 2486,
      "▁प्रभ": 2487,
      "▁सामान्य": 2488,
      "▁कर्मचारियों": 2489,
      "▁होगी।\n": 2490,
      "ज़ा": 2491,
      "▁\n": 2492,
      "ंघ": 2493,
      "िप्प": 2494,
      "▁स्वयं": 2495,
      "▁दी।\n": 2496,
      "▁सिद्ध": 2497,
      "▁थी.\n": 2498,
      "▁तुम्ह": 2499,
      "ैनिक": 2500,
      "हान": 2501,
      "▁गाय": 2502,
      "▁माता": 2503,
      "▁चाहिए।": 2504,
      "▁पहुंचा": 2505,
      "कर्म": 2506,
      "▁राज्यों": 2507,
      "▁परिणाम": 2508,
      "▁लाइ": 2509,
      "▁आंद": 2510,
      "▁गुरुवार": 2511,
      "▁दुकान": 2512,
      "▁जाय": 2513,
      "चन": 2514,
      "▁सार": 2515,
      "▁स्मार्ट": 2516,
      "▁असर": 2517,
      "▁फॉ": 2518,
      "▁घा": 2519,
      "▁विश्": 2520,
      "▁दावा": 2521,
      "▁पश्चिम": 2522,
      "▁श्रे": 2523,
      "-द": 2524,
      "▁शक्ति": 2525,
      "▁ओवर": 2526,
      "▁साबित": 2527,
      "▁सामना": 2528,
      "▁उद्योग": 2529,
      "▁विजय": 2530,
      "ित्व": 2531,
      "ag": 2532,
      "ूड": 2533,
      "▁भोज": 2534,
      "▁सिंह,": 2535,
      "हण": 2536,
      "▁खाने": 2537,
      "म्ब": 2538,
      "▁दिशा": 2539,
      "▁भवि": 2540,
      "▁नौकरी": 2541,
      "ैया": 2542,
      "▁आती": 2543,
      "क,": 2544,
      "▁रोड": 2545,
      "र्ग": 2546,
      "ूर्ति": 2547,
      "▁हमले": 2548,
      "स्ट्रेलिया": 2549,
      "▁सजा": 2550,
      "ड्ड": 2551,
      "▁वेबसाइट": 2552,
      "us": 2553,
      "▁फी": 2554,
      "▁समेत": 2555,
      "स्ते": 2556,
      "▁वार": 2557,
      ".1": 2558,
      "स्लिम": 2559,
      "▁पर्या": 2560,
      "▁दस": 2561,
      "धानी": 2562,
      "▁In": 2563,
      "▁कारोबार": 2564,
      "▁भविष्य": 2565,
      "वंबर": 2566,
      "लग": 2567,
      "▁तत्": 2568,
      "▁प्ले": 2569,
      "▁संत": 2570,
      "▁पंचायत": 2571,
      "▁कमा": 2572,
      "ow": 2573,
      "▁सफलता": 2574,
      "▁संयुक्त": 2575,
      "फोन": 2576,
      "दू": 2577,
      "▁23": 2578,
      "▁इन्": 2579,
      "▁गठ": 2580,
      "▁प्रवेश": 2581,
      "▁निगम": 2582,
      "--": 2583,
      "एच": 2584,
      "▁रिली": 2585,
      "तृत्व": 2586,
      "▁जता": 2587,
      "▁पीड़": 2588,
      "▁युवक": 2589,
      "▁सिर": 2590,
      "▁नवंबर": 2591,
      "थि": 2592,
      "ुप": 2593,
      "▁फैसले": 2594,
      "▁महान": 2595,
      "▁बिक": 2596,
      "▁विश्वविद्यालय": 2597,
      "▁बंग": 2598,
      "▁मजबूत": 2599,
      "ूरत": 2600,
      "ड़ियों": 2601,
      "वारी": 2602,
      "▁चिकित": 2603,
      "सों": 2604,
      "201": 2605,
      "प्ताह": 2606,
      "▁धी": 2607,
      "▁2016": 2608,
      "▁इंग": 2609,
      "▁क्षेत्रों": 2610,
      "▁दिला": 2611,
      "▁o": 2612,
      "▁सलमान": 2613,
      "खे": 2614,
      "▁संभावना": 2615,
      "▁गुण": 2616,
      "▁दिसंबर": 2617,
      "▁बर्": 2618,
      "शील": 2619,
      "▁विस्त": 2620,
      "▁स्पष्ट": 2621,
      "उट": 2622,
      "▁जाकर": 2623,
      "▁चाहता": 2624,
      "▁मुकाबले": 2625,
      "साह": 2626,
      "ॉन": 2627,
      "▁कप्तान": 2628,
      "पास": 2629,
      "र्जा": 2630,
      "▁हिन्द": 2631,
      "▁विरा": 2632,
      "▁घु": 2633,
      "जीत": 2634,
      "▁विश्वास": 2635,
      "▁सीएम": 2636,
      "▁शब्द": 2637,
      "िरी": 2638,
      "▁अरब": 2639,
      "▁डॉलर": 2640,
      "▁इम": 2641,
      "▁परिष": 2642,
      "▁रज": 2643,
      "▁News": 2644,
      "▁सितंबर": 2645,
      "▁दूसरा": 2646,
      "▁प्ल": 2647,
      "▁जिसका": 2648,
      "▁टीवी": 2649,
      "▁जरिए": 2650,
      "▁गर्म": 2651,
      "हली": 2652,
      "▁नेतृत्व": 2653,
      "▁पड़ता": 2654,
      "▁ट्वी": 2655,
      "▁है|": 2656,
      "त्ती": 2657,
      "▁मुस्लिम": 2658,
      "▁जैसा": 2659,
      "ंटी": 2660,
      "▁बहु": 2661,
      "▁लखन": 2662,
      "ंव": 2663,
      "▁गृह": 2664,
      "▁डाय": 2665,
      "▁तभी": 2666,
      "कम": 2667,
      "▁डॉक्टर": 2668,
      "▁थे.": 2669,
      "▁मौका": 2670,
      "▁क़": 2671,
      "▁है\n": 2672,
      "▁इलाके": 2673,
      "▁40": 2674,
      "▁बेटे": 2675,
      "▁28": 2676,
      "ंतर": 2677,
      "▁मैदान": 2678,
      "जाम": 2679,
      "त्त": 2680,
      "▁हरा": 2681,
      "▁संस्थान": 2682,
      "लोड": 2683,
      "▁ऑनलाइन": 2684,
      "▁संस्क": 2685,
      "▁26": 2686,
      "▁अने": 2687,
      "▁साइ": 2688,
      "िद": 2689,
      "▁समार": 2690,
      "▁प्रव": 2691,
      "▁मौसम": 2692,
      "ंकी": 2693,
      "ज़र": 2694,
      "▁देती": 2695,
      "▁थे.\n": 2696,
      "तमान": 2697,
      "▁धर": 2698,
      "▁विपक्ष": 2699,
      "▁उसमें": 2700,
      "न्दी": 2701,
      "▁पल": 2702,
      "क्षक": 2703,
      "ियोग": 2704,
      "▁हल्": 2705,
      "▁समारोह": 2706,
      "▁देखकर": 2707,
      "▁गोल": 2708,
      "ाइल": 2709,
      "▁सभा": 2710,
      "ाब": 2711,
      "▁रक्षा": 2712,
      "न्होंने": 2713,
      "▁कॉलेज": 2714,
      "ak": 2715,
      "▁चैन": 2716,
      "क्टूबर": 2717,
      "▁समूह": 2718,
      "▁टा": 2719,
      ".3": 2720,
      "▁खराब": 2721,
      "स्टर": 2722,
      "▁खुला": 2723,
      "ियाँ": 2724,
      "▁अपराध": 2725,
      "▁समी": 2726,
      "▁लक्ष्य": 2727,
      "रिक्त": 2728,
      "▁भ्रष्ट": 2729,
      "सूस": 2730,
      "▁शै": 2731,
      "▁पढ़ें": 2732,
      "▁मर": 2733,
      "म्मू": 2734,
      "▁संचाल": 2735,
      "▁आंक": 2736,
      "▁इंग्ल": 2737,
      "▁इंत": 2738,
      "शु": 2739,
      "▁मिलता": 2740,
      "▁जोर": 2741,
      "▁Re": 2742,
      "▁फिल्मों": 2743,
      "वती": 2744,
      "▁तारी": 2745,
      "▁कर्मचारी": 2746,
      "▁तकनी": 2747,
      "▁ट्वीट": 2748,
      "▁कही": 2749,
      "▁अतिरिक्त": 2750,
      "त्मा": 2751,
      "▁याच": 2752,
      "▁महाराष्ट्र": 2753,
      "!\n": 2754,
      "ंकर": 2755,
      "▁अक्टूबर": 2756,
      "▁दोष": 2757,
      "▁बजट": 2758,
      "मै": 2759,
      "िकता": 2760,
      "▁सूची": 2761,
      "▁आपने": 2762,
      "▁राजा": 2763,
      "▁वास्तव": 2764,
      "लेख": 2765,
      "▁लखनऊ": 2766,
      "▁उपाय": 2767,
      "▁निभा": 2768,
      "▁मानव": 2769,
      "▁सेक्स": 2770,
      "▁साहित": 2771,
      "उस": 2772,
      "▁चरण": 2773,
      "▁पार्ट": 2774,
      "्वि": 2775,
      "▁जम्मू": 2776,
      "▁आह": 2777,
      "श्न": 2778,
      "▁१": 2779,
      "▁इतनी": 2780,
      "▁इनमें": 2781,
      "मेश": 2782,
      "▁दर्द": 2783,
      "▁वायर": 2784,
      "ंडा": 2785,
      "▁आंदोलन": 2786,
      "▁चयन": 2787,
      "▁बताते": 2788,
      "▁सलाह": 2789,
      "फल": 2790,
      "▁अनुभव": 2791,
      "▁पृ": 2792,
      "▁स्टार": 2793,
      "▁इलाज": 2794,
      "▁हल": 2795,
      "▁बातें": 2796,
      "▁पारी": 2797,
      "▁ज्ञान": 2798,
      "▁कोहली": 2799,
      "▁सप्ताह": 2800,
      "ियोजना": 2801,
      "गु": 2802,
      "कात": 2803,
      "▁आयु": 2804,
      "▁रिश्": 2805,
      "▁गया,": 2806,
      "▁नीति": 2807,
      "▁साहित्य": 2808,
      "सन": 2809,
      "▁वर्तमान": 2810,
      "▁गए।": 2811,
      "oo": 2812,
      "▁नियंत्र": 2813,
      "▁परियोजना": 2814,
      "ियार": 2815,
      "▁27": 2816,
      "▁अमेरिकी": 2817,
      "▁शानदार": 2818,
      "▁अग्र": 2819,
      "▁मुह": 2820,
      "ab": 2821,
      "▁जिसकी": 2822,
      "▁नार": 2823,
      "▁अंग्रे": 2824,
      "-2": 2825,
      "▁माँ": 2826,
      "▁मानस": 2827,
      "▁लगाए": 2828,
      "ें।": 2829,
      "ता,": 2830,
      "▁याचिका": 2831,
      "▁वृद्धि": 2832,
      "▁फरवरी": 2833,
      "ap": 2834,
      "▁विकल्प": 2835,
      "▁चुना": 2836,
      "थी": 2837,
      "▁स्थापित": 2838,
      "मक": 2839,
      "ें।\n": 2840,
      "्प": 2841,
      "▁प्रसाद": 2842,
      "लेट": 2843,
      "सेना": 2844,
      "▁समान": 2845,
      "ाचार": 2846,
      "▁आखिर": 2847,
      "▁अली": 2848,
      "▁नदी": 2849,
      "राष्ट्रीय": 2850,
      "▁प्रचार": 2851,
      "उंड": 2852,
      "▁तैयारी": 2853,
      "▁लड़क": 2854,
      "▁सिल": 2855,
      "▁हमारा": 2856,
      "ार्क": 2857,
      "▁निदेश": 2858,
      "▁सुख": 2859,
      "hi": 2860,
      "▁केस": 2861,
      "स्त्र": 2862,
      "▁विदेशी": 2863,
      "ैर": 2864,
      "श्वर": 2865,
      "▁साध": 2866,
      "विध": 2867,
      "टो": 2868,
      "ut": 2869,
      "वाही": 2870,
      "▁गौ": 2871,
      "▁मनु": 2872,
      "▁महसूस": 2873,
      "▁लेना": 2874,
      "▁दश": 2875,
      "▁199": 2876,
      "▁|\n": 2877,
      "णे": 2878,
      "▁स्वीकार": 2879,
      "ॉट": 2880,
      "▁दोस्तों": 2881,
      "▁ज़र": 2882,
      "▁कृषि": 2883,
      "▁[": 2884,
      "दर": 2885,
      "▁प्रिय": 2886,
      "▁शव": 2887,
      "▁करनी": 2888,
      "▁फ्ल": 2889,
      "ेंगे।": 2890,
      "नगर": 2891,
      "▁पुत्र": 2892,
      "▁संजय": 2893,
      "▁मल": 2894,
      "▁फिलहाल": 2895,
      "▁है?": 2896,
      "▁जवान": 2897,
      "▁मामलों": 2898,
      "▁पाने": 2899,
      "▁चाहे": 2900,
      "▁शुभ": 2901,
      "केश": 2902,
      "▁पुन": 2903,
      "▁लड़ा": 2904,
      "▁हाद": 2905,
      "ट्ट": 2906,
      "▁31": 2907,
      "ध्या": 2908,
      "▁रखते": 2909,
      "▁बाबा": 2910,
      "▁लंब": 2911,
      "पू": 2912,
      "▁खोल": 2913,
      "▁मुद्दे": 2914,
      "▁सुपर": 2915,
      "▁हेत": 2916,
      "▁चाहती": 2917,
      "▁इनके": 2918,
      ".2": 2919,
      "▁कब": 2920,
      "नियर": 2921,
      "▁विमान": 2922,
      "▁कोल": 2923,
      "▁सीरीज": 2924,
      "▁चढ़": 2925,
      "▁प्रत": 2926,
      "▁टिकट": 2927,
      "▁सीधे": 2928,
      "▁राजधानी": 2929,
      "तीश": 2930,
      "▁रिलीज": 2931,
      "न्तु": 2932,
      "कीय": 2933,
      "▁फेस": 2934,
      "▁इच्छ": 2935,
      "ल्या": 2936,
      "▁सूत्रों": 2937,
      "▁एफ": 2938,
      "50": 2939,
      "▁सुनवाई": 2940,
      "▁क्षमता": 2941,
      "▁परिषद": 2942,
      "▁अमित": 2943,
      "▁प्रतिनि": 2944,
      "▁बढ़ाने": 2945,
      "▁चंद्र": 2946,
      "▁आसान": 2947,
      "▁अनेक": 2948,
      "▁धारा": 2949,
      "ul": 2950,
      "▁मतलब": 2951,
      "▁शासन": 2952,
      "▁हिन्दी": 2953,
      "▁तमाम": 2954,
      "ंची": 2955,
      "▁मात्र": 2956,
      "▁मात्रा": 2957,
      "▁रिज": 2958,
      "▁पूछा": 2959,
      "▁एच": 2960,
      "▁जिल": 2961,
      "▁पेट्रोल": 2962,
      "ियत": 2963,
      "▁राहत": 2964,
      "तौर": 2965,
      "▁बनाकर": 2966,
      "पोर्ट": 2967,
      "खर": 2968,
      "धरी": 2969,
      "▁स्वतंत्र": 2970,
      "▁छोटी": 2971,
      "स्टम": 2972,
      "▁हेतु": 2973,
      "▁l": 2974,
      "ार्ज": 2975,
      "बीर": 2976,
      "▁डिग्री": 2977,
      "▁शीर्ष": 2978,
      "रेट": 2979,
      "बुक": 2980,
      "▁जाएगा।": 2981,
      "▁कठ": 2982,
      "▁करें।\n": 2983,
      "▁तुर": 2984,
      "▁to": 2985,
      "▁घोषित": 2986,
      "▁पर्य": 2987,
      "▁उत्पादन": 2988,
      "-अलग": 2989,
      "▁जाएगी": 2990,
      "▁2014": 2991,
      "▁काल": 2992,
      "काम": 2993,
      "▁किया,": 2994,
      "सीसी": 2995,
      "▁प्रकाशित": 2996,
      "ित्य": 2997,
      "▁पौ": 2998,
      "▁युद्ध": 2999,
      "▁स्टेशन": 3000,
      "▁जाएगी।\n": 3001,
      "थे": 3002,
      "▁बेच": 3003,
      "▁पुरस्कार": 3004,
      "▁अलग-अलग": 3005,
      "ांक": 3006,
      "▁लै": 3007,
      "▁भीतर": 3008,
      "▁बनाई": 3009,
      "▁उपस्थित": 3010,
      "ाये": 3011,
      "▁अखिल": 3012,
      "्मी": 3013,
      "ें,": 3014,
      "जेंसी": 3015,
      "▁आनंद": 3016,
      "गो": 3017,
      "▁संभव": 3018,
      "▁उनको": 3019,
      "पाद": 3020,
      "▁अथ": 3021,
      "▁ग्राह": 3022,
      "▁लं": 3023,
      "▁केन्द्र": 3024,
      "▁विराट": 3025,
      "क्सर": 3026,
      "▁लिया।\n": 3027,
      "ir": 3028,
      "इक": 3029,
      "▁सारी": 3030,
      "▁योगी": 3031,
      "ज्ञा": 3032,
      "स्म": 3033,
      "्राम": 3034,
      "मीटर": 3035,
      "ation": 3036,
      "▁मेड": 3037,
      "▁दवा": 3038,
      "▁जाति": 3039,
      "▁वर्षों": 3040,
      "▁शांति": 3041,
      "▁पैसा": 3042,
      "ce": 3043,
      "▁उपा": 3044,
      "▁मुलाकात": 3045,
      "त्कार": 3046,
      "▁आवश्यकता": 3047,
      "-साथ": 3048,
      "▁रखी": 3049,
      "▁गुर": 3050,
      "est": 3051,
      "im": 3052,
      "ायी": 3053,
      "फिक": 3054,
      "धिकारी": 3055,
      "ंनी": 3056,
      "पने": 3057,
      "ँच": 3058,
      "वै": 3059,
      "▁डर": 3060,
      "▁अन्": 3061,
      "▁तुलना": 3062,
      "▁खाना": 3063,
      "▁गैर": 3064,
      "▁कथ": 3065,
      "▁स्म": 3066,
      "▁फा": 3067,
      "▁प्रत्येक": 3068,
      "▁चिंता": 3069,
      "▁बिग": 3070,
      "▁डाउन": 3071,
      "क्कर": 3072,
      "▁अक्ष": 3073,
      "▁इस्ल": 3074,
      "▁पहुंची": 3075,
      "▁संबोध": 3076,
      "▁गरीब": 3077,
      "▁इंग्लैंड": 3078,
      "िड": 3079,
      "▁रेड": 3080,
      "▁शराब": 3081,
      "▁समाप्त": 3082,
      "▁साथ-साथ": 3083,
      "▁फायदा": 3084,
      "नु": 3085,
      "-म": 3086,
      "▁बुला": 3087,
      "▁दम": 3088,
      "▁आये": 3089,
      "▁गोली": 3090,
      "▁श्रद्ध": 3091,
      "▁किर": 3092,
      "▁वाहन": 3093,
      "उंट": 3094,
      "द्रा": 3095,
      "▁हालत": 3096,
      "ंतु": 3097,
      "▁करें।": 3098,
      "कुर": 3099,
      "▁दलित": 3100,
      "▁संसद": 3101,
      "▁बाकी": 3102,
      "▁खड़े": 3103,
      "▁आंख": 3104,
      "▁ती": 3105,
      ".0": 3106,
      "जनों": 3107,
      "-ए": 3108,
      "▁दर्श": 3109,
      "▁?": 3110,
      "▁सुनी": 3111,
      "र्गत": 3112,
      "▁प्रस्त": 3113,
      "▁भूमि": 3114,
      "▁समाचार": 3115,
      ".4": 3116,
      "▁मिलकर": 3117,
      "▁संघर्ष": 3118,
      "▁संर": 3119,
      "▁बैठे": 3120,
      "▁दूध": 3121,
      "्हा": 3122,
      "▁मंच": 3123,
      "गा,": 3124,
      "▁भावना": 3125,
      "▁भो": 3126,
      "▁सत": 3127,
      "▁प्रण": 3128,
      "▁नो": 3129,
      "▁निर": 3130,
      "▁29": 3131,
      "▁सदस्यों": 3132,
      "▁हिमा": 3133,
      "ुल्क": 3134,
      "यम": 3135,
      "▁भ्रष्टाचार": 3136,
      "▁हट": 3137,
      "▁आईपी": 3138,
      "▁the": 3139,
      "यात": 3140,
      "▁इंद": 3141,
      "▁मस": 3142,
      "▁एशिया": 3143,
      "क्सी": 3144,
      "ानों": 3145,
      "▁परिवर्": 3146,
      "प्ति": 3147,
      "▁विद": 3148,
      "▁तोड़": 3149,
      "▁पोल": 3150,
      "▁हथ": 3151,
      "▁दबाव": 3152,
      "वां": 3153,
      "▁अनुमान": 3154,
      "ex": 3155,
      "▁फ़िल": 3156,
      "▁g": 3157,
      "▁सालों": 3158,
      "▁नारा": 3159,
      "▁प्रशिक्ष": 3160,
      "▁री": 3161,
      "▁of": 3162,
      "ोत्": 3163,
      "कू": 3164,
      "▁घरे": 3165,
      "▁हिस": 3166,
      "▁निर्धार": 3167,
      "सु": 3168,
      "▁प्रतियोग": 3169,
      "▁हिस्से": 3170,
      "सं": 3171,
      "सित": 3172,
      "▁प्राथम": 3173,
      "तः": 3174,
      "▁तीसरे": 3175,
      "▁कब्": 3176,
      "▁जिंदगी": 3177,
      "▁लॉन्": 3178,
      "▁आसानी": 3179,
      "्रेट": 3180,
      "▁लाइन": 3181,
      "▁संभ": 3182,
      "▁प्रार": 3183,
      "जित": 3184,
      "▁ब्रिट": 3185,
      "▁अंतरराष्ट्रीय": 3186,
      "राह": 3187,
      "▁v": 3188,
      "▁लाने": 3189,
      "▁ऑफिस": 3190,
      "▁मुताबिक,": 3191,
      "त्तीस": 3192,
      "▁सहायता": 3193,
      "बत": 3194,
      "▁गीत": 3195,
      "▁मॉडल": 3196,
      "▁सत्र": 3197,
      "जरीवाल": 3198,
      "चानक": 3199,
      "▁भेजा": 3200,
      "▁सार्व": 3201,
      "तलब": 3202,
      "▁दाम": 3203,
      "▁संवाद": 3204,
      "▁आजा": 3205,
      "म्मद": 3206,
      "▁पॉ": 3207,
      "रावट": 3208,
      "▁ऊर्जा": 3209,
      "▁पहल": 3210,
      "▁किताब": 3211,
      "▁शौ": 3212,
      "▁उल": 3213,
      "बंदी": 3214,
      "▁गिरावट": 3215,
      "▁अचानक": 3216,
      "com": 3217,
      "▁भुग": 3218,
      "▁ऑस्ट्रेलिया": 3219,
      "▁चौधरी": 3220,
      "द्द": 3221,
      "प्रदेश": 3222,
      "▁केजरीवाल": 3223,
      "ेंज": 3224,
      "बि": 3225,
      "▁इन्हें": 3226,
      "▁कमज": 3227,
      "▁वाय": 3228,
      "वाना": 3229,
      "▁उत्तरा": 3230,
      "▁ठाकुर": 3231,
      "▁अक्सर": 3232,
      "▁जागर": 3233,
      "▁मतदान": 3234,
      "ment": 3235,
      "▁उत्पाद": 3236,
      "▁मैने": 3237,
      "▁होगी।": 3238,
      "▁उल्लेख": 3239,
      "ेय": 3240,
      "▁संवि": 3241,
      "लेक्ट": 3242,
      "नेस": 3243,
      "▁पुराने": 3244,
      "▁जल्दी": 3245,
      "ं।\n": 3246,
      "▁आधारित": 3247,
      "▁अका": 3248,
      "▁फल": 3249,
      "▁तुरंत": 3250,
      "वस्था": 3251,
      "ौन": 3252,
      "िश्चित": 3253,
      "एँ": 3254,
      "▁चली": 3255,
      "▁इंस": 3256,
      "▁दी।": 3257,
      "▁सीटों": 3258,
      "▁करेंगे।\n": 3259,
      "वाला": 3260,
      "शे": 3261,
      "▁कार्यकर्ताओं": 3262,
      "▁दाख": 3263,
      "▁जुड़ी": 3264,
      "▁सुरक्षित": 3265,
      "▁डाउनलोड": 3266,
      "▁मूल्य": 3267,
      "▁प्रेर": 3268,
      "▁क्रम": 3269,
      "▁आइ": 3270,
      "▁कृष्ण": 3271,
      "्यूटर": 3272,
      "▁2015": 3273,
      "रीन": 3274,
      "▁हाथों": 3275,
      "har": 3276,
      "दय": 3277,
      "▁कड़ी": 3278,
      "मैन": 3279,
      "▁गया.": 3280,
      "सव": 3281,
      "▁वर्षीय": 3282,
      "▁खुल": 3283,
      "▁स्वागत": 3284,
      "▁छत्तीस": 3285,
      "▁विद्यार्थ": 3286,
      "▁रहे।\n": 3287,
      "ेदारी": 3288,
      "कृति": 3289,
      "द्दी": 3290,
      "▁भुगतान": 3291,
      "जूदा": 3292,
      "▁कविता": 3293,
      "शाला": 3294,
      "▁फुट": 3295,
      "बाल": 3296,
      "▁सीबीआई": 3297,
      "▁एक्सप": 3298,
      "▁प्रथम": 3299,
      "▁रखना": 3300,
      "▁बंगाल": 3301,
      "▁चुनौती": 3302,
      "▁जिन्हें": 3303,
      "▁हिमाचल": 3304,
      "वधान": 3305,
      "▁रस": 3306,
      "दिन": 3307,
      "ायण": 3308,
      "▁प्रश्न": 3309,
      "▁अध्या": 3310,
      "▁स्वर": 3311,
      "-ज": 3312,
      "पट": 3313,
      "▁तत्काल": 3314,
      "ों,": 3315,
      "▁प्री": 3316,
      "▁घट": 3317,
      "▁हटा": 3318,
      "्यास": 3319,
      "▁नै": 3320,
      "▁उतर": 3321,
      "▁समुदाय": 3322,
      "एसटी": 3323,
      "▁चेहरे": 3324,
      "▁>": 3325,
      "▁संपर्क": 3326,
      "▁किश": 3327,
      "▁विस्तार": 3328,
      "▁डेट": 3329,
      "▁मौजूदा": 3330,
      "▁घरेलू": 3331,
      "▁पड़ी": 3332,
      "▁धीरे": 3333,
      "ंदन": 3334,
      "▁लंबे": 3335,
      "▁पटेल": 3336,
      "जनिक": 3337,
      "▁गुप्ता": 3338,
      "▁सत्य": 3339,
      "ig": 3340,
      "▁भीड़": 3341,
      "▁पदों": 3342,
      "▁परिस": 3343,
      "विंद": 3344,
      "▁गौरतलब": 3345,
      "▁गया.\n": 3346,
      "▁रचना": 3347,
      "▁प्राइ": 3348,
      "छा": 3349,
      "▁छुट": 3350,
      "▁मिलती": 3351,
      "िटल": 3352,
      "स्व": 3353,
      "pp": 3354,
      "▁छात्रा": 3355,
      "▁फेसबुक": 3356,
      "न्ध": 3357,
      "▁आउट": 3358,
      "▁इतने": 3359,
      "▁अवधि": 3360,
      "▁पकड़": 3361,
      "▁सिक": 3362,
      "▁तलाश": 3363,
      "▁...\n": 3364,
      "▁मशीन": 3365,
      "बारी": 3366,
      "▁रोजगार": 3367,
      "▁विद्यालय": 3368,
      "▁धार": 3369,
      "▁प्रत्या": 3370,
      "-0": 3371,
      "ज़ार": 3372,
      "ला,": 3373,
      "▁टाइम": 3374,
      "▁शूट": 3375,
      "▁खड़ा": 3376,
      "▁बू": 3377,
      "▁मिस": 3378,
      "▁लु": 3379,
      "▁समझौ": 3380,
      "▁आतंकवाद": 3381,
      "▁पुस्त": 3382,
      "ानि": 3383,
      "▁रखे": 3384,
      "णि": 3385,
      "ज्ञानिक": 3386,
      "ter": 3387,
      "▁सार्वजनिक": 3388,
      "▁छत्तीसगढ़": 3389,
      "राम": 3390,
      "ेलन": 3391,
      "▁मुसल": 3392,
      "▁उपभ": 3393,
      "▁यूर": 3394,
      "फ्र": 3395,
      "▁आकर्": 3396,
      "▁भवन": 3397,
      "▁हिंसा": 3398,
      "स्तानी": 3399,
      "त्रियों": 3400,
      "▁संगीत": 3401,
      "वाले": 3402,
      "वाली": 3403,
      "▁नेट": 3404,
      "शोध": 3405,
      "अप": 3406,
      "▁शोध": 3407,
      "प्रिय": 3408,
      "नात": 3409,
      "▁जिन्होंने": 3410,
      "िवार": 3411,
      "▁मू": 3412,
      "श्वास": 3413,
      "टका": 3414,
      "▁अनुमति": 3415,
      "▁संस्कृति": 3416,
      "▁शिकार": 3417,
      "▁गाँ": 3418,
      "▁पीड़ित": 3419,
      "▁थोड़ा": 3420,
      "▁मालिक": 3421,
      "▁सूर्य": 3422,
      "▁टिप्प": 3423,
      "▁दोप": 3424,
      "▁खोज": 3425,
      "▁ग्रुप": 3426,
      "▁किन": 3427,
      "▁संबोधित": 3428,
      "▁किलोमीटर": 3429,
      "▁मानना": 3430,
      "▁लौट": 3431,
      "▁२": 3432,
      "▁की,": 3433,
      "िवर्स": 3434,
      "ॉग": 3435,
      "कोर": 3436,
      "▁फाइनल": 3437,
      "कृ": 3438,
      "▁प्ला": 3439,
      "्वा": 3440,
      "▁मित्र": 3441,
      "्याण": 3442,
      "▁उनमें": 3443,
      "▁हवा": 3444,
      "्ह": 3445,
      "▁रिश्ते": 3446,
      "▁जिनमें": 3447,
      "▁and": 3448,
      "▁विवाह": 3449,
      "▁विज्ञान": 3450,
      "▁अंदा": 3451,
      "ूनी": 3452,
      "▁प्रबंधन": 3453,
      "▁संके": 3454,
      "ess": 3455,
      "▁उद्देश": 3456,
      "वनी": 3457,
      "▁वेतन": 3458,
      "▁बीमार": 3459,
      "िनी": 3460,
      "▁उन्": 3461,
      "▁पाई": 3462,
      "▁हुआ।\n": 3463,
      "▁आखिरी": 3464,
      "ना,": 3465,
      "▁विल": 3466,
      "▁लॉन्च": 3467,
      "▁अवै": 3468,
      "ुण": 3469,
      "ore": 3470,
      "▁मुक": 3471,
      "ेक्ट": 3472,
      "▁on": 3473,
      "▁अध्ययन": 3474,
      "'\n": 3475,
      "पान": 3476,
      "▁पटना": 3477,
      "▁कोच": 3478,
      "▁आवाज": 3479,
      "▁मीटर": 3480,
      "डर": 3481,
      "▁आसपास": 3482,
      "दर्श": 3483,
      ".7": 3484,
      "कारों": 3485,
      "▁60": 3486,
      "मित": 3487,
      "▁थाने": 3488,
      "▁वीर": 3489,
      "▁रैली": 3490,
      ".6": 3491,
      "कारात्मक": 3492,
      "▁प्रतिक": 3493,
      "शिप": 3494,
      "ॉम": 3495,
      "▁बहा": 3496,
      "▁संविधान": 3497,
      "▁द्व": 3498,
      "▁भरो": 3499,
      "▁चित्र": 3500,
      "▁चर": 3501,
      "▁मिट": 3502,
      "▁नेशनल": 3503,
      "▁बीमारी": 3504,
      "लम": 3505,
      "▁सेवन": 3506,
      "▁तीनों": 3507,
      "▁परेशानी": 3508,
      "ai": 3509,
      "▁चलने": 3510,
      "▁स्मार्टफोन": 3511,
      "▁आकर": 3512,
      "▁सिस्टम": 3513,
      "या।\n": 3514,
      "▁खाते": 3515,
      "▁सुंदर": 3516,
      "▁कितना": 3517,
      "दाता": 3518,
      "▁मध": 3519,
      "▁गठबंधन": 3520,
      "▁भले": 3521,
      "▁फूल": 3522,
      "▁बिक्री": 3523,
      "▁मुसलमान": 3524,
      "▁नती": 3525,
      "▁कमे": 3526,
      "▁गाड़ी": 3527,
      "▁हिंदू": 3528,
      "न्या": 3529,
      "▁भि": 3530,
      "▁अके": 3531,
      "▁भोजन": 3532,
      "▁बीते": 3533,
      "han": 3534,
      "▁गंगा": 3535,
      "▁प्रवक्ता": 3536,
      "▁चैनल": 3537,
      "99": 3538,
      "नाम": 3539,
      "्न": 3540,
      "▁निदेशक": 3541,
      "▁सम्मेलन": 3542,
      "▁स्वामी": 3543,
      "▁किरदार": 3544,
      "नाक": 3545,
      "▁अपील": 3546,
      "▁चुनावों": 3547,
      "लाल": 3548,
      "▁मजद": 3549,
      "प्स": 3550,
      "▁सेट": 3551,
      "▁अवैध": 3552,
      "ome": 3553,
      "▁चीनी": 3554,
      "▁पां": 3555,
      "▁गैस": 3556,
      "▁सच्च": 3557,
      "▁भूल": 3558,
      "पो": 3559,
      "▁वायरल": 3560,
      "▁धार्म": 3561,
      "▁संपाद": 3562,
      "▁35": 3563,
      "▁अनुसार,": 3564,
      "▁मनुष्य": 3565,
      "चि": 3566,
      "▁सां": 3567,
      "▁छूट": 3568,
      "▁सुल": 3569,
      "लैंड": 3570,
      "▁आतंकी": 3571,
      "▁अशोक": 3572,
      "▁है?\n": 3573,
      "▁निर्मा": 3574,
      "▁सन": 3575,
      "▁मुक्त": 3576,
      "▁दीप": 3577,
      "▁प्रेस": 3578,
      "मर": 3579,
      "▁गी": 3580,
      "▁सपा": 3581,
      "्रेड": 3582,
      "्याज": 3583,
      "▁पर्व": 3584,
      "ट्र": 3585,
      "▁पूर्": 3586,
      "▁तनाव": 3587,
      "▁अफ्री": 3588,
      "▁प्रती": 3589,
      "▁जिम्मेदारी": 3590,
      "▁युवाओं": 3591,
      "▁नियंत्रण": 3592,
      "ब्र": 3593,
      "▁मास": 3594,
      "▁दोपहर": 3595,
      "्यून": 3596,
      "▁बोले": 3597,
      "▁हित": 3598,
      "▁वस्त": 3599,
      "▁रिट": 3600,
      "▁राजी": 3601,
      "▁जू": 3602,
      "क्का": 3603,
      "नै": 3604,
      "▁धार्मिक": 3605,
      "ेदार": 3606,
      "▁अथवा": 3607,
      "▁धोनी": 3608,
      "▁मेडिकल": 3609,
      "निस": 3610,
      "▁प्रभारी": 3611,
      "▁महास": 3612,
      "▁उपभो": 3613,
      "▁बंध": 3614,
      "▁चोरी": 3615,
      ".8": 3616,
      "▁झू": 3617,
      "▁अय": 3618,
      "ण्यात": 3619,
      "▁दर्शन": 3620,
      "▁क्लिक": 3621,
      "▁खूबस": 3622,
      "▁हालात": 3623,
      "▁शिक्षक": 3624,
      "▁जमकर": 3625,
      "▁कमेटी": 3626,
      "▁टैक्स": 3627,
      "▁हाउस": 3628,
      "र्श": 3629,
      "▁राव": 3630,
      "सिंह": 3631,
      "▁दलों": 3632,
      "▁खिलाड़ियों": 3633,
      "▁गे": 3634,
      "th": 3635,
      "▁बहन": 3636,
      "▁निर्धारित": 3637,
      "▁PM": 3638,
      "▁पहन": 3639,
      "▁मुझ": 3640,
      "▁लगने": 3641,
      "ग्रह": 3642,
      "्मा": 3643,
      "▁मस्": 3644,
      "▁प्लान": 3645,
      ".com": 3646,
      "▁संदेश": 3647,
      "▁माइ": 3648,
      "्तीय": 3649,
      "नाटक": 3650,
      "▁जोड़": 3651,
      "▁उड़": 3652,
      "▁रास्ते": 3653,
      "▁re": 3654,
      "चार्य": 3655,
      "▁इंटरनेट": 3656,
      "▁मैचों": 3657,
      "ेड़": 3658,
      "जो": 3659,
      "▁परिवर्तन": 3660,
      "▁आरोपियों": 3661,
      "ढ़ी": 3662,
      "▁चोट": 3663,
      "ठे": 3664,
      "▁एजेंसी": 3665,
      "ers": 3666,
      "▁बाइक": 3667,
      "▁प्रमाण": 3668,
      "▁मनो": 3669,
      "र्द": 3670,
      "▁कल्याण": 3671,
      "िक्र": 3672,
      "▁कहने": 3673,
      "नम": 3674,
      "दाबाद": 3675,
      "जब": 3676,
      "▁अमरी": 3677,
      "▁सेक्टर": 3678,
      "एसपी": 3679,
      "ामद": 3680,
      "▁वहीं,": 3681,
      "▁रोकने": 3682,
      "▁लोकप्रिय": 3683,
      "▁मेहन": 3684,
      "ंजन": 3685,
      "▁झार": 3686,
      "▁प्रियंका": 3687,
      "▁प्रस्तुत": 3688,
      "ंटर": 3689,
      "▁ज्यो": 3690,
      "▁धम": 3691,
      "▁अमर": 3692,
      "▁हिसाब": 3693,
      "▁हुआ।": 3694,
      "▁सॉ": 3695,
      "▁इनकी": 3696,
      "सेज": 3697,
      "ोषण": 3698,
      "कोर्ट": 3699,
      "▁समाधान": 3700,
      "न्दर": 3701,
      "▁लागत": 3702,
      "▁करो": 3703,
      "▁मुद्रा": 3704,
      "▁सोने": 3705,
      "▁बेहत": 3706,
      "तील": 3707,
      "▁नीतीश": 3708,
      "▁घोट": 3709,
      "em": 3710,
      "▁हां": 3711,
      "▁बांध": 3712,
      "ं।": 3713,
      "▁माहौल": 3714,
      "▁सैनिक": 3715,
      "▁सहायक": 3716,
      "▁कर्ज": 3717,
      "ate": 3718,
      "व्यवस्था": 3719,
      "▁शब्दों": 3720,
      "▁परिजनों": 3721,
      "बद्ध": 3722,
      "श्चित": 3723,
      "▁तू": 3724,
      "▁होनी": 3725,
      "▁टूट": 3726,
      "▁सफाई": 3727,
      "▁आलो": 3728,
      "▁पहा": 3729,
      "▁नज़र": 3730,
      "▁पूछता": 3731,
      "▁जाह": 3732,
      "ोने": 3733,
      "▁चलता": 3734,
      "▁फे": 3735,
      "▁.\n": 3736,
      "▁उद्देश्य": 3737,
      "30": 3738,
      "art": 3739,
      "चु": 3740,
      "▁अखबार": 3741,
      "▁कार्यकर्ता": 3742,
      "▁खुशी": 3743,
      "▁क्ला": 3744,
      "यल": 3745,
      "▁यूनिवर्स": 3746,
      "\"\n": 3747,
      "▁विकसित": 3748,
      "▁कर्नाटक": 3749,
      "▁हो।": 3750,
      "ाहरण": 3751,
      "▁फ़िल्म": 3752,
      "▁स्कूलों": 3753,
      "▁अनिल": 3754,
      "ंजी": 3755,
      "▁वित्तीय": 3756,
      "▁तह": 3757,
      "▁बांग": 3758,
      "▁मारे": 3759,
      "▁प्रतिबंध": 3760,
      "▁लड़कियों": 3761,
      "ck": 3762,
      "▁ज़्यादा": 3763,
      "▁)": 3764,
      "▁लगाई": 3765,
      "▁लड़ाई": 3766,
      "▁हथियार": 3767,
      "▁उतार": 3768,
      "▁सीख": 3769,
      "▁वैज्ञानिक": 3770,
      "▁मेह": 3771,
      "▁होटल": 3772,
      "▁जहाँ": 3773,
      "▁करियर": 3774,
      "▁इच्छा": 3775,
      "कल्प": 3776,
      "जिए": 3777,
      "▁थोड़ी": 3778,
      "धुन": 3779,
      "▁कंट": 3780,
      "▁संबंधी": 3781,
      "गी,": 3782,
      "▁सुनिश्चित": 3783,
      "ha": 3784,
      "▁अजय": 3785,
      "▁स्थापना": 3786,
      "▁इंतजार": 3787,
      "▁ट्वि": 3788,
      "▁प्रतियोगिता": 3789,
      "▁मकान": 3790,
      "▁खाली": 3791,
      "दु": 3792,
      "um": 3793,
      "▁निर्म": 3794,
      "त:": 3795,
      "▁कक्षा": 3796,
      "स्ट्री": 3797,
      "▁हालांकि,": 3798,
      "▁व्यवहार": 3799,
      "▁संशोध": 3800,
      "▁रोम": 3801,
      "थर": 3802,
      "▁विरोधी": 3803,
      "पन्न": 3804,
      "▁आदित्य": 3805,
      "▁कमजोर": 3806,
      "लंका": 3807,
      "▁पढ़ाई": 3808,
      "▁मंजू": 3809,
      "▁न्यूज": 3810,
      "▁प्रबंध": 3811,
      "▁जनरल": 3812,
      "▁अखिलेश": 3813,
      "पूर": 3814,
      "▁ज्यादातर": 3815,
      "]\n": 3816,
      "▁सवार": 3817,
      "os": 3818,
      "▁बैंकों": 3819,
      "▁बढ": 3820,
      "बारा": 3821,
      "विल": 3822,
      "▁इंडियन": 3823,
      "ड्": 3824,
      "▁रहना": 3825,
      "पुर,": 3826,
      "▁वकी": 3827,
      "▁(2": 3828,
      "▁आँ": 3829,
      "▁समस्याओं": 3830,
      "दरा": 3831,
      "बो": 3832,
      "▁कथित": 3833,
      "▁...": 3834,
      "▁वर्मा": 3835,
      "▁समझा": 3836,
      "मल": 3837,
      "▁निश्चित": 3838,
      "▁होगा,": 3839,
      "▁रोहित": 3840,
      "▁अभिनेता": 3841,
      "▁घूम": 3842,
      "-प्र": 3843,
      "▁बचाने": 3844,
      "▁पैर": 3845,
      "▁अंतर्गत": 3846,
      "भू": 3847,
      "▁छि": 3848,
      "गंज": 3849,
      "▁ईरान": 3850,
      "▁नक": 3851,
      "▁खी": 3852,
      "▁चां": 3853,
      "▁पदक": 3854,
      "▁मोहम्मद": 3855,
      "▁श्रीलंका": 3856,
      "▁मुंह": 3857,
      "▁ट्रंप": 3858,
      "हि": 3859,
      "▁उदाहरण": 3860,
      "▁कार्यों": 3861,
      "ोग्राम": 3862,
      "▁खुलासा": 3863,
      "पत": 3864,
      "▁नम": 3865,
      "्रिया": 3866,
      "▁इंसान": 3867,
      "पुरी": 3868,
      "|\n": 3869,
      "▁ज्योति": 3870,
      "▁भोपाल": 3871,
      "▁नवी": 3872,
      "▁काट": 3873,
      "▁सेक": 3874,
      "▁नवा": 3875,
      "▁लिया।": 3876,
      "▁बातों": 3877,
      "ख्त": 3878,
      "ियां\n": 3879,
      "▁चंद": 3880,
      "▁संकेत": 3881,
      "▁रणनी": 3882,
      "टीवी": 3883,
      "▁ड्राइ": 3884,
      "▁बढ़ती": 3885,
      "▁खंड": 3886,
      "ंसर": 3887,
      "ेन्द्र": 3888,
      "माने": 3889,
      "▁कीम": 3890,
      "▁दौरे": 3891,
      "▁पहुंचने": 3892,
      "▁इस्ती": 3893,
      "▁मनी": 3894,
      "▁क्व": 3895,
      "▁संकट": 3896,
      "▁बनाना": 3897,
      "ेंशन": 3898,
      "▁शही": 3899,
      "▁शख": 3900,
      "▁प्रशिक्षण": 3901,
      "▁एनडी": 3902,
      "पथ": 3903,
      "▁वर्ल्ड": 3904,
      "▁ग़": 3905,
      "▁जीव": 3906,
      "ळे": 3907,
      "▁बल्लेबाज": 3908,
      "▁रास्ता": 3909,
      "▁उचित": 3910,
      "▁काले": 3911,
      "▁इलेक्ट": 3912,
      "देन": 3913,
      "गा.\n": 3914,
      "▁शुल्क": 3915,
      "गन": 3916,
      "▁हिन्दू": 3917,
      "▁महिलाएं": 3918,
      "▁निरा": 3919,
      "ताप": 3920,
      "▁70": 3921,
      "▁बेहतरीन": 3922,
      "▁मार्केट": 3923,
      "▁एका": 3924,
      "▁अंब": 3925,
      "▁इंजी": 3926,
      "ट्स": 3927,
      "▁डो": 3928,
      "▁योगदान": 3929,
      "▁ब्रे": 3930,
      "▁नाग": 3931,
      "op": 3932,
      "▁जला": 3933,
      "▁198": 3934,
      "ज़ी": 3935,
      "्कुल": 3936,
      "▁सर्वे": 3937,
      "्रिय": 3938,
      "▁समीक्षा": 3939,
      "डि": 3940,
      "▁लगाकर": 3941,
      "▁बुरा": 3942,
      "▁चौहान": 3943,
      "▁जबर": 3944,
      "▁बांग्ला": 3945,
      "▁पूछताछ": 3946,
      "▁मंडल": 3947,
      "▁विशेषज्ञ": 3948,
      "▁बें": 3949,
      "साइ": 3950,
      "्मण": 3951,
      "▁एज": 3952,
      "▁बजाय": 3953,
      "▁साहब": 3954,
      "▁कमरे": 3955,
      "खों": 3956,
      "िमिट": 3957,
      "▁संगठ": 3958,
      "▁ट्विटर": 3959,
      "चक": 3960,
      "▁दिये": 3961,
      "लान": 3962,
      "▁सारा": 3963,
      "▁विभा": 3964,
      "▁गुल": 3965,
      "▁मध्यप्रदेश": 3966,
      "▁पाकिस्तानी": 3967,
      "▁बिल्कुल": 3968,
      "▁मेहनत": 3969,
      "▁ओपन": 3970,
      "▁अक": 3971,
      "▁सक्रिय": 3972,
      "▁वर्ण": 3973,
      "▁हो।\n": 3974,
      "▁यूनिवर्सिटी": 3975,
      "▁स्वच्छ": 3976,
      "▁केरल": 3977,
      "वाने": 3978,
      "▁बरा": 3979,
      "▁जाए।\n": 3980,
      "▁आगामी": 3981,
      "▁कोलका": 3982,
      "▁उधर": 3983,
      "▁असम": 3984,
      "रत": 3985,
      "▁ताप": 3986,
      "▁अंग्रेजी": 3987,
      "णार": 3988,
      "▁साथी": 3989,
      "▁देखना": 3990,
      "▁हफ्": 3991,
      "▁इलाकों": 3992,
      "▁आवास": 3993,
      "▁सामग्री": 3994,
      "▁हुई।\n": 3995,
      "▁पत्रकारों": 3996,
      "▁लगती": 3997,
      "शाली": 3998,
      "▁अनुर": 3999,
      "▁निशाना": 4000,
      "▁दाय": 4001,
      "षित": 4002,
      "▁देखें": 4003,
      "वासियों": 4004,
      "न्हा": 4005,
      "▁ठे": 4006,
      "सिद्ध": 4007,
      "▁कितने": 4008,
      "▁त्व": 4009,
      "▁वहाँ": 4010,
      "▁32": 4011,
      "▁y": 4012,
      "▁आरक्षण": 4013,
      "▁ट्रै": 4014,
      "▁शास": 4015,
      "▁सड़": 4016,
      "▁हादसे": 4017,
      "दारों": 4018,
      "▁शहरों": 4019,
      "▁अंध": 4020,
      "▁चिकित्स": 4021,
      "▁मिलाकर": 4022,
      "▁बरामद": 4023,
      "▁जीतने": 4024,
      "▁अभिनेत्री": 4025,
      "▁बोली": 4026,
      "पत्र": 4027,
      "▁लिए,": 4028,
      "▁लोगो": 4029,
      "्यूट": 4030,
      "▁पंड": 4031,
      "▁पालन": 4032,
      "▁कने": 4033,
      "कुमार": 4034,
      "▁नोटिस": 4035,
      "▁कॉल": 4036,
      "वेज": 4037,
      "संग": 4038,
      "ain": 4039,
      "वाय": 4040,
      "▁वॉ": 4041,
      "▁डिप": 4042,
      "▁करार": 4043,
      "▁सब्": 4044,
      "▁नज": 4045,
      "▁मिश्र": 4046,
      "▁चुनावी": 4047,
      "▁नाराज": 4048,
      "▁कमाई": 4049,
      "▁जेट": 4050,
      "▁शूटिंग": 4051,
      "बन्ध": 4052,
      "▁मृत्यु": 4053,
      "▁कहां": 4054,
      "▁हाईकोर्ट": 4055,
      "▁कितनी": 4056,
      "▁गेम": 4057,
      "ide": 4058,
      "▁रहा।\n": 4059,
      "▁सके।\n": 4060,
      "▁जिनके": 4061,
      "▁स्थल": 4062,
      "▁वार्": 4063,
      "▁ब्रा": 4064,
      "▁2013": 4065,
      "क्के": 4066,
      "एंगे": 4067,
      "▁सन्": 4068,
      "▁योजनाओं": 4069,
      "▁उम्मीदवारों": 4070,
      "▁वापसी": 4071,
      "▁प्रभा": 4072,
      "▁मिश्रा": 4073,
      "ord": 4074,
      "▁पुरानी": 4075,
      "▁तिवारी": 4076,
      "▁उपकरण": 4077,
      "▁झारखंड": 4078,
      "▁अब्": 4079,
      "▁उत्तराखंड": 4080,
      "▁वनडे": 4081,
      "▁स्कोर": 4082,
      "▁अज": 4083,
      "▁त्वचा": 4084,
      "▁बढ़ने": 4085,
      "▁विज्ञा": 4086,
      "▁हवाई": 4087,
      "ल्ल": 4088,
      "▁झा": 4089,
      "▁लिहा": 4090,
      "▁80": 4091,
      "▁लूट": 4092,
      "▁कंप्यूटर": 4093,
      "▁अफ्रीका": 4094,
      "▁स्टेट": 4095,
      "▁दिया.\n": 4096,
      "▁सिटी": 4097,
      "ढ़े": 4098,
      "▁गाने": 4099,
      "दियों": 4100,
      "नान": 4101,
      "िरा": 4102,
      "▁मिलते": 4103,
      "ost": 4104,
      "▁लंड": 4105,
      "वेद": 4106,
      "जनक": 4107,
      "▁हफ्ते": 4108,
      "▁निष्": 4109,
      "▁उठाया": 4110,
      "▁अत्य": 4111,
      "▁बच्ची": 4112,
      "▁इंजीनियर": 4113,
      "▁शख्स": 4114,
      "▁सिने": 4115,
      "▁तैनात": 4116,
      "▁होंगे।\n": 4117,
      "▁हूं।\n": 4118,
      "▁माया": 4119,
      "▁पावर": 4120,
      "▁ब्रह": 4121,
      "▁गुस्": 4122,
      "▁उसको": 4123,
      "ेंडर": 4124,
      "▁सम्मानित": 4125,
      "▁नियमित": 4126,
      "▁इस्लाम": 4127,
      "▁मानते": 4128,
      "▁सका": 4129,
      "▁अफसर": 4130,
      "▁श्रेणी": 4131,
      "ंचाई": 4132,
      "▁गू": 4133,
      "दिक": 4134,
      "▁तत्व": 4135,
      "ज्ज": 4136,
      "▁मंजूरी": 4137,
      "ub": 4138,
      "▁डायरे": 4139,
      "▁नयी": 4140,
      "▁मनाया": 4141,
      "गाह": 4142,
      "▁फसल": 4143,
      "▁बध": 4144,
      "▁ग्रामीणों": 4145,
      "ुरा": 4146,
      "▁संपत्ति": 4147,
      "▁टूर्": 4148,
      "▁शर्मा,": 4149,
      "धीश": 4150,
      "▁न्यूज़": 4151,
      "▁जिसने": 4152,
      "▁घुस": 4153,
      "-3": 4154,
      "▁कू": 4155,
      "▁खेले": 4156,
      ".9": 4157,
      "▁पदा": 4158,
      "▁किया.\n": 4159,
      "▁37": 4160,
      "▁इजा": 4161,
      "▁खेलने": 4162,
      "▁वेस्ट": 4163,
      "र्ज": 4164,
      "▁फो": 4165,
      "वेट": 4166,
      "▁इका": 4167,
      "▁अध्यक्षता": 4168,
      "▁Home": 4169,
      "▁प्रदू": 4170,
      "सीय": 4171,
      "▁प्रि": 4172,
      "चिव": 4173,
      "▁बांग्लादेश": 4174,
      "▁निर्वा": 4175,
      "▁दृष्टि": 4176,
      "▁पव": 4177,
      "ंकिंग": 4178,
      "पूर्व": 4179,
      "▁चंडी": 4180,
      "▁इलेक्ट्र": 4181,
      "▁दीपक": 4182,
      "वेयर": 4183,
      "▁स्टी": 4184,
      "▁गुजर": 4185,
      "▁दरवा": 4186,
      "-20": 4187,
      "▁कोरिया": 4188,
      "▁मजदूर": 4189,
      "▁जिलों": 4190,
      "ंडे": 4191,
      "माग": 4192,
      "▁जैन": 4193,
      "▁फें": 4194,
      "▁हड़": 4195,
      "▁प्रणाली": 4196,
      "▁वर": 4197,
      "▁खेत": 4198,
      "▁रिल": 4199,
      "▁दिखाया": 4200,
      "ांसी": 4201,
      "▁पर्यावरण": 4202,
      "▁प्रोड": 4203,
      "▁फायदे": 4204,
      "▁कॉन्": 4205,
      "▁विशाल": 4206,
      "▁प्रतिक्रिया": 4207,
      "▁छोड़कर": 4208,
      "▁सेंटर": 4209,
      "▁कामया": 4210,
      "▁तमिल": 4211,
      "▁जीएसटी": 4212,
      "हूर": 4213,
      "▁पृथ": 4214,
      "▁तारीख": 4215,
      "वत्ता": 4216,
      "▁कैंसर": 4217,
      "▁दस्ता": 4218,
      "▁राजीव": 4219,
      "▁अर्थव्यवस्था": 4220,
      "▁घे": 4221,
      "▁प्रतिनिध": 4222,
      "घटना": 4223,
      "▁उपचार": 4224,
      "▁कराई": 4225,
      "▁कथा": 4226,
      "▁घरों": 4227,
      "▁कोलकाता": 4228,
      "ive": 4229,
      "▁भरोसा": 4230,
      "▁कपड़े": 4231,
      "▁रिकॉर्डर": 4232,
      "▁परिसर": 4233,
      "▁किरा": 4234,
      "तिहासिक": 4235,
      "▁St": 4236,
      "▁प्रे": 4237,
      "इयों": 4238,
      "िमिटेड": 4239,
      "▁प्रसार": 4240,
      "धुनिक": 4241,
      "▁ताकत": 4242,
      "यां": 4243,
      "▁पर्": 4244,
      "मेश्वर": 4245,
      "▁कैमरा": 4246,
      "▁बाढ़": 4247,
      "▁राज्यपाल": 4248,
      "स्थिति": 4249,
      "▁रहीं": 4250,
      "▁पदार्थ": 4251,
      "od": 4252,
      "ht": 4253,
      "▁डिज": 4254,
      "फाइ": 4255,
      "▁रोल": 4256,
      "्सा": 4257,
      "िग": 4258,
      "▁जगत": 4259,
      "▁कले": 4260,
      "▁रनों": 4261,
      "▁भरा": 4262,
      "▁गठन": 4263,
      "▁प्रत्याशी": 4264,
      "बादी": 4265,
      "ंच्या": 4266,
      "▁बजा": 4267,
      "ग्राम": 4268,
      "▁उत्साह": 4269,
      "▁टूर्ना": 4270,
      "हाबाद": 4271,
      "▁for": 4272,
      "▁प्रोज": 4273,
      "▁रक्त": 4274,
      "▁गुणवत्ता": 4275,
      "▁दूरी": 4276,
      "▁शिम": 4277,
      "टरी": 4278,
      "▁जिम्मेदार": 4279,
      "▁वायु": 4280,
      "▁अल्": 4281,
      "▁500": 4282,
      "▁अग्रवाल": 4283,
      "स्कृत": 4284,
      "our": 4285,
      "▁दिया.": 4286,
      "▁पढ़े": 4287,
      "लाब": 4288,
      "▁जंग": 4289,
      "▁छोटा": 4290,
      "गज": 4291,
      "डु": 4292,
      "स्त्री": 4293,
      "▁मान्यता": 4294,
      "▁टूर्नामेंट": 4295,
      "▁खतरा": 4296,
      "पात": 4297,
      "▁नक्स": 4298,
      "हल": 4299,
      "गी.\n": 4300,
      "िया,": 4301,
      "▁उपाध्यक्ष": 4302,
      "▁चूत": 4303,
      "▁लड़के": 4304,
      "▁ब्लॉग": 4305,
      "▁डिजा": 4306,
      "साठी": 4307,
      "डियो": 4308,
      "गांव": 4309,
      "पण": 4310,
      "▁मुकद": 4311,
      "टिंग": 4312,
      "▁एसपी": 4313,
      "गा.": 4314,
      "▁फ्री": 4315,
      "▁गर": 4316,
      "▁ट्रांस": 4317,
      "कां": 4318,
      "▁चेता": 4319,
      "▁संग्र": 4320,
      "हो": 4321,
      "▁मशहूर": 4322,
      "▁खुले": 4323,
      "णियां\n": 4324,
      "हारी": 4325,
      "दर्भ": 4326,
      "हम": 4327,
      "▁गतिविध": 4328,
      "▁लालू": 4329,
      "▁किया.": 4330,
      "घु": 4331,
      "ST": 4332,
      "क्रो": 4333,
      "▁Y": 4334,
      "▁गणेश": 4335,
      "▁लगते": 4336,
      "रीय": 4337,
      "रेन्द्र": 4338,
      "▁चाय": 4339,
      "▁वार्ड": 4340,
      "▁चेयर": 4341,
      "▁रूस": 4342,
      "▁वैश्व": 4343,
      "▁डाला": 4344,
      "▁आशा": 4345,
      "म्भ": 4346,
      "चीन": 4347,
      "ंपरा": 4348,
      "िएशन": 4349,
      "िशन": 4350,
      "पद": 4351,
      "▁परंतु": 4352,
      "-श": 4353,
      "▁हुई।": 4354,
      "ind": 4355,
      "▁हूं।": 4356,
      "क्षी": 4357,
      "▁धमकी": 4358,
      "▁सड़कों": 4359,
      "▁हस्त": 4360,
      "▁बोला": 4361,
      "िब": 4362,
      "ंडर": 4363,
      "▁दोषी": 4364,
      "ोतरी": 4365,
      "▁सुनील": 4366,
      "▁सुझा": 4367,
      "▁निरी": 4368,
      "▁एक्सप्रेस": 4369,
      "माश": 4370,
      "▁वजन": 4371,
      "▁सचिन": 4372,
      "▁कुमार,": 4373,
      "दाताओं": 4374,
      "▁वाज": 4375,
      "▁चंडीगढ़": 4376,
      "▁प्रदर्श": 4377,
      "▁बताने": 4378,
      "▁हजारों": 4379,
      "▁कीमतों": 4380,
      "▁व्यवसाय": 4381,
      "▁रहें": 4382,
      "कृतिक": 4383,
      "ली,": 4384,
      "युक्त": 4385,
      "ांश": 4386,
      "▁फैला": 4387,
      "▁अभिन": 4388,
      "▁नये": 4389,
      "▁प्रावधान": 4390,
      "▁दुर्घटना": 4391,
      "▁बला": 4392,
      "▁चू": 4393,
      "▁टू": 4394,
      "▁लाखों": 4395,
      "▁गांवों": 4396,
      "कर्ता": 4397,
      "▁अक्षय": 4398,
      "दास": 4399,
      "पीट": 4400,
      "▁इरा": 4401,
      "▁बीएस": 4402,
      "▁ऐलान": 4403,
      "▁बालों": 4404,
      "▁चौक": 4405,
      "▁बाग": 4406,
      "ik": 4407,
      "▁45": 4408,
      "▁स्टूड": 4409,
      "▁इनका": 4410,
      "अल": 4411,
      "▁स्वतंत्रता": 4412,
      "▁माने": 4413,
      "▁ब्ला": 4414,
      "▁इश": 4415,
      "▁रिस": 4416,
      "▁फंड": 4417,
      "▁चारों": 4418,
      "▁इंस्ट": 4419,
      "-फ": 4420,
      "त्रि": 4421,
      "▁1,": 4422,
      "म,": 4423,
      "▁बधाई": 4424,
      "▁परमेश्वर": 4425,
      "▁परंपरा": 4426,
      "▁आलोचना": 4427,
      "ine": 4428,
      "▁सर्वश": 4429,
      "▁पीठ": 4430,
      "▁ग्राहकों": 4431,
      "निक": 4432,
      "▁आईपीएल": 4433,
      "▁आना": 4434,
      "▁जोड़ी": 4435,
      "▁हुये": 4436,
      "प्ट": 4437,
      "▁अटल": 4438,
      "▁पाते": 4439,
      "▁36": 4440,
      "▁जाहिर": 4441,
      "▁रजिस्ट": 4442,
      "▁लिस्ट": 4443,
      "hat": 4444,
      "दराबाद": 4445,
      "▁नहीं।": 4446,
      "▁सपना": 4447,
      "ob": 4448,
      "तें": 4449,
      "▁जयपुर": 4450,
      "vi": 4451,
      "▁आपूर्ति": 4452,
      "▁राजेश": 4453,
      "▁मुद्दों": 4454,
      "▁प्रसिद्ध": 4455,
      "▁कम्प": 4456,
      "▁''": 4457,
      "▁भाषण": 4458,
      "▁ऐतिहासिक": 4459,
      "**": 4460,
      "ं,": 4461,
      "▁किशोर": 4462,
      "▁चलाने": 4463,
      "▁विवे": 4464,
      "▁मंडी": 4465,
      "▁स्त्री": 4466,
      "▁फार्म": 4467,
      "▁नियमों": 4468,
      "▁साइट": 4469,
      "तो": 4470,
      "वर्क": 4471,
      "जर्स": 4472,
      "▁अना": 4473,
      "▁दिया,": 4474,
      "▁खूबसूरत": 4475,
      "▁ग्रहण": 4476,
      "गति": 4477,
      "▁लंबी": 4478,
      "▁कहती": 4479,
      "दल": 4480,
      "जीव": 4481,
      "▁बढ़ोतरी": 4482,
      "▁चिकित्सा": 4483,
      "▁दर्शकों": 4484,
      "▁टिप्पणी": 4485,
      "▁2012": 4486,
      "▁ताजा": 4487,
      "▁दुष्": 4488,
      "▁ऐप": 4489,
      "कुल": 4490,
      "▁कार्यवाही": 4491,
      "▁काला": 4492,
      "▁नियुक्त": 4493,
      "▁कहा-": 4494,
      "न्व": 4495,
      "▁पुस्तक": 4496,
      "ूंगा": 4497,
      "▁श्रम": 4498,
      "▁बौ": 4499,
      "▁चीज": 4500,
      "▁वैश्विक": 4501,
      "निर्": 4502,
      "वानी": 4503,
      "▁दशक": 4504,
      "▁खार": 4505,
      "▁पेड़": 4506,
      "eb": 4507,
      "10": 4508,
      "▁यात्रियों": 4509,
      "▁अकाउंट": 4510,
      "▁वाहनों": 4511,
      "▁लेखक": 4512,
      "▁नामक": 4513,
      "▁देंगे": 4514,
      "▁बढ़कर": 4515,
      "िको": 4516,
      "▁मजा": 4517,
      "▁लिंक": 4518,
      "▁क्लब": 4519,
      "▁पीने": 4520,
      "▁हैदराबाद": 4521,
      "▁दान": 4522,
      "▁दोबारा": 4523,
      "▁दरअसल,": 4524,
      "▁मजबूर": 4525,
      "▁थीं।\n": 4526,
      "▁ग्ल": 4527,
      "▁बुरी": 4528,
      "▁होम": 4529,
      "▁मानसिक": 4530,
      "▁खाद्य": 4531,
      "▁प्रोजेक्ट": 4532,
      "▁संसा": 4533,
      "ल्ट": 4534,
      "मती": 4535,
      "ff": 4536,
      "▁कमल": 4537,
      "▁जाम": 4538,
      "▁जस्ट": 4539,
      "▁नेपाल": 4540,
      "हत्या": 4541,
      "मैं": 4542,
      "▁मुकाबला": 4543,
      "▁रेट": 4544,
      "▁सिनेमा": 4545,
      "▁चाहिए,": 4546,
      "▁वकील": 4547,
      "▁ईश्वर": 4548,
      "▁विधाय": 4549,
      "▁अट": 4550,
      "▁महासचिव": 4551,
      "▁अरविंद": 4552,
      "घाटन": 4553,
      "▁चो": 4554,
      "्रत": 4555,
      "▁भक्त": 4556,
      "▁उक्त": 4557,
      "▁हरी": 4558,
      "▁स्थानों": 4559,
      "▁एसोस": 4560,
      "▁परीक्षण": 4561,
      "▁करेंगे।": 4562,
      "दुल": 4563,
      "▁परन्तु": 4564,
      "धिकारिक": 4565,
      "▁जताई": 4566,
      "▁नवीन": 4567,
      "▁विज": 4568,
      "घर": 4569,
      "up": 4570,
      "▁दिमाग": 4571,
      "▁शर": 4572,
      "▁स्पी": 4573,
      "वली": 4574,
      "▁डिजाइन": 4575,
      "▁टेक्": 4576,
      "▁खून": 4577,
      "▁ममता": 4578,
      "▁बच्चा": 4579,
      "▁चालक": 4580,
      "▁तथ": 4581,
      "पुरा": 4582,
      "▁तरीका": 4583,
      "▁होगा.\n": 4584,
      "▁दिक": 4585,
      "▁लिमिटेड": 4586,
      "▁ऑटो": 4587,
      "▁जितना": 4588,
      "ंती": 4589,
      "▁गई,": 4590,
      "ख्": 4591,
      "जिद": 4592,
      "▁जीता": 4593,
      "▁पांडे": 4594,
      "▁एप": 4595,
      "▁बेस": 4596,
      "▁st": 4597,
      "▁जानने": 4598,
      "▁चेन्न": 4599,
      "ेक्षा": 4600,
      "दाई": 4601,
      "ep": 4602,
      "्रेष्ठ": 4603,
      "▁परा": 4604,
      "▁प्राकृतिक": 4605,
      "▁मुद्दा": 4606,
      "▁माय": 4607,
      "▁बॉक्स": 4608,
      "▁शिक्षकों": 4609,
      "▁महज": 4610,
      "▁हाइ": 4611,
      "ist": 4612,
      "▁एक्ट्रेस": 4613,
      "all": 4614,
      "▁शहीद": 4615,
      "▁फिट": 4616,
      "ंथ": 4617,
      "▁धूम": 4618,
      "one": 4619,
      "-\n": 4620,
      "▁चैंप": 4621,
      "ळी": 4622,
      "▁विन": 4623,
      "▁पीसी": 4624,
      "▁आशंका": 4625,
      "▁विजे": 4626,
      "▁मोटर": 4627,
      "वार्": 4628,
      "▁बेर": 4629,
      "्राष्ट्रीय": 4630,
      "▁काउ": 4631,
      "ुक्ति": 4632,
      "▁मनोज": 4633,
      "▁पर्याप्त": 4634,
      "▁रद्द": 4635,
      "ंश": 4636,
      "▁विज्ञापन": 4637,
      "▁सौं": 4638,
      "▁आधिकारिक": 4639,
      "बाजों": 4640,
      "▁शिवसेना": 4641,
      "▁आराम": 4642,
      "▁स्टेड": 4643,
      "▁आकार": 4644,
      "▁प्रतिष्ठ": 4645,
      "▁बदलने": 4646,
      "▁गाँव": 4647,
      "▁दिल्ली:": 4648,
      "▁कोड": 4649,
      "एसएस": 4650,
      "▁मुफ्त": 4651,
      "नेश": 4652,
      "ानु": 4653,
      "▁रहे।": 4654,
      "▁से,": 4655,
      "▁नोटबंदी": 4656,
      "▁स्ट्र": 4657,
      "▁खेलों": 4658,
      "▁पार्क": 4659,
      "▁मंज": 4660,
      "ंख्य": 4661,
      "▁जरिये": 4662,
      "▁फॉर्म": 4663,
      "▁(अ": 4664,
      "ुरी": 4665,
      "क्षम": 4666,
      "▁तकनीक": 4667,
      "▁समाजवादी": 4668,
      "▁सोना": 4669,
      "फॉ": 4670,
      "▁ऋण": 4671,
      "▁स्टेडियम": 4672,
      "ंचा": 4673,
      "▁साझा": 4674,
      "▁सुझाव": 4675,
      "▁पोर्ट": 4676,
      "▁टॉप": 4677,
      "▁मुख्यालय": 4678,
      "▁लाइफ": 4679,
      "द्दीन": 4680,
      "▁प्रदूषण": 4681,
      "▁लम्": 4682,
      "▁जागरूक": 4683,
      "▁..": 4684,
      "▁2011": 4685,
      "▁गूगल": 4686,
      "दीय": 4687,
      "-च": 4688,
      "▁अल्प": 4689,
      "ड्डा": 4690,
      "▁बचाव": 4691,
      "भूम": 4692,
      "▁ट्रक": 4693,
      "▁आल": 4694,
      "कै": 4695,
      "▁ओल": 4696,
      "▁गोर": 4697,
      "▁खड़ी": 4698,
      "मोहन": 4699,
      "▁खरीदने": 4700,
      "▁पुष्टि": 4701,
      "▁197": 4702,
      "▁शुक्": 4703,
      "▁सैन": 4704,
      "▁कां": 4705,
      "तल": 4706,
      "स्टिक": 4707,
      "▁An": 4708,
      "▁उठाने": 4709,
      "▁प्लेट": 4710,
      "▁दास": 4711,
      "▁विद्युत": 4712,
      "साई": 4713,
      "▁दौड़": 4714,
      "▁न्यायाधीश": 4715,
      "▁आजादी": 4716,
      "भारत": 4717,
      "dia": 4718,
      "भाषा": 4719,
      "▁शिमला": 4720,
      "▁शारी": 4721,
      "पेट": 4722,
      "▁बदले": 4723,
      "▁लक्ष्मी": 4724,
      "▁कपिल": 4725,
      "▁पृथ्वी": 4726,
      "▁इंडस्ट्री": 4727,
      "▁दिक्क": 4728,
      "▁संशोधन": 4729,
      "▁संभाल": 4730,
      "▁चेतावनी": 4731,
      "स्य": 4732,
      "▁तस्वीरें": 4733,
      "फोट": 4734,
      "▁संगठनों": 4735,
      "▁सेल": 4736,
      "▁स्वर्ण": 4737,
      "▁खेती": 4738,
      "▁तापमान": 4739,
      "▁अंजाम": 4740,
      "▁नौकर": 4741,
      "▁लीग": 4742,
      "▁यौन": 4743,
      "▁आशी": 4744,
      "▁सर्वा": 4745,
      "-आ": 4746,
      "▁पढ़ने": 4747,
      "▁करवाने": 4748,
      "▁शपथ": 4749,
      "▁मिशन": 4750,
      "-कश्मीर": 4751,
      "ू,": 4752,
      "▁टेली": 4753,
      "िनियम": 4754,
      "ंदे": 4755,
      "▁करें,": 4756,
      "▁खारिज": 4757,
      "▁मचा": 4758,
      "ारों": 4759,
      "▁लगाते": 4760,
      "▁पंजी": 4761,
      "▁जाएंगे।\n": 4762,
      "-वि": 4763,
      "▁बढ़े": 4764,
      "▁हिंदु": 4765,
      "▁योग्य": 4766,
      "▁सीजन": 4767,
      "▁सौंप": 4768,
      "▁अमिता": 4769,
      "▁बढ़ावा": 4770,
      "▁ग्रे": 4771,
      "▁90": 4772,
      "रुख": 4773,
      "▁ढंग": 4774,
      "▁दाखिल": 4775,
      "▁जाएगी।": 4776,
      "▁रिश": 4777,
      "▁शिविर": 4778,
      "▁रणनीति": 4779,
      "▁संरक्षण": 4780,
      "▁जर्म": 4781,
      "▁चेन्नई": 4782,
      "-4": 4783,
      "▁रेखा": 4784,
      "▁व्यापक": 4785,
      "स्ट्र": 4786,
      "▁सर्वश्रेष्ठ": 4787,
      "▁आधुनिक": 4788,
      "▁शुरु": 4789,
      "▁लेता": 4790,
      "▁बहस": 4791,
      "▁यूनिट": 4792,
      "▁महाराज": 4793,
      "▁जॉ": 4794,
      "और": 4795,
      "▁बताया,": 4796,
      "end": 4797,
      "▁तिथि": 4798,
      "वंत": 4799,
      "ढ़ा": 4800,
      "स्तर": 4801,
      "▁ख़ु": 4802,
      "▁बराबर": 4803,
      "▁लोकतंत्र": 4804,
      "▁क्रिया": 4805,
      "▁बल्लेबाजी": 4806,
      "क्ताओं": 4807,
      "▁डांस": 4808,
      "▁सैक": 4809,
      "रेज": 4810,
      "ip": 4811,
      "नन": 4812,
      "▁दुख": 4813,
      "▁आंखों": 4814,
      "▁गहरा": 4815,
      "▁नारायण": 4816,
      "▁वितरण": 4817,
      "जात": 4818,
      "गण": 4819,
      "र्डर": 4820,
      "▁विधायकों": 4821,
      "▁अरुण": 4822,
      "▁शारीरिक": 4823,
      "▁निधन": 4824,
      "▁सक्षम": 4825,
      "▁बलात्कार": 4826,
      "▁अर्ज": 4827,
      "्याम": 4828,
      "▁फर्जी": 4829,
      "स्करण": 4830,
      "▁प्रतिभा": 4831,
      "▁कि,": 4832,
      "डेट": 4833,
      "▁बढ़त": 4834,
      "▁आहेत": 4835,
      "▁(ए": 4836,
      "पेयी": 4837,
      "▁शिल": 4838,
      "▁इस्तीफा": 4839,
      "▁बदमाश": 4840,
      "▁सिलस": 4841,
      "▁जम्मू-कश्मीर": 4842,
      "▁जरुर": 4843,
      "ैट": 4844,
      "▁विश्ले": 4845,
      "▁वार्ता": 4846,
      "▁अहमद": 4847,
      "▁शाहरुख": 4848,
      "ब्ल्यू": 4849,
      "▁दब": 4850,
      "▁खिता": 4851,
      "▁डीजल": 4852,
      "▁निकाला": 4853,
      "भाष": 4854,
      "धारण": 4855,
      "▁सिंध": 4856,
      "▁निप": 4857,
      "स्टी": 4858,
      "▁गलती": 4859,
      "▁फरार": 4860,
      "ast": 4861,
      "▁33": 4862,
      "ya": 4863,
      "▁खि": 4864,
      "▁फायर": 4865,
      "▁दावे": 4866,
      "▁अधी": 4867,
      "▁शर्म": 4868,
      "tt": 4869,
      "▁करेगा": 4870,
      "▁*": 4871,
      "▁दिग्": 4872,
      "▁प्रारंभ": 4873,
      "▁लीटर": 4874,
      "माही": 4875,
      "▁तकनीकी": 4876,
      "▁दिलच": 4877,
      "▁किनारे": 4878,
      "▁सकारात्मक": 4879,
      "लिंग": 4880,
      "ोध्या": 4881,
      "▁रुख": 4882,
      "▁संग्रह": 4883,
      "▁खबरों": 4884,
      "▁सीटें": 4885,
      "▁नियुक्ति": 4886,
      "सील": 4887,
      "▁अमिताभ": 4888,
      "▁दौरा": 4889,
      "▁रानी": 4890,
      "केशन": 4891,
      "-बार": 4892,
      "▁विधि": 4893,
      "▁लाया": 4894,
      "▁जस्टिस": 4895,
      "▁उल्लेखनीय": 4896,
      "▁प्रगति": 4897,
      "▁प्राथमिक": 4898,
      "▁विरु": 4899,
      "मेल": 4900,
      "▁जापान": 4901,
      "▁रखें": 4902,
      "▁आत्महत्या": 4903,
      "ंपिक": 4904,
      "▁छु": 4905,
      "▁उत्पन्न": 4906,
      "▁नारे": 4907,
      "▁उद्घाटन": 4908,
      "▁प्रकृति": 4909,
      "ant": 4910,
      "▁रहा।": 4911,
      "▁आजकल": 4912,
      "▁जुट": 4913,
      "▁शह": 4914,
      "ष्णु": 4915,
      "बु": 4916,
      "▁कानूनी": 4917,
      "▁ब्रिटेन": 4918,
      "are": 4919,
      "▁दायर": 4920,
      "▁बीमा": 4921,
      "▁घटनाओं": 4922,
      "▁आदर्श": 4923,
      "▁परमाण": 4924,
      "▁ग्रह": 4925,
      "▁टक्कर": 4926,
      "▁इसीलिए": 4927,
      "▁डेटा": 4928,
      "▁लिखी": 4929,
      "▁रॉय": 4930,
      "▁बीज": 4931,
      "▁34": 4932,
      "▁थीं।": 4933,
      "प्ले": 4934,
      "▁चेक": 4935,
      "▁आबादी": 4936,
      ")।\n": 4937,
      "▁महीनों": 4938,
      "▁निर्माता": 4939,
      "▁चम": 4940,
      "▁भरी": 4941,
      "व्यू": 4942,
      "▁डिजिटल": 4943,
      "▁सफर": 4944,
      "▁जुड़ा": 4945,
      "न्यास": 4946,
      "ग्ध": 4947,
      "टिप्प": 4948,
      "जान": 4949,
      "▁फिल्में": 4950,
      "▁बाय": 4951,
      "▁की.\n": 4952,
      "नी,": 4953,
      "▁पहुँच": 4954,
      "▁लुक": 4955,
      "▁हिरा": 4956,
      "▁शतक": 4957,
      "▁खबरें": 4958,
      "▁यांनी": 4959,
      "▁क्लास": 4960,
      "▁मोहन": 4961,
      "▁सर्विस": 4962,
      "▁कंपनियां": 4963,
      "▁राज्यसभा": 4964,
      "रानी": 4965,
      "पि": 4966,
      "राग": 4967,
      "▁गर्मी": 4968,
      "▁चेयरमैन": 4969,
      "▁सोनिया": 4970,
      "▁करवाया": 4971,
      "▁टन": 4972,
      "▁अर्था": 4973,
      "▁महि": 4974,
      "▁प्रताप": 4975,
      "ust": 4976,
      "▁रही।\n": 4977,
      "▁नरेन्द्र": 4978,
      "गी.": 4979,
      "▁नेटवर्क": 4980,
      "ो,": 4981,
      "▁!\n": 4982,
      "▁कल्प": 4983,
      "▁पर्यटन": 4984,
      "▁इनकार": 4985,
      "▁निर्भर": 4986,
      "▁इंच": 4987,
      "▁अयोध्या": 4988,
      "▁कच्च": 4989,
      "र,": 4990,
      "▁हंग": 4991,
      "भूमि": 4992,
      "▁राजस्व": 4993,
      "▁जानी": 4994,
      "म्मत": 4995,
      "▁पत्थर": 4996,
      "▁तृ": 4997,
      "▁पेज": 4998,
      "ंखला": 4999,
      "▁दीपिका": 5000,
      "▁देखी": 5001,
      "▁हटाने": 5002,
      "▁अगली": 5003,
      "मेर": 5004,
      "ले.\n": 5005,
      "▁नेहर": 5006,
      "▁कस": 5007,
      "बिनेट": 5008,
      "ब्लिक": 5009,
      "▁हनु": 5010,
      "▁e": 5011,
      "▁गोल्ड": 5012,
      "▁एंड्र": 5013,
      "द्वार": 5014,
      "▁रूपये": 5015,
      "▁हिरासत": 5016,
      "त्न": 5017,
      "मंद": 5018,
      "▁परमाणु": 5019,
      "▁मरी": 5020,
      "ोजन": 5021,
      "धारा": 5022,
      "ुति": 5023,
      "▁जेटली": 5024,
      "▁नहीं।\n": 5025,
      "▁होगा.": 5026,
      "▁सिन्हा": 5027,
      "बान": 5028,
      "ww": 5029,
      "▁सिया": 5030,
      "▁विधेय": 5031,
      "▁2009": 5032,
      "▁आदित्यनाथ": 5033,
      "▁युवती": 5034,
      "▁गई.\n": 5035,
      "▁हद": 5036,
      "▁मक": 5037,
      "▁उल्ल": 5038,
      "▁बेटा": 5039,
      "▁?\n": 5040,
      "हीन": 5041,
      "▁पेंशन": 5042,
      "्यूब": 5043,
      "▁लंदन": 5044,
      "log": 5045,
      "----": 5046,
      "फिया": 5047,
      "▁एक्": 5048,
      "टिप्पणियां\n": 5049,
      "▁रुक": 5050,
      "▁टॉ": 5051,
      "▁चोर": 5052,
      "▁अकेले": 5053,
      "▁चार्ज": 5054,
      "▁औसत": 5055,
      "▁यानि": 5056,
      "वाणी": 5057,
      "ver": 5058,
      "▁जिक्र": 5059,
      "ेश्वर": 5060,
      "ाफ": 5061,
      "▁वाक": 5062,
      "ग़": 5063,
      "▁स्वस्थ": 5064,
      "▁अभिय": 5065,
      "▁अश्व": 5066,
      "▁रकम": 5067,
      "▁सम्बन्ध": 5068,
      "▁मुझसे": 5069,
      "ेप": 5070,
      "▁अधिनियम": 5071,
      "विक": 5072,
      "सेस": 5073,
      "स्वी": 5074,
      "▁एक-द": 5075,
      "▁गेट": 5076,
      "गीय": 5077,
      "क्षर": 5078,
      "्यूर": 5079,
      "कृष्ण": 5080,
      "▁हड़ताल": 5081,
      "स्कृतिक": 5082,
      "▁व्हा": 5083,
      "मि": 5084,
      "पंच": 5085,
      "▁चीजों": 5086,
      "▁विरुद्ध": 5087,
      "▁कार्यकाल": 5088,
      "▁गत": 5089,
      "▁बताई": 5090,
      "▁एसडी": 5091,
      "वक": 5092,
      "▁खतर": 5093,
      "▁परिवहन": 5094,
      "▁सदन": 5095,
      "▁भारती": 5096,
      "▁रेप": 5097,
      "▁बांट": 5098,
      "▁इसको": 5099,
      "▁की.": 5100,
      "▁सुरेश": 5101,
      "▁आतंकवादी": 5102,
      "11": 5103,
      "▁जंगल": 5104,
      "ूली": 5105,
      "▁भरे": 5106,
      "▁व्रत": 5107,
      "▁पूंजी": 5108,
      "▁कालेज": 5109,
      "▁ब्राह": 5110,
      "▁पथ": 5111,
      "▁बनाये": 5112,
      "ort": 5113,
      "▁अफग": 5114,
      "स्कर": 5115,
      "▁सूर": 5116,
      "दर्शन": 5117,
      "▁आत्मा": 5118,
      "▁आर्ट": 5119,
      "▁2010": 5120,
      "▁अंतर्राष्ट्रीय": 5121,
      "▁महत्": 5122,
      "्यवाद": 5123,
      "▁इमरान": 5124,
      "▁पार्": 5125,
      "▁पवित्र": 5126,
      "▁इलाहाबाद": 5127,
      "न्त": 5128,
      "▁मैन": 5129,
      "▁ओम": 5130,
      "सुर": 5131,
      "इंट": 5132,
      "▁पशु": 5133,
      "▁नींद": 5134,
      "▁विपक्षी": 5135,
      "▁ध्व": 5136,
      "▁बसपा": 5137,
      "▁ब्रांड": 5138,
      "▁गिरा": 5139,
      "▁गिरफ्तारी": 5140,
      "सास": 5141,
      "-201": 5142,
      "▁बच्चन": 5143,
      "▁जबरद": 5144,
      "ाइट": 5145,
      "▁गतिविधियों": 5146,
      "द्योगिक": 5147,
      "▁मारपीट": 5148,
      "ेंट्स": 5149,
      "्वान": 5150,
      "▁आंध": 5151,
      "▁ब्याज": 5152,
      "▁व्यक्तिगत": 5153,
      "▁विद्यार्थियों": 5154,
      "▁संतोष": 5155,
      "▁तहसील": 5156,
      "▁सोचा": 5157,
      "▁300": 5158,
      "▁परिवारों": 5159,
      "▁स्वरूप": 5160,
      "▁लिखे": 5161,
      "▁खेला": 5162,
      "▁चीज़": 5163,
      "▁उत्पादों": 5164,
      "ंना": 5165,
      "▁मधु": 5166,
      "if": 5167,
      "ानिस्तान": 5168,
      "्यूटी": 5169,
      "age": 5170,
      "▁चक्र": 5171,
      "▁सुनाई": 5172,
      "डि़": 5173,
      "▁दिल्ली।": 5174,
      "▁सहमति": 5175,
      "▁संचालन": 5176,
      "▁संदर्भ": 5177,
      "▁मनोर": 5178,
      "▁काली": 5179,
      "▁आहेत.\n": 5180,
      "▁सॉफ्ट": 5181,
      "▁समक्ष": 5182,
      "▁गई.": 5183,
      "▁हस्ता": 5184,
      "▁बम": 5185,
      "पै": 5186,
      "▁राकेश": 5187,
      "▁आतंकियों": 5188,
      "▁हक": 5189,
      "ंचे": 5190,
      "▁बचपन": 5191,
      "▁दह": 5192,
      "▁दैनिक": 5193,
      "▁चाहिये": 5194,
      "▁इधर": 5195,
      "▁सेहत": 5196,
      "▁प्रभु": 5197,
      "्रमण": 5198,
      "▁कठिन": 5199,
      "▁प्रतिमा": 5200,
      "शाह": 5201,
      "▁एसोसिएशन": 5202,
      "▁प्राचीन": 5203,
      "मानत": 5204,
      "▁सर्वो": 5205,
      "▁is": 5206,
      "▁जोशी": 5207,
      "▁रिजर्व": 5208,
      "▁पत": 5209,
      "▁कैबिनेट": 5210,
      "▁पढ": 5211,
      "फो": 5212,
      "▁संकल्प": 5213,
      "▁बुल": 5214,
      "▁पढ़ा": 5215,
      "▁निर्वाचन": 5216,
      "षक": 5217,
      "▁यश": 5218,
      "▁विद्या": 5219,
      "▁अंदाज": 5220,
      "▁@": 5221,
      "▁कहता": 5222,
      "▁अनिवार": 5223,
      "▁उल्लंघ": 5224,
      "▁प्रस": 5225,
      "श्चा": 5226,
      "▁पंडित": 5227,
      "श्री": 5228,
      "▁शांत": 5229,
      "▁टाटा": 5230,
      "▁नग": 5231,
      "▁टो": 5232,
      "▁तीसरी": 5233,
      "▁अधिकांश": 5234,
      "▁मिट्टी": 5235,
      "बीसी": 5236,
      "▁चाहिए.\n": 5237,
      "▁कं": 5238,
      "▁निकट": 5239,
      "▁चौथे": 5240,
      "कीन": 5241,
      "▁शाखा": 5242,
      "▁संस्कार": 5243,
      "▁प्रौ": 5244,
      "▁मांगी": 5245,
      "▁आयुक्त": 5246,
      "▁हुए।\n": 5247,
      "▁जवानों": 5248,
      "▁निकालने": 5249,
      "▁पृष्ठ": 5250,
      "वट": 5251,
      "वो": 5252,
      "▁हार्": 5253,
      "▁जुड़": 5254,
      "▁अदा": 5255,
      "▁नागरिकों": 5256,
      "▁रखता": 5257,
      "▁गैंग": 5258,
      "ितीय": 5259,
      "▁मारने": 5260,
      "▁मोर्चा": 5261,
      "ading": 5262,
      "▁शुद्ध": 5263,
      "ॉजी": 5264,
      "▁देखे": 5265,
      "त,": 5266,
      "▁कौशल": 5267,
      "▁हृ": 5268,
      "▁हुआ,": 5269,
      "▁हूं,": 5270,
      "▁स्पेश": 5271,
      "ऩे": 5272,
      "▁तिमाही": 5273,
      "स्वा": 5274,
      "▁फैल": 5275,
      "▁पाक": 5276,
      "फार": 5277,
      "▁सीमित": 5278,
      "▁खिताब": 5279,
      "▁कैंप": 5280,
      "▁प्राइवेट": 5281,
      "▁r": 5282,
      "▁मायावती": 5283,
      "▁सृ": 5284,
      "▁समझने": 5285,
      "▁गले": 5286,
      "▁अवि": 5287,
      "▁बार-बार": 5288,
      "▁होंगे।": 5289,
      "फान": 5290,
      "▁एटी": 5291,
      "▁कुर्": 5292,
      "▁श्रृ": 5293,
      "▁निकलने": 5294,
      "▁सेंट": 5295,
      "▁खत": 5296,
      "▁छू": 5297,
      "ail": 5298,
      "▁परम": 5299,
      "▁मेट": 5300,
      "ोई": 5301,
      "▁अर्जुन": 5302,
      "▁वाजपेयी": 5303,
      "▁बिजनेस": 5304,
      "▁जाल": 5305,
      "▁गेंदबाज": 5306,
      "मार्": 5307,
      "▁शुरूआ": 5308,
      "▁सकी": 5309,
      "▁विजेता": 5310,
      "▁कॉम": 5311,
      "▁अभ्यास": 5312,
      "▁सांस्कृतिक": 5313,
      "▁बनाते": 5314,
      "वरों": 5315,
      "▁अमरीका": 5316,
      "▁एंटी": 5317,
      "▁चैंपियन": 5318,
      "▁मुसलमानों": 5319,
      "षेक": 5320,
      "▁आईटी": 5321,
      "काने": 5322,
      "मंडल": 5323,
      "▁आएंगे": 5324,
      "▁अधीक्षक": 5325,
      "ly": 5326,
      "▁सागर": 5327,
      "ऊदी": 5328,
      "मुळे": 5329,
      "▁शक": 5330,
      "प्शन": 5331,
      "▁न्यून": 5332,
      "▁गुना": 5333,
      "कांत": 5334,
      "राय": 5335,
      "▁विधेयक": 5336,
      "▁विस्": 5337,
      "▁खिल": 5338,
      "▁इंदौर": 5339,
      "▁ब्लैक": 5340,
      "▁शेर": 5341,
      "▁उल्लंघन": 5342,
      "लै": 5343,
      "▁वस्तु": 5344,
      "▁परिस्थित": 5345,
      "▁नजदी": 5346,
      "▁ताल": 5347,
      "▁तलाक": 5348,
      "त्ते": 5349,
      "▁किंग": 5350,
      "▁बनकर": 5351,
      "परेशन": 5352,
      "▁जगहों": 5353,
      "णु": 5354,
      "▁चतु": 5355,
      ":\n": 5356,
      "ासा": 5357,
      "▁पिछली": 5358,
      "िफिक": 5359,
      "▁तमिलना": 5360,
      "फ़ी": 5361,
      "▁यात्री": 5362,
      "▁आरोपों": 5363,
      "▁चीजें": 5364,
      "▁48": 5365,
      "▁शहरी": 5366,
      "धारी": 5367,
      "▁छवि": 5368,
      "▁ठहरा": 5369,
      "▁रमेश": 5370,
      "▁आणि": 5371,
      "▁सुनने": 5372,
      "▁तिल": 5373,
      "▁धरती": 5374,
      "▁निम्": 5375,
      "री,": 5376,
      "▁हरि": 5377,
      "ॉड": 5378,
      "▁आधा": 5379,
      "▁सबको": 5380,
      "▁घाट": 5381,
      "▁बढ़ते": 5382,
      "या।": 5383,
      "▁हनुमान": 5384,
      "ice": 5385,
      "▁सहारा": 5386,
      "▁मस्जिद": 5387,
      "▁कहान": 5388,
      "▁इकाई": 5389,
      "▁दूसरों": 5390,
      "▁कायम": 5391,
      "▁संसदीय": 5392,
      "▁क्यू": 5393,
      "▁समर्": 5394,
      "▁मरा": 5395,
      "▁प्रोग्राम": 5396,
      "▁जिनकी": 5397,
      "▁हैं\n": 5398,
      "▁मंड": 5399,
      "लाइ": 5400,
      "▁सश": 5401,
      "▁भरने": 5402,
      "▁ट्रेड": 5403,
      "▁किन्तु": 5404,
      "▁नु": 5405,
      "▁रवाना": 5406,
      "▁बट": 5407,
      "▁पर,": 5408,
      "▁सैन्य": 5409,
      "भाग्य": 5410,
      "▁कब्जा": 5411,
      "▁नाय": 5412,
      "▁भरपूर": 5413,
      "ity": 5414,
      "नेशनल": 5415,
      "▁अपडेट": 5416,
      "ेटर": 5417,
      "▁सांप": 5418,
      "▁पाएंगे": 5419,
      "▁साज": 5420,
      "se": 5421,
      "▁हज": 5422,
      "▁डायरेक्टर": 5423,
      "लिक": 5424,
      "ख़": 5425,
      "न्द्रीय": 5426,
      "▁इंजन": 5427,
      "▁पुणे": 5428,
      "जिये": 5429,
      "स,": 5430,
      "ांज": 5431,
      "▁यो": 5432,
      "▁पत्रिका": 5433,
      "-न": 5434,
      "्याल": 5435,
      "▁घोटाले": 5436,
      "▁तारीफ": 5437,
      "▁मुकदमा": 5438,
      "▁सुनकर": 5439,
      "▁उठाए": 5440,
      "▁सौर": 5441,
      "▁लेती": 5442,
      "रोध": 5443,
      "▁हेड": 5444,
      "▁संस्करण": 5445,
      "▁दीवार": 5446,
      "▁निर्यात": 5447,
      "▁हल्का": 5448,
      "ंत्रित": 5449,
      "▁न्यूनतम": 5450,
      "▁ब्लॉक": 5451,
      "▁द्र": 5452,
      "▁लेन": 5453,
      "▁भौ": 5454,
      "▁पात्र": 5455,
      "ारण": 5456,
      "==": 5457,
      "ंडीज": 5458,
      "▁इंटरव्यू": 5459,
      "धीरे": 5460,
      "ूसरे": 5461,
      "▁आफ": 5462,
      "▁चेहरा": 5463,
      "▁विनो": 5464,
      "▁सऊदी": 5465,
      "िष्ट": 5466,
      "▁निकले": 5467,
      "▁छाप": 5468,
      "▁झु": 5469,
      "▁चीफ": 5470,
      "▁बचने": 5471,
      "▁अब्दुल": 5472,
      "▁उड़ा": 5473,
      "qu": 5474,
      "▁जाएगा.\n": 5475,
      "▁डालकर": 5476,
      "▁टि": 5477,
      "-पिता": 5478,
      "▁तुम्हारे": 5479,
      "▁सख्त": 5480,
      "ृत्ति": 5481,
      "▁यूजर्स": 5482,
      "करार": 5483,
      "▁पश्चिमी": 5484,
      "▁अमी": 5485,
      "▁शेष": 5486,
      "▁j": 5487,
      "▁सहयोगी": 5488,
      "▁असली": 5489,
      "त्साह": 5490,
      "▁196": 5491,
      "▁कलाकार": 5492,
      "▁औद्योगिक": 5493,
      "▁भागी": 5494,
      "▁2008": 5495,
      "▁फ्रांस": 5496,
      "▁ज्ञा": 5497,
      ")।": 5498,
      "ia": 5499,
      "क्की": 5500,
      "ल्ला": 5501,
      "जीलैंड": 5502,
      "▁केन्द्रीय": 5503,
      "▁तमिलनाडु": 5504,
      "▁जाए।": 5505,
      "pt": 5506,
      "घ्र": 5507,
      "▁अस्थ": 5508,
      "ec": 5509,
      "▁क्षेत्रीय": 5510,
      "▁तार": 5511,
      "▁जिनका": 5512,
      "फ्तार": 5513,
      "▁भट्ट": 5514,
      "▁हैं?": 5515,
      "यत": 5516,
      "▁वास्तविक": 5517,
      "▁ईमान": 5518,
      "संख्य": 5519,
      "▁No": 5520,
      "▁ज़ि": 5521,
      "▁दिखाने": 5522,
      "एं।\n": 5523,
      "▁बॉस": 5524,
      "▁नीर": 5525,
      "▁अजी": 5526,
      "▁विस्फोट": 5527,
      "▁कटौती": 5528,
      "▁शौच": 5529,
      "▁लोन": 5530,
      "▁लव": 5531,
      "▁बैठा": 5532,
      "कूल": 5533,
      "▁आमिर": 5534,
      "▁गोवा": 5535,
      "▁प्रमो": 5536,
      "▁सेवाओं": 5537,
      "ांकन": 5538,
      "▁गोद": 5539,
      "▁दिल्ली,": 5540,
      "कर्मियों": 5541,
      "▁मुहैया": 5542,
      "▁युग": 5543,
      "▁अपेक्षा": 5544,
      "▁सिविल": 5545,
      "▁मालूम": 5546,
      "▁सेमी": 5547,
      "ज,": 5548,
      "▁गेंदों": 5549,
      "▁75": 5550,
      "▁लड़ने": 5551,
      "▁प्रेरित": 5552,
      "तियां": 5553,
      "▁चुप": 5554,
      "ुलर": 5555,
      "▁विट": 5556,
      "▁डिस्": 5557,
      "यह": 5558,
      "पक्ष": 5559,
      "देह": 5560,
      "▁टुक": 5561,
      "ंगाई": 5562,
      "कता": 5563,
      "▁पुरुषों": 5564,
      "▁मेगा": 5565,
      "▁चाहिए.": 5566,
      "▁समझौते": 5567,
      "▁मिलेगा": 5568,
      "▁शुरुआती": 5569,
      "्रीम": 5570,
      "लन": 5571,
      "▁अवश्य": 5572,
      "▁जहा": 5573,
      "▁आकाश": 5574,
      "ard": 5575,
      "▁रखकर": 5576,
      "▁गिल": 5577,
      "▁वाता": 5578,
      "▁कौर": 5579,
      "ग्न": 5580,
      "▁खींच": 5581,
      "ext": 5582,
      "▁तल": 5583,
      "▁चोप": 5584,
      "▁अनिवार्य": 5585,
      "▁चालू": 5586,
      "▁नक्सल": 5587,
      "▁अंडर": 5588,
      "▁छेड़": 5589,
      "▁कल्पना": 5590,
      "चंद": 5591,
      "ल्थ": 5592,
      "▁Com": 5593,
      "क्या": 5594,
      "▁पीड़िता": 5595,
      "क्षेत्र": 5596,
      "▁मुलायम": 5597,
      "▁करेगी।\n": 5598,
      "▁अतिथि": 5599,
      "ायंस": 5600,
      "▁धोखा": 5601,
      "▁शिवराज": 5602,
      "▁प्रोत्साह": 5603,
      "ेदी": 5604,
      "▁तीसरा": 5605,
      "▁तंत्र": 5606,
      "▁कार्": 5607,
      "▁साढ़े": 5608,
      "ब्दी": 5609,
      "▁ब्राह्मण": 5610,
      "▁(स": 5611,
      "▁मास्टर": 5612,
      "▁मुज": 5613,
      "▁रिसर्च": 5614,
      "▁नेहरू": 5615,
      "▁इंट": 5616,
      "▁बग": 5617,
      "▁न्यूजीलैंड": 5618,
      "कोट": 5619,
      "▁बेंगल": 5620,
      "▁अस्त": 5621,
      "40": 5622,
      "▁बतौर": 5623,
      "▁झटका": 5624,
      "▁शंकर": 5625,
      "▁मेक": 5626,
      "▁सिफार": 5627,
      "▁(आई": 5628,
      "फ्टी": 5629,
      "लोनी": 5630,
      "▁सर्वाधिक": 5631,
      "▁माता-पिता": 5632,
      "श्त": 5633,
      "▁पर्स": 5634,
      "▁कुर": 5635,
      "सीसीआई": 5636,
      "▁रोजाना": 5637,
      "▁बुद्धि": 5638,
      "▁आंकड़ों": 5639,
      "आप": 5640,
      "िमंडल": 5641,
      "▁सफेद": 5642,
      "▁दिग्गज": 5643,
      "▁38": 5644,
      "▁दिवसीय": 5645,
      "▁टेक्न": 5646,
      "▁वारदा": 5647,
      "▁धन्यवाद": 5648,
      "▁चम्म": 5649,
      "ction": 5650,
      "▁पेपर": 5651,
      "▁धीरे-": 5652,
      "▁सैकड़ों": 5653,
      "▁पाता": 5654,
      "▁सिफारिश": 5655,
      "▁टक": 5656,
      "oc": 5657,
      "▁कैमरे": 5658,
      "द्योगिकी": 5659,
      "▁प्रार्थ": 5660,
      "▁ढेर": 5661,
      "कर्ताओं": 5662,
      "ary": 5663,
      "▁विवरण": 5664,
      "ah": 5665,
      "▁जियो": 5666,
      "▁सीधा": 5667,
      "कर्मी": 5668,
      "▁खाता": 5669,
      "▁अधिकतर": 5670,
      "▁Read": 5671,
      "चय": 5672,
      "▁पहुंचाने": 5673,
      "▁कारणों": 5674,
      "▁मृतक": 5675,
      "▁किस्": 5676,
      "ोम": 5677,
      "▁मुक्ति": 5678,
      "▁गौरव": 5679,
      "▁जस": 5680,
      "▁असल": 5681,
      "▁तुम्हें": 5682,
      "ोड": 5683,
      "▁अन्ना": 5684,
      "▁चम्मच": 5685,
      "▁पड़ती": 5686,
      "▁तर्क": 5687,
      "▁सरल": 5688,
      "▁बेचने": 5689,
      "▁करण": 5690,
      "▁यूनियन": 5691,
      "सद": 5692,
      "ईओ": 5693,
      "▁वादा": 5694,
      "▁जुर्म": 5695,
      "▁हृदय": 5696,
      "▁अभ्य": 5697,
      "▁संबंधों": 5698,
      "सिन": 5699,
      "▁प्रेरणा": 5700,
      "▁हंस": 5701,
      "▁मुना": 5702,
      "▁भेद": 5703,
      "▁डॉक": 5704,
      "कालीन": 5705,
      "▁प्रतिनिधि": 5706,
      "▁डेढ़": 5707,
      "▁सोन": 5708,
      "क्रमण": 5709,
      "▁डालने": 5710,
      "वाड़ा": 5711,
      "बन": 5712,
      "ंबा": 5713,
      "ug": 5714,
      "▁वातावरण": 5715,
      "▁मछ": 5716,
      "▁सबके": 5717,
      "ांतर": 5718,
      "▁जानिए": 5719,
      "▁रिजल्ट": 5720,
      "▁त्रि": 5721,
      "▁रहेंगे": 5722,
      "▁जन्मदिन": 5723,
      "▁पत्रकारिता": 5724,
      "▁राजद": 5725,
      "प्पा": 5726,
      "्वे": 5727,
      "▁डूब": 5728,
      "▁महेंद्र": 5729,
      "GB": 5730,
      "▁तिर": 5731,
      "▁रावत": 5732,
      "एडा": 5733,
      "▁व्यापारी": 5734,
      "▁लंबा": 5735,
      "ध्ये": 5736,
      "▁गार्ड": 5737,
      "▁अंकों": 5738,
      "▁निर्देशक": 5739,
      "पूर्वक": 5740,
      "▁विनोद": 5741,
      "▁सभ": 5742,
      "▁(ह": 5743,
      "▁खतरनाक": 5744,
      "▁एशियाई": 5745,
      "▁कन्या": 5746,
      "▁चिंत": 5747,
      "सी,": 5748,
      "▁जमानत": 5749,
      "▁फेंक": 5750,
      "याल": 5751,
      "▁धीरे-धीरे": 5752,
      "यु": 5753,
      "▁(निस": 5754,
      "oun": 5755,
      "▁समुद्र": 5756,
      "ne": 5757,
      "▁अधि": 5758,
      "an\n": 5759,
      "iv": 5760,
      "▁आमतौर": 5761,
      "दायिक": 5762,
      "▁आला": 5763,
      "▁एकता": 5764,
      "▁मुकेश": 5765,
      "▁आयात": 5766,
      "▁लाइट": 5767,
      "12": 5768,
      "फ्रेंस": 5769,
      "रू": 5770,
      "▁झेल": 5771,
      "▁कामयाब": 5772,
      "रा,": 5773,
      "▁मुआ": 5774,
      "//": 5775,
      "▁अज्ञ": 5776,
      "▁चोपड़ा": 5777,
      "▁सुभाष": 5778,
      "▁भंड": 5779,
      "▁पूछे": 5780,
      "ish": 5781,
      "▁श्रद्धाल": 5782,
      "▁विचारों": 5783,
      "▁बढ़ी": 5784,
      "▁धु": 5785,
      "▁एडम": 5786,
      "▁समस्त": 5787,
      "▁पूर्वी": 5788,
      "▁हीरो": 5789,
      "▁फीड": 5790,
      "▁बेल": 5791,
      "▁दाल": 5792,
      "डीपी": 5793,
      "▁गए,": 5794,
      "▁निच": 5795,
      "▁समझौता": 5796,
      "▁मारा": 5797,
      "कर,": 5798,
      "▁माफी": 5799,
      "▁आवं": 5800,
      "▁फांसी": 5801,
      "▁धवन": 5802,
      "▁ख़बर": 5803,
      "▁गेंदबाजी": 5804,
      "▁सर्वोच्च": 5805,
      "▁प्रभावी": 5806,
      "▁बिहारी": 5807,
      "▁लिखने": 5808,
      "▁ऑपरेशन": 5809,
      "▁चक्कर": 5810,
      "करे": 5811,
      "▁बिता": 5812,
      "▁एंट": 5813,
      "पल": 5814,
      "▁किरण": 5815,
      "▁हैरान": 5816,
      "रक": 5817,
      "▁जीते": 5818,
      "▁महात्मा": 5819,
      "▁रहेगा।\n": 5820,
      "▁कहे": 5821,
      "टिल": 5822,
      "▁गए.\n": 5823,
      "▁उपभोक्ता": 5824,
      "▁इमार": 5825,
      "▁गईं": 5826,
      "▁गुस्सा": 5827,
      "▁क्रिकेटर": 5828,
      "▁ओलंपिक": 5829,
      "▁दिनेश": 5830,
      "▁राजकीय": 5831,
      "▁तत्कालीन": 5832,
      "▁फं": 5833,
      "▁उतना": 5834,
      "▁करेगा।\n": 5835,
      "ite": 5836,
      "लीय": 5837,
      "▁आश्वास": 5838,
      "▁जीबी": 5839,
      "कश": 5840,
      "▁धमा": 5841,
      "दुर": 5842,
      "▁गोरख": 5843,
      "▁by": 5844,
      "▁जानकार": 5845,
      "▁व्याव": 5846,
      "खार": 5847,
      "▁घाटी": 5848,
      "संध": 5849,
      "▁रिकार्ड": 5850,
      "मात्र": 5851,
      "प्रकाश": 5852,
      "▁दिली": 5853,
      "▁जिसमे": 5854,
      "गरानी": 5855,
      "▁गायब": 5856,
      "▁अनुकूल": 5857,
      "▁व्यस्त": 5858,
      "ont": 5859,
      "▁सिम": 5860,
      "▁दिलाने": 5861,
      "▁कनेक्शन": 5862,
      "▁अफगानिस्तान": 5863,
      "ber": 5864,
      "▁प्रजा": 5865,
      "र्मी": 5866,
      "aj": 5867,
      "▁गौतम": 5868,
      "▁हाँ": 5869,
      "▁भय": 5870,
      "▁साझे": 5871,
      "एक": 5872,
      "▁डाटा": 5873,
      "▁वाइ": 5874,
      "▁सीसी": 5875,
      "▁बेरोज": 5876,
      "▁कलेक्टर": 5877,
      "▁ग्राहक": 5878,
      "▁उपभोक्ताओं": 5879,
      "्रेशन": 5880,
      "▁रॉ": 5881,
      "▁42": 5882,
      "▁उदय": 5883,
      "ग्रहण": 5884,
      "जुर्ग": 5885,
      "▁मनमोहन": 5886,
      "्यौ": 5887,
      "▁विविध": 5888,
      "▁निम्न": 5889,
      "▁नील": 5890,
      "सेक्स": 5891,
      "ोलॉजी": 5892,
      "▁यादव,": 5893,
      "▁जड़": 5894,
      "▁ब्रिटिश": 5895,
      "िसू": 5896,
      "▁com": 5897,
      "▁पढ़ें\n": 5898,
      "▁शेयरों": 5899,
      "ks": 5900,
      "▁दिवाली": 5901,
      "▁निगरानी": 5902,
      "▁मरीजों": 5903,
      "▁अलावा,": 5904,
      "▁मेट्रो": 5905,
      "▁पुष्": 5906,
      "▁आग्रह": 5907,
      "मीन": 5908,
      "▁हार्दिक": 5909,
      "▁सूत्र": 5910,
      "▁यूरो": 5911,
      "▁स्पेशल": 5912,
      "▁अमृत": 5913,
      "▁प्रौद्योगिकी": 5914,
      "▁55": 5915,
      "▁ब्रह्म": 5916,
      "मूल": 5917,
      "▁Lo": 5918,
      "वीय": 5919,
      "आईटी": 5920,
      "डू": 5921,
      "▁महंगाई": 5922,
      "यक": 5923,
      "टों": 5924,
      "▁शिखर": 5925,
      "▁फि": 5926,
      "▁इंटरनेशनल": 5927,
      "▁उर्फ": 5928,
      "आरपी": 5929,
      "▁लापर": 5930,
      "▁साउ": 5931,
      "reen": 5932,
      "ud": 5933,
      "प्रीत": 5934,
      "▁बुलाया": 5935,
      "▁संसार": 5936,
      "▁सैनिकों": 5937,
      "▁सिक्": 5938,
      "▁व्यक्तियों": 5939,
      "▁शास्त्री": 5940,
      "ेडकर": 5941,
      "▁प्रसन्न": 5942,
      "▁सितम्बर": 5943,
      "▁बारी": 5944,
      "फेसर": 5945,
      "▁स्मृति": 5946,
      "िंग,": 5947,
      "out": 5948,
      "▁शीघ्र": 5949,
      "▁वेस्टइ": 5950,
      "▁जितनी": 5951,
      "▁सांग": 5952,
      "र्धा": 5953,
      "▁नाही": 5954,
      "▁सीनियर": 5955,
      "▁संचालित": 5956,
      "://": 5957,
      "श्चर्य": 5958,
      "/201": 5959,
      "▁ऑफर": 5960,
      "▁पब्लिक": 5961,
      "▁पार्टियों": 5962,
      "▁अत्या": 5963,
      "▁कंट्रोल": 5964,
      "▁गोपाल": 5965,
      "िक,": 5966,
      "▁विंड": 5967,
      "▁आजाद": 5968,
      "बिल": 5969,
      "▁जाए,": 5970,
      "ार्ट": 5971,
      "ृत्य": 5972,
      "▁रहेगा": 5973,
      "▁इंदिरा": 5974,
      "▁पार्ष": 5975,
      "▁मूर्": 5976,
      "▁पिट": 5977,
      "००": 5978,
      "▁150": 5979,
      "▁सिखा": 5980,
      "▁अभिषेक": 5981,
      "▁छोड़ने": 5982,
      "▁(सी": 5983,
      "▁यहीं": 5984,
      "▁लाइस": 5985,
      "▁होगी,": 5986,
      "▁एक-दूसरे": 5987,
      "▁दुष्कर्म": 5988,
      "▁करोड़ों": 5989,
      "▁भड़": 5990,
      "फॉर्म": 5991,
      "▁नोएडा": 5992,
      "▁एयरपोर्ट": 5993,
      "▁गेह": 5994,
      "▁बोलने": 5995,
      "▁कारोबारी": 5996,
      "▁जाएं": 5997,
      "▁जनस": 5998,
      "▁प्राय": 5999,
      "▁विष्णु": 6000,
      "▁मंत्रियों": 6001,
      "▁विशिष्ट": 6002,
      "ई,": 6003,
      "▁अनुसू": 6004,
      "भूत": 6005,
      "▁गाना": 6006,
      "▁गए.": 6007,
      "▁जज": 6008,
      "▁निल": 6009,
      "▁पवन": 6010,
      "शनी": 6011,
      "▁नष्ट": 6012,
      "▁आश्चर्य": 6013,
      "ith": 6014,
      "ोसी": 6015,
      "▁रफ्तार": 6016,
      "▁आयी": 6017,
      "▁अभिनय": 6018,
      "-एक": 6019,
      "▁स्टोर": 6020,
      "भाल": 6021,
      "▁एनडीटीवी": 6022,
      "धिकारियों": 6023,
      "▁(3": 6024,
      "▁अपमान": 6025,
      "▁रूम": 6026,
      "-सी": 6027,
      "▁अनुरोध": 6028,
      "▁लल": 6029,
      "▁कर्मियों": 6030,
      "ure": 6031,
      "▁शिर": 6032,
      "▁हज़ार": 6033,
      "▁चुने": 6034,
      "▁रिलायंस": 6035,
      "▁बहुमत": 6036,
      "ोत्सव": 6037,
      "▁मनीष": 6038,
      "▁मूर्ति": 6039,
      "ोग्रा": 6040,
      "▁सके।": 6041,
      "▁एक्टर": 6042,
      "18": 6043,
      "▁सेवाएं": 6044,
      "▁जानता": 6045,
      "▁मेर": 6046,
      "▁टीमों": 6047,
      "▁नित": 6048,
      "▁एकदम": 6049,
      "▁बुजुर्ग": 6050,
      "▁बनर्जी": 6051,
      "▁आपत्ति": 6052,
      "▁कराए": 6053,
      "▁छुट्टी": 6054,
      "▁साजिश": 6055,
      "▁साव": 6056,
      "▁लिखित": 6057,
      "▁आश्वासन": 6058,
      "▁वारा": 6059,
      "▁उद्य": 6060,
      "▁ठेके": 6061,
      "▁निरीक्षण": 6062,
      "▁प्रार्थना": 6063,
      "▁बढ़ता": 6064,
      "▁कानपुर": 6065,
      "',": 6066,
      "▁(ब": 6067,
      "▁राजकुमार": 6068,
      "▁पारित": 6069,
      "▁में\n": 6070,
      "फाइनल": 6071,
      "▁&": 6072,
      "▁साई": 6073,
      "▁लाइव": 6074,
      "▁प्राप्ति": 6075,
      "▁बनता": 6076,
      "▁पेशे": 6077,
      "वों": 6078,
      "▁मिलेगा।\n": 6079,
      "▁चलती": 6080,
      "▁प्रोफेसर": 6081,
      "▁फर्": 6082,
      "ore\n": 6083,
      "चर्स": 6084,
      "▁तथ्य": 6085,
      "av": 6086,
      "▁भेजने": 6087,
      "▁गड़": 6088,
      "▁यमु": 6089,
      "डिय": 6090,
      "▁आंकड़े": 6091,
      "▁गुरू": 6092,
      "एमसी": 6093,
      "नाल्ड": 6094,
      "▁देखिए": 6095,
      "▁बुनिया": 6096,
      "▁जबरदस्त": 6097,
      "▁डिवा": 6098,
      "▁सुर्": 6099,
      "▁सूरज": 6100,
      "▁मानी": 6101,
      "▁Me": 6102,
      "▁प्रतीक": 6103,
      "▁अधिकतम": 6104,
      "▁चन्द्र": 6105,
      "▁स्टैंड": 6106,
      "्डी": 6107,
      "▁आदिवासी": 6108,
      "▁मेले": 6109,
      "▁होली": 6110,
      "▁प्रकरण": 6111,
      "▁हिस्सों": 6112,
      "▁दर्जन": 6113,
      "▁अनुसंध": 6114,
      "रीत": 6115,
      "▁[]\n": 6116,
      "▁शरण": 6117,
      "▁एव": 6118,
      "▁स्टाफ": 6119,
      "▁डेस्क": 6120,
      "▁कमांड": 6121,
      "▁बीसीसीआई": 6122,
      "▁मेल": 6123,
      "▁पोलिस": 6124,
      "▁1.": 6125,
      "▁भेजे": 6126,
      "▁प्रीम": 6127,
      "▁शोर": 6128,
      "▁करण्यात": 6129,
      "▁तेंद": 6130,
      "▁सोनी": 6131,
      "ायतों": 6132,
      "▁जाया": 6133,
      "▁ढां": 6134,
      "्योर": 6135,
      "▁ऑल": 6136,
      "▁विटाम": 6137,
      "▁३": 6138,
      "▁एग्": 6139,
      "▁जानें": 6140,
      "▁कोर्स": 6141,
      "▁स्टो": 6142,
      "▁पुराना": 6143,
      "▁सपने": 6144,
      "ाइम": 6145,
      "▁आवाज़": 6146,
      "▁कार्यक्रमों": 6147,
      "▁पश्चा": 6148,
      "▁पार्टनर": 6149,
      "▁यूरोप": 6150,
      "▁वेस्टइंडीज": 6151,
      "▁चमक": 6152,
      "▁योग्यता": 6153,
      "▁सॉफ्टवेयर": 6154,
      "▁युवकों": 6155,
      "▁शुरूआत": 6156,
      "▁मुस्क": 6157,
      "▁दत्त": 6158,
      "▁प्रकट": 6159,
      "▁बर्फ": 6160,
      "ेबल": 6161,
      "▁कुलदीप": 6162,
      "एं।": 6163,
      "ideo": 6164,
      "ैक्ट": 6165,
      "ंत्रिक": 6166,
      "▁वाराण": 6167,
      "▁कोय": 6168,
      "-ग": 6169,
      "ee": 6170,
      "▁मिड": 6171,
      "▁सहज": 6172,
      "▁नामांकन": 6173,
      "▁स्रो": 6174,
      "▁धा": 6175,
      "60": 6176,
      "▁चौकी": 6177,
      "▁प्रतिदिन": 6178,
      "▁ढूं": 6179,
      "न्ट": 6180,
      "▁टाइम्स": 6181,
      "▁आरंभ": 6182,
      "▁संवेदन": 6183,
      "▁निशान": 6184,
      "▁उन्हीं": 6185,
      "▁मद्": 6186,
      "तरीय": 6187,
      "▁बाह": 6188,
      "▁नवम्बर": 6189,
      "▁डा.": 6190,
      "▁ली।\n": 6191,
      "▁स्वि": 6192,
      "▁सुविधाओं": 6193,
      "▁ज्ञापन": 6194,
      "▁चिट": 6195,
      "▁चिकित्सक": 6196,
      "▁म्यू": 6197,
      "▁संदि": 6198,
      "बॉल": 6199,
      "ा,": 6200,
      "िकाओं": 6201,
      "अर": 6202,
      "ुष": 6203,
      "▁अनुसंधान": 6204,
      "डब्ल्यू": 6205,
      "्तों": 6206,
      "▁मंग": 6207,
      "▁पायल": 6208,
      "▁राणा": 6209,
      "▁पड़ने": 6210,
      "▁शोषण": 6211,
      "्षिक": 6212,
      "्वाल": 6213,
      "▁गीता": 6214,
      "▁बरकरार": 6215,
      "▁2020": 6216,
      "▁वस": 6217,
      "▁आर्य": 6218,
      "▁विस्तृत": 6219,
      "▁सुष": 6220,
      "▁संपन्न": 6221,
      "▁आपसे": 6222,
      "ली.\n": 6223,
      "ading.": 6224,
      "hot": 6225,
      "ित्त": 6226,
      "िडी": 6227,
      "▁विद्यार्थी": 6228,
      "▁किमी": 6229,
      "▁बाहरी": 6230,
      "▁लह": 6231,
      "▁सब्स": 6232,
      "▁समृ": 6233,
      "ग्रस्त": 6234,
      "या,": 6235,
      "▁संस्कृत": 6236,
      "▁प्रशासनिक": 6237,
      "▁लें।": 6238,
      "▁पाय": 6239,
      "द,": 6240,
      "▁अज्ञात": 6241,
      "देवी": 6242,
      "ड्ढ": 6243,
      "▁हवाले": 6244,
      "▁बीमारियों": 6245,
      "▁करेगी": 6246,
      "▁संदिग्ध": 6247,
      "क्तूबर": 6248,
      "▁पाप": 6249,
      "▁आइए": 6250,
      "▁कैश": 6251,
      "▁मुखर्जी": 6252,
      "▁65": 6253,
      "▁एजेंस": 6254,
      "▁मज़": 6255,
      "▁रिया": 6256,
      "▁जयंती": 6257,
      "▁फैंस": 6258,
      "ौली": 6259,
      "▁प्रदर्शित": 6260,
      "वर्ष": 6261,
      "▁स्थिर": 6262,
      "▁स्तरीय": 6263,
      "▁व्": 6264,
      "▁रही।": 6265,
      "खिम": 6266,
      "स्पति": 6267,
      "▁बिल्ड": 6268,
      "▁लाइसेंस": 6269,
      "्तिक": 6270,
      "▁अल्पसंख्य": 6271,
      "▁मनोहर": 6272,
      "▁सप्": 6273,
      "धिकरण": 6274,
      "▁कोत": 6275,
      "▁'अ": 6276,
      "▁फाइल": 6277,
      "▁संपादक": 6278,
      "▁हस्ताक्षर": 6279,
      "-छ": 6280,
      "हाई": 6281,
      "▁हिस्सेदारी": 6282,
      "▁उच्चतम": 6283,
      "▁मुठ": 6284,
      "▁लिखा,": 6285,
      "्वीप": 6286,
      "▁ससुर": 6287,
      "▁तट": 6288,
      "▁पड": 6289,
      "▁खोलने": 6290,
      "▁पाउ": 6291,
      "▁194": 6292,
      "▁दां": 6293,
      "▁संस्थानों": 6294,
      "कंप": 6295,
      "ूण": 6296,
      "▁नीतियों": 6297,
      "own": 6298,
      "▁के.": 6299,
      "▁बिंद": 6300,
      "▁डाक्टर": 6301,
      "ies": 6302,
      "▁बताए": 6303,
      "▁जाओ": 6304,
      "gle": 6305,
      "▁पड़ा।\n": 6306,
      "80": 6307,
      "▁संदीप": 6308,
      "पं": 6309,
      "▁श्रीमती": 6310,
      "▁PM\n": 6311,
      "▁अक्तूबर": 6312,
      "▁हिन्दु": 6313,
      "▁कच": 6314,
      "▁भूख": 6315,
      "▁मद्देन": 6316,
      "एसआई": 6317,
      "बली": 6318,
      "▁लगाना": 6319,
      "▁सैल": 6320,
      "▁मरीज": 6321,
      "▁साउथ": 6322,
      "▁त्यो": 6323,
      "िक्": 6324,
      "▁लक्षण": 6325,
      "▁स्तन": 6326,
      "ेयर": 6327,
      "▁सवालों": 6328,
      "▁अधिसू": 6329,
      "▁खट": 6330,
      "पाई": 6331,
      "▁मकसद": 6332,
      "ँग": 6333,
      "▁जोखिम": 6334,
      "▁असल्या": 6335,
      "स्थल": 6336,
      "▁श्याम": 6337,
      "▁खतरे": 6338,
      "22": 6339,
      "▁di": 6340,
      "▁संचार": 6341,
      "▁खासकर": 6342,
      "▁सिख": 6343,
      "▁अभ्यर्थ": 6344,
      "▁क्ली": 6345,
      "कुछ": 6346,
      "▁सीरिया": 6347,
      "▁सीर": 6348,
      "▁डु": 6349,
      "▁दृश्य": 6350,
      "▁मनोरंजन": 6351,
      "▁श्रृंखला": 6352,
      "चारिक": 6353,
      "▁त्योहार": 6354,
      "बीएस": 6355,
      "▁दृष्ट": 6356,
      "▁Q": 6357,
      "▁आस्ट्रेलिया": 6358,
      "▁आपस": 6359,
      "▁फीचर": 6360,
      ",5": 6361,
      "ace": 6362,
      "ष्का": 6363,
      "▁फरी": 6364,
      "▁दै": 6365,
      "▁मुर": 6366,
      "▁पोस्टर": 6367,
      "▁डॉक्टरों": 6368,
      "▁मैनेज": 6369,
      "▁बुक": 6370,
      "▁अन्त": 6371,
      "▁जात": 6372,
      "▁फ्ला": 6373,
      "▁बाबू": 6374,
      "▁रोज़": 6375,
      "▁सच्चाई": 6376,
      "विटी": 6377,
      "▁कैसा": 6378,
      "सैन": 6379,
      "▁कव": 6380,
      "▁झूठ": 6381,
      "▁विटामिन": 6382,
      "ttp": 6383,
      "सो": 6384,
      "▁सत्": 6385,
      "द्व": 6386,
      "▁संसाधन": 6387,
      "स्टार": 6388,
      "▁विभागों": 6389,
      "▁आरएसएस": 6390,
      "ook": 6391,
      "▁द्वितीय": 6392,
      "-उ": 6393,
      "▁दिक्कत": 6394,
      "्तर": 6395,
      "▁हंगामा": 6396,
      "▁झग": 6397,
      "▁lo": 6398,
      "▁चढ़ा": 6399,
      "▁बड़": 6400,
      "धव": 6401,
      "▁pro": 6402,
      "▁39": 6403,
      "▁बरसा": 6404,
      "ेंगे,": 6405,
      "▁पापा": 6406,
      "▁बैक": 6407,
      "▁लापरवाही": 6408,
      "▁पकड़ा": 6409,
      "▁है-": 6410,
      "▁कामका": 6411,
      "▁th": 6412,
      "▁दुश्म": 6413,
      "▁बाब": 6414,
      "ous": 6415,
      "▁http": 6416,
      "ूंकि": 6417,
      "कीम": 6418,
      "▁वार्षिक": 6419,
      "▁कहाँ": 6420,
      "क्क": 6421,
      "▁व्यापारियों": 6422,
      "▁फॉर": 6423,
      "▁स्टाइल": 6424,
      "वास्तव": 6425,
      "▁दिलचस्प": 6426,
      "▁एकमात्र": 6427,
      "▁इत्या": 6428,
      "▁हूँ।": 6429,
      "छाड़": 6430,
      "▁मिथ": 6431,
      "▁नागरिकता": 6432,
      "▁दायरे": 6433,
      "▁एनसी": 6434,
      "सीन": 6435,
      "▁पहुँ": 6436,
      "▁सराह": 6437,
      "▁बेस्ट": 6438,
      "-सम": 6439,
      "लेस": 6440,
      "▁पेय": 6441,
      "ंगों": 6442,
      "▁आकर्षित": 6443,
      "▁बचे": 6444,
      "कामना": 6445,
      "▁बाजारों": 6446,
      "▁बहर": 6447,
      "्यूल": 6448,
      "▁एक्शन": 6449,
      "क्षेप": 6450,
      "▁वाराणसी": 6451,
      "▁44": 6452,
      "▁कार्यकारी": 6453,
      "▁उड़ान": 6454,
      "धीन": 6455,
      "▁उन्होने": 6456,
      "▁मुआव": 6457,
      "▁वॉल": 6458,
      "ंसिल": 6459,
      "▁भाग्य": 6460,
      "ूती": 6461,
      "▁Rec": 6462,
      "▁मच": 6463,
      "यें": 6464,
      "▁रिकॉर्डिंग": 6465,
      "क्सा": 6466,
      "▁बैटरी": 6467,
      "▁बनना": 6468,
      "▁मांगों": 6469,
      "▁पाठ्य": 6470,
      "▁आंध्र": 6471,
      "ac": 6472,
      "स्वर": 6473,
      "▁दोहरा": 6474,
      "क्चर": 6475,
      "1,": 6476,
      "▁बिलकुल": 6477,
      "▁एकत्र": 6478,
      "ंसक": 6479,
      "ांट": 6480,
      "25": 6481,
      "▁जर्मनी": 6482,
      "▁निपटने": 6483,
      "▁पीढ़ी": 6484,
      "▁अवस्था": 6485,
      "▁उपायुक्त": 6486,
      "▁ड्राइवर": 6487,
      "्ठा": 6488,
      "▁स्पिन": 6489,
      "टके": 6490,
      "▁2.": 6491,
      "▁विपरीत": 6492,
      "▁बोलते": 6493,
      "▁नाथ": 6494,
      "प्पी": 6495,
      "मेट": 6496,
      "▁दिखे": 6497,
      "▁सरकारों": 6498,
      "▁वर्षा": 6499,
      "भुत": 6500,
      "▁दुर्गा": 6501,
      "एससी": 6502,
      "▁कब्जे": 6503,
      "▁एक्सच": 6504,
      "▁ऑफ़": 6505,
      "▁अर्थात": 6506,
      "▁प्रेमी": 6507,
      "▁होगी.\n": 6508,
      "▁अगु": 6509,
      "▁मेन": 6510,
      "▁स्टॉक": 6511,
      "▁पुनर्": 6512,
      "रीबी": 6513,
      "▁Pr": 6514,
      "ill": 6515,
      "▁नाबाल": 6516,
      "▁अभाव": 6517,
      "▁राजन": 6518,
      "▁गंभीरता": 6519,
      "ोटे": 6520,
      "▁राजनाथ": 6521,
      "हरण": 6522,
      "▁लाई": 6523,
      "▁गेल": 6524,
      "▁चावल": 6525,
      "▁लगा।": 6526,
      "खण्ड": 6527,
      "▁Ch": 6528,
      "▁त्याग": 6529,
      "▁बौद्ध": 6530,
      "-5": 6531,
      "▁चूंकि": 6532,
      "▁धरना": 6533,
      "▁X": 6534,
      "▁एह": 6535,
      "▁वक़": 6536,
      "▁पवार": 6537,
      "▁पाइ": 6538,
      "▁आमंत्रित": 6539,
      "▁निर्मित": 6540,
      "▁मैसेज": 6541,
      "ang": 6542,
      "▁उत्सव": 6543,
      "▁बाधा": 6544,
      "▁भाभी": 6545,
      "▁निवेशकों": 6546,
      "▁सकें": 6547,
      "लक": 6548,
      "▁गड़ब": 6549,
      "पीड़": 6550,
      "▁ज़रूरत": 6551,
      "▁प्लास्टिक": 6552,
      "▁नशे": 6553,
      "ोगी": 6554,
      "गाव": 6555,
      "▁ड्यूटी": 6556,
      "▁जाएंगी": 6557,
      "▁इत्यादि": 6558,
      "▁देरी": 6559,
      "वाया": 6560,
      "ick": 6561,
      "▁नॉ": 6562,
      "▁एफआई": 6563,
      "▁है|\n": 6564,
      "▁ब्यूर": 6565,
      "▁सेल्": 6566,
      "▁चेत": 6567,
      "ैस": 6568,
      "▁हुई,": 6569,
      "▁काबू": 6570,
      "▁एस.": 6571,
      "पीय": 6572,
      "रियर": 6573,
      "▁ष": 6574,
      "▁अनुश": 6575,
      "▁at": 6576,
      "राण": 6577,
      "▁जूझ": 6578,
      "▁लिंग": 6579,
      "''": 6580,
      "▁हिट": 6581,
      "▁इक": 6582,
      "तू": 6583,
      "▁देशभर": 6584,
      "▁अनुसूचित": 6585,
      "डिया": 6586,
      "▁डाली": 6587,
      "▁लें।\n": 6588,
      "वर्ती": 6589,
      "▁अश्ली": 6590,
      "टीन": 6591,
      "ंसी": 6592,
      "▁हैं?\n": 6593,
      "▁इज": 6594,
      "▁(एन": 6595,
      "मध्ये": 6596,
      "ory": 6597,
      "▁43": 6598,
      "▁जुर्माना": 6599,
      "र्चे": 6600,
      "esh": 6601,
      "▁2000": 6602,
      "oogle": 6603,
      "▁कंग": 6604,
      "▁नमक": 6605,
      "▁मिलना": 6606,
      "मंत्र": 6607,
      "▁गर्व": 6608,
      "▁होश": 6609,
      "▁वें": 6610,
      "ear": 6611,
      "ंचित": 6612,
      "15": 6613,
      "नैतिक": 6614,
      "▁उज्ज": 6615,
      "▁लक": 6616,
      "ग्रा": 6617,
      "▁विषयों": 6618,
      "▁साक्षा": 6619,
      "▁49": 6620,
      "▁अंधे": 6621,
      "▁जाएगा,": 6622,
      "▁46": 6623,
      "▁हुए,": 6624,
      "▁गेहूं": 6625,
      "kar": 6626,
      "▁दर्शा": 6627,
      "शियों": 6628,
      "आइ": 6629,
      "▁रूपए": 6630,
      "-र": 6631,
      "▁गुम": 6632,
      "▁पदाधिकारी": 6633,
      "▁होते.\n": 6634,
      "▁नीला": 6635,
      "▁घंटों": 6636,
      "▁इंस्टा": 6637,
      "▁डीएम": 6638,
      "▁उत्तरी": 6639,
      "▁फैक्ट": 6640,
      "▁आहार": 6641,
      "▁निकला": 6642,
      "▁रायपुर": 6643,
      "▁India": 6644,
      "▁भोजपुरी": 6645,
      "▁वारदात": 6646,
      "ियस": 6647,
      "▁सेंसेक्स": 6648,
      "आरसी": 6649,
      "▁केले": 6650,
      "▁नजदीक": 6651,
      "▁आश्रम": 6652,
      "ुसार": 6653,
      "▁आतंकवादियों": 6654,
      "▁अतः": 6655,
      "▁गह": 6656,
      "मूर्ति": 6657,
      "▁47": 6658,
      "▁बुर": 6659,
      "▁सुर्ख": 6660,
      "ड़िया": 6661,
      "▁परिस्थितियों": 6662,
      "▁शुभकामना": 6663,
      "▁प्रय": 6664,
      "▁फैशन": 6665,
      "▁संतुल": 6666,
      "▁परियोजनाओं": 6667,
      "▁प्राथमिकता": 6668,
      "ोंग": 6669,
      "me": 6670,
      "-6": 6671,
      "ass": 6672,
      "ile": 6673,
      "▁महेश": 6674,
      "ach": 6675,
      "▁ब्रेक": 6676,
      "▁विवेक": 6677,
      "▁शरद": 6678,
      "▁नाकाम": 6679,
      "▁साफ़": 6680,
      "ड्र": 6681,
      "▁सरपंच": 6682,
      "▁लेकिन,": 6683,
      "▁जिंदा": 6684,
      "▁मनाने": 6685,
      "▁साथियों": 6686,
      "बीन": 6687,
      "▁कोर": 6688,
      "▁जौ": 6689,
      "▁संवेदनशील": 6690,
      "▁ट्रेनिंग": 6691,
      "▁निकाय": 6692,
      "▁बंट": 6693,
      "▁रांची": 6694,
      "▁दरों": 6695,
      "▁दिखने": 6696,
      "▁मद्देनजर": 6697,
      "▁हेम": 6698,
      "▁प्रोफ": 6699,
      "▁दीपा": 6700,
      "▁साधारण": 6701,
      "▁पूजन": 6702,
      "▁नाटक": 6703,
      "▁हां,": 6704,
      "र्वेद": 6705,
      "▁एक-एक": 6706,
      "▁टी-20": 6707,
      "ड्डी": 6708,
      "▁कार्यरत": 6709,
      "फ्फर": 6710,
      "▁स्वच्छता": 6711,
      "▁सेमीफाइनल": 6712,
      "जत": 6713,
      "▁रखती": 6714,
      "ial": 6715,
      "डो": 6716,
      "▁जुल": 6717,
      "▁अन्दर": 6718,
      "न्त्र": 6719,
      "▁हुए।": 6720,
      "▁दिना": 6721,
      "वाज": 6722,
      "▁निरंतर": 6723,
      "▁पड़ोसी": 6724,
      "▁हैं|": 6725,
      "▁बलों": 6726,
      "▁दस्तावेज": 6727,
      "पीसी": 6728,
      "▁लीड": 6729,
      "▁सुविधाएं": 6730,
      "19": 6731,
      "▁पाटी": 6732,
      "cc": 6733,
      "▁(S": 6734,
      "▁डा.\n": 6735,
      "काया": 6736,
      "चुनाव": 6737,
      "▁195": 6738,
      "▁देहरा": 6739,
      "स्वामी": 6740,
      "मार्ग": 6741,
      "▁ग्लो": 6742,
      "िफ": 6743,
      "▁अम्ब": 6744,
      "▁नाबालिग": 6745,
      "▁उद्ध": 6746,
      "स्पी": 6747,
      "▁बादल": 6748,
      "▁दें।\n": 6749,
      "▁दर्जा": 6750,
      "▁अस्तित्व": 6751,
      "▁जोड़ने": 6752,
      "▁परिचय": 6753,
      "ॉर्ट": 6754,
      "▁सालाना": 6755,
      "▁वसू": 6756,
      "▁कस्": 6757,
      "▁दी.\n": 6758,
      "▁मजबूती": 6759,
      "वेल": 6760,
      "▁रवी": 6761,
      "▁लिहाज": 6762,
      "बरा": 6763,
      "▁पाना": 6764,
      "▁मुठभ": 6765,
      "▁करवाई": 6766,
      "दो": 6767,
      "▁उन्न": 6768,
      "विश्वास": 6769,
      "▁रुपया": 6770,
      "िती": 6771,
      "ौज": 6772,
      "▁समर्पित": 6773,
      "▁थीं,": 6774,
      "▁सरदार": 6775,
      "▁2007": 6776,
      "ड़ा,": 6777,
      "▁निवास": 6778,
      "▁समर्थकों": 6779,
      "▁हादसा": 6780,
      "▁हुसैन": 6781,
      "▁बाप": 6782,
      "▁बॉडी": 6783,
      "▁संपादित": 6784,
      "▁सबूत": 6785,
      "पालिका": 6786,
      "दायक": 6787,
      "▁उपस्थिति": 6788,
      "▁स्नान": 6789,
      "न्दगी": 6790,
      "▁जोरदार": 6791,
      "▁सामूह": 6792,
      "ट,": 6793,
      "▁जनपद": 6794,
      "▁राजनैतिक": 6795,
      "▁शैली": 6796,
      "▁श्रीवास्तव": 6797,
      "▁अफसरों": 6798,
      "ष्क": 6799,
      "ated": 6800,
      "िना": 6801,
      "▁सिंग": 6802,
      "▁असे": 6803,
      "▁मतदाता": 6804,
      "तायात": 6805,
      "▁चिल": 6806,
      "▁कमर": 6807,
      "▁गवर्": 6808,
      "▁प्राधिकरण": 6809,
      "▁वक़्त": 6810,
      "▁तुलसी": 6811,
      "▁दफ्": 6812,
      "▁माइक्रो": 6813,
      "▁नतीजे": 6814,
      "▁रणवीर": 6815,
      "तीत": 6816,
      "▁शौचालय": 6817,
      "▁पेर": 6818,
      "धानिक": 6819,
      "ियंस": 6820,
      "▁निर्द": 6821,
      "▁इंजीनियरिंग": 6822,
      "▁कमेंट": 6823,
      "▁रोका": 6824,
      "▁चरित्र": 6825,
      "ेक्टर": 6826,
      "वालों": 6827,
      "▁जनजा": 6828,
      "▁सूच": 6829,
      "▁तीर्थ": 6830,
      "ोद": 6831,
      "▁बैग": 6832,
      "▁IST": 6833,
      "▁मरने": 6834,
      "है": 6835,
      "▁एप्": 6836,
      "▁यूं": 6837,
      "▁रहेगा।": 6838,
      "राज्य": 6839,
      "वर्ड": 6840,
      "▁ट्रेलर": 6841,
      "▁धान": 6842,
      "▁हिंदुस्तान": 6843,
      "▁लड़कियां": 6844,
      "▁वास": 6845,
      "▁उछ": 6846,
      "▁वेद": 6847,
      "ांजलि": 6848,
      "▁64": 6849,
      "▁मिला।\n": 6850,
      "पता": 6851,
      "▁साझेदारी": 6852,
      "▁अंतरिक्ष": 6853,
      "▁सिंचाई": 6854,
      "▁लांच": 6855,
      "▁फर्क": 6856,
      "्रेडिट": 6857,
      "▁बनती": 6858,
      "▁विश्लेषण": 6859,
      "शंकर": 6860,
      "▁क्षति": 6861,
      "▁फु": 6862,
      "▁अद्": 6863,
      "▁हर्ष": 6864,
      "▁श्रीनगर": 6865,
      "▁निलंब": 6866,
      "▁उधर,": 6867,
      "▁दफ्तर": 6868,
      "▁दें।": 6869,
      "▁यातायात": 6870,
      "शय": 6871,
      "▁नकारात्मक": 6872,
      "▁दिसम्बर": 6873,
      "▁ताज": 6874,
      "वार्ड": 6875,
      "▁कच्चे": 6876,
      "▁अनुष्का": 6877,
      "▁शत्र": 6878,
      "एं,": 6879,
      "लाइट": 6880,
      "कलन": 6881,
      "हिता": 6882,
      "मानी": 6883,
      "▁बुनियादी": 6884,
      "▁सामूहिक": 6885,
      "टीआई": 6886,
      "▁बटन": 6887,
      "दून": 6888,
      "▁कलाकारों": 6889,
      "▁आगरा": 6890,
      "ans": 6891,
      "-व": 6892,
      "▁मानें": 6893,
      "पया": 6894,
      "▁स्वभाव": 6895,
      "▁अमे": 6896,
      "▁पच": 6897,
      "▁डिवाइस": 6898,
      "▁Pro": 6899,
      "▁कलर": 6900,
      "▁जानना": 6901,
      "▁आदत": 6902,
      "लिये": 6903,
      "केज": 6904,
      "▁निफ्टी": 6905,
      "▁कमाल": 6906,
      "▁असफल": 6907,
      "▁पाउडर": 6908,
      "▁UP": 6909,
      "▁प्याज": 6910,
      "काय": 6911,
      "▁ऋषि": 6912,
      "▁आईए": 6913,
      "▁माध्यमिक": 6914,
      "▁पढ़े\n": 6915,
      "▁बोझ": 6916,
      "▁ड्रेस": 6917,
      "▁आपदा": 6918,
      "▁400": 6919,
      "▁ग्रीन": 6920,
      "▁खेली": 6921,
      "▁अधिसूचना": 6922,
      "▁समझते": 6923,
      "▁सेल्स": 6924,
      "▁ज्योतिष": 6925,
      "▁रिम": 6926,
      "▁रोशन": 6927,
      "▁इन्हीं": 6928,
      "▁डाले": 6929,
      "ड्डे": 6930,
      "पूत": 6931,
      "▁एकल": 6932,
      "▁हॉट": 6933,
      "-19": 6934,
      "▁कार्तिक": 6935,
      "▁प्रदीप": 6936,
      "▁को,": 6937,
      "▁सम्बंध": 6938,
      "▁मानने": 6939,
      "▁गिरने": 6940,
      "▁जॉन": 6941,
      "टकों": 6942,
      "▁सलाहकार": 6943,
      "▁बैंकिंग": 6944,
      "▁सुशील": 6945,
      "▁गढ़": 6946,
      "▁जाएगा.": 6947,
      "▁निकाली": 6948,
      "load": 6949,
      "▁सैम": 6950,
      "र्वाद": 6951,
      "▁आपसी": 6952,
      "▁कोट": 6953,
      "▁खर": 6954,
      "▁रिश्ता": 6955,
      "▁आचार्य": 6956,
      "▁मेड़ी": 6957,
      "िणी": 6958,
      "▁(1)": 6959,
      "▁कहकर": 6960,
      "ack": 6961,
      "▁रुचि": 6962,
      "▁अधिव": 6963,
      "▁ही,": 6964,
      "▁भूप": 6965,
      "▁उभर": 6966,
      "▁साइकिल": 6967,
      "▁इंस्टाग्राम": 6968,
      "▁अत्यंत": 6969,
      "▁डॉकटर": 6970,
      "▁मेड़ीसिन": 6971,
      "▁रैंकिंग": 6972,
      "▁चांदी": 6973,
      "ालों": 6974,
      "▁फायदेमंद": 6975,
      "ष्णा": 6976,
      "▁दोस्ती": 6977,
      "▁धूप": 6978,
      "▁जमी": 6979,
      "▁And": 6980,
      "▁मैनेजर": 6981,
      "बंद": 6982,
      "▁सदा": 6983,
      "र्फ़": 6984,
      "▁प्रोडक्ट": 6985,
      "▁ग्रा": 6986,
      "▁थाम": 6987,
      "▁संस्थाओं": 6988,
      "▁शर्त": 6989,
      "नामा": 6990,
      "▁हॉकी": 6991,
      "दृ": 6992,
      "ल्ले": 6993,
      "▁मीटिंग": 6994,
      "▁अनुप": 6995,
      "▁जायेगा": 6996,
      "▁एटीएम": 6997,
      "▁गठित": 6998,
      "▁सब्जी": 6999,
      "▁गर्भ": 7000,
      "▁अजीब": 7001,
      "्यात": 7002,
      "विंग": 7003,
      "शिक": 7004,
      "▁धारण": 7005,
      "▁बहरहाल": 7006,
      "ळा": 7007,
      "▁उपन्यास": 7008,
      "▁क्रांति": 7009,
      "▁क्रेडिट": 7010,
      "▁2,": 7011,
      "▁52": 7012,
      "▁फंस": 7013,
      "▁एक्सचेंज": 7014,
      "▁लहर": 7015,
      "▁पैमाने": 7016,
      "▁उपयोगी": 7017,
      "▁पाती": 7018,
      "▁दुल": 7019,
      "▁me": 7020,
      "▁जोड़ा": 7021,
      "▁चपेट": 7022,
      "▁तुम्हारी": 7023,
      "▁जाप": 7024,
      "▁जाएंगे।": 7025,
      "▁प्राण": 7026,
      "▁बदमाशों": 7027,
      "भूषण": 7028,
      "▁चलाया": 7029,
      "▁भेंट": 7030,
      "▁यूजर": 7031,
      "न्नी": 7032,
      "▁ठंड": 7033,
      "-भ": 7034,
      "फ्रेंड": 7035,
      "▁मेजब": 7036,
      "▁भूकंप": 7037,
      "▁कैद": 7038,
      "▁अपहरण": 7039,
      "▁अनुमानित": 7040,
      "▁बुद्ध": 7041,
      "▁खेलते": 7042,
      "्टा": 7043,
      "▁1000": 7044,
      "▁मुठभेड़": 7045,
      "▁....": 7046,
      "▁भक्ति": 7047,
      "चंद्र": 7048,
      "▁रियल": 7049,
      "▁केला": 7050,
      "ंधे": 7051,
      "▁म्": 7052,
      "▁दलितों": 7053,
      "ंगिक": 7054,
      "मार्टम": 7055,
      "▁आयुर्वेद": 7056,
      "▁हरे": 7057,
      "ru": 7058,
      "▁कड़ा": 7059,
      "ंटन": 7060,
      "▁बनाता": 7061,
      "▁दी.": 7062,
      "▁कोतवाली": 7063,
      "▁मुजफ्फर": 7064,
      "▁छत": 7065,
      "▁अधिकारों": 7066,
      "▁आह्वान": 7067,
      "ाइन": 7068,
      "▁कुश": 7069,
      "▁सांसदों": 7070,
      "▁बाई": 7071,
      "▁ढूंढ": 7072,
      "▁अर्ध": 7073,
      "-ट": 7074,
      "▁मिर्च": 7075,
      ".30": 7076,
      "▁आयकर": 7077,
      "▁गर्ल": 7078,
      "▁चांद": 7079,
      "▁मासूम": 7080,
      "▁प्लांट": 7081,
      "▁नर्स": 7082,
      "▁us": 7083,
      "▁खाम": 7084,
      "▁पी.": 7085,
      "▁समर्थक": 7086,
      "▁वाई": 7087,
      "ress": 7088,
      "▁आधे": 7089,
      "▁गोयल": 7090,
      "▁ठोस": 7091,
      "जि": 7092,
      "▁सनी": 7093,
      "▁ऑप": 7094,
      "▁अद्भुत": 7095,
      "ॉयड": 7096,
      "▁भगत": 7097,
      "▁एसडीएम": 7098,
      "▁प्रस्तावित": 7099,
      "▁कट्टर": 7100,
      "▁पेशकश": 7101,
      "▁विशेषज्ञों": 7102,
      "▁पाठक": 7103,
      "▁राजेंद्र": 7104,
      "▁जब्त": 7105,
      "▁पहना": 7106,
      "▁(A": 7107,
      "▁गयी।": 7108,
      "▁आस्था": 7109,
      "▁अहमदाबाद": 7110,
      "▁3.": 7111,
      "▁इट": 7112,
      "▁कीमतें": 7113,
      "▁पलट": 7114,
      "▁श्रद्धा": 7115,
      "चरण": 7116,
      "▁कवर": 7117,
      "ए)": 7118,
      "नाश": 7119,
      "राइ": 7120,
      "-पा": 7121,
      "▁पोस्टमार्टम": 7122,
      "न्ड": 7123,
      "गेट": 7124,
      "▁दिए।\n": 7125,
      "▁पाठ्यक्रम": 7126,
      "▁अरे": 7127,
      "▁बृह": 7128,
      "▁सम्प": 7129,
      "▁मध्यम": 7130,
      "▁हैंड": 7131,
      "▁एसी": 7132,
      "ूद": 7133,
      "▁संहिता": 7134,
      "▁वाम": 7135,
      "▁हों,": 7136,
      "▁बहादुर": 7137,
      "▁गरीबों": 7138,
      "स्को": 7139,
      "▁गरीबी": 7140,
      "▁बाज": 7141,
      "कॉम": 7142,
      "▁जाग": 7143,
      "17": 7144,
      "▁जूनियर": 7145,
      "▁हराकर": 7146,
      "लाश": 7147,
      "दाद": 7148,
      "▁अपर": 7149,
      "▁जितने": 7150,
      "▁भव्य": 7151,
      "णिज": 7152,
      "▁क्रिस": 7153,
      "▁विचारधारा": 7154,
      "▁लघु": 7155,
      "▁गहरी": 7156,
      "▁प्रत्यक्ष": 7157,
      "▁यकीन": 7158,
      "▁सीता": 7159,
      "जीवन": 7160,
      "▁सदर": 7161,
      "डिय़": 7162,
      "▁हिम्मत": 7163,
      "ईडी": 7164,
      "ोजक": 7165,
      "▁i": 7166,
      "▁देहरादून": 7167,
      "कांक": 7168,
      "▁बाद,": 7169,
      "▁निर्देशन": 7170,
      "वाड़ी": 7171,
      "▁फरीदाबाद": 7172,
      "▁रोमांच": 7173,
      "▁महत्त्व": 7174,
      "▁गुप्त": 7175,
      "▁दुरु": 7176,
      "▁रोशनी": 7177,
      "▁हो.": 7178,
      "णिज्य": 7179,
      "स्वरूप": 7180,
      "▁मोटा": 7181,
      "hone": 7182,
      "▁किल": 7183,
      "ोज़": 7184,
      "िकोण": 7185,
      "फार्म": 7186,
      "▁डेब": 7187,
      "▁Al": 7188,
      "▁भारतीयों": 7189,
      "▁अनुरूप": 7190,
      "▁ओब": 7191,
      "ेंगे.\n": 7192,
      "ाइड": 7193,
      "ँह": 7194,
      "▁कृपा": 7195,
      "24": 7196,
      "▁शिश": 7197,
      "▁गोरखपुर": 7198,
      "ुलकर": 7199,
      "▁क्रमश": 7200,
      "▁प्रयासों": 7201,
      "▁इने": 7202,
      "▁कभी-क": 7203,
      "▁लड": 7204,
      "▁फूड": 7205,
      "▁काग": 7206,
      "▁मलिक": 7207,
      "▁ब्लड": 7208,
      "पाठी": 7209,
      "▁56": 7210,
      "▁App": 7211,
      "▁रणबीर": 7212,
      "▁मात": 7213,
      "▁है...": 7214,
      "▁डाक": 7215,
      "▁स्त": 7216,
      "▁ट्रैफिक": 7217,
      "िव्य": 7218,
      "▁फुल": 7219,
      "▁इजाफा": 7220,
      "▁रेडियो": 7221,
      "▁सुषमा": 7222,
      "▁जागरण": 7223,
      "-बा": 7224,
      "▁बढ़ाकर": 7225,
      "▁शुभार": 7226,
      "▁ठाकरे": 7227,
      "▁बीत": 7228,
      "▁एचडी": 7229,
      "नीत": 7230,
      "▁व्यक्तित्व": 7231,
      "जिन": 7232,
      "्ठी": 7233,
      "पीएस": 7234,
      "▁अवगत": 7235,
      "▁हरकत": 7236,
      "▁पंक": 7237,
      "▁de": 7238,
      "व्र": 7239,
      "▁जरा": 7240,
      "▁मिलेगी।\n": 7241,
      "ult": 7242,
      "▁स्कीम": 7243,
      "्रल": 7244,
      "▁रूट": 7245,
      "▁कैप्ट": 7246,
      "▁स्पीड": 7247,
      "▁ट्रैक": 7248,
      "▁अश्लील": 7249,
      "▁तालाब": 7250,
      "▁वर्क": 7251,
      "▁(4": 7252,
      "▁स्थायी": 7253,
      "ार्थी": 7254,
      "शिंग": 7255,
      "▁कुंड": 7256,
      "▁Up": 7257,
      "-त": 7258,
      "▁रात्रि": 7259,
      "ana": 7260,
      "▁है!": 7261,
      "▁दें,": 7262,
      "▁एफआईआर": 7263,
      "▁प्रतिस्प": 7264,
      "▁ट्रॉ": 7265,
      "▁मिलेगी": 7266,
      "▁स्वाद": 7267,
      "▁मोड़": 7268,
      "▁ख्याल": 7269,
      "ंवर": 7270,
      "):": 7271,
      "▁आकर्षक": 7272,
      "जाने": 7273,
      "▁फस": 7274,
      "▁बेश": 7275,
      "▁54": 7276,
      "▁ब्यूरो": 7277,
      "▁लड़का": 7278,
      "▁पैरों": 7279,
      "▁ख़ास": 7280,
      "creen": 7281,
      "▁आजम": 7282,
      "▁विवादित": 7283,
      "त्तर": 7284,
      "िमा": 7285,
      "▁चिप": 7286,
      "▁अध्यापक": 7287,
      "14": 7288,
      "▁सप्लाई": 7289,
      "स्तु": 7290,
      "▁कना": 7291,
      "दमी": 7292,
      "ेंच": 7293,
      "▁Bh": 7294,
      "▁आड": 7295,
      "▁आंकड़ा": 7296,
      "▁शरीफ": 7297,
      "ीकरण": 7298,
      "▁ज्व": 7299,
      "ाना,": 7300,
      "▁म्हण": 7301,
      "▁सुन्दर": 7302,
      "▁स्टील": 7303,
      "▁फेड": 7304,
      "▁आशीर्वाद": 7305,
      "▁घटा": 7306,
      "▁कामकाज": 7307,
      "▁बैठकर": 7308,
      "ंचल": 7309,
      "▁लेखन": 7310,
      "▁रहे,": 7311,
      "▁De": 7312,
      "रात्रि": 7313,
      "्रीट": 7314,
      ":0": 7315,
      "▁कृपया": 7316,
      "▁सौंपा": 7317,
      "▁रिश्तों": 7318,
      "र्त": 7319,
      "▁रघु": 7320,
      "▁वंचित": 7321,
      "▁अंश": 7322,
      "▁मेला": 7323,
      "्रेसी": 7324,
      "▁पार्षद": 7325,
      "▁प्रांत": 7326,
      "▁AM": 7327,
      "▁ज़रूरी": 7328,
      "▁चैम्प": 7329,
      "roid": 7330,
      "▁स्टोरी": 7331,
      "▁लिहाजा": 7332,
      "▁होगी.": 7333,
      "▁पाये": 7334,
      "▁ख़िला": 7335,
      "▁The": 7336,
      "▁निया": 7337,
      "▁be": 7338,
      "▁जीतकर": 7339,
      "ष्म": 7340,
      "▁अधिग्रहण": 7341,
      "▁असा": 7342,
      "▁दिव्या": 7343,
      "▁टेनिस": 7344,
      "▁उपचुनाव": 7345,
      "▁पिटाई": 7346,
      "▁अधीन": 7347,
      "विड": 7348,
      "▁संजीव": 7349,
      "क्ल": 7350,
      "▁महाविद्यालय": 7351,
      "▁आले": 7352,
      "धाम": 7353,
      "▁खनन": 7354,
      "▁बाला": 7355,
      ":4": 7356,
      "▁पन": 7357,
      "ोगे": 7358,
      "▁मांस": 7359,
      ":3": 7360,
      "▁पठ": 7361,
      "▁आईसीसी": 7362,
      "ग्व": 7363,
      "▁मले": 7364,
      "▁उतरे": 7365,
      "देशक": 7366,
      "▁हेल": 7367,
      "▁सत्या": 7368,
      "▁नृत्य": 7369,
      "-इ": 7370,
      "ैम": 7371,
      "▁नैतिक": 7372,
      "जुट": 7373,
      "▁निंदा": 7374,
      "▁शिक्षण": 7375,
      "▁करना,": 7376,
      "▁दुब": 7377,
      "▁सिद्धार्थ": 7378,
      "ंगन": 7379,
      "▁टी20": 7380,
      "▁मजाक": 7381,
      "▁मुखिया": 7382,
      "झी": 7383,
      "▁दिनांक": 7384,
      "▁Ad": 7385,
      "▁हुड्डा": 7386,
      "▁प्रका": 7387,
      "▁औष": 7388,
      "वारा": 7389,
      "फेल": 7390,
      "िक्सल": 7391,
      "▁समस्याएं": 7392,
      "ज्य": 7393,
      "क्ष्य": 7394,
      "▁सर्वेक्षण": 7395,
      "▁51": 7396,
      "शान": 7397,
      "▁टेक्नोलॉजी": 7398,
      "▁Pre": 7399,
      "ार्थियों": 7400,
      "▁72": 7401,
      "भूति": 7402,
      ".com/": 7403,
      "▁साक्षात्कार": 7404,
      "▁फेल": 7405,
      ":5": 7406,
      "▁मांगा": 7407,
      "▁मतदाताओं": 7408,
      "▁देंगे।\n": 7409,
      "ैश": 7410,
      "▁सर्क": 7411,
      "ोली": 7412,
      "▁भागीदारी": 7413,
      "▁देखभाल": 7414,
      "-10": 7415,
      "▁आज़ा": 7416,
      "▁एकजुट": 7417,
      "og": 7418,
      "▁पक्षों": 7419,
      "ध्याय": 7420,
      "▁आसमान": 7421,
      "▁ओड": 7422,
      "▁अल्लाह": 7423,
      "▁झाल": 7424,
      "र्की": 7425,
      "घाट": 7426,
      "विजन": 7427,
      "ram": 7428,
      "▁रावण": 7429,
      "▁एकड़": 7430,
      "▁हेल्थ": 7431,
      "▁रौ": 7432,
      "▁सूचकांक": 7433,
      "▁सब्ज": 7434,
      "्स,": 7435,
      "▁फोर": 7436,
      "▁रिटर्न": 7437,
      "▁अमरीकी": 7438,
      "्यांक": 7439,
      "टेल": 7440,
      "र्टी": 7441,
      "▁मजदूरों": 7442,
      "▁ऊंचाई": 7443,
      "▁सपोर्ट": 7444,
      "कारियों": 7445,
      "▁इनेलो": 7446,
      "▁गाँधी": 7447,
      "▁सकता।\n": 7448,
      "▁हमे": 7449,
      "▁वैज्ञानिकों": 7450,
      "▁अपराधियों": 7451,
      "▁लाह": 7452,
      "-18": 7453,
      "▁'स": 7454,
      "▁गार": 7455,
      "▁ऑडियो": 7456,
      "पंथी": 7457,
      "▁निराशा": 7458,
      "▁(म": 7459,
      "▁नियंत्रित": 7460,
      "▁संदेह": 7461,
      "▁पहुंचकर": 7462,
      "प्पल": 7463,
      "▁वाणिज्य": 7464,
      "खल": 7465,
      "▁चौके": 7466,
      "लिटी": 7467,
      "िथ": 7468,
      "▁अवार्ड": 7469,
      "▁इंस्प": 7470,
      "▁कॉर्": 7471,
      "च्छेद": 7472,
      "▁स्वराज": 7473,
      "▁आधी": 7474,
      "स्टल": 7475,
      "▁लगे।": 7476,
      "▁सर्च": 7477,
      "▁शाहिद": 7478,
      "▁छेड़छाड़": 7479,
      "▁हूं.": 7480,
      "▁जरुरत": 7481,
      "▁घाय": 7482,
      "वादियों": 7483,
      "▁संवाददाता": 7484,
      "▁धर्मशाला": 7485,
      "▁मौजूदगी": 7486,
      "▁सूरत": 7487,
      "▁मजे": 7488,
      "▁उजा": 7489,
      "▁जोड़े": 7490,
      "▁धात": 7491,
      "▁सीईओ": 7492,
      "▁राजपूत": 7493,
      "dit": 7494,
      "हाद": 7495,
      "▁श्रेय": 7496,
      "▁दस्त": 7497,
      "▁उपरा": 7498,
      "▁उत्पीड़": 7499,
      "▁करें.\n": 7500,
      "▁अभिव्य": 7501,
      "▁जिलाधिकारी": 7502,
      "▁विफल": 7503,
      "ुरू": 7504,
      "ायती": 7505,
      "▁अवतार": 7506,
      "टेन": 7507,
      "▁सब्सिडी": 7508,
      "मर्श": 7509,
      "▁किंतु": 7510,
      "▁काटने": 7511,
      "▁दंड": 7512,
      "▁एंट्री": 7513,
      "वाहा": 7514,
      "▁गुड": 7515,
      "▁चुदाई": 7516,
      "▁ली।": 7517,
      "-ख": 7518,
      "▁गुड़": 7519,
      "▁वृक्ष": 7520,
      "ry": 7521,
      "▁नसी": 7522,
      "▁फ़ोन": 7523,
      "▁ज़रूर": 7524,
      "▁हौ": 7525,
      "▁सिलसिला": 7526,
      "▁यूरोपीय": 7527,
      "ree": 7528,
      "/0": 7529,
      "▁रोह": 7530,
      "▁बढ़ाया": 7531,
      "▁हूँ,": 7532,
      "▁छिपा": 7533,
      "▁निशाने": 7534,
      "▁विक्रम": 7535,
      "रेटर": 7536,
      "वर्धन": 7537,
      "▁चिद": 7538,
      "▁अंबानी": 7539,
      "ूष": 7540,
      "▁मिलेगा।": 7541,
      "▁समीप": 7542,
      "▁सान": 7543,
      "▁रहस्य": 7544,
      "▁Ex": 7545,
      "▁मेरठ": 7546,
      "▁तप": 7547,
      "▁हमलों": 7548,
      "SL": 7549,
      "▁पकड़े": 7550,
      "ेंसी": 7551,
      "▁नतीजा": 7552,
      "▁चर्": 7553,
      "▁प्रिंस": 7554,
      "▁तत्वों": 7555,
      "▁जागरूकता": 7556,
      "ID": 7557,
      "ण्य": 7558,
      "स्वती": 7559,
      "▁डोनाल्ड": 7560,
      "▁घटनाएं": 7561,
      "▁मिळ": 7562,
      "▁निपट": 7563,
      "▁किस्म": 7564,
      "▁मिठ": 7565,
      "70": 7566,
      "▁नाक": 7567,
      "एक्स": 7568,
      "रेली": 7569,
      "▁त्रिपाठी": 7570,
      "लपुर": 7571,
      "ie": 7572,
      "▁संतु": 7573,
      "-मु": 7574,
      "▁दस्तावे": 7575,
      "▁चौथी": 7576,
      "▁भीम": 7577,
      "▁इंकार": 7578,
      "▁मारकर": 7579,
      "▁इच्छुक": 7580,
      "धित": 7581,
      "s,": 7582,
      "▁जोन": 7583,
      "▁इकट": 7584,
      "▁तेलंग": 7585,
      "▁स्रोत": 7586,
      "▁जीने": 7587,
      "▁जुटा": 7588,
      "बै": 7589,
      "पनों": 7590,
      "▁लाए": 7591,
      "▁निव": 7592,
      "संख्या": 7593,
      "▁शत्रु": 7594,
      "िने": 7595,
      "▁श्रद्धांजलि": 7596,
      "16": 7597,
      "▁भला": 7598,
      "▁कैच": 7599,
      "ोश": 7600,
      "ect": 7601,
      "▁वस्तुओं": 7602,
      "▁सिर्फ़": 7603,
      "▁आखिरकार": 7604,
      "▁जवाहर": 7605,
      "▁सेन": 7606,
      "▁कैप्टन": 7607,
      "▁इजाजत": 7608,
      "लिस्ट": 7609,
      "ामु": 7610,
      "बाई": 7611,
      "चार्ज": 7612,
      "ownload": 7613,
      "▁परिजन": 7614,
      "▁दरवाजे": 7615,
      "▁लायक": 7616,
      "▁कहला": 7617,
      "▁उद्यम": 7618,
      "▁दी,": 7619,
      "▁फार": 7620,
      "▁राजने": 7621,
      "▁(क": 7622,
      "▁चट": 7623,
      "▁पांड": 7624,
      "▁with": 7625,
      "▁अपराधी": 7626,
      "▁सकता।": 7627,
      "▁पारिवार": 7628,
      "india": 7629,
      "▁लीजिए": 7630,
      "वाड़": 7631,
      "सीआई": 7632,
      "▁अकबर": 7633,
      "▁देनी": 7634,
      "▁आपात": 7635,
      "▁घी": 7636,
      "▁छात्राओं": 7637,
      "आउट": 7638,
      "▁व्यावसाय": 7639,
      "▁घुट": 7640,
      "▁भावनाओं": 7641,
      "▁सस्ता": 7642,
      "शास्त्र": 7643,
      "▁इंद्र": 7644,
      "▁बृहस्पति": 7645,
      "व्या": 7646,
      "वश": 7647,
      "▁लेवल": 7648,
      "डन": 7649,
      "▁पॉल": 7650,
      "रीबन": 7651,
      "▁देवता": 7652,
      "▁रहेगी।\n": 7653,
      "थन": 7654,
      "▁कृष्णा": 7655,
      "▁तड़": 7656,
      "▁घो": 7657,
      "▁आसार": 7658,
      "▁बहाने": 7659,
      "5)": 7660,
      "▁करीबी": 7661,
      "▁मेघ": 7662,
      "▁किए।\n": 7663,
      "▁प्रतिबद्ध": 7664,
      "▁शता": 7665,
      "▁दादा": 7666,
      "▁पदाधिकारियों": 7667,
      "▁सोचने": 7668,
      "दरी": 7669,
      "ari": 7670,
      "▁प्रतिनिधित्व": 7671,
      "▁पीछा": 7672,
      "▁घायलों": 7673,
      "ft": 7674,
      "▁एजेंसियों": 7675,
      "▁गये।": 7676,
      "तिर": 7677,
      "▁स्वीकृति": 7678,
      "▁निकली": 7679,
      "▁आॅ": 7680,
      "िकों": 7681,
      "▁हाला": 7682,
      "▁१९": 7683,
      "▁आंतर": 7684,
      "▁नक्सलियों": 7685,
      "▁अनुवाद": 7686,
      "▁करें.": 7687,
      "▁इलेक्ट्रॉन": 7688,
      "▁कीजिए": 7689,
      "▁आरा": 7690,
      "▁भाषाओं": 7691,
      "रस": 7692,
      "▁बिलास": 7693,
      "तुल": 7694,
      "ख्यात": 7695,
      "▁पैकेज": 7696,
      "▁युक्त": 7697,
      "▁हिल": 7698,
      "▁२०": 7699,
      "▁पांडेय": 7700,
      "ज़न": 7701,
      "ष्कार": 7702,
      "फाई": 7703,
      "▁श्रेष्ठ": 7704,
      "▁न्यायिक": 7705,
      "▁दरवाजा": 7706,
      "▁सिंडी": 7707,
      "प्रति": 7708,
      "▁करेगा।": 7709,
      "द्रोह": 7710,
      "▁कराना": 7711,
      "▁अत्यधिक": 7712,
      "▁खुली": 7713,
      "▁रोटी": 7714,
      "▁न्यायमूर्ति": 7715,
      "iz": 7716,
      "▁प्रवी": 7717,
      "▁फ्रंट": 7718,
      "▁करण्या": 7719,
      "▁यांच्या": 7720,
      "ank": 7721,
      "▁आलू": 7722,
      "▁क्षण": 7723,
      "▁हसन": 7724,
      "याम": 7725,
      "▁डिफ": 7726,
      "▁सेंसर": 7727,
      "ब्बत": 7728,
      "▁मेकअप": 7729,
      "▁चरम": 7730,
      "▁सिंडीकेट": 7731,
      "▁आलोक": 7732,
      "वार्थ": 7733,
      "ंद्रा": 7734,
      "▁फेर": 7735,
      "ोजित": 7736,
      "▁En": 7737,
      "▁कुशल": 7738,
      "▁पारिवारिक": 7739,
      "▁बिन": 7740,
      "▁ke": 7741,
      "▁Mar": 7742,
      "राधिक": 7743,
      "स्सी": 7744,
      "प्रे": 7745,
      "खाने": 7746,
      "▁इंस्टी": 7747,
      "▁परिचाल": 7748,
      "▁सीन": 7749,
      "▁सिद्धांत": 7750,
      "▁सरस्वती": 7751,
      "▁इसलिये": 7752,
      "▁गरम": 7753,
      "▁मंत्रिमंडल": 7754,
      "▁बोर": 7755,
      "सेट": 7756,
      "▁औप": 7757,
      "▁रेस": 7758,
      "▁कभी-कभी": 7759,
      "▁रजनी": 7760,
      "रुण": 7761,
      "▁मोटरसाइ": 7762,
      "्ति": 7763,
      "▁उतनी": 7764,
      "▁अभिभाव": 7765,
      "ती,": 7766,
      "▁पहाड़ी": 7767,
      "▁ख़िलाफ़": 7768,
      "▁सोचते": 7769,
      "-17": 7770,
      "▁यूट": 7771,
      "▁4.": 7772,
      "▁चिन्ह": 7773,
      "▁क्वार": 7774,
      "▁बगैर": 7775,
      "13": 7776,
      "ुली": 7777,
      "▁इशारा": 7778,
      "▁एडी": 7779,
      "िरो": 7780,
      "ath": 7781,
      "▁मांगने": 7782,
      "▁आँखों": 7783,
      "▁you": 7784,
      "▁लड़कों": 7785,
      "▁बलि": 7786,
      "मरी": 7787,
      "िएट": 7788,
      "ight": 7789,
      "▁मैनेजमेंट": 7790,
      "▁छीन": 7791,
      "ॉस": 7792,
      "डून": 7793,
      "▁ओडिशा": 7794,
      "▁बचत": 7795,
      "▁फायरिंग": 7796,
      "▁प्रसारण": 7797,
      "र्जर": 7798,
      "▁शोक": 7799,
      "▁आरबीआई": 7800,
      "▁संस्थापक": 7801,
      "▁मेहमान": 7802,
      "ash": 7803,
      "▁बैठी": 7804,
      "▁भास्कर": 7805,
      "▁आर्मी": 7806,
      "नाल": 7807,
      "▁किलोग्राम": 7808,
      "▁सतर्क": 7809,
      "▁पटा": 7810,
      "▁घूमने": 7811,
      "▁तरंग": 7812,
      "▁तस्वीरों": 7813,
      "▁रामदेव": 7814,
      "▁ट्रस्ट": 7815,
      "▁विडियो": 7816,
      "ध्यात्म": 7817,
      "▁कैलाश": 7818,
      "▁लाश": 7819,
      "तिथि": 7820,
      "▁केंद्रित": 7821,
      "▁पड़ा।": 7822,
      "▁संपूर्ण": 7823,
      "िफिकेशन": 7824,
      ":-": 7825,
      "▁बनते": 7826,
      "pl": 7827,
      "इंग": 7828,
      "▁जख": 7829,
      "▁अनाज": 7830,
      "▁एसिड": 7831,
      "ामक": 7832,
      "▁असून": 7833,
      "▁दृष्टिकोण": 7834,
      "▁कुमारी": 7835,
      "▁घेर": 7836,
      "▁मिला।": 7837,
      "▁फाउंड": 7838,
      "पोरेट": 7839,
      "ata": 7840,
      "ैसे": 7841,
      "▁काय": 7842,
      "▁राफेल": 7843,
      "▁उत्स": 7844,
      "▁जताया": 7845,
      "low": 7846,
      "▁Hindi\n": 7847,
      "▁प्रशांत": 7848,
      "****": 7849,
      "डम": 7850,
      "▁भेदभाव": 7851,
      "म्परा": 7852,
      "कृष्ट": 7853,
      "▁गिन": 7854,
      "▁रंग,": 7855,
      "▁करीना": 7856,
      "▁इंतजाम": 7857,
      "▁पंकज": 7858,
      "EO": 7859,
      "▁53": 7860,
      "लील": 7861,
      "▁मोट": 7862,
      "गरी": 7863,
      "्नि": 7864,
      "▁आलिया": 7865,
      "▁बूथ": 7866,
      "डोर": 7867,
      "▁प्रकाशन": 7868,
      "▁वर्णन": 7869,
      "केल": 7870,
      "▁सफ़": 7871,
      "▁(C": 7872,
      "▁कम्पनी": 7873,
      "▁पंत": 7874,
      "वह": 7875,
      "लेश": 7876,
      "लिख": 7877,
      "▁में।": 7878,
      "▁हस्तक्षेप": 7879,
      "▁मुँह": 7880,
      "▁गिरी": 7881,
      "▁हिम": 7882,
      "▁सिलसिले": 7883,
      "▁सतीश": 7884,
      "▁हितों": 7885,
      "▁नाइ": 7886,
      "▁58": 7887,
      "▁समझना": 7888,
      "▁हवाला": 7889,
      "▁झाले": 7890,
      "udi": 7891,
      "▁छाया": 7892,
      "▁संभावित": 7893,
      "▁मसले": 7894,
      "▁फीसद": 7895,
      "कांड": 7896,
      "SC": 7897,
      "▁सदी": 7898,
      "▁साहिब": 7899,
      "▁सीसीटीवी": 7900,
      "▁चुनौ": 7901,
      "▁सेंट्रल": 7902,
      "▁महोत्सव": 7903,
      "▁बालक": 7904,
      "▁टेबल": 7905,
      "▁मिलियन": 7906,
      "▁उत्पीड़न": 7907,
      "▁पुज": 7908,
      "▁शुक्ला": 7909,
      "▁अमीर": 7910,
      "▁नरेश": 7911,
      "ption": 7912,
      "▁कबीर": 7913,
      "जिट": 7914,
      "▁दुकानों": 7915,
      "orm": 7916,
      "▁देखता": 7917,
      "वानिव": 7918,
      "गुरु": 7919,
      "मय": 7920,
      "▁न्यूय": 7921,
      "ge": 7922,
      "▁तीव्र": 7923,
      "ांनी": 7924,
      "▁खोला": 7925,
      "▁Sh": 7926,
      "▁उपयुक्त": 7927,
      "▁जगा": 7928,
      "वण": 7929,
      "थल": 7930,
      "न्ने": 7931,
      "ोटा": 7932,
      "▁मांगे": 7933,
      "जिया": 7934,
      "▁मासिक": 7935,
      "▁लू": 7936,
      "▁हॉस्प": 7937,
      "▁ईमेल": 7938,
      "▁औरत": 7939,
      "▁जिसको": 7940,
      "▁जाएँ": 7941,
      "पोर": 7942,
      "▁खैर": 7943,
      "▁फोटोग्रा": 7944,
      "चलित": 7945,
      "▁कैप": 7946,
      "▁बिगड़": 7947,
      "▁रहेंगे।\n": 7948,
      "▁भौतिक": 7949,
      "▁nan\n": 7950,
      "▁पर्दे": 7951,
      "▁मथ": 7952,
      "▁जाट": 7953,
      "▁पायलट": 7954,
      "▁मिसाइल": 7955,
      "▁बाँ": 7956,
      "▁नारी": 7957,
      "द्घ": 7958,
      "▁आपराधिक": 7959,
      "▁डिली": 7960,
      "▁है..": 7961,
      "▁सशक्त": 7962,
      "▁रिक्त": 7963,
      "िएंट": 7964,
      "▁2006": 7965,
      "एमएस": 7966,
      "▁पश्चात": 7967,
      ".in": 7968,
      "▁फुटबॉल": 7969,
      "▁फंसे": 7970,
      "▁जद": 7971,
      "वा,": 7972,
      "▁घेत": 7973,
      "▁लापता": 7974,
      "▁साहस": 7975,
      "▁उर्": 7976,
      "लत": 7977,
      "▁ऋष": 7978,
      "▁टेल": 7979,
      "▁ग्लोबल": 7980,
      "ंजा": 7981,
      "▁केंद्रों": 7982,
      "▁जरुरी": 7983,
      "▁+": 7984,
      "्रु": 7985,
      "▁अनुराग": 7986,
      "▁प्रिंट": 7987,
      "▁स्वाभाव": 7988,
      "▁जॉब": 7989,
      "▁नकदी": 7990,
      "▁(हप्र": 7991,
      ":00": 7992,
      "▁तेजस्वी": 7993,
      "▁तोड़ने": 7994,
      "▁लिखते": 7995,
      "▁ग्वाल": 7996,
      "▁क्यो": 7997,
      "▁केदार": 7998,
      "▁पंजीकरण": 7999,
      "▁उठाते": 8000,
      "▁भेजी": 8001,
      "ेंगे.": 8002,
      "वेंट": 8003,
      "▁ऐश्व": 8004,
      "▁जश्न": 8005,
      "▁(ज": 8006,
      "्टे": 8007,
      "▁जादू": 8008,
      "▁श्रद्धालुओं": 8009,
      "रेशन": 8010,
      "▁जना": 8011,
      "▁गयी।\n": 8012,
      "▁app": 8013,
      "शियन": 8014,
      "▁गये।\n": 8015,
      "▁पीट": 8016,
      "▁क्वाल": 8017,
      "▁प्रॉ": 8018,
      "▁तेलंगाना": 8019,
      "रेन": 8020,
      "▁टीमें": 8021,
      "▁युवराज": 8022,
      "▁आंतरिक": 8023,
      "▁करने,": 8024,
      "▁प्रवर्": 8025,
      "ियां,": 8026,
      "▁शेख": 8027,
      "▁प्रबंधक": 8028,
      "▁पीस": 8029,
      "▁नहीं.": 8030,
      "▁सीए": 8031,
      "▁डॉट": 8032,
      "्लू": 8033,
      "▁परम्परा": 8034,
      "▁जी,": 8035,
      "इए": 8036,
      "▁आँख": 8037,
      "▁गायक": 8038,
      "▁फाइन": 8039,
      "▁निराश": 8040,
      "▁सहमत": 8041,
      "▁अकादमी": 8042,
      "▁ढा": 8043,
      "!!": 8044,
      "▁बर्बाद": 8045,
      "▁सियासी": 8046,
      "▁68": 8047,
      "▁वरुण": 8048,
      "कांग": 8049,
      "▁कांड": 8050,
      "▁दुस": 8051,
      "▁पहाड़": 8052,
      "▁हाफ": 8053,
      "▁गुट": 8054,
      "▁आध्यात्म": 8055,
      "ार्टमेंट": 8056,
      "▁समन्व": 8057,
      "▁रहकर": 8058,
      "▁41": 8059,
      "▁हो.\n": 8060,
      "▁मामूली": 8061,
      "▁पंप": 8062,
      "▁भोग": 8063,
      "▁इन्होंने": 8064,
      "▁ढाई": 8065,
      "▁आशीष": 8066,
      "▁वरीय": 8067,
      "▁लीक": 8068,
      "▁दुर्भाग्य": 8069,
      "वात": 8070,
      "ुश": 8071,
      "▁केश": 8072,
      "▁स्पोर्ट": 8073,
      "▁मुर्": 8074,
      "▁बीस": 8075,
      "▁स्क्र": 8076,
      "रित": 8077,
      "▁अनुच्छेद": 8078,
      "तिष्क": 8079,
      "▁सैफ": 8080,
      ",4": 8081,
      "▁फते": 8082,
      "▁पहुंचे।\n": 8083,
      "▁दीपावली": 8084,
      "▁उपलब्धि": 8085,
      "▁12वीं": 8086,
      "पीठ": 8087,
      "▁ओबामा": 8088,
      "▁रजत": 8089,
      "▁साधन": 8090,
      "▁ईरानी": 8091,
      "▁नहर": 8092,
      "▁ऊंची": 8093,
      "▁जनसंख्या": 8094,
      "▁बारह": 8095,
      "परी": 8096,
      "चित्र": 8097,
      "▁जायेगा।\n": 8098,
      "लोक": 8099,
      "बानी": 8100,
      "▁स्किन": 8101,
      "▁४": 8102,
      "▁छान": 8103,
      "▁तन": 8104,
      "▁आन्द": 8105,
      "▁नाराजगी": 8106,
      "▁नि:": 8107,
      "झाने": 8108,
      "▁कठोर": 8109,
      "▁पैनल": 8110,
      "▁शॉप": 8111,
      "▁लिखकर": 8112,
      "▁सोनम": 8113,
      "▁पेयजल": 8114,
      "▁पॉप": 8115,
      "द्दा": 8116,
      "▁पौधे": 8117,
      "▁साथ,": 8118,
      "▁इर": 8119,
      "▁मल्टी": 8120,
      "तीन": 8121,
      "▁तेंदुलकर": 8122,
      "▁भिन्न": 8123,
      "पकों": 8124,
      "▁कमान": 8125,
      "▁व्हाट्स": 8126,
      "▁डिप्टी": 8127,
      "▁गर्भव": 8128,
      "▁अगुवाई": 8129,
      "क्रोश": 8130,
      "▁बी.": 8131,
      "▁व्यावसायिक": 8132,
      "▁हॉल": 8133,
      "▁आकर्षण": 8134,
      "icle": 8135,
      "▁रम": 8136,
      "▁बक": 8137,
      "▁स्टूडेंट्स": 8138,
      "▁सुरू": 8139,
      "▁कष्ट": 8140,
      "▁निलंबित": 8141,
      "▁जेब": 8142,
      "▁देगा": 8143,
      "▁साधना": 8144,
      "▁एके": 8145,
      "▁है.इस": 8146,
      "▁प्रशंसा": 8147,
      "AR": 8148,
      "▁टीचर": 8149,
      "ंपरिक": 8150,
      "माज": 8151,
      "▁उज": 8152,
      "▁अफ़": 8153,
      "▁डेवल": 8154,
      "त्तियों": 8155,
      "▁पोर्टल": 8156,
      "िपल": 8157,
      "ंचार": 8158,
      "▁news": 8159,
      "▁छुटकारा": 8160,
      "▁अमल": 8161,
      "▁माल्या": 8162,
      "▁डील": 8163,
      "▁तकरीबन": 8164,
      "▁टाइप": 8165,
      "ड़की": 8166,
      "भावना": 8167,
      "▁अत्याचार": 8168,
      "▁सुनते": 8169,
      "▁रच": 8170,
      "▁भूत": 8171,
      "ong": 8172,
      "▁स्ना": 8173,
      "रन": 8174,
      "▁साधा": 8175,
      "ायें": 8176,
      "90": 8177,
      "▁वेल": 8178,
      "▁संतान": 8179,
      "▁जीवित": 8180,
      "▁चौंका": 8181,
      "▁निचले": 8182,
      "▁दिलीप": 8183,
      "▁चिदंबर": 8184,
      "▁किराए": 8185,
      "▁संरचना": 8186,
      "लांग": 8187,
      "▁रहा,": 8188,
      "▁250": 8189,
      "▁बोल्ड": 8190,
      "▁स्वयंसे": 8191,
      "▁उठाकर": 8192,
      "तालों": 8193,
      "▁कंगना": 8194,
      "▁एम.": 8195,
      "▁राशन": 8196,
      "▁सदस्यता": 8197,
      "▁दर्शक": 8198,
      "▁रिव": 8199,
      "्यूशन": 8200,
      "▁इमारत": 8201,
      "▁कॉपी": 8202,
      "्यांकन": 8203,
      "▁हेली": 8204,
      "▁पंजाबी": 8205,
      "िंग्स": 8206,
      "▁कैसी": 8207,
      "▁बिलासपुर": 8208,
      "▁समापन": 8209,
      "स्ड": 8210,
      "वाधिकार": 8211,
      "able": 8212,
      "23": 8213,
      "▁Google": 8214,
      "▁बाज़ार": 8215,
      "▁साइंस": 8216,
      "क्व": 8217,
      "▁सौदा": 8218,
      "▁एससी": 8219,
      "▁मायने": 8220,
      "▁राधा": 8221,
      "▁अनो": 8222,
      "▁लिया.\n": 8223,
      "▁कांग्रेसी": 8224,
      "▁an": 8225,
      "िवेदी": 8226,
      "▁साय": 8227,
      "▁उजागर": 8228,
      "▁इंस्पेक्टर": 8229,
      "▁गोप": 8230,
      "▁किड": 8231,
      "▁सेक्सी": 8232,
      "▁post": 8233,
      "▁शिवा": 8234,
      "बैक": 8235,
      "टीसी": 8236,
      "▁ad": 8237,
      "▁टूर": 8238,
      "▁पॉलि": 8239,
      "▁मोटरसाइकिल": 8240,
      "▁काउंसिल": 8241,
      "▁बसों": 8242,
      "▁ललित": 8243,
      "▁57": 8244,
      "▁बताना": 8245,
      "▁त्यामुळे": 8246,
      "▁मम्मी": 8247,
      "▁कामयाबी": 8248,
      "ोदय": 8249,
      "▁खाद": 8250,
      "▁श्रीराम": 8251,
      "टाला": 8252,
      "बाब": 8253,
      "▁मेडल": 8254,
      "▁इलेक्ट्रिक": 8255,
      "सनीय": 8256,
      "▁थोड़े": 8257,
      "▁कुर्सी": 8258,
      "▁टु": 8259,
      "▁बैठने": 8260,
      "▁काफ़ी": 8261,
      "-7": 8262,
      "BI": 8263,
      "▁प्रश्": 8264,
      "▁दीक्षित": 8265,
      "▁गुलाब": 8266,
      "▁स्ट्राइ": 8267,
      "भेद": 8268,
      "▁बरसात": 8269,
      "app": 8270,
      "▁मुल्": 8271,
      "▁पुनः": 8272,
      "▁एनडीए": 8273,
      "▁छोड़ा": 8274,
      "▁बिल्ली": 8275,
      "ाराम": 8276,
      "र्टर": 8277,
      "ं.": 8278,
      "▁'द": 8279,
      "▁उत्तम": 8280,
      "▁अंस": 8281,
      "ments": 8282,
      "्वत": 8283,
      "▁छक्के": 8284,
      "▁रत्न": 8285,
      "▁गर्भवती": 8286,
      "▁दायित्व": 8287,
      "▁पारंपरिक": 8288,
      "ER": 8289,
      "ुणा": 8290,
      "▁सम्पूर्ण": 8291,
      "क्षणिक": 8292,
      "▁एहसास": 8293,
      "cri": 8294,
      "ंधा": 8295,
      "▁अनंत": 8296,
      "▁कुत्ते": 8297,
      "rom": 8298,
      "▁क्वार्टर": 8299,
      "▁में।\n": 8300,
      "द्री": 8301,
      "टेक": 8302,
      "▁पृष्ठभूमि": 8303,
      "▁अनुबंध": 8304,
      "ज़ल": 8305,
      "▁जोध": 8306,
      "▁ग्रो": 8307,
      "▁प्रतिष्ठित": 8308,
      "▁शुभारंभ": 8309,
      "▁जाएगी.\n": 8310,
      "▁देह": 8311,
      "▁गेंदबाजों": 8312,
      "ोंक": 8313,
      "▁५": 8314,
      "▁हकी": 8315,
      "▁मारी": 8316,
      "▁बरत": 8317,
      "▁हुआ.": 8318,
      "▁जेएन": 8319,
      "▁अस्पतालों": 8320,
      "▁बल्लेबाजों": 8321,
      "ियर्स": 8322,
      "▁फ्लैट": 8323,
      "▁ज्ञात": 8324,
      "▁खान,": 8325,
      "▁खेतों": 8326,
      "▁एरिया": 8327,
      "राई": 8328,
      "▁लीला": 8329,
      "ून्य": 8330,
      "▁मानवाधिकार": 8331,
      "▁शास्त्र": 8332,
      "▁सस्ते": 8333,
      "ma": 8334,
      "▁पढ़ें:": 8335,
      "▁आर्": 8336,
      "▁मौल": 8337,
      ").": 8338,
      "▁चौथा": 8339,
      "टिया": 8340,
      "▁ससुराल": 8341,
      "▁सकें।\n": 8342,
      "▁किराया": 8343,
      "-पास": 8344,
      "▁पालिका": 8345,
      "णीय": 8346,
      "▁$": 8347,
      "▁फसलों": 8348,
      "▁मुनाफा": 8349,
      "आम": 8350,
      "▁कनाडा": 8351,
      "▁इंस्टीट": 8352,
      "▁सेवानिव": 8353,
      "▁का,": 8354,
      "▁वसूली": 8355,
      "▁डेविड": 8356,
      "▁दीन": 8357,
      "▁प्रदेश,": 8358,
      "▁मोर": 8359,
      "▁हथियारों": 8360,
      "▁इमाम": 8361,
      "▁कर्त": 8362,
      "▁इसने": 8363,
      "▁लक्ष्मण": 8364,
      "▁शक्त": 8365,
      "▁चिदंबरम": 8366,
      "▁अश्विन": 8367,
      "▁लैस": 8368,
      "▁भक्तों": 8369,
      "▁माला": 8370,
      "▁अल्पसंख्यक": 8371,
      "▁बेव": 8372,
      "▁भीषण": 8373,
      "▁दुः": 8374,
      "▁सौदे": 8375,
      "ld": 8376,
      "▁चौटाला": 8377,
      "▁डीसी": 8378,
      "▁ब्रह्मा": 8379,
      "▁लैंड": 8380,
      "ौलत": 8381,
      "▁Loading.": 8382,
      "▁पहने": 8383,
      "▁नायक": 8384,
      "▁दोग": 8385,
      "जवान": 8386,
      "JP": 8387,
      "ric": 8388,
      "▁सबका": 8389,
      "लोग": 8390,
      "▁शिशु": 8391,
      "▁मानसून": 8392,
      "▁अफवाह": 8393,
      "▁स्वाभाविक": 8394,
      "म्बई": 8395,
      "ांतिक": 8396,
      "▁संचालक": 8397,
      ",3": 8398,
      "▁आभार": 8399,
      "▁व्याख्या": 8400,
      "▁सेकेंड": 8401,
      "▁बाइ": 8402,
      "▁चैम्पियन": 8403,
      "▁एग्जाम": 8404,
      "शेखर": 8405,
      "▁ऊँ": 8406,
      "गित": 8407,
      "▁नितिन": 8408,
      "▁महंगा": 8409,
      "▁भ्रम": 8410,
      "पीएल": 8411,
      "ी,": 8412,
      "▁मज़ा": 8413,
      "▁संयंत्र": 8414,
      "▁सेल्फी": 8415,
      "▁अंदाजा": 8416,
      "▁माफ": 8417,
      "▁85": 8418,
      "▁चैनलों": 8419,
      "ैली": 8420,
      "▁नंद": 8421,
      "▁दोनो": 8422,
      "▁जिलाध्यक्ष": 8423,
      "▁2004": 8424,
      "▁बैड": 8425,
      "▁More\n": 8426,
      "पेक्ष": 8427,
      "▁करेंगे.\n": 8428,
      "▁राठ": 8429,
      "▁फॉलो": 8430,
      "ov": 8431,
      "▁अरो": 8432,
      "▁ka": 8433,
      "▁बताती": 8434,
      "▁वैसा": 8435,
      "▁लगा।\n": 8436,
      "▁(उ": 8437,
      "▁गणित": 8438,
      "▁hindi": 8439,
      "▁पड़ेगा।\n": 8440,
      "ूरती": 8441,
      "▁सराहना": 8442,
      "▁अहसास": 8443,
      "बाग": 8444,
      "▁शौक": 8445,
      "▁चाइ": 8446,
      "▁लिप": 8447,
      "▁कामना": 8448,
      "▁ज़मीन": 8449,
      "-अपने": 8450,
      "▁ट्रॉफी": 8451,
      "▁चूस": 8452,
      "▁आवेद": 8453,
      "▁है।)\n": 8454,
      "▁क्राइम": 8455,
      "▁लगी।": 8456,
      "▁शुक्ल": 8457,
      "यो": 8458,
      "▁बकाया": 8459,
      "▁रोगों": 8460,
      "▁फीट": 8461,
      "▁सुल्": 8462,
      "ऊन": 8463,
      "▁टेक": 8464,
      "वाइ": 8465,
      "किट": 8466,
      "▁विवादों": 8467,
      "▁टाइगर": 8468,
      "▁शताब्दी": 8469,
      "▁अग्नि": 8470,
      "▁गिरोह": 8471,
      "▁नाबाद": 8472,
      "▁गुस्से": 8473,
      "न्दा": 8474,
      "▁जेडी": 8475,
      "▁मिश्रण": 8476,
      "▁पदार्थों": 8477,
      "फुल": 8478,
      "▁प्रमोशन": 8479,
      "▁आक्रोश": 8480,
      "ृत्त": 8481,
      "▁श्रा": 8482,
      "▁डिट": 8483,
      "▁ग्वालियर": 8484,
      "▁स्कू": 8485,
      "शिंगटन": 8486,
      "कीपर": 8487,
      "▁पद्ध": 8488,
      "▁काशी": 8489,
      "▁नम्बर": 8490,
      "▁प्रवीण": 8491,
      "▁एथ": 8492,
      "पुट": 8493,
      "तून": 8494,
      "▁उन्हे": 8495,
      "▁लिया.": 8496,
      "▁गवाह": 8497,
      "शर": 8498,
      "▁पाँच": 8499,
      "▁पकड़ने": 8500,
      "▁बैल": 8501,
      "▁झील": 8502,
      "▁नवीनतम": 8503,
      "▁मानक": 8504,
      "▁अटक": 8505,
      "▁आवंटन": 8506,
      "▁राइ": 8507,
      "▁'म": 8508,
      "िप्ट": 8509,
      "▁2005": 8510,
      "नाइट": 8511,
      "▁वंश": 8512,
      "▁गली": 8513,
      "ूबी": 8514,
      "जना": 8515,
      "▁चैल": 8516,
      "▁उठाना": 8517,
      "ारस": 8518,
      "▁ग्रंथ": 8519,
      "ग्विज": 8520,
      "▁राउंड": 8521,
      "▁कामों": 8522,
      "▁पौध": 8523,
      "▁पैदल": 8524,
      "▁अपलोड": 8525,
      "▁उत्साहित": 8526,
      "▁रहेगी": 8527,
      "▁रोहत": 8528,
      "गणना": 8529,
      "हिया": 8530,
      "▁अड्डे": 8531,
      "▁Th": 8532,
      "▁सरा": 8533,
      "▁धमाके": 8534,
      "▁लौटने": 8535,
      "▁दाग": 8536,
      "▁पोषण": 8537,
      "न्हे": 8538,
      "▁आक्र": 8539,
      "▁सौंपी": 8540,
      "▁झटके": 8541,
      "▁बुलंद": 8542,
      "▁मित्रों": 8543,
      "▁अनुदान": 8544,
      "▁63": 8545,
      "▁फीचर्स": 8546,
      "नामी": 8547,
      "▁शैक्षणिक": 8548,
      "▁तुर्की": 8549,
      "▁मस्तिष्क": 8550,
      "▁आलम": 8551,
      "ib": 8552,
      "▁संयोजक": 8553,
      "ंदीदा": 8554,
      "▁तले": 8555,
      "▁त्यौ": 8556,
      "प,": 8557,
      "र्में": 8558,
      "▁गड": 8559,
      "▁मूल्यांकन": 8560,
      "ग्विजय": 8561,
      "▁टाल": 8562,
      "▁तूफान": 8563,
      "▁यूएस": 8564,
      "माइ": 8565,
      "▁नारेबाजी": 8566,
      "▁पीडि़": 8567,
      "▁पैसों": 8568,
      "न्वयन": 8569,
      "▁बॉल": 8570,
      "▁कार्यकार": 8571,
      "▁रथ": 8572,
      "▁अवॉर्ड": 8573,
      "ौड़": 8574,
      "▁सीखने": 8575,
      "ue": 8576,
      "ष्ठा": 8577,
      "पालन": 8578,
      "▁यमुना": 8579,
      "▁राजमार्ग": 8580,
      "▁पर्यटकों": 8581,
      "गारी": 8582,
      "▁कांस": 8583,
      "▁उतारा": 8584,
      "▁संतृ": 8585,
      "▁up": 8586,
      "▁घात": 8587,
      "▁की\n": 8588,
      "▁कनेक्ट": 8589,
      "▁माध": 8590,
      "▁होंगे,": 8591,
      "▁सटी": 8592,
      "▁जुटे": 8593,
      "-ह": 8594,
      "▁है:": 8595,
      "▁उपाध्याय": 8596,
      "▁स्पेस": 8597,
      "्वल": 8598,
      "▁बैन": 8599,
      "▁मंदिरों": 8600,
      "▁मार्क": 8601,
      "▁पसंदीदा": 8602,
      "▁लगे।\n": 8603,
      "▁आंगन": 8604,
      "ुद्ध": 8605,
      "▁अलर्ट": 8606,
      "▁पेंट": 8607,
      "▁निभाई": 8608,
      "▁जाधव": 8609,
      "▁खुलकर": 8610,
      "▁अपने-अपने": 8611,
      "s.": 8612,
      "▁कड़े": 8613,
      "▁हकीकत": 8614,
      "▁पैट": 8615,
      "▁दुखी": 8616,
      "▁घोटाला": 8617,
      "स्टेबल": 8618,
      "▁सुश": 8619,
      "▁मुआवजा": 8620,
      "▁बदौलत": 8621,
      "वेस्ट": 8622,
      "▁नौजवान": 8623,
      "▁बैनर": 8624,
      "▁सुरेंद्र": 8625,
      "-15": 8626,
      "▁प्रारूप": 8627,
      "▁लाग": 8628,
      "▁हमीर": 8629,
      "▁चाचा": 8630,
      "▁सुर्खियों": 8631,
      "ट्रिक": 8632,
      "▁सांप्र": 8633,
      "▁Ar": 8634,
      "▁वाकई": 8635,
      "▁अनदे": 8636,
      "▁प्लस": 8637,
      "28": 8638,
      "▁आस-पास": 8639,
      "▁:-": 8640,
      "▁फाउंडेशन": 8641,
      "▁मान्य": 8642,
      "▁दिग्विजय": 8643,
      "▁स्मिथ": 8644,
      "ौदा": 8645,
      "▁फट": 8646,
      "▁कमीशन": 8647,
      "▁तकली": 8648,
      "▁सोसाय": 8649,
      "▁अर्पित": 8650,
      "▁सौंद": 8651,
      "यात्रा": 8652,
      "▁गंवा": 8653,
      "धड़ी": 8654,
      "ॉर्क": 8655,
      "▁खुफिया": 8656,
      "▁उत्कृष्ट": 8657,
      "▁संक्रमण": 8658,
      "▁स्पेन": 8659,
      "ेमारी": 8660,
      "▁वायरस": 8661,
      "▁आरती": 8662,
      "▁09": 8663,
      "े,": 8664,
      "▁आन्दोलन": 8665,
      "▁इनसे": 8666,
      "▁रोचक": 8667,
      "ंठ": 8668,
      "िम्म": 8669,
      "▁रोगी": 8670,
      "▁आडवाणी": 8671,
      "▁डीजी": 8672,
      "मुख्य": 8673,
      "ave": 8674,
      "▁सास": 8675,
      "▁रिपोर्ट्स": 8676,
      "▁असह": 8677,
      "▁सिरे": 8678,
      "डण": 8679,
      "-16": 8680,
      "फ़ा": 8681,
      "लेकिन": 8682,
      "मंड": 8683,
      "▁साइड": 8684,
      "▁देवेंद्र": 8685,
      "▁लकड़ी": 8686,
      "▁तरीकों": 8687,
      "▁नकली": 8688,
      "▁रेंज": 8689,
      "▁ईद": 8690,
      "▁99": 8691,
      "▁पूछने": 8692,
      "▁नाते": 8693,
      "▁धातु": 8694,
      "▁जटिल": 8695,
      "▁मॉड": 8696,
      "▁कमिश्": 8697,
      "▁5.": 8698,
      "द्धा": 8699,
      "▁हॉस्पिटल": 8700,
      "▁पद्म": 8701,
      "IN": 8702,
      "तांत्रिक": 8703,
      "▁छापेमारी": 8704,
      "ताना": 8705,
      "ऊंगा": 8706,
      "▁मैथ": 8707,
      "▁दीदी": 8708,
      "▁जमाने": 8709,
      "▁पहलवान": 8710,
      "▁इस्लामी": 8711,
      "▁मूल्यों": 8712,
      "▁सिंगा": 8713,
      "▁कप्तानी": 8714,
      "▁पंचायतों": 8715,
      "नेश्वर": 8716,
      "कोश": 8717,
      "ँस": 8718,
      "-12": 8719,
      "निर्माण": 8720,
      "▁होती.\n": 8721,
      "▁दही": 8722,
      "▁ख़त्म": 8723,
      "▁गृहमंत्री": 8724,
      "▁टिप्स": 8725,
      "▁पुरूष": 8726,
      "जी,": 8727,
      "▁शहद": 8728,
      "ने,": 8729,
      "ासना": 8730,
      "संचार": 8731,
      "▁मथुरा": 8732,
      "▁चूक": 8733,
      "▁'ब": 8734,
      "▁अनशन": 8735,
      "▁डिस्प्ले": 8736,
      "ase": 8737,
      "▁आत्मविश्वास": 8738,
      "▁हराया": 8739,
      "▁पड़ोस": 8740,
      "▁मिली।\n": 8741,
      "▁पाण्ड": 8742,
      "▁Upd": 8743,
      "line": 8744,
      "▁हल्के": 8745,
      "▁67": 8746,
      "वार्ता": 8747,
      "▁जुटी": 8748,
      "▁मदर": 8749,
      "▁मंजूर": 8750,
      "▁है;": 8751,
      "▁चक": 8752,
      "पाही": 8753,
      "र्ध्य": 8754,
      "▁सीपी": 8755,
      "udio": 8756,
      "▁संसाध": 8757,
      "xx": 8758,
      "▁रमन": 8759,
      "धीर": 8760,
      "▁पसी": 8761,
      "▁वेर": 8762,
      "▁अन्यथा": 8763,
      "▁दार": 8764,
      "▁रैम": 8765,
      "▁सस्ती": 8766,
      "▁भी,": 8767,
      "▁करें\n": 8768,
      "▁चैंपियनशिप": 8769,
      "▁आए।\n": 8770,
      "▁निभाने": 8771,
      "ूनों": 8772,
      "▁रेड्डी": 8773,
      "▁जोश": 8774,
      "▁प्रोत्साहित": 8775,
      "▁हमसे": 8776,
      "▁ईमानदारी": 8777,
      "▁आकलन": 8778,
      "▁राग": 8779,
      "याय": 8780,
      "्यूस": 8781,
      "▁पहलू": 8782,
      "▁गोलीबारी": 8783,
      "▁जाँच": 8784,
      "▁अतिक": 8785,
      "▁तुम्हारा": 8786,
      "▁कक्ष": 8787,
      "▁सूचित": 8788,
      "ब्बे": 8789,
      "ॉप्टर": 8790,
      "▁Cam": 8791,
      "▁जौहर": 8792,
      "▁निदेशालय": 8793,
      "wit": 8794,
      "▁कन": 8795,
      "राबरी": 8796,
      "▁विदेशों": 8797,
      "▁त्यौहार": 8798,
      "ारायण": 8799,
      "▁मानता": 8800,
      "▁भूषण": 8801,
      "▁सूबे": 8802,
      "▁RGB": 8803,
      "▁छिप": 8804,
      "▁दिखाते": 8805,
      "▁पहनने": 8806,
      "व,": 8807,
      "▁कॉन्फ्रेंस": 8808,
      "कप": 8809,
      "▁शमी": 8810,
      "▁दक्षिणी": 8811,
      "ारियों": 8812,
      "▁(पी": 8813,
      "▁संवै": 8814,
      "रलैंड": 8815,
      "▁एसएसपी": 8816,
      "▁कारों": 8817,
      "▁रसोई": 8818,
      "▁करेंगे,": 8819,
      "▁पाइप": 8820,
      "ube": 8821,
      "▁62": 8822,
      "▁धीमी": 8823,
      "शाही": 8824,
      "▁मछली": 8825,
      "-पी": 8826,
      "▁तैयारियों": 8827,
      "▁जानवरों": 8828,
      "्युनि": 8829,
      "▁क्वि": 8830,
      "▁स्ने": 8831,
      "▁HSL": 8832,
      "▁श्रीकृष्ण": 8833,
      "▁योजनाएं": 8834,
      "▁सावधानी": 8835,
      "▁सदस्यीय": 8836,
      "▁फील्ड": 8837,
      "जुए": 8838,
      "▁जिनसे": 8839,
      "ं.\n": 8840,
      "गोल": 8841,
      "▁आर.": 8842,
      "▁मसल": 8843,
      "▁दुबई": 8844,
      "▁राखी": 8845,
      "▁सहारे": 8846,
      "▁कोटा": 8847,
      "▁पठान": 8848,
      "ood": 8849,
      "▁कम्": 8850,
      "▁केली": 8851,
      "गठ": 8852,
      "▁शिल्": 8853,
      "▁कार्या": 8854,
      "▁nm": 8855,
      "▁कहें": 8856,
      "▁धारणा": 8857,
      "▁दुश्मन": 8858,
      "▁काव्य": 8859,
      "▁उग्र": 8860,
      "▁दशा": 8861,
      "▁किस्मत": 8862,
      "▁हल्कापन": 8863,
      "▁माओ": 8864,
      "▁सीरियल": 8865,
      "▁To": 8866,
      "▁लिए।": 8867,
      "▁मेहता": 8868,
      "▁सोल": 8869,
      "▁संतृप्ति": 8870,
      "बूझ": 8871,
      "▁रिश्वत": 8872,
      "▁अन्न": 8873,
      "▁पोष": 8874,
      "भाजपा": 8875,
      "▁दैर्ध्य": 8876,
      "▁जानकर": 8877,
      ".50": 8878,
      "▁जोधपुर": 8879,
      "▁प्रवाह": 8880,
      "▁एंड्रॉयड": 8881,
      "▁साड़ी": 8882,
      "▁बेन": 8883,
      "किस्तान": 8884,
      "बों": 8885,
      "▁शून्य": 8886,
      "▁रजिस्ट्रेशन": 8887,
      "▁हैक्सा": 8888,
      "▁सिपाही": 8889,
      "▁बेटियों": 8890,
      "▁खेलना": 8891,
      "▁वरना": 8892,
      ",6": 8893,
      "दिव": 8894,
      "▁पेमेंट": 8895,
      "ल्हा": 8896,
      "▁सीधी": 8897,
      "▁नीलामी": 8898,
      "▁थीं.\n": 8899,
      "▁66": 8900,
      "टेस्ट": 8901,
      "▁स्कूली": 8902,
      "▁ऐश्वर्या": 8903,
      "▁अभिव्यक्ति": 8904,
      "डेसी": 8905,
      "▁बजर": 8906,
      "▁महानि": 8907,
      "▁पुष्प": 8908,
      "पोरेशन": 8909,
      "विदा": 8910,
      "▁स्थानांतर": 8911,
      "AN": 8912,
      "▁लौटे": 8913,
      "▁हॉलीवुड": 8914,
      "▁उमेश": 8915,
      "▁जगदी": 8916,
      "णियों": 8917,
      "8)": 8918,
      "▁झलक": 8919,
      "▁सेव": 8920,
      "▁सलामी": 8921,
      "▁लिया,": 8922,
      "▁अंकित": 8923,
      "भाई": 8924,
      "डेसीमल": 8925,
      "▁तहरी": 8926,
      "▁लेट": 8927,
      "▁उभ": 8928,
      "ise": 8929,
      "पाली": 8930,
      "▁खरीदा": 8931,
      "▁हैक्साडेसीमल": 8932,
      "▁पेशेवर": 8933,
      "बिन": 8934,
      "▁सिद्धू": 8935,
      "▁घड़ी": 8936,
      "▁चौरा": 8937,
      "▁पड़ेगा": 8938,
      "▁आईडी": 8939,
      "ांना": 8940,
      "▁सर्दी": 8941,
      "na": 8942,
      "▁Tim": 8943,
      "▁भरत": 8944,
      "▁कार्यकारिणी": 8945,
      "डेजा": 8946,
      "▁वसु": 8947,
      "▁एसटी": 8948,
      "2)": 8949,
      "ंधन": 8950,
      "▁शिरकत": 8951,
      "▁उपकरणों": 8952,
      "▁कमलनाथ": 8953,
      "▁प्रत्याशियों": 8954,
      "▁बेंच": 8955,
      "▁व्ही": 8956,
      "vious": 8957,
      "▁सोसायटी": 8958,
      "पेपर": 8959,
      "▁दीजिए": 8960,
      "▁नहा": 8961,
      "▁शक्तिशाली": 8962,
      "▁धोखाधड़ी": 8963,
      "▁उर्दू": 8964,
      "▁नाइट": 8965,
      "▁आया।": 8966,
      "▁बहू": 8967,
      "▁शॉट": 8968,
      "▁यूट्यूब": 8969,
      "▁पॉलिसी": 8970,
      "▁मोड": 8971,
      "▁59": 8972,
      "▁यंत्र": 8973,
      "▁बताता": 8974,
      "▁दोगु": 8975,
      "▁थीं.": 8976,
      "▁डबल": 8977,
      "▁कोयला": 8978,
      "▁सुपरस्टार": 8979,
      "▁नीरज": 8980,
      "▁गारंटी": 8981,
      "▁73": 8982,
      "hats": 8983,
      "▁अमृतसर": 8984,
      "▁गाल": 8985,
      "▁बेंगलुरु": 8986,
      "ount": 8987,
      "co": 8988,
      "▁रोष": 8989,
      "▁खातों": 8990,
      "ss": 8991,
      "▁संवैधानिक": 8992,
      "▁रंजन": 8993,
      "षी": 8994,
      "▁चरणों": 8995,
      "▁Android": 8996,
      "26": 8997,
      "▁ch": 8998,
      "▁इले": 8999,
      "▁सेकंड": 9000,
      "ake": 9001,
      "▁सर्जरी": 9002,
      "▁छुट्ट": 9003,
      "▁चाहें": 9004,
      "▁उठे": 9005,
      "▁चिंतित": 9006,
      "▁म्यूजिक": 9007,
      "▁स्पर्धा": 9008,
      "चाप": 9009,
      "▁हिमाल": 9010,
      "▁सावधान": 9011,
      "▁बराबरी": 9012,
      "▁स्टार्ट": 9013,
      "▁महल": 9014,
      "कर्ष": 9015,
      "▁Ka": 9016,
      "▁मय": 9017,
      "कोण": 9018,
      "▁फिटनेस": 9019,
      "▁उमर": 9020,
      "▁कमाने": 9021,
      ",7": 9022,
      "▁सैमसंग": 9023,
      "▁दशकों": 9024,
      "▁कॉलोनी": 9025,
      "▁(P": 9026,
      "▁लिए।\n": 9027,
      "▁खाल": 9028,
      "सी)": 9029,
      "▁मानो": 9030,
      "▁खन्ना": 9031,
      "▁art": 9032,
      "▁निर्देशित": 9033,
      "बिया": 9034,
      "▁नारियल": 9035,
      "▁दया": 9036,
      "▁विशेषता": 9037,
      "▁नवाज": 9038,
      "पटॉप": 9039,
      "▁धूल": 9040,
      "▁उठता": 9041,
      "▁बंदर": 9042,
      "▁क्रोध": 9043,
      "▁काब": 9044,
      "▁पहुंचाया": 9045,
      "▁धरने": 9046,
      "▁परिचालन": 9047,
      "▁=": 9048,
      "▁गणतंत्र": 9049,
      "▁करे।\n": 9050,
      "▁बढ़िया": 9051,
      "▁कर्मी": 9052,
      "▁चर्चित": 9053,
      "▁एलईडी": 9054,
      "ebs": 9055,
      "िटीज": 9056,
      "▁बुखार": 9057,
      "▁लाना": 9058,
      "▁नर्म": 9059,
      "▁पांचवें": 9060,
      "कला": 9061,
      "▁क़ान": 9062,
      "गाई": 9063,
      "ह्न": 9064,
      "▁ट्रांसफर": 9065,
      "▁यूपीए": 9066,
      "▁परेशानियों": 9067,
      "▁दवाओं": 9068,
      "▁स्टोरेज": 9069,
      "सागर": 9070,
      "▁वोटर": 9071,
      "te": 9072,
      "▁स्नातक": 9073,
      "ैव": 9074,
      "▁निश्च": 9075,
      "▁मैक्स": 9076,
      "AT": 9077,
      "▁द्वीप": 9078,
      "▁जोकि": 9079,
      "▁ex": 9080,
      "▁फोर्स": 9081,
      "▁पीड़ा": 9082,
      "हू": 9083,
      "▁hai": 9084,
      "▁बजाए": 9085,
      "पिक्सल": 9086,
      "▁बस्ती": 9087,
      "▁टैग": 9088,
      "▁आचार": 9089,
      ",\n": 9090,
      "▁प्रता": 9091,
      "▁मदन": 9092,
      "्वाइंट": 9093,
      "रेप": 9094,
      "▁कम्प्यूटर": 9095,
      "▁कमिश्नर": 9096,
      "▁(प": 9097,
      "▁श्रीदेवी": 9098,
      "▁sh": 9099,
      "आईए": 9100,
      "▁फैलाने": 9101,
      "ala": 9102,
      "िंक": 9103,
      "▁दूरसंचार": 9104,
      "▁करत": 9105,
      "▁कांस्य": 9106,
      "ंडों": 9107,
      "▁कोने": 9108,
      "ड़ियां": 9109,
      "डिय़ों": 9110,
      "▁प्रोटीन": 9111,
      "▁हूं.\n": 9112,
      "▁विरासत": 9113,
      "▁भै": 9114,
      "▁चर्च": 9115,
      "▁लोकप्रियता": 9116,
      "▁जगदीश": 9117,
      "्रेन": 9118,
      "▁दोषियों": 9119,
      "4%": 9120,
      "▁डेम": 9121,
      "डीए": 9122,
      "▁08": 9123,
      "▁कूद": 9124,
      "▁चलाई": 9125,
      "लभ": 9126,
      "बूत": 9127,
      "फ़्त": 9128,
      "▁यज्ञ": 9129,
      "▁कारा": 9130,
      "▁120": 9131,
      "ुम": 9132,
      "▁खूबसूरती": 9133,
      "▁सम्बंधित": 9134,
      "ूर्ण": 9135,
      "▁On": 9136,
      "▁किशन": 9137,
      "्याने": 9138,
      "▁झड़": 9139,
      "वला": 9140,
      "▁स्वर्ग": 9141,
      "▁कश्य": 9142,
      "▁एकाद": 9143,
      "▁स्थलों": 9144,
      "1)": 9145,
      "▁गांड": 9146,
      "▁घटनास्थल": 9147,
      "▁फिल्मी": 9148,
      "▁पासपोर्ट": 9149,
      "पर्य": 9150,
      "▁एमबी": 9151,
      "▁सचिवालय": 9152,
      "-ल": 9153,
      "▁एबी": 9154,
      "▁एजेंट": 9155,
      "▁कॉर": 9156,
      "▁आंस": 9157,
      "वाग": 9158,
      "पादन": 9159,
      "pr": 9160,
      "▁पादु": 9161,
      "▁रिलीज़": 9162,
      "प्ल": 9163,
      "▁नदियों": 9164,
      "▁प्रारम्भ": 9165,
      "्यार": 9166,
      "▁अगला": 9167,
      "ियों,": 9168,
      "ेंजर": 9169,
      "▁प्रारंभिक": 9170,
      "वीएम": 9171,
      "▁खां": 9172,
      "लीन": 9173,
      "शक्ति": 9174,
      "टू": 9175,
      "▁सुल्तान": 9176,
      "▁मील": 9177,
      "एप": 9178,
      "▁ट्रेनों": 9179,
      "▁मस्ती": 9180,
      "▁प्रखंड": 9181,
      "▁विभागीय": 9182,
      "▁करूंगा": 9183,
      "▁मीना": 9184,
      "▁जडेजा": 9185,
      "▁सीतार": 9186,
      "▁सकेंगे।\n": 9187,
      "▁होता.\n": 9188,
      "▁अतिक्रमण": 9189,
      "--------": 9190,
      "▁करेगी।": 9191,
      "▁विभाजन": 9192,
      "▁फंसा": 9193,
      "▁पुण्य": 9194,
      "▁वैध": 9195,
      "▁विनय": 9196,
      "बर्ग": 9197,
      "▁हल्दी": 9198,
      "▁गला": 9199,
      "▁उद्योगों": 9200,
      "▁कहा।\n": 9201,
      "▁बिस्तर": 9202,
      "▁फेम": 9203,
      "▁प्रतिद्व": 9204,
      "▁वसूल": 9205,
      "सनी": 9206,
      "witter": 9207,
      "एस.": 9208,
      "ोरियल": 9209,
      "▁भटक": 9210,
      "भु": 9211,
      "▁फू": 9212,
      "▁नायडू": 9213,
      "▁दुनियाभर": 9214,
      "िस्ट्रेट": 9215,
      "▁किम": 9216,
      "▁पैन": 9217,
      "▁Video": 9218,
      ",8": 9219,
      "▁भुव": 9220,
      "▁जनसभा": 9221,
      "▁कीर्": 9222,
      "बस": 9223,
      "दाश्त": 9224,
      "-सु": 9225,
      "▁ख़ुद": 9226,
      "▁जेएनयू": 9227,
      "▁मणि": 9228,
      "▁चैलेंज": 9229,
      "▁जातियों": 9230,
      "्लाह": 9231,
      "▁स्थगित": 9232,
      "▁परे": 9233,
      "▁नाही.\n": 9234,
      "▁रिश्तेदार": 9235,
      "▁असिस्ट": 9236,
      "सीम": 9237,
      "▁विंडोज": 9238,
      "▁आब": 9239,
      "▁हैं-": 9240,
      "स्टेट": 9241,
      "ोत्तर": 9242,
      "▁मल्": 9243,
      "सेल": 9244,
      "▁धाम": 9245,
      "▁प्रोत्साहन": 9246,
      "▁नहीं\n": 9247,
      "श्मी": 9248,
      "-11": 9249,
      "▁rec": 9250,
      "▁प्रतिरोध": 9251,
      "मिन": 9252,
      "▁शेत": 9253,
      "▁ठेकेदार": 9254,
      "▁निगाह": 9255,
      "▁सज": 9256,
      "गरेट": 9257,
      "▁काही": 9258,
      "▁ब्लाक": 9259,
      "्यां": 9260,
      "▁भागने": 9261,
      "▁तोह": 9262,
      "▁जहाज": 9263,
      "ेली": 9264,
      "वायु": 9265,
      "-छा": 9266,
      "▁हुआ.\n": 9267,
      "▁बिर": 9268,
      "▁एमपी": 9269,
      "▁दिखता": 9270,
      "▁गुलाम": 9271,
      "▁डेब्यू": 9272,
      "ेक्स": 9273,
      "▁राजू": 9274,
      "▁गंग": 9275,
      "▁प्रयत्न": 9276,
      "ंबू": 9277,
      "▁मन्द": 9278,
      "ance": 9279,
      "▁लुट": 9280,
      "▁हार्ड": 9281,
      "▁बख": 9282,
      "▁विस": 9283,
      "▁Previous": 9284,
      "__": 9285,
      "▁फोक": 9286,
      "डऩे": 9287,
      "▁ठंडा": 9288,
      "port": 9289,
      "▁हिर": 9290,
      "्यानंतर": 9291,
      "▁संतुष्ट": 9292,
      "▁तरफ़": 9293,
      "-बड़े": 9294,
      "6)": 9295,
      "▁Un": 9296,
      "▁गज": 9297,
      "▁एंटर": 9298,
      "▁Des": 9299,
      "▁हनी": 9300,
      "▁रूसी": 9301,
      "▁Te": 9302,
      "▁कस्टम": 9303,
      "▁सिस": 9304,
      "▁दो-": 9305,
      "▁कैल": 9306,
      "per": 9307,
      "▁तृण": 9308,
      "▁खरीदी": 9309,
      "▁वोटों": 9310,
      "▁मूवी": 9311,
      "▁किंग्स": 9312,
      "▁गवर्नर": 9313,
      "▁डिम": 9314,
      ":30": 9315,
      "▁नज़": 9316,
      "▁बुरे": 9317,
      "▁मानवीय": 9318,
      "▁गुप्ता,": 9319,
      "▁करून": 9320,
      "▁se": 9321,
      "▁जबरन": 9322,
      "▁संवाददाताओं": 9323,
      "▁संप्र": 9324,
      "▁पहले,": 9325,
      "▁ज़ोर": 9326,
      "▁सना": 9327,
      "27": 9328,
      "धाना": 9329,
      "▁एजु": 9330,
      "▁मकर": 9331,
      "▁सम्पन्न": 9332,
      "▁निर्माताओं": 9333,
      "▁इवेंट": 9334,
      "▁परिचित": 9335,
      "▁कुरु": 9336,
      "-8": 9337,
      "▁पैक": 9338,
      "▁मुहिम": 9339,
      "▁Qu": 9340,
      "▁गणना": 9341,
      "▁सभ्यता": 9342,
      "▁सार्थ": 9343,
      "ET": 9344,
      "s://": 9345,
      "▁अभ्यर्थियों": 9346,
      "करों": 9347,
      "▁मंजिल": 9348,
      "भद्र": 9349,
      "▁मुसी": 9350,
      "रिटी": 9351,
      "ानिक": 9352,
      "▁उपर": 9353,
      "▁प्रको": 9354,
      "▁प्रस्तुति": 9355,
      "▁le": 9356,
      "ाहे": 9357,
      "▁(बी": 9358,
      "▁राष्ट्रवादी": 9359,
      "▁कृत": 9360,
      "▁01": 9361,
      "▁भारद्": 9362,
      "▁संतुलन": 9363,
      "▁खोले": 9364,
      "▁दुबे": 9365,
      "▁लौटा": 9366,
      "पैठ": 9367,
      "....\n": 9368,
      "▁पश": 9369,
      "▁वचन": 9370,
      "▁आरोपित": 9371,
      "▁हमीरपुर": 9372,
      "▁पुलिसकर्मियों": 9373,
      "▁कपड़ों": 9374,
      "▁अभियंता": 9375,
      "▁संसाधनों": 9376,
      "बरी": 9377,
      "▁तबाद": 9378,
      "▁संवेद": 9379,
      "▁पहुँचा": 9380,
      "क्षीय": 9381,
      "▁अंग्रेजों": 9382,
      "▁ठिक": 9383,
      "▁सृजन": 9384,
      "▁हिन्दुस्तान": 9385,
      "▁जानती": 9386,
      "▁पान": 9387,
      "वाल,": 9388,
      "▁भंग": 9389,
      "▁कमजोरी": 9390,
      "न्ग": 9391,
      "und": 9392,
      "▁भैया": 9393,
      "▁मोर्चे": 9394,
      "▁साक्षी": 9395,
      "▁छठ": 9396,
      "▁लम्बे": 9397,
      "▁दरबार": 9398,
      "▁कुंडली": 9399,
      "ानी,": 9400,
      "▁प्रतिनिधियों": 9401,
      "▁रिहा": 9402,
      "▁इकट्ठा": 9403,
      "▁बदलते": 9404,
      "▁हुई.": 9405,
      "बाज़": 9406,
      "्हन": 9407,
      "▁नामों": 9408,
      "▁लेनी": 9409,
      "▁लाठी": 9410,
      "du": 9411,
      "▁अभय": 9412,
      "▁पेस्ट": 9413,
      "दनी": 9414,
      "क्ष्म": 9415,
      "▁नक्ष": 9416,
      "▁मानसिकता": 9417,
      "दिष्ट": 9418,
      "▁मंदी": 9419,
      "▁रियो": 9420,
      "21": 9421,
      "▁निधि": 9422,
      "▁(निस)": 9423,
      "▁एजें": 9424,
      "▁अध्यापकों": 9425,
      "▁बरस": 9426,
      "▁झाला": 9427,
      "▁वास्तु": 9428,
      "लेल्या": 9429,
      "▁रहे.\n": 9430,
      "▁दिलाई": 9431,
      "▁अंसारी": 9432,
      "▁पूर्वा": 9433,
      "▁नियामक": 9434,
      "▁फ़र": 9435,
      "====": 9436,
      "▁गहराई": 9437,
      "▁सिंधु": 9438,
      "▁रॉयल": 9439,
      "▁पर्वत": 9440,
      "▁झाली": 9441,
      "भवी": 9442,
      "▁दिखाए": 9443,
      "▁घुसपैठ": 9444,
      "▁or": 9445,
      "ेशर": 9446,
      "▁हार्ट": 9447,
      "▁बुकिंग": 9448,
      "▁वायुसेना": 9449,
      "▁आया।\n": 9450,
      "▁2002": 9451,
      "▁बादशाह": 9452,
      "▁कम्युनि": 9453,
      "लीला": 9454,
      "▁रतन": 9455,
      "▁Pl": 9456,
      "▁भाइयों": 9457,
      "▁पाकर": 9458,
      "▁प्रतिष्ठा": 9459,
      "▁(एस": 9460,
      "▁लेंगे": 9461,
      "▁ऑप्शन": 9462,
      "▁लगाये": 9463,
      "गें": 9464,
      "▁नाज": 9465,
      "▁पार्किंग": 9466,
      "▁बनाती": 9467,
      "▁सी.": 9468,
      "हाना": 9469,
      "▁साम्रा": 9470,
      "▁अवकाश": 9471,
      "▁रहेगी।": 9472,
      "▁पद्मा": 9473,
      "ंपल": 9474,
      "▁इटली": 9475,
      "▁डी.": 9476,
      "▁तृणमूल": 9477,
      "▁सैनी": 9478,
      "▁तकलीफ": 9479,
      "▁व्यय": 9480,
      "▁अकेला": 9481,
      "▁टेलीविजन": 9482,
      "▁अजीत": 9483,
      "▁व्हाइट": 9484,
      "मेडी": 9485,
      "▁मस्त": 9486,
      "▁प्रीमियम": 9487,
      "▁राज्यमंत्री": 9488,
      "▁चिल्ला": 9489,
      "▁गेम्स": 9490,
      "▁बाघ": 9491,
      "र्जन": 9492,
      "▁एनएस": 9493,
      "िकर": 9494,
      "▁फेस्ट": 9495,
      "▁सरो": 9496,
      "▁चलिए": 9497,
      "परि": 9498,
      "▁कन्": 9499,
      "टी,": 9500,
      "▁प्रया": 9501,
      "▁गहरे": 9502,
      "▁सेल्सियस": 9503,
      "णार्या": 9504,
      "ead": 9505,
      "7)": 9506,
      "▁फ्लाइट": 9507,
      "▁सिक्योर": 9508,
      "▁साइबर": 9509,
      "▁आईएएस": 9510,
      "▁त्रिप": 9511,
      "▁इंस्टीट्यूट": 9512,
      "▁दुःख": 9513,
      "▁स्वीकृत": 9514,
      "▁बंधन": 9515,
      "▁चतुर्थ": 9516,
      "▁पहलुओं": 9517,
      "▁सहवाग": 9518,
      "▁निकाले": 9519,
      "▁दीर्": 9520,
      "▁गांग": 9521,
      "▁Aug": 9522,
      "▁मेजबान": 9523,
      "एनएस": 9524,
      "▁कल्": 9525,
      "book": 9526,
      "▁मीरा": 9527,
      "क्षिक": 9528,
      "▁वीं": 9529,
      "बास": 9530,
      "▁तर्ज": 9531,
      "▁बीती": 9532,
      "▁अजमेर": 9533,
      "▁पड़ते": 9534,
      "▁कॉले": 9535,
      "pe": 9536,
      "▁सबक": 9537,
      "▁हैरानी": 9538,
      "▁घटकर": 9539,
      "▁छुपा": 9540,
      "जील": 9541,
      "▁पढ़ते": 9542,
      "वाहिक": 9543,
      "▁पिच": 9544,
      "▁एनजी": 9545,
      "order": 9546,
      "▁'क": 9547,
      "ब्स": 9548,
      "▁बेरोजगार": 9549,
      "▁खासतौर": 9550,
      "▁बृहस्पतिवार": 9551,
      "▁नेहा": 9552,
      "लिखित": 9553,
      "▁लैपटॉप": 9554,
      "ँकि": 9555,
      "▁निकालकर": 9556,
      "▁शब्दकोश": 9557,
      "▁नहीं.\n": 9558,
      "▁पादुकोण": 9559,
      "▁अखबारों": 9560,
      "▁आई.": 9561,
      "▁फूलों": 9562,
      "▁आएगा": 9563,
      "▁जानवर": 9564,
      "▁आध्यात्मिक": 9565,
      "▁वादे": 9566,
      "▁नोटों": 9567,
      "▁गौरी": 9568,
      "ोनेशिया": 9569,
      "▁शासकीय": 9570,
      "▁बोतल": 9571,
      "▁पुत्री": 9572,
      "▁महाप": 9573,
      "▁भागवत": 9574,
      "▁देसी": 9575,
      "▁राजेन्द्र": 9576,
      "▁ताना": 9577,
      "▁सिंगापुर": 9578,
      "डिंग": 9579,
      "सेन": 9580,
      "▁राजे": 9581,
      "▁मेगापिक्सल": 9582,
      "▁केम": 9583,
      "▁प्लेटफॉर्म": 9584,
      "▁कैफ": 9585,
      "▁पहुंचे।": 9586,
      "ूर्त": 9587,
      "ॉइड": 9588,
      "▁हाज": 9589,
      "▁नक्सली": 9590,
      "▁सहकारी": 9591,
      "▁इक्": 9592,
      "▁जायेगा।": 9593,
[...]
